<unk>	0
<s>	0
▁the	-3.13646
,	-3.29535
.	-3.35933
s	-3.56712
▁of	-3.71496
▁and	-3.85602
▁in	-3.89101
▁a	-4.16534
▁to	-4.25693
▁was	-4.54651
▁The	-4.91029
-	-4.94449
▁	-5.02114
▁is	-5.07312
▁for	-5.08227
▁on	-5.17672
'	-5.22378
▁with	-5.25609
▁as	-5.27127
▁by	-5.34867
▁(	-5.4126
▁at	-5.43363
▁from	-5.55796
▁his	-5.56065
▁he	-5.59507
▁In	-5.5986
)	-5.69237
▁He	-5.72625
▁that	-5.74244
ing	-5.82849
ed	-5.83168
▁"	-5.86345
▁an	-5.89278
e	-6.06128
d	-6.12749
▁were	-6.1654
▁which	-6.17913
▁it	-6.24662
▁A	-6.24796
▁are	-6.26982
▁has	-6.27248
▁also	-6.32922
y	-6.33595
"	-6.37533
er	-6.37569
▁first	-6.38857
a	-6.393
t	-6.41426
▁be	-6.44036
▁had	-6.45119
th	-6.55775
▁her	-6.5615
ly	-6.57644
▁or	-6.61122
▁It	-6.62293
o	-6.6764
▁one	-6.68939
n	-6.71166
▁who	-6.71379
▁its	-6.73072
▁two	-6.73421
i	-6.73492
:	-6.74033
▁but	-6.74077
▁their	-6.75609
),	-6.81418
al	-6.81873
▁she	-6.85449
▁been	-6.87751
).	-6.88476
;	-6.89002
▁not	-6.89115
in	-6.89691
▁this	-6.89812
▁after	-6.90468
es	-6.91917
▁have	-6.92938
▁She	-7.02414
▁S	-7.02636
r	-7.03158
▁University	-7.04451
▁New	-7.06295
▁years	-7.07544
▁I	-7.08687
▁where	-7.09828
▁On	-7.10692
▁other	-7.10759
▁time	-7.11061
▁into	-7.12435
S	-7.14439
▁de	-7.15786
m	-7.17307
▁over	-7.17523
▁when	-7.18896
▁re	-7.20256
▁1	-7.21151
▁became	-7.22236
▁all	-7.23624
▁up	-7.24532
▁2	-7.25896
k	-7.26085
▁they	-7.26245
▁made	-7.28303
▁under	-7.29543
%	-7.29731
▁during	-7.30606
▁later	-7.32129
▁new	-7.33022
▁out	-7.34268
▁then	-7.35338
▁three	-7.36634
▁year	-7.36653
▁E	-7.36987
▁C	-7.37461
an	-7.37489
man	-7.37531
▁season	-7.37547
▁B	-7.38309
on	-7.38851
▁part	-7.38902
/	-7.39697
▁After	-7.40341
▁more	-7.40591
▁him	-7.4077
▁This	-7.41329
▁team	-7.41732
l	-7.42059
re	-7.43979
▁between	-7.44736
or	-7.44901
▁only	-7.4545
en	-7.45842
▁U	-7.46656
▁until	-7.47558
▁3	-7.47598
g	-7.48329
▁school	-7.48575
▁can	-7.48825
▁used	-7.50057
▁would	-7.50114
C	-7.51062
u	-7.51067
A	-7.51351
▁School	-7.52013
▁about	-7.52418
▁work	-7.52615
▁including	-7.54093
▁D	-7.54105
B	-7.54295
us	-7.54334
▁United	-7.54337
▁His	-7.54429
▁well	-7.55669
▁played	-7.5613
▁O	-7.56254
▁second	-7.56897
ar	-7.57
▁known	-7.58026
▁there	-7.59001
▁K	-7.59091
▁film	-7.59157
▁before	-7.59727
▁most	-7.5996
▁P	-7.60062
▁G	-7.60432
▁such	-7.60464
▁being	-7.60806
▁As	-7.61788
h	-7.62109
▁name	-7.62617
▁17	-7.6275
▁born	-7.63044
st	-7.63099
▁M	-7.63228
▁St	-7.64792
c	-7.64993
▁through	-7.65122
▁against	-7.65428
▁area	-7.65898
le	-7.66002
▁won	-7.66359
▁American	-7.67593
▁May	-7.68147
ton	-7.68511
▁16	-7.68796
▁some	-7.69884
▁National	-7.70031
▁World	-7.70223
▁4	-7.70288
▁many	-7.70446
z	-7.70476
’	-7.70706
na	-7.7179
b	-7.7183
▁than	-7.72003
p	-7.72608
▁served	-7.72613
▁age	-7.72929
▁family	-7.73176
".	-7.73486
D	-7.7409
▁T	-7.75165
to	-7.75275
▁F	-7.75547
▁member	-7.76921
▁no	-7.77069
▁while	-7.77099
▁released	-7.77517
ers	-7.77527
ne	-7.77985
▁both	-7.77998
▁August	-7.78606
▁R	-7.78957
ic	-7.80598
▁named	-7.81411
de	-7.81769
▁four	-7.81793
▁album	-7.82045
▁June	-7.82156
▁died	-7.82209
▁January	-7.82579
▁John	-7.82725
▁began	-7.82776
▁March	-7.82897
▁York	-7.82906
▁called	-7.82952
▁number	-7.83348
▁War	-7.83499
▁July	-7.83592
▁At	-7.83651
▁September	-7.83738
▁several	-7.84404
▁W	-7.84535
."	-7.85146
F	-7.85642
▁5	-7.86231
▁15	-7.87008
▁N	-7.87298
▁October	-7.87519
▁States	-7.88166
te	-7.88254
▁people	-7.8867
el	-7.88746
ry	-7.89146
▁10	-7.89586
▁April	-7.89759
▁them	-7.90031
ta	-7.90145
ist	-7.90307
▁company	-7.90738
▁early	-7.91298
▁South	-7.91696
▁–	-7.91816
▁College	-7.91858
▁series	-7.91931
▁music	-7.92059
▁same	-7.92983
▁home	-7.93805
▁club	-7.94083
2	-7.94091
M	-7.94169
ra	-7.94192
▁received	-7.94444
▁November	-7.94487
▁December	-7.94594
ia	-7.95024
il	-7.95086
▁La	-7.95372
▁station	-7.95928
▁They	-7.95945
▁group	-7.96332
▁L	-7.96495
▁end	-7.97071
▁so	-7.97114
▁moved	-7.97241
▁son	-7.97304
▁city	-7.97349
▁will	-7.97537
▁City	-7.97952
T	-7.99595
▁There	-7.99907
K	-8.0005
▁located	-8.00166
▁career	-8.00359
la	-8.0103
ation	-8.01094
▁6	-8.01563
▁State	-8.01659
▁km	-8.01876
ch	-8.02097
N	-8.02117
▁game	-8.02367
▁held	-8.02501
▁since	-8.02618
ro	-8.02827
▁town	-8.03316
is	-8.03432
▁took	-8.03862
▁song	-8.04612
▁H	-8.04764
",	-8.05079
▁married	-8.05198
▁Al	-8.05453
▁built	-8.05523
▁(19	-8.05702
E	-8.05727
▁local	-8.05892
f	-8.05955
ma	-8.0606
▁12	-8.06194
▁published	-8.06276
▁February	-8.065
it	-8.06874
▁back	-8.07222
▁place	-8.07487
▁co	-8.07799
I	-8.07824
da	-8.08069
▁band	-8.08186
G	-8.08237
–	-8.08641
at	-8.08739
▁De	-8.09151
▁high	-8.09229
▁League	-8.09418
▁state	-8.09637
▁J	-8.0983
▁building	-8.1
▁County	-8.10187
▁joined	-8.10321
ion	-8.10462
▁found	-8.1047
▁For	-8.10886
ian	-8.11116
W	-8.1117
▁worked	-8.11267
▁During	-8.11435
ity	-8.11921
x	-8.12137
▁m	-8.12461
1	-8.12895
▁V	-8.12925
▁18	-8.13084
▁following	-8.13196
▁father	-8.134
the	-8.13403
▁-	-8.1381
▁left	-8.14087
H	-8.14237
▁each	-8.14534
ur	-8.14615
▁Re	-8.1467
▁&	-8.14713
▁un	-8.14845
▁population	-8.15469
P	-8.16055
▁long	-8.16063
ley	-8.16082
O	-8.1617
▁now	-8.16355
▁North	-8.16384
▁British	-8.16397
▁around	-8.16573
▁former	-8.16635
▁7	-8.17077
▁London	-8.17393
et	-8.18024
▁single	-8.18275
▁use	-8.18386
ir	-8.18454
co	-8.18539
son	-8.18766
▁along	-8.18914
▁children	-8.18942
▁Co	-8.19004
▁20	-8.19105
▁line	-8.19121
▁death	-8.19135
land	-8.19157
▁side	-8.19355
▁started	-8.20327
um	-8.21133
▁show	-8.212
am	-8.2144
▁9	-8.22018
▁play	-8.22405
▁book	-8.2268
▁national	-8.22683
▁8	-8.22924
▁'	-8.23144
3	-8.23163
▁life	-8.23305
▁14	-8.24047
no	-8.24104
L	-8.24406
able	-8.24416
▁village	-8.24694
V	-8.24775
▁San	-8.25058
▁small	-8.25275
ine	-8.25282
▁century	-8.25456
li	-8.25796
▁However	-8.25989
▁own	-8.26015
▁public	-8.26131
ate	-8.26494
▁11	-8.26754
▁West	-8.26989
▁government	-8.27369
▁five	-8.27685
se	-8.27821
▁13	-8.28183
▁Her	-8.28219
as	-8.28314
▁may	-8.2895
▁An	-8.29011
▁include	-8.29397
ter	-8.29458
▁these	-8.29724
ri	-8.29829
▁due	-8.30009
▁went	-8.30013
▁did	-8.30153
▁included	-8.3041
▁per	-8.30465
▁set	-8.30679
ga	-8.31447
▁based	-8.31787
▁No	-8.32337
▁water	-8.32677
j	-8.33035
▁main	-8.33166
▁From	-8.33339
ca	-8.33457
R	-8.33618
▁All	-8.33637
nd	-8.33689
▁last	-8.3373
▁appointed	-8.33861
be	-8.34005
▁day	-8.34334
▁like	-8.34379
w	-8.34494
▁River	-8.3466
▁near	-8.34815
ment	-8.349
▁signed	-8.34931
▁large	-8.34959
▁final	-8.35792
▁service	-8.36151
ka	-8.3625
▁returned	-8.36317
▁any	-8.36494
▁off	-8.36615
▁established	-8.36734
▁English	-8.3704
▁members	-8.37072
age	-8.37305
▁debut	-8.37434
▁world	-8.37464
é	-8.37495
ni	-8.37615
▁Le	-8.37758
ti	-8.37806
ke	-8.37975
▁To	-8.381
me	-8.38227
id	-8.38551
▁house	-8.38679
▁system	-8.38977
go	-8.39577
ive	-8.39584
up	-8.39636
do	-8.40331
▁third	-8.40614
▁II	-8.40815
▁elected	-8.4094
▁founded	-8.4097
▁Cup	-8.40997
▁again	-8.41247
4	-8.41613
▁High	-8.41789
▁German	-8.42145
▁original	-8.42156
▁International	-8.42241
ce	-8.42474
▁best	-8.42605
▁could	-8.43144
▁role	-8.43313
▁very	-8.43533
▁title	-8.43549
ge	-8.43625
▁still	-8.43833
The	-8.43932
▁French	-8.44021
▁came	-8.4468
ck	-8.44695
▁north	-8.44725
▁major	-8.44773
▁House	-8.44826
ad	-8.4493
▁head	-8.45069
▁When	-8.4508
den	-8.45105
▁Park	-8.45313
▁total	-8.45369
▁because	-8.45827
▁land	-8.46233
▁late	-8.46251
▁Bo	-8.4626
▁do	-8.46539
ol	-8.46548
▁top	-8.46647
U	-8.46693
▁church	-8.46957
di	-8.47278
▁wife	-8.47345
ie	-8.47622
▁post	-8.48047
ner	-8.4816
▁another	-8.48291
ba	-8.48868
▁down	-8.49034
▁within	-8.49461
▁England	-8.4954
▁south	-8.499
ated	-8.5006
▁daughter	-8.50247
▁led	-8.50406
▁million	-8.50408
▁games	-8.51008
▁announced	-8.51128
▁William	-8.51328
▁East	-8.51542
▁said	-8.51562
▁site	-8.51783
▁period	-8.5195
ty	-8.51956
▁record	-8.52042
▁community	-8.5232
un	-8.52327
▁war	-8.5251
▁form	-8.52566
▁Mar	-8.52793
▁Mo	-8.52875
▁Me	-8.529
▁become	-8.52995
ling	-8.53338
▁short	-8.53436
▁created	-8.53608
▁six	-8.53743
▁Sa	-8.53869
▁history	-8.54306
▁those	-8.54309
▁US	-8.54465
▁opened	-8.54472
▁director	-8.54491
▁Ka	-8.5456
▁different	-8.54563
ha	-8.54578
▁square	-8.54851
▁Be	-8.54909
▁various	-8.54916
va	-8.55054
▁election	-8.55344
▁just	-8.55432
▁c	-8.56071
5	-8.56081
▁appeared	-8.56187
way	-8.56561
ve	-8.56613
ary	-8.56678
,000	-8.56719
▁present	-8.5681
▁general	-8.57048
▁Royal	-8.57181
▁con	-8.57265
▁Council	-8.57285
▁wrote	-8.5741
ll	-8.57566
▁miles	-8.57566
▁Man	-8.57897
▁species	-8.57994
▁One	-8.58052
▁California	-8.58065
▁Con	-8.58141
▁19	-8.5868
▁Award	-8.58891
▁30	-8.59235
▁Ha	-8.59454
▁position	-8.59479
▁support	-8.6031
im	-8.60469
▁business	-8.60535
▁District	-8.60688
▁El	-8.60814
▁Street	-8.60834
▁playing	-8.60867
▁Church	-8.60902
▁district	-8.6117
▁Ar	-8.61236
▁25	-8.61276
and	-8.61436
▁Ca	-8.61449
ul	-8.61516
▁works	-8.61548
▁make	-8.61644
▁degree	-8.61926
▁Association	-8.61997
▁working	-8.62006
▁students	-8.62011
der	-8.62068
ism	-8.63047
▁player	-8.63076
▁development	-8.63093
▁non	-8.63107
▁George	-8.63174
▁old	-8.63292
▁next	-8.633
lo	-8.63364
▁Na	-8.63382
▁average	-8.6343
▁research	-8.63504
▁country	-8.63538
▁pre	-8.63544
he	-8.63665
▁often	-8.63677
ya	-8.63976
▁produced	-8.64753
▁law	-8.64878
▁Se	-8.65119
▁few	-8.65143
▁By	-8.65188
▁President	-8.65232
0	-8.65335
▁together	-8.65479
▁France	-8.65501
year	-8.65788
▁women	-8.65949
▁dis	-8.66065
▁King	-8.66081
▁among	-8.66254
▁having	-8.66435
▁order	-8.66768
ja	-8.66963
▁2010	-8.67044
ant	-8.67117
▁Party	-8.67285
▁According	-8.67434
▁art	-8.67495
▁project	-8.67747
▁program	-8.6793
▁office	-8.68135
▁video	-8.68142
▁100	-8.68245
v	-8.68538
▁General	-8.68854
▁attended	-8.68914
▁full	-8.6902
▁living	-8.69132
ard	-8.69176
▁Ko	-8.69204
▁football	-8.69221
▁James	-8.6924
▁Institute	-8.69258
▁production	-8.69282
▁man	-8.6938
tic	-8.69428
lin	-8.69524
▁2011	-8.69563
▁much	-8.69598
J	-8.69821
by	-8.69859
▁continued	-8.70042
▁Art	-8.70065
▁India	-8.70101
▁Lo	-8.70131
▁e	-8.70164
▁brother	-8.70189
▁professional	-8.70199
6	-8.70292
▁given	-8.703
▁version	-8.70379
▁league	-8.70389
ber	-8.70699
ies	-8.70851
mo	-8.71021
▁international	-8.71124
▁men	-8.71135
▁Australia	-8.7122
▁recorded	-8.71222
▁Go	-8.71275
born	-8.71358
▁contract	-8.71454
ut	-8.71522
▁Ta	-8.71539
ham	-8.71583
▁European	-8.71699
▁win	-8.71891
▁take	-8.72159
▁what	-8.72601
ko	-8.72818
os	-8.72989
wa	-8.73111
▁studied	-8.73289
▁Society	-8.73309
one	-8.7332
▁Division	-8.73334
ang	-8.7334
▁mother	-8.73393
▁(18	-8.73523
▁Hall	-8.73968
▁round	-8.74165
▁sold	-8.74445
▁formed	-8.74624
▁every	-8.75015
▁way	-8.75081
▁if	-8.75115
ness	-8.7539
ak	-8.75461
▁Academy	-8.75501
▁using	-8.75896
▁design	-8.75903
▁awarded	-8.75994
sh	-8.76008
▁Ho	-8.76031
▁2008	-8.76139
▁Dr	-8.76225
▁release	-8.76384
▁2012	-8.76407
▁written	-8.76422
▁Li	-8.76513
▁power	-8.76544
▁live	-8.76546
▁di	-8.76635
vi	-8.76816
▁run	-8.76841
lu	-8.76929
▁pro	-8.77183
▁match	-8.77342
▁Road	-8.77657
▁however	-8.78083
▁Robert	-8.7811
▁1,	-8.78248
▁television	-8.78273
ov	-8.7829
▁car	-8.78439
ci	-8.78723
▁Army	-8.78851
▁level	-8.79112
▁Bar	-8.7914
▁Canada	-8.7943
▁completed	-8.7973
▁2009	-8.79777
▁Company	-8.80014
▁1980	-8.80128
▁east	-8.80528
▁west	-8.80653
▁lost	-8.80812
ler	-8.80972
ent	-8.80988
ger	-8.81474
ous	-8.81487
▁race	-8.81561
▁2014	-8.81605
▁young	-8.81713
8	-8.81731
▁“	-8.81753
▁finished	-8.81762
▁Club	-8.82098
bi	-8.82136
▁political	-8.82296
▁Pa	-8.82498
ster	-8.82629
men	-8.82864
ish	-8.83021
▁Di	-8.83183
▁performed	-8.83205
▁described	-8.8328
est	-8.83296
▁2013	-8.83384
▁addition	-8.83494
▁open	-8.83621
▁America	-8.83685
▁2007	-8.83858
▁event	-8.83858
▁party	-8.83904
▁Union	-8.84204
▁24	-8.84327
▁story	-8.84586
▁education	-8.84609
▁sub	-8.84714
pe	-8.84719
▁free	-8.84878
▁president	-8.84928
▁region	-8.84963
▁point	-8.85042
▁track	-8.85172
▁field	-8.85239
▁Ne	-8.85257
▁Ma	-8.85314
ting	-8.85326
▁times	-8.85536
ana	-8.85598
rd	-8.85781
▁popular	-8.85851
field	-8.8586
▁So	-8.85935
▁Z	-8.86256
▁graduated	-8.863
pa	-8.86389
mi	-8.86411
▁Music	-8.8645
▁half	-8.86463
▁road	-8.8656
ized	-8.86699
▁While	-8.8694
ville	-8.87014
▁With	-8.8706
7	-8.8744
▁Paul	-8.87676
▁Court	-8.87712
ted	-8.8773
▁Thomas	-8.88377
▁These	-8.88456
ki	-8.88564
▁Pro	-8.88593
▁making	-8.88735
50	-8.88784
line	-8.88897
con	-8.88958
hi	-8.8901
▁Ro	-8.89126
▁Department	-8.89155
▁style	-8.89166
▁even	-8.89171
▁1970	-8.89267
▁Car	-8.89576
ran	-8.89638
▁2015	-8.89674
▁himself	-8.898
▁2006	-8.90091
▁days	-8.90169
mer	-8.90195
▁Since	-8.90294
▁21	-8.9034
▁Indian	-8.90649
▁Su	-8.9065
▁Air	-8.90786
▁Center	-8.90845
▁Pe	-8.9092
▁featured	-8.9101
▁Vi	-8.91249
▁center	-8.91439
ah	-8.91497
ina	-8.91536
á	-8.91619
time	-8.9163
io	-8.9187
▁mi	-8.91928
▁remained	-8.91975
▁term	-8.92216
▁without	-8.92281
per	-8.92682
▁college	-8.9271
▁David	-8.92921
▁important	-8.9304
▁developed	-8.93066
▁teams	-8.93406
▁X	-8.93494
▁help	-8.93537
▁right	-8.9361
bo	-8.93763
ho	-8.93782
▁construction	-8.93877
▁Group	-8.93882
▁designed	-8.93979
▁2016	-8.93986
▁Australian	-8.93988
les	-8.94016
▁further	-8.94257
vo	-8.94517
▁originally	-8.94536
▁First	-8.94638
▁Germany	-8.94849
▁Po	-8.94973
▁la	-8.9526
”	-8.95265
▁b	-8.95308
▁military	-8.95426
▁similar	-8.95469
▁coach	-8.9547
sa	-8.95493
ong	-8.95556
ance	-8.95702
▁considered	-8.95783
▁ex	-8.95896
▁Paris	-8.95913
▁training	-8.96142
▁Lake	-8.96435
▁TV	-8.96577
▁Charles	-8.96578
▁body	-8.96812
▁current	-8.9686
▁services	-8.96885
▁22	-8.97285
▁Red	-8.97303
▁Lu	-8.97441
▁Championship	-8.9753
–19	-8.97789
▁Arts	-8.97829
▁go	-8.97882
▁currently	-8.98038
▁followed	-8.98043
▁gave	-8.98094
▁air	-8.98231
▁months	-8.98347
ron	-8.98448
▁result	-8.98532
ver	-8.98632
▁Museum	-8.98638
▁special	-8.9866
▁Ni	-8.98812
▁Washington	-8.98848
▁Minister	-8.98897
-19	-8.98945
▁seven	-8.99069
▁points	-8.9916
▁Saint	-8.99166
▁Island	-8.99275
que	-8.99311
▁board	-8.99535
▁White	-8.9956
com	-8.99575
▁lead	-8.99952
▁across	-8.99962
▁radio	-8.99971
po	-9.00042
▁seat	-9.00149
ally	-9.00308
ology	-9.00364
ey	-9.00378
▁Da	-9.0038
ji	-9.00415
▁Bay	-9.00493
▁size	-9.0055
▁away	-9.00696
rs	-9.00859
▁black	-9.01048
▁control	-9.01319
ite	-9.01391
▁1960	-9.01507
▁available	-9.0157
op	-9.01776
▁Ri	-9.0194
gu	-9.01956
▁once	-9.02223
▁mid	-9.02272
9	-9.02302
▁campaign	-9.02621
we	-9.02633
ship	-9.02897
mp	-9.03046
▁Law	-9.0313
▁Or	-9.03229
▁eventually	-9.03243
▁involved	-9.03384
▁great	-9.03391
▁range	-9.03475
▁UK	-9.03491
▁white	-9.0362
ot	-9.03669
em	-9.03728
▁Film	-9.03763
▁Central	-9.03899
▁Green	-9.03901
▁fire	-9.03969
ence	-9.03993
sen	-9.04035
ach	-9.04109
▁official	-9.0411
▁spent	-9.04177
▁Some	-9.04273
▁1990	-9.04445
▁Ja	-9.04463
]	-9.04523
▁social	-9.04612
▁modern	-9.04853
▁Do	-9.04919
▁stage	-9.04932
X	-9.04963
▁scored	-9.04971
▁eight	-9.05061
au	-9.05129
▁Europe	-9.05198
▁features	-9.05259
▁leading	-9.05284
▁ft	-9.05347
▁Sir	-9.05379
▁writing	-9.05433
▁23	-9.05436
▁study	-9.05645
za	-9.05858
▁songs	-9.05972
▁private	-9.06133
▁Festival	-9.06155
▁ten	-9.06223
ts	-9.06427
▁never	-9.06644
▁taken	-9.0666
▁en	-9.06735
▁senior	-9.06885
▁female	-9.07002
▁Mary	-9.07007
▁Peter	-9.07155
▁human	-9.07166
mon	-9.07205
▁competition	-9.07246
side	-9.07393
▁summer	-9.07537
▁2005	-9.07545
▁2000	-9.07575
▁Ba	-9.0769
▁professor	-9.0802
▁Japan	-9.08193
▁Du	-9.08327
▁although	-9.08389
▁d	-9.08401
▁Gu	-9.08405
▁light	-9.0846
▁2017	-9.08623
▁Act	-9.08625
▁space	-9.08659
▁replaced	-9.08706
▁China	-9.0881
ford	-9.08996
▁Star	-9.09064
▁Per	-9.0908
gen	-9.09129
—	-9.09249
▁Committee	-9.09268
▁character	-9.09279
▁Ga	-9.09336
▁events	-9.09348
▁Roman	-9.09486
▁active	-9.09559
▁Director	-9.09606
▁return	-9.09618
▁areas	-9.09673
gi	-9.09771
▁Te	-9.09829
▁includes	-9.09989
▁language	-9.10052
▁2015,	-9.10112
chi	-9.10212
▁Bi	-9.10386
▁magazine	-9.10576
▁me	-9.10705
▁Chi	-9.10775
▁2010,	-9.10885
▁2014,	-9.11
▁Henry	-9.11059
ac	-9.11066
▁Hu	-9.11193
▁Los	-9.11282
▁2016,	-9.11497
▁good	-9.1151
ng	-9.11557
▁Black	-9.11563
▁throughout	-9.1168
▁Hill	-9.11687
wood	-9.11694
▁Ra	-9.11726
▁Ben	-9.11922
ze	-9.12077
Y	-9.12121
▁others	-9.12148
▁books	-9.12151
(	-9.12167
▁class	-9.12198
▁2012,	-9.12209
▁changed	-9.12234
▁performance	-9.12306
dy	-9.12373
▁2013,	-9.12611
▁p	-9.12692
▁husband	-9.1277
▁Western	-9.12885
▁park	-9.12914
▁Italian	-9.1298
▁Russian	-9.13041
tu	-9.13138
ud	-9.13151
30	-9.13184
▁decided	-9.13226
▁2017,	-9.13273
▁we	-9.13531
▁common	-9.13549
▁2011,	-9.1355
▁author	-9.136
▁river	-9.13694
▁(1	-9.13698
▁case	-9.13725
old	-9.13792
▁close	-9.13856
▁We	-9.13872
ft	-9.13955
▁practice	-9.14052
▁African	-9.14126
▁added	-9.14174
▁start	-9.14221
ful	-9.14504
▁2004	-9.14575
▁Christian	-9.14698
▁though	-9.14709
▁Great	-9.14717
ial	-9.14731
▁lived	-9.14785
▁Born	-9.14864
▁sent	-9.1488
▁front	-9.14957
▁list	-9.15003
▁placed	-9.15034
▁process	-9.1508
ten	-9.15085
qui	-9.1512
▁2018	-9.15173
▁real	-9.15288
▁goal	-9.15421
▁example	-9.15452
▁Board	-9.15457
▁novel	-9.15458
10	-9.15542
ier	-9.15546
ating	-9.15672
▁collection	-9.15718
▁28	-9.15748
sk	-9.15864
▁court	-9.16106
▁Har	-9.16259
▁26	-9.16277
▁you	-9.1631
▁award	-9.16326
▁winning	-9.1635
▁sea	-9.1644
▁bar	-9.16515
less	-9.16687
▁Canadian	-9.16895
▁studies	-9.17027
▁less	-9.17295
min	-9.17349
▁how	-9.1738
tra	-9.17428
▁model	-9.17446
▁40	-9.17462
▁earned	-9.17561
▁Pre	-9.17585
berg	-9.17744
ung	-9.1781
ek	-9.17822
▁feet	-9.18002
▁largest	-9.18052
20	-9.18108
▁get	-9.18427
▁27	-9.18452
▁success	-9.18473
▁organization	-9.1856
▁artist	-9.18658
ru	-9.18661
▁older	-9.18772
let	-9.18809
▁via	-9.18873
▁base	-9.18935
▁Pi	-9.19075
▁shows	-9.19126
▁section	-9.19199
▁tournament	-9.19217
▁2018,	-9.19306
ny	-9.19365
hu	-9.19482
▁Following	-9.19621
▁directed	-9.19688
off	-9.19731
▁successful	-9.19771
▁division	-9.19889
ius	-9.19962
40	-9.19978
out	-9.20101
▁retired	-9.20143
▁Chicago	-9.2018
▁1950	-9.20194
▁Cor	-9.2021
▁tour	-9.20238
▁Richard	-9.2037
▁Catholic	-9.20425
▁2009,	-9.2045
▁above	-9.20491
▁Africa	-9.20586
▁Michael	-9.20603
mar	-9.20635
val	-9.20839
▁seen	-9.20857
ex	-9.20896
ker	-9.20925
▁love	-9.21008
▁ship	-9.2126
▁mm	-9.2164
▁Pan	-9.21776
▁Texas	-9.21777
▁Although	-9.2178
▁50	-9.21782
00	-9.21834
▁length	-9.2184
ino	-9.21852
▁players	-9.21917
ward	-9.21934
▁does	-9.21938
▁ground	-9.22166
om	-9.22478
▁network	-9.22514
▁hand	-9.22676
ning	-9.22825
han	-9.2304
▁wide	-9.23137
▁Best	-9.23278
▁ran	-9.23301
▁Science	-9.23309
▁manager	-9.23402
well	-9.23421
▁Japanese	-9.23433
▁Ver	-9.23492
▁whom	-9.23499
▁My	-9.23706
▁schools	-9.23722
▁Fa	-9.2383
▁Angeles	-9.23894
ee	-9.24026
▁Y	-9.2405
▁reported	-9.24089
▁Grand	-9.24676
▁2008,	-9.24958
▁owned	-9.24973
▁regular	-9.24993
ig	-9.25047
▁studio	-9.25087
▁low	-9.25251
▁promoted	-9.25293
▁met	-9.25359
60	-9.2542
▁Smith	-9.25508
▁route	-9.25562
▁provided	-9.25568
▁editor	-9.25581
▁selected	-9.25586
▁income	-9.25643
▁Am	-9.25877
▁entered	-9.26146
▁closed	-9.2618
tal	-9.26228
▁island	-9.26234
tor	-9.26265
▁usually	-9.26375
▁rest	-9.26399
▁reached	-9.26513
▁centre	-9.26552
▁student	-9.26624
▁central	-9.26687
▁railway	-9.26775
▁Spanish	-9.26819
▁Ireland	-9.2693
ow	-9.26931
▁families	-9.26948
▁Zealand	-9.26958
▁Ti	-9.27025
mb	-9.27035
▁police	-9.27063
port	-9.27117
▁Chinese	-9.27225
red	-9.27235
▁hit	-9.27286
▁upon	-9.273
▁Bank	-9.27423
ub	-9.27474
▁soon	-9.27513
▁Two	-9.27599
▁Other	-9.27839
day	-9.28028
jo	-9.28032
▁put	-9.28036
▁killed	-9.28051
lan	-9.28276
▁market	-9.28302
▁night	-9.28346
ding	-9.28359
▁child	-9.28396
▁aircraft	-9.28515
▁2001	-9.28588
bu	-9.28674
▁represented	-9.28918
▁industry	-9.29011
ell	-9.29014
▁serving	-9.29231
▁metres	-9.29374
▁becoming	-9.29396
▁Government	-9.29413
▁interest	-9.29442
▁Later	-9.29525
▁writer	-9.29559
▁red	-9.29568
▁information	-9.29597
▁must	-9.2974
▁beginning	-9.29811
▁structure	-9.29902
▁2003	-9.29984
du	-9.3009
▁2007,	-9.30234
▁able	-9.3032
▁location	-9.30326
▁Sch	-9.3036
▁whose	-9.3055
▁Sea	-9.30565
▁29	-9.30701
gan	-9.30769
fi	-9.30822
▁media	-9.31157
▁contains	-9.31317
▁sister	-9.31363
▁famous	-9.31365
▁Day	-9.31402
▁previous	-9.31441
▁Records	-9.31508
▁Martin	-9.3153
▁raised	-9.31533
▁al	-9.31557
▁fourth	-9.31559
▁Lord	-9.31677
▁introduced	-9.31767
▁should	-9.31795
▁move	-9.31805
house	-9.31853
▁science	-9.31863
of	-9.31909
▁$	-9.31939
ven	-9.32037
▁label	-9.32059
ium	-9.32288
▁attack	-9.3234
▁numerous	-9.32435
▁Women	-9.32537
▁65	-9.32673
▁matches	-9.32751
▁brought	-9.32779
fe	-9.32933
▁cast	-9.32951
pur	-9.32965
▁Italy	-9.33008
▁medal	-9.33064
ari	-9.3319
▁goals	-9.33218
▁FC	-9.33328
▁Year	-9.33344
▁saw	-9.33399
▁provide	-9.33498
▁defeated	-9.33635
ring	-9.3364
▁health	-9.33669
▁movement	-9.33713
fa	-9.34033
▁musical	-9.3405
▁rock	-9.34057
▁2002	-9.34076
pi	-9.3408
▁unit	-9.34104
▁launched	-9.34131
pp	-9.34173
ney	-9.34217
▁Brown	-9.34239
▁either	-9.34256
▁Jo	-9.34286
▁subsequently	-9.34379
ization	-9.344
▁runs	-9.34491
▁course	-9.34581
2)	-9.34596
▁deal	-9.34708
▁acquired	-9.34747
▁Queen	-9.34803
▁Edward	-9.3482
▁Chief	-9.34856
▁behind	-9.35035
▁almost	-9.35127
▁median	-9.35292
▁far	-9.35326
▁previously	-9.35423
▁Super	-9.35477
▁films	-9.35508
▁firm	-9.35527
▁Town	-9.35554
▁Kingdom	-9.35772
▁access	-9.35794
▁master	-9.35809
▁parents	-9.35826
▁Football	-9.35867
gar	-9.35903
▁Wales	-9.35959
▁Gi	-9.35981
▁households	-9.35996
▁chief	-9.36098
▁But	-9.36098
▁listed	-9.36133
▁Bra	-9.36167
▁woman	-9.36241
25	-9.36335
▁Ke	-9.36356
▁Second	-9.36552
▁Republic	-9.36555
▁Ge	-9.36609
▁staff	-9.3661
based	-9.36646
▁taking	-9.36659
▁southern	-9.36664
▁assistant	-9.36827
▁Under	-9.3685
▁Radio	-9.36893
▁Tri	-9.36962
▁northern	-9.37034
70	-9.3704
▁Championships	-9.37071
▁commercial	-9.37091
har	-9.37189
▁Mu	-9.37199
▁episode	-9.37221
▁Men	-9.37282
!	-9.3731
▁singer	-9.3741
▁Theatre	-9.37433
ita	-9.37503
si	-9.3755
▁Joseph	-9.37601
nes	-9.37602
▁Research	-9.37609
▁artists	-9.37655
▁countries	-9.37707
▁Parliament	-9.37776
ez	-9.37799
▁battle	-9.37824
▁natural	-9.37883
▁anti	-9.37885
▁type	-9.37972
don	-9.37988
che	-9.3811
▁create	-9.38195
▁opening	-9.38196
▁change	-9.38218
van	-9.38224
▁youth	-9.38367
▁leader	-9.38397
▁[	-9.38454
od	-9.38456
▁gold	-9.38519
▁Mac	-9.38724
▁Sun	-9.38772
▁primary	-9.38823
▁Greek	-9.38824
▁Sam	-9.38896
▁31	-9.38898
▁strong	-9.38912
▁hospital	-9.38982
▁appearances	-9.39049
▁surface	-9.39052
▁appearance	-9.39126
low	-9.39163
▁plant	-9.39181
▁Si	-9.39183
▁feature	-9.39189
▁Assembly	-9.39189
▁lower	-9.39389
▁ever	-9.39404
▁buildings	-9.39439
▁females	-9.39576
▁sp	-9.39631
▁Education	-9.39713
▁property	-9.39714
ise	-9.39777
▁come	-9.39806
▁Its	-9.39883
▁independent	-9.4006
ani	-9.40069
▁Sal	-9.40082
▁Most	-9.40259
′	-9.40266
ice	-9.40335
ou	-9.40499
▁department	-9.40573
▁sound	-9.40605
▁Mi	-9.40631
tz	-9.40655
tter	-9.40687
▁officer	-9.40705
▁Service	-9.40747
▁Virginia	-9.40906
all	-9.40918
q	-9.40996
Z	-9.41052
so	-9.41058
led	-9.41077
▁Don	-9.41143
▁groups	-9.41228
▁ended	-9.41307
ities	-9.4133
▁2006,	-9.41517
je	-9.41526
▁movie	-9.41623
▁outside	-9.41755
▁championship	-9.41973
▁Commission	-9.42045
▁find	-9.42246
ap	-9.42255
kin	-9.42313
▁bridge	-9.42549
tin	-9.42555
ett	-9.4268
▁helped	-9.42703
▁least	-9.42713
▁grew	-9.42802
▁Sha	-9.42844
ical	-9.42893
▁Tu	-9.42896
▁Ru	-9.4299
▁week	-9.43051
fer	-9.43051
▁past	-9.43082
▁traditional	-9.43184
▁Professor	-9.43215
▁Louis	-9.43245
▁Old	-9.43426
▁Wood	-9.43428
▁En	-9.43529
▁money	-9.43664
▁units	-9.43675
▁ha	-9.43774
▁transferred	-9.43781
shi	-9.43795
▁running	-9.43995
▁shot	-9.44115
▁Cha	-9.44203
ik	-9.44219
▁friend	-9.44246
▁Mark	-9.44269
▁trade	-9.44295
▁little	-9.44308
▁Valley	-9.44319
▁(2	-9.4434
for	-9.44361
▁Congress	-9.44637
▁instead	-9.44717
▁1930	-9.44885
▁date	-9.44896
▁Fi	-9.44914
▁du	-9.44937
▁annual	-9.44988
▁got	-9.44998
ure	-9.45094
▁Land	-9.45107
▁Public	-9.4514
▁cover	-9.45213
ab	-9.45282
▁camp	-9.45303
▁Creek	-9.45477
▁data	-9.45512
▁Ju	-9.45595
▁operations	-9.45599
▁itself	-9.45698
í	-9.45739
ip	-9.45837
▁my	-9.45891
▁county	-9.46002
▁Force	-9.46059
nt	-9.4607
head	-9.46119
▁Foundation	-9.46136
▁Florida	-9.46139
▁Com	-9.4618
▁estate	-9.46247
town	-9.46399
▁Station	-9.46537
▁management	-9.46546
▁Rock	-9.46603
wi	-9.4662
▁Col	-9.46624
▁Wi	-9.46803
▁approximately	-9.46838
▁Railway	-9.46902
▁see	-9.46921
ative	-9.4695
▁politician	-9.46968
bar	-9.47211
▁renamed	-9.47227
▁below	-9.47354
▁1940	-9.47547
▁Irish	-9.47698
▁candidate	-9.47712
ator	-9.47746
▁Times	-9.4786
▁turn	-9.47931
▁Their	-9.47979
ai	-9.47985
▁stone	-9.48107
▁future	-9.48202
▁stated	-9.48223
▁rather	-9.48227
▁companies	-9.48233
now	-9.48289
▁Tom	-9.48465
▁1999	-9.48501
▁nine	-9.48541
▁Ad	-9.48541
ize	-9.48549
ix	-9.4857
▁Governor	-9.48574
▁operated	-9.48636
▁Mexico	-9.48639
gg	-9.48686
▁Ki	-9.48755
90	-9.48769
ide	-9.48778
▁capital	-9.48815
▁forces	-9.48831
▁Ph	-9.48866
▁recording	-9.48962
ini	-9.49006
▁join	-9.49032
ries	-9.49064
▁2,	-9.49103
▁edition	-9.49123
▁Northern	-9.49153
▁mile	-9.49154
cy	-9.49182
lic	-9.49511
▁initially	-9.49602
ev	-9.49633
ō	-9.49643
▁double	-9.49667
▁Th	-9.49676
▁decision	-9.4974
▁Hospital	-9.49885
▁score	-9.49968
▁taught	-9.49998
▁participated	-9.49998
▁rights	-9.50033
▁Bishop	-9.50075
▁Navy	-9.50078
▁Che	-9.50131
▁university	-9.50223
▁entire	-9.50229
▁buried	-9.50265
▁census	-9.50509
▁Fe	-9.50531
▁nearby	-9.50646
▁0	-9.50675
▁fellow	-9.50744
▁Mor	-9.50799
▁sports	-9.50852
uk	-9.50906
▁leaving	-9.51021
ku	-9.51063
▁museum	-9.51064
cha	-9.511
80	-9.51119
tro	-9.51138
▁remains	-9.51167
▁towards	-9.51251
▁mo	-9.51252
▁Gold	-9.5132
▁Un	-9.51351
if	-9.51452
▁standard	-9.51539
▁1998	-9.51564
▁1920	-9.5167
▁plan	-9.51676
▁sometimes	-9.5169
▁especially	-9.51779
▁activities	-9.51816
▁newspaper	-9.51853
▁Par	-9.51945
oc	-9.51993
▁inter	-9.52185
▁council	-9.52216
king	-9.52247
▁means	-9.5225
▁starting	-9.52453
▁lives	-9.52507
▁You	-9.52527
▁highest	-9.52532
▁possible	-9.5255
▁person	-9.52564
▁Southern	-9.52572
▁fact	-9.5258
ski	-9.52714
▁Battle	-9.52769
▁Love	-9.52997
▁("	-9.53054
▁food	-9.53206
▁train	-9.53311
▁male	-9.53357
▁Young	-9.53497
▁Pacific	-9.53498
▁g	-9.53594
ata	-9.53628
▁fight	-9.537
▁action	-9.53744
▁parts	-9.5382
▁issues	-9.53839
▁Bre	-9.53922
ph	-9.53969
ren	-9.53974
▁relationship	-9.54076
▁Min	-9.54289
▁marriage	-9.54422
▁medical	-9.54466
▁bi	-9.54475
ther	-9.54494
▁personal	-9.54557
▁allowed	-9.54589
▁room	-9.54642
▁Line	-9.54683
▁Lee	-9.54689
▁Oxford	-9.54709
▁Centre	-9.54731
▁Port	-9.54898
sha	-9.54926
▁earlier	-9.55059
▁Van	-9.55059
▁complete	-9.55148
▁Bur	-9.55155
19	-9.5517
▁Mc	-9.55174
ec	-9.55202
▁presented	-9.55213
▁cut	-9.55248
▁native	-9.55299
▁Order	-9.55308
▁going	-9.55403
▁teacher	-9.55431
▁floor	-9.55468
vin	-9.55471
▁That	-9.55583
▁i	-9.55602
▁army	-9.55617
▁broadcast	-9.55723
▁constructed	-9.55723
▁1996	-9.55753
▁noted	-9.55764
▁related	-9.55781
▁purchased	-9.55866
-1	-9.55991
▁parish	-9.56009
ara	-9.56032
▁call	-9.56044
▁today	-9.56051
▁Ku	-9.56075
75	-9.5612
▁face	-9.56171
▁Soviet	-9.5619
▁Pat	-9.56351
▁mostly	-9.56359
▁according	-9.56387
▁mainly	-9.56403
18	-9.56467
▁western	-9.56571
▁financial	-9.56647
▁Summer	-9.56712
▁complex	-9.56716
ff	-9.56767
sion	-9.56777
our	-9.56902
▁culture	-9.56925
▁hard	-9.56963
▁farm	-9.56984
▁And	-9.56997
tt	-9.57025
▁v	-9.57067
▁Gar	-9.57096
▁Ve	-9.57119
▁tower	-9.57125
▁consists	-9.57174
▁covered	-9.57214
lam	-9.57225
▁self	-9.573
▁Dan	-9.57303
ura	-9.57324
▁individual	-9.57335
▁Mr	-9.57339
▁Ab	-9.57612
▁Fort	-9.57633
▁passed	-9.57712
▁engine	-9.57854
▁Boston	-9.57932
▁material	-9.58011
▁variety	-9.58051
▁middle	-9.58136
▁Ram	-9.58158
▁legal	-9.58218
▁producer	-9.58236
▁command	-9.58265
▁thought	-9.58265
▁prior	-9.58311
▁educated	-9.58372
▁1997	-9.58404
tion	-9.58519
mann	-9.58597
end	-9.587
▁Long	-9.58788
▁test	-9.58815
▁associated	-9.58829
▁already	-9.58973
ä	-9.59014
▁Scotland	-9.59018
▁takes	-9.59051
▁seasons	-9.59105
▁subject	-9.59202
tri	-9.59214
▁2005,	-9.59295
ay	-9.59311
▁Frank	-9.59383
▁Can	-9.59394
▁victory	-9.59652
lon	-9.59745
▁loss	-9.59814
▁thus	-9.59878
▁2019,	-9.59895
▁Berlin	-9.59916
▁website	-9.59921
▁king	-9.59933
▁competed	-9.59945
▁se	-9.60018
▁Pennsylvania	-9.60021
▁1964	-9.60025
▁45	-9.60089
▁supported	-9.60098
▁cost	-9.60184
ists	-9.60401
▁word	-9.60423
ola	-9.60431
▁Bill	-9.6054
zi	-9.60548
▁additional	-9.60723
▁2019	-9.60787
ü	-9.60797
▁Many	-9.60804
ile	-9.61167
car	-9.61307
&	-9.61372
▁k	-9.61432
ea	-9.61446
▁sign	-9.61512
▁chart	-9.6155
▁Columbia	-9.61588
▁paper	-9.61589
▁Prince	-9.61618
▁minor	-9.61636
▁Za	-9.61678
tain	-9.61767
▁significant	-9.61775
▁ca	-9.61787
▁coast	-9.61838
▁star	-9.61839
▁host	-9.61928
▁God	-9.61942
▁Carolina	-9.61969
ised	-9.61986
▁(3	-9.62049
▁composed	-9.62108
▁multi	-9.62281
▁Member	-9.62338
▁higher	-9.6237
▁density	-9.62371
yn	-9.62393
▁houses	-9.62401
▁Team	-9.62403
-20	-9.62557
▁couple	-9.62564
▁ma	-9.62571
23	-9.62571
▁minutes	-9.62603
15	-9.62661
▁prominent	-9.62769
▁serve	-9.62778
res	-9.62799
▁Spain	-9.62816
▁Rome	-9.62841
▁rate	-9.63003
und	-9.63026
tre	-9.63036
▁finally	-9.63133
▁w	-9.63139
▁store	-9.63162
▁Mon	-9.63243
▁programs	-9.63256
ath	-9.63276
▁Games	-9.63284
▁Middle	-9.63294
▁latter	-9.63331
▁text	-9.63432
▁voice	-9.63514
▁dance	-9.63606
▁BBC	-9.63727
▁offered	-9.63731
▁cross	-9.63744
tan	-9.63799
yl	-9.63804
▁1995	-9.63833
▁format	-9.6386
▁Dar	-9.63955
des	-9.64045
ep	-9.64062
Ma	-9.64094
▁give	-9.64095
▁Francisco	-9.64125
▁brand	-9.64129
▁Far	-9.6413
▁1994	-9.64142
2).	-9.64143
▁semi	-9.64165
▁need	-9.64375
▁Jewish	-9.64403
")	-9.64435
▁generally	-9.64503
wing	-9.64585
▁Secretary	-9.646
▁Ya	-9.647
ct	-9.64714
▁dedicated	-9.64806
▁meeting	-9.6483
′′	-9.64932
In	-9.64997
form	-9.65035
war	-9.65141
▁separate	-9.6515
▁required	-9.6516
▁managed	-9.65164
▁influence	-9.65218
▁province	-9.65368
▁month	-9.65421
▁too	-9.65439
▁Civil	-9.65453
▁Mel	-9.6547
▁races	-9.65479
▁1992	-9.65484
▁hours	-9.65634
▁key	-9.65676
▁200	-9.65764
▁moving	-9.65795
35	-9.65858
▁li	-9.65955
16	-9.66027
▁Cross	-9.66043
▁larger	-9.66155
▁minister	-9.66354
back	-9.66399
▁forced	-9.6645
▁alongside	-9.66566
▁operation	-9.66571
▁provides	-9.66591
▁carried	-9.66611
▁view	-9.66712
stone	-9.66732
▁60	-9.66758
art	-9.66759
▁account	-9.66802
▁discovered	-9.66853
▁2011.	-9.66914
▁Both	-9.67047
▁Bu	-9.67049
▁Er	-9.67093
▁Olympics	-9.67132
pt	-9.67218
over	-9.6729
▁computer	-9.67479
▁states	-9.67484
▁executive	-9.67591
▁Latin	-9.67637
▁Sydney	-9.67661
Q	-9.67718
▁force	-9.67889
bel	-9.6789
▁issue	-9.67913
km	-9.67983
era	-9.68043
▁1963	-9.68048
▁majority	-9.68078
13	-9.68081
▁2012.	-9.68118
▁captain	-9.68208
▁acting	-9.68225
▁Big	-9.68231
▁better	-9.68349
▁imp	-9.68371
▁academic	-9.68392
ram	-9.68396
▁Bal	-9.68445
▁meaning	-9.68551
▁Ohio	-9.68573
▁turned	-9.68589
▁(17	-9.68632
▁branch	-9.68661
▁2000,	-9.68702
▁color	-9.68719
▁systems	-9.68819
▁lack	-9.68828
▁teaching	-9.68925
▁experience	-9.68934
▁Jean	-9.68954
▁Cambridge	-9.68962
ena	-9.68968
hr	-9.69035
▁Dutch	-9.69068
▁remaining	-9.6912
▁obtained	-9.69132
▁1962	-9.69157
22	-9.69228
▁Development	-9.69249
▁1948	-9.6927
▁certain	-9.69339
▁Awards	-9.69359
▁review	-9.69364
▁males	-9.69381
▁Health	-9.6941
▁source	-9.69487
▁dark	-9.69515
▁succeeded	-9.69519
▁Coast	-9.69528
▁responsible	-9.69585
▁Post	-9.69587
▁Democratic	-9.69605
▁2013.	-9.69621
ological	-9.69629
▁architect	-9.6963
▁Republican	-9.69701
▁particularly	-9.69719
cher	-9.6972
▁3,	-9.69814
▁here	-9.69827
ped	-9.69869
▁People	-9.69952
ken	-9.70003
▁Life	-9.70042
▁historical	-9.70179
▁squad	-9.70182
▁care	-9.70239
▁Pu	-9.70251
▁Inc	-9.70288
11	-9.70308
▁2014.	-9.7031
▁failed	-9.70316
▁Jones	-9.70324
▁2010.	-9.70398
ified	-9.70435
▁Show	-9.70449
45	-9.70478
▁Illinois	-9.70498
▁Ex	-9.70536
▁heart	-9.70625
▁Jan	-9.7065
▁eastern	-9.70794
illa	-9.70812
▁overall	-9.70855
▁III	-9.70863
▁o	-9.70864
▁Santa	-9.70868
▁Conference	-9.7093
▁chairman	-9.70931
▁housing	-9.71001
▁Mount	-9.71011
▁tracks	-9.71013
▁Blue	-9.71101
▁stories	-9.71105
▁friends	-9.71107
use	-9.71146
▁Hol	-9.71187
▁bank	-9.71254
▁limited	-9.71271
ens	-9.71297
▁owner	-9.71302
ving	-9.71355
▁status	-9.71389
▁caused	-9.71432
▁2009.	-9.71485
bb	-9.71508
▁break	-9.71512
▁Russia	-9.71526
▁shown	-9.71533
▁guitar	-9.71726
▁Empire	-9.71728
▁individuals	-9.7175
▁elections	-9.71764
▁economic	-9.71766
▁household	-9.71883
▁technology	-9.71894
▁Office	-9.71936
▁appears	-9.71951
27	-9.71981
▁weeks	-9.72058
▁longer	-9.72094
▁Ban	-9.72107
▁—	-9.7211
eg	-9.72116
▁wood	-9.72126
28	-9.72157
more	-9.72168
▁Va	-9.72198
▁Cu	-9.72251
▁extended	-9.72253
▁border	-9.72256
▁direction	-9.72354
bre	-9.72409
▁product	-9.72449
▁green	-9.72476
▁Ministry	-9.72577
17	-9.72598
law	-9.72607
▁Elizabeth	-9.72608
▁Master	-9.72608
);	-9.72631
▁fall	-9.72632
▁speed	-9.7268
▁job	-9.72736
like	-9.72805
kh	-9.72826
▁Shi	-9.72894
pro	-9.72932
ors	-9.72948
▁Eastern	-9.72948
▁flight	-9.73125
▁committee	-9.73137
▁particular	-9.73158
cho	-9.73178
class	-9.73196
▁1961	-9.73197
▁Over	-9.73209
su	-9.73222
▁solo	-9.73232
▁painting	-9.73299
▁Ber	-9.73302
▁leaves	-9.73311
▁plays	-9.73312
▁Top	-9.7332
▁Tra	-9.73332
▁Alexander	-9.73346
▁recent	-9.73347
26	-9.73378
hy	-9.73431
▁Michigan	-9.73455
▁build	-9.73474
▁street	-9.73507
▁theatre	-9.73524
7%	-9.73544
▁1947	-9.73544
▁drama	-9.7368
light	-9.73751
▁blue	-9.73763
▁Tour	-9.73808
12	-9.73827
▁History	-9.73834
ual	-9.7384
▁Route	-9.73855
ö	-9.73886
▁Asian	-9.74186
▁Kar	-9.74196
▁2015.	-9.74205
▁nominated	-9.7421
▁Water	-9.74212
▁Massachusetts	-9.74225
▁vote	-9.74274
▁ancient	-9.74317
▁1942	-9.74439
▁actor	-9.74488
▁1993	-9.74501
▁/	-9.74526
▁cm	-9.74643
▁$1	-9.74685
▁Home	-9.74762
▁Senate	-9.74772
ue	-9.74802
▁winner	-9.74881
▁Scottish	-9.74888
▁2004,	-9.74907
ef	-9.75052
▁Britain	-9.75239
▁2016.	-9.75264
▁forest	-9.75315
▁notable	-9.75388
▁projects	-9.75429
08	-9.75443
▁Mal	-9.75497
▁oil	-9.75519
▁stop	-9.75529
▁da	-9.75552
▁travel	-9.75614
▁done	-9.75633
vis	-9.75644
bra	-9.75659
▁Corporation	-9.75714
ned	-9.75749
cc	-9.75788
▁Sta	-9.75791
▁characters	-9.75957
ese	-9.75969
▁visit	-9.76014
av	-9.76048
▁civil	-9.7605
▁draw	-9.7606
▁multiple	-9.76111
▁temple	-9.76131
▁hall	-9.76134
▁1956	-9.76157
gy	-9.76278
▁composer	-9.76333
▁municipality	-9.76347
▁Bridge	-9.76383
▁sc	-9.76388
▁If	-9.76443
▁2008.	-9.76457
▁Prize	-9.7646
ria	-9.76477
zo	-9.76697
▁products	-9.76738
▁Library	-9.76792
▁religious	-9.76796
kar	-9.76818
▁increase	-9.7685
▁block	-9.76881
ore	-9.76895
▁residents	-9.76903
▁1991	-9.76907
▁vi	-9.76932
▁gained	-9.77023
▁scoring	-9.77036
▁mission	-9.77049
▁crew	-9.77065
▁Han	-9.77112
▁Georgia	-9.77134
▁CD	-9.77162
▁1957	-9.77224
▁conference	-9.7723
▁officially	-9.7727
▁claimed	-9.77305
▁1959	-9.77305
ó	-9.77335
her	-9.77366
85	-9.77396
▁scene	-9.77454
▁Jersey	-9.77465
▁regional	-9.77513
▁assigned	-9.77589
▁always	-9.77612
▁Little	-9.77684
▁society	-9.77812
▁upper	-9.7783
▁platform	-9.77947
▁1943	-9.78012
▁Cal	-9.78017
▁referred	-9.78072
▁Williams	-9.78087
▁recently	-9.78138
▁1958	-9.78149
▁comes	-9.78156
▁bought	-9.78185
▁Ch	-9.78389
▁Castle	-9.78397
▁defeat	-9.78402
▁1941	-9.78407
▁Scott	-9.7841
01	-9.78416
burg	-9.78444
24	-9.78544
ious	-9.78553
ette	-9.78601
▁leave	-9.78626
š	-9.78661
29	-9.78695
▁founder	-9.78728
▁loan	-9.78771
▁Book	-9.78795
▁lake	-9.7887
▁Duke	-9.78883
▁titled	-9.78888
21	-9.78923
▁1939	-9.79041
▁Business	-9.79046
ju	-9.79062
ions	-9.79078
ire	-9.79106
▁spread	-9.79116
▁believed	-9.79118
▁township	-9.79149
▁distance	-9.79213
▁campus	-9.79251
ok	-9.79259
▁settlement	-9.79288
▁cur	-9.79332
▁spring	-9.79358
tel	-9.79462
cre	-9.7949
▁offers	-9.79532
nce	-9.79562
09	-9.79638
▁ru	-9.79723
▁port	-9.79757
▁honor	-9.79769
tur	-9.79803
▁festival	-9.79806
ps	-9.79815
iya	-9.79828
89	-9.79932
ory	-9.79946
▁f	-9.79992
▁Victoria	-9.80099
lar	-9.80186
mor	-9.80192
▁act	-9.80221
ible	-9.80302
▁know	-9.8033
▁2007.	-9.80333
air	-9.80412
▁Census	-9.80436
af	-9.80438
ick	-9.80482
▁Good	-9.80511
▁Val	-9.80545
▁terms	-9.8059
▁nearly	-9.80619
unt	-9.80641
▁uses	-9.80679
▁library	-9.80682
▁Wa	-9.80695
▁2017.	-9.8079
▁association	-9.80805
▁Je	-9.80852
▁castle	-9.8089
▁arrived	-9.80991
▁increased	-9.81015
07	-9.81051
▁Bro	-9.81064
▁Technology	-9.81081
iz	-9.81114
▁Bureau	-9.81139
▁Johnson	-9.81201
ery	-9.81273
ano	-9.81283
▁reference	-9.81328
▁code	-9.81359
▁Open	-9.81378
▁Toronto	-9.81386
▁retirement	-9.81402
▁t	-9.81413
▁basketball	-9.81431
▁channel	-9.81501
14	-9.81501
ane	-9.8155
▁pay	-9.81554
▁split	-9.81555
istic	-9.81777
sch	-9.81848
▁35	-9.81867
▁metal	-9.82003
▁plans	-9.82015
▁Despite	-9.8206
▁1949	-9.82082
▁continues	-9.82107
▁lines	-9.82108
▁1955	-9.82112
▁grade	-9.8215
06	-9.82203
▁promotion	-9.82253
▁keep	-9.82256
▁concept	-9.82278
▁Jack	-9.82303
▁Press	-9.8233
▁del	-9.82339
▁serves	-9.8238
▁Highway	-9.82383
▁Also	-9.82409
▁Mag	-9.8243
▁twice	-9.82431
▁Of	-9.82439
▁probably	-9.82444
▁silver	-9.82459
▁graduate	-9.82465
rum	-9.82467
sky	-9.82475
▁Kong	-9.82498
▁Avenue	-9.82505
ever	-9.82507
og	-9.82513
▁younger	-9.82515
ag	-9.82517
cal	-9.82555
ade	-9.82596
▁changes	-9.82596
▁Major	-9.82602
▁concert	-9.82667
▁principal	-9.82688
▁1954	-9.82692
mm	-9.82717
▁cultural	-9.82734
05	-9.82752
▁conducted	-9.82815
▁primarily	-9.82866
▁whole	-9.82871
▁online	-9.8289
cker	-9.8292
uff	-9.8297
▁problems	-9.82981
▁1989	-9.83002
▁amount	-9.83072
▁press	-9.83092
cul	-9.83108
▁USA	-9.83126
▁4,	-9.83268
▁Each	-9.83315
▁quarter	-9.83352
iv	-9.83358
▁Junior	-9.83452
▁wing	-9.83478
▁mentioned	-9.83479
▁direct	-9.83566
lia	-9.83626
▁Justice	-9.83629
play	-9.83631
88	-9.83633
▁journalist	-9.83652
▁perform	-9.83669
wan	-9.83669
▁1952	-9.83703
–18	-9.83855
▁fifth	-9.84023
▁hotel	-9.84068
▁produce	-9.84069
▁capacity	-9.84071
▁attempt	-9.84072
86	-9.84081
▁Hong	-9.84086
▁1988	-9.84134
par	-9.84182
▁function	-9.8421
▁Andrew	-9.8421
▁allow	-9.8422
ei	-9.84289
▁le	-9.84346
▁featuring	-9.84368
▁Kan	-9.84425
▁theory	-9.84513
▁stream	-9.84577
▁facilities	-9.84671
ns	-9.84727
▁appear	-9.84774
▁Ol	-9.84803
▁settled	-9.84827
▁Asia	-9.84827
▁newly	-9.84846
▁Miss	-9.8491
▁records	-9.84922
▁themselves	-9.84945
▁1953	-9.84948
▁report	-9.84967
?	-9.84974
▁forms	-9.85001
cus	-9.85019
▁origin	-9.85079
▁foreign	-9.85134
▁makes	-9.8517
▁focus	-9.8519
▁Polish	-9.85233
American	-9.85267
▁Is	-9.8533
▁Cre	-9.85392
nie	-9.85414
▁hosted	-9.8543
▁charge	-9.85431
▁Vo	-9.85575
▁Maria	-9.85578
▁organized	-9.85595
▁divided	-9.85677
▁proposed	-9.85701
▁portion	-9.85702
bert	-9.85712
▁Yu	-9.85754
sta	-9.85758
▁gun	-9.85784
dra	-9.858
ill	-9.85835
▁80	-9.85842
▁awards	-9.85846
my	-9.85853
▁develop	-9.85869
▁pe	-9.85902
▁Province	-9.85916
31	-9.8595
▁continue	-9.85958
▁Sports	-9.85975
ks	-9.85976
dale	-9.86026
dal	-9.8606
▁painter	-9.86062
▁disease	-9.86076
long	-9.86095
▁reserve	-9.86112
▁federal	-9.86165
▁poet	-9.86242
▁1951	-9.86268
yan	-9.86283
▁mountain	-9.86368
2),	-9.8637
▁sons	-9.86427
36	-9.86442
▁destroyed	-9.86479
65	-9.86629
ping	-9.86638
▁partner	-9.8668
▁Earl	-9.867
▁Pen	-9.86742
▁initial	-9.86826
▁enough	-9.86871
can	-9.8695
▁Ali	-9.8703
39	-9.87047
oo	-9.87071
top	-9.87115
▁Gra	-9.87116
▁van	-9.87145
▁murder	-9.87165
37	-9.87175
▁situated	-9.87261
▁lot	-9.87273
▁Another	-9.87309
▁mill	-9.87358
▁judge	-9.87375
▁expanded	-9.87378
▁wall	-9.87426
38	-9.87471
▁pilot	-9.87497
▁results	-9.8756
▁24,	-9.87589
▁cell	-9.87637
▁18,	-9.8764
fu	-9.87709
▁read	-9.87752
▁prize	-9.87768
▁Before	-9.87832
▁issued	-9.87889
▁specific	-9.87902
▁Between	-9.87983
ris	-9.87988
▁Wisconsin	-9.88001
▁removed	-9.88022
set	-9.88049
ple	-9.88123
gent	-9.88133
33	-9.88281
▁surrounding	-9.88284
▁Three	-9.88314
▁prison	-9.88331
▁engineer	-9.88378
▁super	-9.88387
▁value	-9.88436
▁ho	-9.88503
gue	-9.88625
ston	-9.88633
▁1918	-9.88668
▁Band	-9.88733
78	-9.88736
▁ob	-9.88737
▁sa	-9.88756
ala	-9.88781
ves	-9.88805
▁acres	-9.88839
79	-9.88845
48	-9.88868
▁junior	-9.8888
▁content	-9.88921
▁Mad	-9.88961
▁evidence	-9.88977
▁Norwegian	-9.89039
04	-9.89051
▁alone	-9.89061
94	-9.89142
▁Head	-9.8919
▁commissioned	-9.89286
ā	-9.89405
▁opera	-9.89452
95	-9.89486
▁asked	-9.89495
▁More	-9.89509
47	-9.89512
▁Premier	-9.89546
aw	-9.89581
tha	-9.89583
▁effect	-9.89596
▁1987	-9.89618
▁2003,	-9.89622
▁Mer	-9.8964
ight	-9.8966
▁nature	-9.89662
°	-9.89744
▁search	-9.89826
ctor	-9.89838
46	-9.89879
▁holds	-9.89924
▁Federal	-9.89945
bal	-9.89982
▁Fo	-9.90046
fo	-9.90113
dar	-9.90131
gon	-9.90145
dan	-9.90186
▁idea	-9.90262
▁Among	-9.90266
▁1938	-9.90297
▁foundation	-9.90398
▁coming	-9.90454
▁Q	-9.90455
▁Fu	-9.9063
▁Swedish	-9.90791
▁Israel	-9.90795
▁stations	-9.90804
var	-9.90854
▁ba	-9.90912
▁poor	-9.90973
▁reach	-9.90995
▁news	-9.91009
▁guest	-9.91026
55	-9.91046
water	-9.91068
ble	-9.91125
lor	-9.91166
34	-9.91175
▁Daniel	-9.9119
▁attention	-9.91301
▁Inter	-9.91336
xi	-9.91337
▁energy	-9.91339
ric	-9.91342
ob	-9.91348
▁founding	-9.91353
▁policy	-9.91371
▁Journal	-9.91371
▁Bel	-9.91394
▁2018.	-9.91481
66	-9.91494
▁Corps	-9.91496
▁edge	-9.91541
▁(4	-9.91701
▁aged	-9.91711
▁1984	-9.91732
▁highly	-9.91751
▁tradition	-9.91768
▁bishop	-9.91815
▁quickly	-9.91828
▁Medical	-9.91833
▁smaller	-9.91856
▁display	-9.91911
▁begins	-9.91991
▁wanted	-9.92
▁Up	-9.92076
▁Ontario	-9.92097
▁suffered	-9.92128
▁facility	-9.92179
▁cause	-9.92183
▁granted	-9.92208
▁Fri	-9.92214
▁2006.	-9.92228
▁basis	-9.9225
▁despite	-9.92274
▁lies	-9.92303
▁1986	-9.92306
ug	-9.92307
▁Media	-9.92307
▁Philadelphia	-9.92356
32	-9.92409
▁fish	-9.9244
▁von	-9.9245
▁Will	-9.92534
▁clear	-9.92543
▁governor	-9.92557
▁kilometres	-9.9256
87	-9.92614
▁Ye	-9.92622
▁Olympic	-9.92682
▁graduating	-9.9269
▁entitled	-9.92731
▁Free	-9.9274
▁1936	-9.92799
ates	-9.92867
▁method	-9.92899
▁bring	-9.92922
▁Ser	-9.92955
▁deep	-9.92956
part	-9.92981
84	-9.93027
▁finish	-9.93039
▁meet	-9.9304
▁directly	-9.93072
▁Jr	-9.93106
▁Forest	-9.93124
▁Field	-9.93126
▁response	-9.93223
▁Joe	-9.93278
▁Series	-9.93295
▁Medal	-9.93298
ye	-9.93302
▁ta	-9.93325
99	-9.93336
▁dead	-9.93376
▁our	-9.9341
▁contemporary	-9.93414
▁rank	-9.93523
ero	-9.93567
▁returning	-9.93711
▁roles	-9.93736
▁accepted	-9.93871
▁32	-9.93917
▁union	-9.93975
win	-9.93978
▁Albert	-9.93985
▁pop	-9.94038
▁literature	-9.9404
▁immediately	-9.94055
▁launch	-9.94197
tes	-9.94208
▁mayor	-9.94208
pan	-9.94225
▁inside	-9.94241
▁Studies	-9.94297
ray	-9.94341
net	-9.94358
–20	-9.94405
83	-9.94449
56	-9.94475
ky	-9.94528
▁performing	-9.94556
▁Sciences	-9.94571
▁stay	-9.9458
▁highway	-9.94592
▁Vice	-9.94679
▁positive	-9.9469
▁Pra	-9.94693
49	-9.94832
▁Bell	-9.94834
▁Sp	-9.94874
▁Light	-9.94921
▁Social	-9.94943
▁brothers	-9.94969
▁‘	-9.95003
▁Ash	-9.95008
▁audience	-9.95013
▁1946	-9.95058
▁Night	-9.9506
rid	-9.95133
ib	-9.95214
▁letter	-9.95233
▁Carl	-9.95278
ada	-9.95294
▁injury	-9.9532
▁Christ	-9.95325
▁pair	-9.95345
▁colour	-9.95398
ations	-9.95441
▁Nu	-9.95456
án	-9.95476
▁Lady	-9.95506
▁Camp	-9.95515
▁stand	-9.95533
▁1944	-9.95612
▁Tor	-9.95654
tru	-9.95712
ability	-9.95761
cent	-9.95799
▁pass	-9.95887
▁chosen	-9.95894
▁1983	-9.95897
act	-9.95951
▁planned	-9.9596
▁operating	-9.95979
▁1937	-9.9599
mal	-9.96013
▁Prime	-9.96034
uch	-9.96062
▁1985	-9.96115
98	-9.96123
del	-9.96164
03	-9.96185
+	-9.96252
▁intended	-9.96287
ula	-9.9629
▁1919	-9.96299
▁administration	-9.96303
▁Network	-9.96306
oon	-9.96345
▁(20	-9.96385
▁publication	-9.96415
▁treatment	-9.96444
shire	-9.96448
▁Boy	-9.96455
▁Ten	-9.96466
▁5,	-9.96479
tch	-9.96511
tle	-9.96529
▁twenty	-9.96573
▁gas	-9.96603
ington	-9.96634
▁entrance	-9.96671
44	-9.96704
▁votes	-9.9674
▁broad	-9.96811
▁performances	-9.96847
Re	-9.96918
▁70	-9.96934
64	-9.96937
▁joining	-9.97053
▁Mus	-9.97074
rin	-9.97106
▁priest	-9.97107
cia	-9.97167
▁Fer	-9.97168
▁champion	-9.97207
▁Sho	-9.97217
▁era	-9.97282
▁kind	-9.97296
La	-9.97315
▁girl	-9.97407
59	-9.97439
▁constituency	-9.97451
vers	-9.97522
68	-9.97523
▁Netherlands	-9.97551
bro	-9.97633
ins	-9.97647
▁Francis	-9.97651
▁Community	-9.9775
▁might	-9.97796
▁creation	-9.97803
▁ball	-9.97808
▁reviews	-9.97863
▁widely	-9.97878
ale	-9.97908
▁Today	-9.9791
▁roof	-9.97929
uri	-9.97961
▁trial	-9.97991
▁pen	-9.97998
81	-9.98074
▁giving	-9.9815
TV	-9.9816
▁saying	-9.98183
▁birth	-9.98257
▁1929	-9.98273
▁adopted	-9.98429
▁figure	-9.98453
▁height	-9.98463
▁Hi	-9.98465
▁connected	-9.98513
work	-9.98529
▁Prior	-9.98584
▁cities	-9.98687
▁table	-9.98707
MA	-9.98709
ella	-9.98727
nder	-9.98735
▁Captain	-9.98745
▁1982	-9.98764
IS	-9.98768
with	-9.98792
ign	-9.98879
▁Son	-9.98914
▁Final	-9.98943
▁digital	-9.98959
▁Stephen	-9.99025
rk	-9.99068
▁Special	-9.99128
▁recognized	-9.99136
▁agreement	-9.99166
gel	-9.99185
die	-9.99223
▁brown	-9.99224
▁1935	-9.99285
▁corner	-9.99286
▁compete	-9.99292
▁designated	-9.99292
ich	-9.99295
▁90	-9.99314
▁Cho	-9.99346
▁heavy	-9.9938
41	-9.99384
▁Main	-9.99416
-18	-9.99431
▁2002,	-9.99449
▁winter	-9.99453
known	-9.99477
▁Char	-9.99541
qu	-9.99542
tern	-9.99599
▁Moscow	-9.99604
▁transfer	-9.99625
▁vice	-9.9966
board	-9.9968
▁Like	-9.99688
▁Power	-9.99692
tte	-9.99721
yo	-9.99746
▁resigned	-9.9975
▁Poland	-9.99826
▁Point	-9.99829
-2	-9.99839
▁goes	-9.99868
▁merged	-9.99881
▁shape	-9.9992
▁airport	-9.99943
▁Sweden	-9.99954
▁actress	-10.0001
▁Ken	-10.0004
58	-10.0009
ón	-10.0021
sia	-10.0023
ona	-10.003
▁Four	-10.0033
▁prevent	-10.0033
▁cancer	-10.0034
▁Cemetery	-10.0035
▁inspired	-10.0037
▁cases	-10.0041
▁unique	-10.0042
▁software	-10.0047
▁bus	-10.005
▁fell	-10.0056
▁mis	-10.0057
▁Earth	-10.0061
lock	-10.0062
bury	-10.0063
ali	-10.0064
▁interview	-10.0069
▁Liberal	-10.0075
▁na	-10.0083
▁hold	-10.0087
CC	-10.009
67	-10.0091
▁respectively	-10.0092
▁protect	-10.0098
▁article	-10.0104
▁elements	-10.0108
57	-10.0109
▁troops	-10.0113
▁tree	-10.0117
▁Officer	-10.0119
▁classes	-10.0121
▁clubs	-10.0122
▁politics	-10.0126
▁y	-10.0131
▁MP	-10.0136
▁big	-10.014
wer	-10.014
▁conditions	-10.0141
▁Sur	-10.0147
▁Dis	-10.0154
▁2001,	-10.0157
▁1979	-10.016
kov	-10.016
▁told	-10.0161
▁para	-10.0161
rie	-10.0162
▁articles	-10.0163
▁approach	-10.0169
▁Sunday	-10.017
▁Fair	-10.017
▁mass	-10.0177
▁500	-10.0183
▁foot	-10.0183
▁providing	-10.0184
▁secret	-10.0187
▁agent	-10.0213
54	-10.0215
▁forward	-10.0216
▁industrial	-10.0224
▁1917	-10.0225
▁Wil	-10.0236
▁yet	-10.0237
▁Mountain	-10.0241
▁1914	-10.0242
▁programme	-10.0244
▁engineering	-10.0249
43	-10.0257
rick	-10.0258
▁wind	-10.0262
row	-10.0268
▁covers	-10.0269
▁documentary	-10.0274
▁secondary	-10.0279
▁share	-10.0284
▁1933	-10.0285
az	-10.0285
sco	-10.0291
97	-10.0291
lay	-10.0294
▁Bob	-10.0297
▁yards	-10.0298
▁secretary	-10.0299
med	-10.03
▁rural	-10.0301
▁exchange	-10.0302
▁equipment	-10.0303
▁Opera	-10.0309
▁quality	-10.031
▁growth	-10.0311
gh	-10.032
▁exhibition	-10.0321
▁commander	-10.0323
▁revealed	-10.0334
yer	-10.0339
▁1972	-10.034
▁Ci	-10.0347
▁#	-10.0354
▁sh	-10.0356
▁1928	-10.036
nch	-10.0363
▁Pakistan	-10.0364
▁et	-10.0365
▁Pope	-10.0365
▁environment	-10.0368
▁Ham	-10.0371
▁Gre	-10.0371
eb	-10.0372
serv	-10.0373
▁1934	-10.0376
▁Edinburgh	-10.0379
▁comedy	-10.0386
▁Beach	-10.0389
71	-10.0408
▁Islands	-10.0408
▁Ed	-10.041
▁Tar	-10.0412
▁reform	-10.0414
▁app	-10.0415
SA	-10.0417
▁micro	-10.0418
rt	-10.0419
▁1976	-10.0419
▁box	-10.0423
▁finishing	-10.043
▁Time	-10.0433
▁ice	-10.0434
▁likely	-10.0437
▁Out	-10.0441
▁ships	-10.0441
▁fo	-10.0441
▁transport	-10.0442
42	-10.0443
▁Vol	-10.0446
▁des	-10.0448
▁Wilson	-10.0451
Ch	-10.0454
▁traffic	-10.0456
▁Sh	-10.0469
▁formation	-10.0472
▁contributed	-10.0486
▁piece	-10.049
77	-10.0492
▁losing	-10.0492
02	-10.0493
▁remain	-10.0495
eng	-10.0498
и	-10.0506
ole	-10.0506
▁security	-10.0511
▁Jim	-10.0513
tta	-10.0518
▁image	-10.052
▁Sk	-10.0522
▁6,	-10.0525
▁Arthur	-10.0525
▁Part	-10.053
▁efforts	-10.0531
▁Taylor	-10.0532
▁Affairs	-10.0534
▁1981	-10.0537
cu	-10.0537
▁mixed	-10.0538
▁growing	-10.0539
▁reason	-10.0539
▁1900	-10.0541
▁Rose	-10.0542
▁(16	-10.0543
96	-10.0548
▁Del	-10.0548
▁boat	-10.055
▁Airport	-10.0555
▁1974	-10.0556
▁Melbourne	-10.0557
▁Jackson	-10.0563
▁purpose	-10.0565
▁Cape	-10.057
▁leadership	-10.0578
ida	-10.0578
▁Bachelor	-10.058
▁valley	-10.0582
ase	-10.0589
▁1978	-10.0592
▁1910	-10.0594
▁someone	-10.0598
▁disc	-10.0599
▁7,	-10.06
▁po	-10.0602
▁activity	-10.0603
▁1922	-10.0603
dor	-10.0604
▁1924	-10.0605
▁commission	-10.0608
▁captured	-10.0615
▁rule	-10.0616
▁survey	-10.0617
▁Davis	-10.0625
▁Village	-10.0628
▁Supreme	-10.0631
ets	-10.0631
ments	-10.0632
▁Design	-10.0635
▁pa	-10.0635
▁$2	-10.0637
▁Police	-10.064
▁honour	-10.065
▁contact	-10.0654
dd	-10.0661
nk	-10.0662
▁piano	-10.0662
▁kept	-10.0663
▁Magazine	-10.0664
▁trip	-10.0665
▁Fellow	-10.0668
▁Hy	-10.0678
▁arrested	-10.0679
▁Executive	-10.0679
ification	-10.0679
ax	-10.068
▁1927	-10.068
▁signal	-10.068
▁fine	-10.0682
ars	-10.0683
▁stars	-10.0685
▁Stra	-10.0686
zy	-10.0688
▁2005.	-10.0688
▁Gen	-10.0695
▁Ze	-10.0696
▁confirmed	-10.0697
▁Ak	-10.0698
aki	-10.07
–2	-10.0703
▁arch	-10.0704
east	-10.0706
▁incorporated	-10.0707
▁words	-10.0708
century	-10.0709
▁oldest	-10.0709
hl	-10.0715
▁Country	-10.0717
▁sales	-10.0717
▁News	-10.0717
▁1931	-10.0718
61	-10.072
▁cha	-10.0731
63	-10.0736
AC	-10.0738
▁levels	-10.0743
▁Cur	-10.0748
▁Program	-10.0748
▁Engineering	-10.0752
▁invited	-10.0755
stra	-10.0763
sey	-10.0763
dis	-10.0765
place	-10.0772
▁names	-10.0774
▁historian	-10.0788
▁joint	-10.079
▁Luc	-10.0791
▁bronze	-10.0793
▁arts	-10.0794
din	-10.0795
▁Wall	-10.08
▁headquarters	-10.0805
ux	-10.0805
cur	-10.0807
▁1923	-10.081
▁contest	-10.0813
▁Class	-10.0814
▁Arm	-10.0815
▁setting	-10.0815
▁Management	-10.0818
▁1932	-10.0821
▁Missouri	-10.0822
▁lo	-10.0829
▁Angel	-10.0829
aka	-10.0831
▁trained	-10.0832
▁walk	-10.0832
▁declared	-10.0833
▁scientific	-10.0837
▁1977	-10.0844
▁soldiers	-10.0844
▁occurs	-10.0847
▁Mike	-10.0848
ose	-10.0851
ming	-10.0853
▁combined	-10.0853
▁Nations	-10.0858
▁Township	-10.0863
▁Mont	-10.0864
▁literary	-10.0866
bin	-10.0866
▁Muslim	-10.0866
▁bill	-10.0867
▁Trans	-10.0872
▁weight	-10.0872
ography	-10.0876
▁daily	-10.0878
mu	-10.0881
▁1975	-10.0885
duct	-10.0885
▁com	-10.0888
▁Atlantic	-10.0889
▁driver	-10.089
▁shortly	-10.0891
int	-10.0891
▁etc	-10.0892
▁receiving	-10.0893
▁crime	-10.0897
▁trains	-10.09
Le	-10.0901
ama	-10.0908
▁territory	-10.0915
▁converted	-10.0923
qua	-10.0925
▁simple	-10.0926
ction	-10.094
74	-10.094
▁Regiment	-10.0941
▁Project	-10.0942
69	-10.0943
▁Anne	-10.0944
▁Game	-10.0945
▁Cro	-10.0952
▁talk	-10.0954
gra	-10.0956
▁grant	-10.0963
pri	-10.0964
▁1968	-10.0965
▁Due	-10.0965
▁Labour	-10.0967
pin	-10.0969
▁theater	-10.0975
▁distribution	-10.0981
▁Military	-10.0987
▁typically	-10.099
▁£	-10.0992
▁Federation	-10.0996
▁generation	-10.0997
▁Orchestra	-10.1001
▁Tre	-10.1002
▁ski	-10.1006
▁copies	-10.1008
▁Sar	-10.1012
▁chair	-10.1014
▁offer	-10.1015
sp	-10.1016
och	-10.1016
▁rating	-10.1018
▁historic	-10.1019
53	-10.103
▁achieved	-10.1039
▁Khan	-10.1041
▁Simon	-10.1043
62	-10.1045
nan	-10.1045
▁fl	-10.1049
▁beat	-10.1053
▁EP	-10.1055
▁Marine	-10.1055
▁Live	-10.1057
▁visited	-10.1058
ica	-10.1058
ern	-10.106
▁rise	-10.1063
▁extra	-10.1063
▁Chairman	-10.1065
▁count	-10.1067
▁Lewis	-10.1068
▁par	-10.107
kan	-10.1072
93	-10.108
▁1921	-10.1084
51	-10.1086
▁plants	-10.1089
▁hired	-10.1093
▁architecture	-10.1094
chan	-10.1094
▁pick	-10.1095
▁episodes	-10.1106
▁stock	-10.1114
spect	-10.1117
ture	-10.1119
▁problem	-10.1121
▁Fox	-10.1126
▁Qu	-10.1128
▁attend	-10.1128
dic	-10.1128
▁titles	-10.1129
▁poetry	-10.1131
cer	-10.1132
▁receive	-10.1132
è	-10.1137
vent	-10.1142
▁Ross	-10.1142
91	-10.1146
▁languages	-10.1151
▁Memorial	-10.1151
▁Upon	-10.1151
▁peak	-10.1152
▁physical	-10.1155
▁largely	-10.1155
hen	-10.1157
lea	-10.1158
▁ring	-10.116
▁Harvard	-10.1161
▁Korea	-10.1161
▁avoid	-10.1166
▁Anna	-10.117
▁condition	-10.1177
▁tax	-10.1178
ua	-10.118
▁Ste	-10.1182
lly	-10.1184
▁BC	-10.1185
▁follow	-10.1186
▁36	-10.1189
ira	-10.1196
▁Real	-10.1196
▁1912	-10.1197
ú	-10.1197
▁Dor	-10.1198
▁price	-10.1201
▁1973	-10.1201
▁becomes	-10.1202
which	-10.1205
▁singing	-10.1205
▁Norway	-10.1205
EC	-10.1209
▁1925	-10.1214
oli	-10.1216
▁situation	-10.1218
▁neighborhood	-10.1222
nic	-10.1227
▁communities	-10.123
▁horse	-10.1231
▁1969	-10.1233
▁Minnesota	-10.1233
▁Mas	-10.124
ado	-10.124
pu	-10.1241
oma	-10.1242
ati	-10.1246
▁Chris	-10.1247
▁comic	-10.1252
▁Stone	-10.1252
▁Channel	-10.1252
▁yellow	-10.1256
▁accident	-10.1265
▁Win	-10.1268
▁partnership	-10.1272
▁Ray	-10.1274
▁Ball	-10.1274
▁administrative	-10.1276
▁drive	-10.1284
▁lawyer	-10.1286
▁identified	-10.1286
76	-10.1286
▁urban	-10.1287
▁promote	-10.1289
ball	-10.1292
▁presence	-10.13
▁gives	-10.1301
▁holding	-10.1302
▁ordered	-10.1303
▁Review	-10.1305
▁Yo	-10.1307
▁1926	-10.1317
mont	-10.1321
▁Gallery	-10.1322
▁agreed	-10.1325
▁fought	-10.1328
▁passes	-10.1337
▁paid	-10.1342
▁Tan	-10.1348
mis	-10.1348
wo	-10.1352
▁Nor	-10.1353
▁Sc	-10.1353
▁resulted	-10.1355
▁Hot	-10.1356
nn	-10.1365
▁Senior	-10.137
▁inhabitants	-10.1374
▁actually	-10.138
ans	-10.1383
▁whether	-10.1386
hal	-10.1388
▁1971	-10.1394
len	-10.1397
▁End	-10.1397
eo	-10.1399
star	-10.14
mit	-10.1403
ably	-10.1404
▁Sand	-10.1408
▁8,	-10.1408
press	-10.1413
▁gene	-10.1416
room	-10.1418
▁analysis	-10.1425
▁hair	-10.1429
nu	-10.143
▁residence	-10.1436
ew	-10.1448
ration	-10.1448
ition	-10.1448
▁adult	-10.1451
vert	-10.1455
▁learn	-10.1455
72	-10.1457
▁follows	-10.1468
▁ranked	-10.1471
▁scale	-10.1479
▁temperature	-10.1479
▁symbol	-10.1484
▁Brazil	-10.1486
▁Manchester	-10.1486
▁Because	-10.149
list	-10.1495
ø	-10.1496
▁1999,	-10.1497
82	-10.1497
▁represent	-10.1497
chen	-10.1502
▁1945	-10.1503
ute	-10.1509
▁applied	-10.1512
▁Play	-10.1513
Co	-10.1513
ique	-10.1514
▁hill	-10.1515
▁Native	-10.1516
▁Command	-10.1517
▁employed	-10.1521
zz	-10.1521
▁girls	-10.1522
▁Trust	-10.1525
dia	-10.1531
▁option	-10.1534
92	-10.1536
▁creating	-10.1538
▁Dun	-10.1539
▁workers	-10.1541
▁write	-10.1543
▁unknown	-10.1544
▁paintings	-10.1544
52	-10.156
▁fi	-10.1562
▁slightly	-10.1563
▁Billboard	-10.1567
▁System	-10.1567
heim	-10.157
rac	-10.1571
▁Rad	-10.1572
▁im	-10.1573
▁10,	-10.158
rich	-10.1583
mun	-10.1587
ash	-10.159
▁damage	-10.1592
▁target	-10.1593
▁spot	-10.1599
▁Walter	-10.16
▁completely	-10.16
▁flat	-10.1607
▁potential	-10.161
▁Mill	-10.1614
▁therefore	-10.162
▁fruit	-10.1634
▁Sri	-10.1644
▁Os	-10.1647
▁trees	-10.1649
izing	-10.165
▁permanent	-10.1653
▁Song	-10.1654
RA	-10.1654
▁Fire	-10.1654
CA	-10.1655
▁estimated	-10.1656
▁technical	-10.1656
▁Area	-10.1658
ora	-10.166
▁starts	-10.1661
▁Deputy	-10.1664
hn	-10.1665
cing	-10.1667
▁Mil	-10.1667
▁critical	-10.167
▁Ocean	-10.1671
▁occupied	-10.1675
▁Cat	-10.1675
▁places	-10.1675
stein	-10.1676
▁pressure	-10.1678
lli	-10.1682
▁2004.	-10.1683
▁needed	-10.1685
▁impact	-10.1688
▁royal	-10.1688
▁Ann	-10.169
▁11,	-10.1695
ava	-10.1695
▁Ger	-10.1696
nal	-10.1697
are	-10.1698
ato	-10.1706
tar	-10.1709
▁officers	-10.1713
▁Im	-10.1721
▁Mur	-10.1727
He	-10.1731
▁question	-10.1732
▁Tim	-10.1736
▁expected	-10.1737
▁difficult	-10.1738
▁knowledge	-10.1741
▁Doctor	-10.1746
▁laid	-10.1746
▁conflict	-10.1746
lle	-10.1748
▁Kansas	-10.1752
▁Au	-10.1768
▁Ly	-10.1777
▁1916	-10.1782
▁factory	-10.1783
ika	-10.1785
▁path	-10.1786
ologist	-10.1786
▁sell	-10.179
▁organizations	-10.1791
▁allows	-10.18
▁1967	-10.18
▁sources	-10.1803
▁meters	-10.1807
▁Hotel	-10.1809
▁qualified	-10.1809
▁Fame	-10.1815
▁(5	-10.182
▁survived	-10.1829
▁1915	-10.1836
▁blood	-10.1843
▁Sub	-10.1843
▁Gor	-10.1843
▁look	-10.1843
▁baseball	-10.1846
▁buy	-10.1851
▁screen	-10.1857
▁ability	-10.1857
uc	-10.1861
▁bo	-10.1863
▁interior	-10.1863
▁Tennessee	-10.1865
▁15,	-10.1867
▁commonly	-10.1868
▁frequently	-10.1871
rate	-10.1874
BA	-10.188
▁starred	-10.1885
▁Gro	-10.1886
▁producing	-10.1892
▁row	-10.1894
not	-10.1894
▁marked	-10.1894
pre	-10.1896
▁rich	-10.1904
▁sculpture	-10.1908
▁resulting	-10.1913
point	-10.1918
▁Temple	-10.1918
▁l	-10.192
▁Age	-10.192
▁positions	-10.1923
▁formerly	-10.1927
73	-10.1934
▁Ven	-10.1937
▁tells	-10.194
▁focused	-10.194
▁Dublin	-10.1948
▁collaboration	-10.1951
▁consisted	-10.1954
▁Tro	-10.1961
▁trail	-10.1962
▁Jacob	-10.1967
▁lyrics	-10.1969
▁broke	-10.1973
▁representative	-10.1974
ved	-10.1974
▁dam	-10.198
▁Golden	-10.1986
▁effort	-10.1986
ugh	-10.1988
▁Rev	-10.1988
▁regularly	-10.1989
▁Brook	-10.199
ult	-10.199
▁monument	-10.1992
▁Ren	-10.1992
▁33	-10.2
tus	-10.2006
▁Gri	-10.2008
▁seats	-10.2013
▁boy	-10.2014
▁plot	-10.2018
▁About	-10.2021
ori	-10.2027
dle	-10.2027
▁representing	-10.2031
▁fully	-10.2032
▁9,	-10.2035
▁tail	-10.204
▁protest	-10.2045
▁derived	-10.2045
▁phase	-10.2046
▁machine	-10.2051
matic	-10.2052
č	-10.2053
▁painted	-10.2056
▁Hay	-10.2057
hill	-10.2058
▁demand	-10.2058
lla	-10.2059
▁Miller	-10.2063
election	-10.2063
▁occurred	-10.2068
▁iron	-10.207
▁Reg	-10.2071
▁pieces	-10.2071
bri	-10.2072
▁1965	-10.2075
▁Phil	-10.2076
ban	-10.208
▁21,	-10.2082
▁12,	-10.2085
▁says	-10.2087
▁classical	-10.2096
▁except	-10.2098
▁Es	-10.2101
▁Baron	-10.2108
▁Vienna	-10.2108
▁Bri	-10.2112
▁narrow	-10.2113
α	-10.2117
▁flow	-10.2118
▁cap	-10.212
▁category	-10.2123
ros	-10.2124
▁compared	-10.2125
▁Cra	-10.2128
▁true	-10.2132
get	-10.2132
▁Stadium	-10.2135
vel	-10.2135
▁1913	-10.214
▁fashion	-10.2141
▁Human	-10.2142
▁percent	-10.2144
▁Not	-10.2144
▁establishment	-10.2152
bit	-10.2153
▁tried	-10.2157
▁Youth	-10.2159
▁extensive	-10.2163
▁Foreign	-10.2166
▁Bor	-10.2169
wn	-10.2171
▁makeup	-10.2173
▁1966	-10.2177
tom	-10.2185
▁Stan	-10.2186
▁organ	-10.2187
▁try	-10.2187
eu	-10.2189
▁maximum	-10.219
▁morning	-10.2191
▁shell	-10.2197
mate	-10.22
▁Des	-10.22
▁want	-10.2201
▁14,	-10.2202
IA	-10.2204
▁background	-10.2205
key	-10.2208
▁Matt	-10.221
mic	-10.2213
▁Guard	-10.2213
▁gl	-10.2215
▁ver	-10.2216
▁script	-10.2217
▁finds	-10.222
▁22,	-10.2224
▁chain	-10.2229
▁Farm	-10.2233
▁studying	-10.2242
▁effects	-10.2244
▁types	-10.2244
▁global	-10.2246
▁application	-10.2247
▁deputy	-10.2251
▁ra	-10.2258
▁Pri	-10.2262
▁Cap	-10.2267
▁step	-10.2268
▁rail	-10.2269
▁leg	-10.2272
▁climate	-10.2277
▁appointment	-10.228
▁racing	-10.2285
▁Regional	-10.2287
▁Colorado	-10.2289
▁Fre	-10.2289
▁sexual	-10.2292
ges	-10.2299
▁Shar	-10.2301
▁abandoned	-10.2305
▁parties	-10.2307
▁1911	-10.2314
▁think	-10.2316
▁approved	-10.2316
▁dropped	-10.232
▁Bla	-10.232
▁Maryland	-10.232
▁journal	-10.2322
▁Austria	-10.2324
▁debuted	-10.2325
ene	-10.2326
▁shop	-10.2328
▁30,	-10.2334
▁Down	-10.2334
jan	-10.2341
▁Lieutenant	-10.2342
St	-10.2343
▁Region	-10.2343
▁draft	-10.2343
▁1998,	-10.2344
▁Mah	-10.2344
▁bass	-10.2345
▁billion	-10.235
▁things	-10.2352
▁faculty	-10.2354
▁Holy	-10.236
▁glass	-10.2362
▁Kat	-10.2366
gor	-10.2367
▁showed	-10.2368
thi	-10.2369
▁28,	-10.2371
zu	-10.2371
▁existing	-10.2376
▁Samuel	-10.2376
▁23,	-10.2378
rn	-10.2379
▁advanced	-10.2381
An	-10.2385
▁300	-10.2389
▁1908	-10.2389
▁der	-10.2391
▁authorities	-10.2392
▁Steve	-10.2393
▁Emperor	-10.2404
▁basic	-10.241
▁equal	-10.2419
▁arms	-10.242
tation	-10.2422
▁letters	-10.2422
zer	-10.2433
▁volume	-10.2433
▁sixth	-10.2438
aga	-10.2439
▁rear	-10.244
▁13,	-10.2442
▁Ltd	-10.2442
▁funding	-10.2444
▁claim	-10.2446
▁CEO	-10.2453
▁jazz	-10.2453
▁Cy	-10.2454
▁Hor	-10.2456
master	-10.2459
pper	-10.246
pic	-10.2464
▁collected	-10.247
▁daughters	-10.2472
▁Oregon	-10.2475
▁sat	-10.2476
pen	-10.2479
▁landscape	-10.248
▁threat	-10.2481
uck	-10.2483
▁Frederick	-10.2486
▁doctor	-10.2487
▁Bon	-10.2491
▁expansion	-10.2491
100	-10.2491
▁subsequent	-10.2493
▁educational	-10.2495
aya	-10.2495
lie	-10.2502
▁2003.	-10.2504
mark	-10.2505
ister	-10.2506
▁26,	-10.2508
▁ending	-10.2509
▁Philip	-10.2511
▁Winter	-10.2511
▁garden	-10.2513
▁extension	-10.2528
IC	-10.2531
▁Les	-10.2533
▁hands	-10.2537
▁suggested	-10.2538
▁admitted	-10.2544
Mo	-10.2547
▁frame	-10.2551
▁escape	-10.2554
▁Run	-10.2556
▁panel	-10.2559
rus	-10.2564
▁courses	-10.2569
▁northeast	-10.257
▁herself	-10.2574
gate	-10.2578
▁Pol	-10.258
▁materials	-10.2585
▁reduced	-10.2587
▁dog	-10.2587
tsu	-10.2588
▁sector	-10.2593
▁maintain	-10.2593
▁progress	-10.2598
▁institution	-10.2599
▁racial	-10.2601
▁1890	-10.2609
De	-10.261
▁19,	-10.2614
▁task	-10.2617
▁Naval	-10.2617
▁zone	-10.2617
▁gu	-10.2625
▁Den	-10.2629
▁card	-10.2629
▁Wal	-10.263
bor	-10.2634
▁Clark	-10.2635
▁albums	-10.2641
▁Margaret	-10.2642
▁incident	-10.2644
▁=	-10.2644
▁sides	-10.2645
▁engaged	-10.2646
▁web	-10.2649
▁selection	-10.2651
▁substitute	-10.2655
▁standing	-10.2656
▁installed	-10.2658
▁trans	-10.2662
▁si	-10.2664
▁fans	-10.2666
▁Six	-10.267
▁stands	-10.2671
▁investment	-10.2673
▁...	-10.2673
ency	-10.2673
▁27,	-10.2678
▁Op	-10.2678
▁learning	-10.268
▁brick	-10.268
▁Kim	-10.2682
▁20,	-10.2688
▁critic	-10.2688
▁begin	-10.269
▁designer	-10.2696
tis	-10.2697
▁Comp	-10.2701
▁walls	-10.2702
lum	-10.271
▁recognition	-10.2715
▁Dam	-10.2718
▁onto	-10.2723
▁offices	-10.2724
▁Several	-10.2729
▁Var	-10.2732
▁electronic	-10.2737
▁Count	-10.2746
▁cars	-10.2749
▁Mexican	-10.275
▁Switzerland	-10.2751
▁pioneer	-10.2752
▁registered	-10.2754
hara	-10.2755
▁figures	-10.2762
▁Danish	-10.277
▁fun	-10.2771
▁sex	-10.2782
▁Bat	-10.2783
▁accept	-10.2785
▁(6	-10.2786
▁DVD	-10.2786
wick	-10.2787
ien	-10.2788
▁orchestra	-10.2792
▁associate	-10.2793
▁relatively	-10.2799
▁SR	-10.2799
▁25,	-10.28
▁Gal	-10.2801
▁models	-10.2802
▁Tokyo	-10.2805
▁investigation	-10.2806
ack	-10.2808
▁Heart	-10.2812
▁Howard	-10.2813
▁kill	-10.2813
▁fields	-10.2817
▁successfully	-10.2818
▁Conservative	-10.282
lis	-10.2822
▁Lang	-10.2824
▁Dean	-10.283
ré	-10.2832
fin	-10.2833
▁briefly	-10.2838
▁Sol	-10.2839
▁bio	-10.2843
▁animals	-10.2848
▁Indiana	-10.2853
▁Sin	-10.2857
▁restaurant	-10.2858
▁Building	-10.286
▁Arab	-10.2861
▁Korean	-10.2865
▁Hockey	-10.2868
stan	-10.2869
▁Lar	-10.2871
▁medicine	-10.2878
▁developing	-10.2879
▁statue	-10.2887
▁Hamilton	-10.2889
▁1906	-10.2889
▁your	-10.2895
▁premiered	-10.2897
▁acid	-10.2904
▁shared	-10.2907
▁straight	-10.291
▁advance	-10.2913
▁400	-10.2915
▁villages	-10.2917
▁twelve	-10.2921
▁Historic	-10.2922
▁alternative	-10.2923
▁Il	-10.2924
▁publishing	-10.2931
▁Mid	-10.2933
▁unable	-10.2935
vit	-10.2936
▁passing	-10.2936
▁1997,	-10.295
▁reaching	-10.2953
elected	-10.2954
▁something	-10.2957
▁mine	-10.2962
▁steam	-10.2962
▁Mayor	-10.2965
she	-10.2967
▁2019.	-10.297
pet	-10.2971
▁supply	-10.2973
▁regiment	-10.2975
▁fan	-10.2978
▁flowers	-10.2979
ben	-10.2984
also	-10.2987
▁allowing	-10.2988
▁Singapore	-10.2989
▁Rugby	-10.299
AM	-10.2991
▁34	-10.2992
▁versions	-10.2993
ela	-10.2994
▁1905	-10.2996
▁municipal	-10.2997
iti	-10.2998
▁x	-10.3008
▁rival	-10.3015
▁1880	-10.3015
▁Raj	-10.3025
▁Administration	-10.3026
▁starring	-10.3027
▁r	-10.3027
▁jump	-10.3031
▁defense	-10.3033
▁memory	-10.3042
san	-10.3042
▁leaders	-10.3054
▁cat	-10.3056
▁chapel	-10.3058
book	-10.3058
▁Bad	-10.3061
yard	-10.3068
▁1907	-10.3068
ić	-10.3068
▁Commander	-10.307
▁Dal	-10.3077
.5	-10.3084
▁Ford	-10.3084
▁Bowl	-10.3084
▁1996,	-10.3085
Ro	-10.3086
▁participate	-10.3088
cor	-10.3088
down	-10.3092
▁aired	-10.3093
gal	-10.3095
▁Sound	-10.3095
▁effective	-10.3098
rian	-10.3102
▁1909	-10.3103
eh	-10.3103
▁75	-10.3103
nny	-10.3105
▁29,	-10.3107
ert	-10.3108
▁PhD	-10.311
▁establish	-10.3112
▁risk	-10.3116
▁classic	-10.3116
▁sport	-10.3119
▁Tony	-10.3122
▁sale	-10.3123
ean	-10.3126
ree	-10.3131
log	-10.3133
▁request	-10.3141
▁steel	-10.3145
▁Harry	-10.3146
▁Wy	-10.3147
▁ti	-10.3147
ttle	-10.3149
bridge	-10.315
▁reign	-10.315
▁Mun	-10.315
▁scholarship	-10.3158
▁Services	-10.317
▁Mat	-10.3172
ave	-10.3173
▁elevation	-10.3173
▁Hal	-10.318
▁opposition	-10.318
▁dates	-10.3182
▁wine	-10.3182
▁merchant	-10.3186
–3	-10.319
▁claims	-10.319
▁opposite	-10.3195
▁Rob	-10.3197
eau	-10.3197
▁Saturday	-10.3202
▁Fund	-10.3203
-3	-10.3203
▁Allen	-10.3204
▁nation	-10.3209
▁signing	-10.3215
▁stood	-10.3215
▁44	-10.322
▁doing	-10.3224
▁purchase	-10.3227
Ho	-10.3231
▁felt	-10.3231
▁injured	-10.3236
season	-10.3238
▁spell	-10.3239
▁refers	-10.324
▁composition	-10.3241
▁fe	-10.3242
▁print	-10.3244
Mar	-10.3247
TA	-10.3255
▁protection	-10.3256
aj	-10.3257
▁containing	-10.3259
sol	-10.3265
▁Reserve	-10.3266
▁rules	-10.3267
▁Silver	-10.3268
cin	-10.327
▁genus	-10.327
▁Arizona	-10.3276
▁translation	-10.3277
eri	-10.3278
▁Independent	-10.3279
▁solution	-10.3282
▁camera	-10.3282
tric	-10.3283
west	-10.3291
▁Sim	-10.3293
▁numbers	-10.3299
▁Tru	-10.3303
▁entry	-10.3308
lip	-10.3312
▁Television	-10.3313
▁Alex	-10.3317
▁1902	-10.3322
▁cousin	-10.3327
ij	-10.3332
▁2001.	-10.3334
aries	-10.3338
▁pi	-10.3339
▁Then	-10.3348
▁singles	-10.3349
ami	-10.3356
▁repair	-10.3356
▁Revolution	-10.3363
▁rare	-10.3365
rist	-10.3365
OS	-10.3366
▁sites	-10.3367
hood	-10.3372
TC	-10.3376
▁restored	-10.3376
▁am	-10.3377
▁2002.	-10.3378
gram	-10.3378
▁tall	-10.3379
▁Gil	-10.3383
ima	-10.3387
▁guard	-10.339
▁us	-10.3394
▁Iowa	-10.3395
▁Montreal	-10.3395
▁Diego	-10.3397
▁Wei	-10.3403
▁64	-10.3404
▁householder	-10.3406
née	-10.341
ants	-10.3417
▁Bus	-10.3417
▁stadium	-10.3418
▁safety	-10.3419
▁ban	-10.342
▁Pla	-10.3423
▁refused	-10.3426
▁musicians	-10.3426
▁planning	-10.3433
vy	-10.3433
ify	-10.3434
▁Kra	-10.3437
▁peace	-10.3441
а	-10.3443
▁stayed	-10.3448
▁northwest	-10.3448
Po	-10.3448
▁(15	-10.3452
0.0	-10.3454
rat	-10.3455
mus	-10.3455
▁connection	-10.3458
▁Juan	-10.346
▁Seven	-10.3461
▁Spring	-10.3471
▁Family	-10.3472
▁flag	-10.3474
bol	-10.3477
▁Sky	-10.3479
▁cells	-10.3482
mes	-10.3489
ces	-10.35
200	-10.3501
▁enter	-10.3503
elle	-10.3507
▁publisher	-10.3508
▁cannot	-10.3508
▁amateur	-10.3509
▁philosophy	-10.3514
▁Anti	-10.3515
▁2000.	-10.3518
▁ill	-10.3521
▁agency	-10.3524
▁ne	-10.3525
▁tri	-10.353
▁translated	-10.3531
▁1904	-10.3531
▁Children	-10.3532
▁Cam	-10.3532
Ra	-10.3533
▁funds	-10.3534
ising	-10.354
▁IV	-10.354
ular	-10.3541
▁Mass	-10.3543
▁choice	-10.3544
▁hockey	-10.355
Ba	-10.3551
▁drug	-10.3551
▁Though	-10.3551
▁Entertainment	-10.3553
lio	-10.3558
ille	-10.3558
à	-10.3558
▁Ag	-10.356
▁theme	-10.3562
▁relations	-10.3565
▁save	-10.3566
▁tank	-10.357
sburg	-10.3573
▁1903	-10.3574
▁appeal	-10.3574
sur	-10.3577
▁Kal	-10.3581
▁motor	-10.3582
▁adjacent	-10.3585
1,	-10.3586
▁Judge	-10.3588
hor	-10.3593
ced	-10.3595
▁Queensland	-10.3596
▁Modern	-10.3598
cut	-10.3603
▁strike	-10.3608
▁Square	-10.3608
▁brief	-10.3609
▁influenced	-10.3612
▁map	-10.3615
▁Antonio	-10.3618
▁greater	-10.3628
▁uncle	-10.3633
mond	-10.3633
▁ve	-10.3634
▁FM	-10.3635
ska	-10.364
▁Ran	-10.3641
▁su	-10.3644
▁tries	-10.3653
▁visual	-10.3654
▁mean	-10.3654
▁1995,	-10.3655
▁eye	-10.3656
▁Br	-10.3656
▁reports	-10.3657
bus	-10.3658
▁railroad	-10.3664
duc	-10.3664
▁Fine	-10.3665
▁Ana	-10.3665
▁programming	-10.3665
▁Space	-10.3667
▁ceremony	-10.367
dom	-10.367
▁chapter	-10.3671
▁Adam	-10.3673
▁Christmas	-10.3673
ox	-10.3675
▁sequence	-10.3679
▁interested	-10.3679
$	-10.3679
▁supporting	-10.3682
fect	-10.3682
▁quite	-10.3687
▁scenes	-10.3688
run	-10.3689
▁gets	-10.3693
▁Kentucky	-10.3694
▁comp	-10.3696
cle	-10.3697
▁edited	-10.3698
▁Hollywood	-10.3699
▁Jay	-10.3703
▁aid	-10.3706
nia	-10.3709
▁bra	-10.3711
vil	-10.3717
▁beyond	-10.3717
pping	-10.3717
▁institutions	-10.3718
▁Cathedral	-10.3719
spir	-10.3722
worth	-10.3723
ele	-10.3724
▁ends	-10.3726
▁Cer	-10.3732
mat	-10.3732
▁talent	-10.3735
AR	-10.3738
▁sal	-10.3738
▁Houston	-10.3741
▁normal	-10.3742
nik	-10.3744
▁sense	-10.3749
awa	-10.3751
RC	-10.3752
▁Nan	-10.3753
▁lu	-10.3754
▁contained	-10.3757
▁Burn	-10.3761
▁door	-10.3763
▁link	-10.3769
▁manuscript	-10.3769
oni	-10.3777
band	-10.3778
▁Max	-10.3782
▁faced	-10.3785
▁Douglas	-10.3785
▁See	-10.3793
▁operate	-10.3797
see	-10.38
▁Railroad	-10.3801
▁boys	-10.3802
DA	-10.3804
▁dry	-10.3804
▁Moore	-10.3805
▁opposed	-10.3806
sign	-10.3808
ense	-10.3809
ū	-10.3809
right	-10.3811
sson	-10.3813
ER	-10.3816
▁38	-10.3822
▁relative	-10.3829
▁habitat	-10.3835
▁vehicle	-10.3837
▁Bull	-10.3838
▁turns	-10.3839
▁window	-10.3839
▁object	-10.3847
▁rugby	-10.3848
▁simply	-10.3851
SC	-10.3853
who	-10.3854
▁Bow	-10.3855
▁centuries	-10.3858
▁Rio	-10.3861
▁residing	-10.3863
▁locations	-10.3865
▁childhood	-10.3868
ked	-10.3869
▁wave	-10.3869
,500	-10.387
ull	-10.3871
▁enemy	-10.3872
▁Denmark	-10.3874
▁grand	-10.3876
▁appearing	-10.3876
▁Ter	-10.3882
▁nomination	-10.3884
elli	-10.3884
▁Sel	-10.3885
▁page	-10.3886
ches	-10.3887
ties	-10.3888
▁Ce	-10.389
gle	-10.3891
PA	-10.3893
▁Marie	-10.3895
▁domestic	-10.3897
ili	-10.3901
▁Lincoln	-10.3907
▁soil	-10.3915
col	-10.3918
▁1901	-10.3918
▁Connecticut	-10.3919
▁moment	-10.3923
BC	-10.3924
oid	-10.3925
▁vocals	-10.3926
▁bottom	-10.3927
una	-10.393
▁Nazi	-10.3932
▁powerful	-10.3936
▁Kam	-10.3938
▁authority	-10.3942
▁Legislative	-10.3943
▁Carr	-10.3944
▁°	-10.3947
ulation	-10.3947
▁southeast	-10.3948
ians	-10.3953
ret	-10.3954
ome	-10.3954
▁eleven	-10.396
▁fair	-10.3965
▁agricultural	-10.3971
lot	-10.3971
We	-10.3971
ral	-10.3973
▁environmental	-10.3976
▁Pur	-10.3985
▁CDP	-10.3986
▁electric	-10.3991
▁Sen	-10.3996
▁Kent	-10.3997
▁Philippines	-10.3998
It	-10.3999
▁Turkey	-10.4007
bur	-10.401
▁Zo	-10.4015
▁1994,	-10.4015
eva	-10.4017
vid	-10.402
▁folk	-10.402
vest	-10.402
▁150	-10.4022
▁exhibit	-10.4023
▁fighting	-10.4028
▁bachelor	-10.4033
ost	-10.4033
▁Pop	-10.4035
▁scheduled	-10.4036
▁grow	-10.4037
▁Bha	-10.4041
▁ju	-10.4045
▁feel	-10.4045
▁Cla	-10.4047
▁16,	-10.4049
lt	-10.4055
▁ultimately	-10.4055
▁gain	-10.4055
▁flows	-10.4056
▁lieutenant	-10.4056
type	-10.4056
▁describes	-10.4057
▁improve	-10.4058
▁critics	-10.4064
▁failure	-10.4074
ient	-10.4076
▁Harris	-10.4076
▁McC	-10.4079
▁opportunity	-10.4079
▁say	-10.4082
▁Turkish	-10.4082
▁cricket	-10.4085
▁don	-10.4092
▁experiment	-10.4093
▁mention	-10.4094
▁Patrick	-10.4099
tim	-10.4099
▁Grant	-10.41
▁tu	-10.4106
▁Belgium	-10.4108
▁42	-10.411
▁stores	-10.4113
▁pri	-10.4114
▁Czech	-10.4116
rit	-10.4119
ico	-10.4119
▁NFL	-10.4127
▁file	-10.4133
boy	-10.4135
▁protein	-10.4135
▁speech	-10.414
enberg	-10.4143
▁windows	-10.4143
▁consisting	-10.4148
▁candidates	-10.4148
▁needs	-10.4149
▁Register	-10.4155
▁voted	-10.4155
▁Infantry	-10.4156
burn	-10.4156
▁worldwide	-10.4163
▁mar	-10.4166
▁fill	-10.4166
cri	-10.4169
US	-10.417
▁shoot	-10.4172
pal	-10.4174
▁maintained	-10.4175
▁criminal	-10.4176
ware	-10.4179
▁defined	-10.4179
▁animal	-10.4183
▁expert	-10.4188
Al	-10.419
mel	-10.419
▁couples	-10.4191
▁31,	-10.4193
▁Assistant	-10.4193
▁How	-10.4193
▁closely	-10.4193
▁passenger	-10.4194
▁musician	-10.4195
▁Egypt	-10.4201
HL	-10.4202
▁heard	-10.4203
▁Way	-10.4204
▁spin	-10.4205
▁reading	-10.4208
▁combat	-10.4209
▁Communist	-10.4212
▁contributions	-10.4213
▁Mission	-10.4218
▁successor	-10.4223
▁Brian	-10.4228
els	-10.4232
ock	-10.4234
til	-10.4234
▁replace	-10.4235
▁Imperial	-10.4238
▁Detroit	-10.424
▁Quebec	-10.4242
ova	-10.4242
▁hundred	-10.4247
▁decades	-10.4248
arm	-10.426
▁custom	-10.426
▁depth	-10.4264
▁parallel	-10.4265
▁organisation	-10.4272
▁Garden	-10.428
▁passengers	-10.4285
▁1870	-10.429
▁Eric	-10.4292
▁reflect	-10.4294
▁expedition	-10.4297
▁photo	-10.4301
▁Lou	-10.4307
▁southwest	-10.4309
▁weekly	-10.4311
▁Hart	-10.4312
▁Miami	-10.4314
▁intersection	-10.4317
▁Shu	-10.4318
▁minute	-10.4321
▁poll	-10.4324
▁Oklahoma	-10.4324
cen	-10.4325
▁Arch	-10.4326
▁Glasgow	-10.4326
lit	-10.4327
▁37	-10.4327
▁occupation	-10.433
▁Em	-10.4331
stall	-10.4333
loc	-10.4333
▁publications	-10.4337
▁diameter	-10.4338
ivity	-10.4338
▁sun	-10.4339
о	-10.4341
▁Ang	-10.4341
▁(7	-10.4342
▁fiction	-10.4342
▁pool	-10.4345
▁n	-10.4346
▁chance	-10.4346
agh	-10.4347
▁rose	-10.4348
LA	-10.4349
▁Now	-10.4349
▁entirely	-10.4352
▁Tur	-10.4354
ila	-10.4364
▁hour	-10.4364
anda	-10.4367
▁poverty	-10.4367
▁trying	-10.4368
▁Anderson	-10.4373
▁Medicine	-10.4379
▁properties	-10.4379
▁provincial	-10.4383
▁rooms	-10.4386
▁Place	-10.4393
gie	-10.4396
▁internal	-10.44
▁Dance	-10.4404
▁getting	-10.441
▁meant	-10.4411
▁1992,	-10.4415
▁residential	-10.4417
▁mode	-10.4417
▁sought	-10.4423
pla	-10.4423
▁wooden	-10.4424
shaped	-10.4424
▁Pass	-10.4424
FL	-10.4424
▁consecutive	-10.4424
▁attempted	-10.4427
▁employees	-10.4429
▁exist	-10.443
▁journey	-10.4434
▁1999.	-10.4439
▁proved	-10.4442
▁poly	-10.4442
chu	-10.4443
▁safe	-10.4444
▁mu	-10.4447
ı	-10.4451
▁Swiss	-10.4451
–1	-10.4452
isation	-10.4452
▁selling	-10.4454
▁let	-10.4458
▁Fin	-10.4461
▁bands	-10.4464
▁str	-10.4466
▁Para	-10.4466
▁Jane	-10.4466
▁chose	-10.4468
▁operates	-10.4471
▁Nick	-10.4471
▁crossing	-10.4472
lf	-10.4474
py	-10.4475
▁Glen	-10.4477
▁pl	-10.4478
▁acts	-10.4479
▁attempts	-10.4483
▁scheme	-10.4487
▁Eu	-10.4487
▁ward	-10.4488
е	-10.4491
▁resources	-10.4492
▁Cook	-10.4494
▁NY	-10.4506
▁Plan	-10.4507
▁necessary	-10.451
hol	-10.4517
▁genre	-10.4517
▁Welsh	-10.452
▁offering	-10.4521
▁existence	-10.4522
▁Chamber	-10.4524
nor	-10.4526
▁grave	-10.4527
▁donated	-10.4528
å	-10.4531
▁Hills	-10.4532
most	-10.4533
▁bay	-10.4534
▁bit	-10.4535
Ar	-10.4537
▁speak	-10.4543
▁feed	-10.4547
▁fast	-10.4547
▁contain	-10.4548
To	-10.4551
▁heavily	-10.4552
▁arranged	-10.4555
▁toured	-10.4555
▁em	-10.4559
▁mix	-10.4564
▁functions	-10.4565
No	-10.4567
▁fee	-10.4568
▁Argentina	-10.4578
▁Gordon	-10.4578
▁die	-10.4581
ér	-10.4585
▁determined	-10.4588
▁Oak	-10.459
▁duty	-10.4591
▁credited	-10.4592
▁Mississippi	-10.4594
▁Market	-10.4598
▁Whit	-10.4598
▁notably	-10.4599
▁serious	-10.46
lane	-10.4601
itch	-10.4605
▁assumed	-10.4606
▁address	-10.461
▁retail	-10.461
▁el	-10.4617
AS	-10.4619
▁formal	-10.4621
nge	-10.4621
-4	-10.4636
▁attached	-10.4636
cast	-10.4636
▁acted	-10.4638
mas	-10.4641
▁Hispanic	-10.4649
▁eldest	-10.4649
BS	-10.465
rup	-10.4651
▁carry	-10.4652
▁Wild	-10.4656
▁Ur	-10.4658
▁pan	-10.4658
▁Greece	-10.4659
cip	-10.4659
cio	-10.466
▁Theater	-10.4662
tract	-10.4667
aire	-10.4668
eli	-10.4671
▁businesses	-10.4672
▁grandfather	-10.4672
▁Lawrence	-10.4673
under	-10.4673
▁cor	-10.4674
▁dispute	-10.4674
▁counter	-10.4681
▁Ac	-10.4688
▁Fred	-10.469
▁vehicles	-10.4691
▁notes	-10.4693
Pa	-10.4694
▁FA	-10.4694
▁youngest	-10.4695
▁lay	-10.4699
hel	-10.4702
lies	-10.4705
▁typical	-10.471
▁districts	-10.4711
▁combination	-10.4712
▁Singh	-10.4715
▁Commonwealth	-10.4716
▁methods	-10.4716
FM	-10.4718
▁respect	-10.4719
nam	-10.4719
▁hot	-10.4722
▁clean	-10.4723
▁Local	-10.4731
▁Palace	-10.4735
▁Tele	-10.4737
sville	-10.4739
▁Kin	-10.474
lim	-10.4741
▁gate	-10.4742
met	-10.4745
foot	-10.4745
▁Unit	-10.475
▁suit	-10.4752
▁earning	-10.4756
▁string	-10.4757
▁1898	-10.4758
▁separated	-10.4761
AP	-10.4761
▁Bir	-10.4762
gro	-10.4762
ites	-10.4766
tti	-10.4767
▁McG	-10.4768
▁didn	-10.4768
▁mathematics	-10.4769
▁honorary	-10.4771
▁Milan	-10.4777
▁17,	-10.4784
▁meets	-10.4785
ators	-10.4785
▁Anthony	-10.4793
ters	-10.4794
ello	-10.4794
▁Express	-10.4795
▁squadron	-10.4797
▁finding	-10.4799
▁users	-10.4802
▁distributed	-10.4803
▁Iran	-10.4805
▁views	-10.4806
▁skills	-10.4806
-0	-10.4806
▁Austrian	-10.481
cra	-10.481
▁Trade	-10.4814
▁structures	-10.4818
iga	-10.4819
▁coal	-10.482
▁statement	-10.4823
lk	-10.4825
▁Brigade	-10.4829
▁churches	-10.4829
new	-10.4829
▁Yorkshire	-10.483
▁thick	-10.4843
view	-10.4844
▁Pad	-10.4845
▁Tam	-10.4846
itz	-10.485
▁towns	-10.4851
FA	-10.4853
▁domain	-10.486
▁earliest	-10.4863
▁Capital	-10.4863
▁roll	-10.4863
▁owners	-10.4865
even	-10.4867
▁Once	-10.4867
▁Shah	-10.4872
▁Cast	-10.4872
▁1993,	-10.4875
▁Villa	-10.4875
▁load	-10.4879
▁applications	-10.488
olo	-10.488
▁Security	-10.4885
▁suburb	-10.4892
▁plane	-10.4893
gin	-10.4893
▁Mol	-10.4896
bed	-10.4897
▁headed	-10.4898
▁attacked	-10.4901
▁fuel	-10.4902
▁engines	-10.4906
▁guitarist	-10.4908
▁Kir	-10.4909
▁session	-10.4909
▁poem	-10.491
▁message	-10.4911
▁artistic	-10.4924
thy	-10.4925
uni	-10.4929
▁Metropolitan	-10.4931
▁mono	-10.4931
▁plate	-10.4932
▁Matthew	-10.4934
▁Wolf	-10.4936
▁add	-10.4936
▁Karl	-10.4939
▁Tamil	-10.4942
▁hope	-10.4944
▁license	-10.4945
▁Alfred	-10.4945
tive	-10.4947
▁sand	-10.4949
▁tube	-10.4949
▁List	-10.495
onic	-10.4954
oper	-10.4957
▁accompanied	-10.4957
▁religion	-10.496
▁Cri	-10.496
▁Third	-10.4963
▁slow	-10.4964
▁manufacturer	-10.4965
▁48	-10.4967
▁(9	-10.4967
▁Hand	-10.4968
▁Liverpool	-10.497
▁Squadron	-10.4973
▁parliament	-10.4974
▁memorial	-10.4981
▁UN	-10.4982
▁Lin	-10.4986
▁really	-10.4988
▁leads	-10.4988
▁regions	-10.4989
▁Lan	-10.499
AA	-10.4993
los	-10.4995
ith	-10.4995
▁Ji	-10.4995
▁matter	-10.4995
ras	-10.4999
▁patients	-10.5
story	-10.5006
sie	-10.5009
▁officials	-10.5009
Me	-10.5009
lau	-10.5013
bon	-10.5017
▁citizens	-10.5018
zar	-10.5025
▁heat	-10.5025
chin	-10.5027
▁Representatives	-10.5028
vern	-10.5031
▁Atlanta	-10.5037
▁raise	-10.5038
▁items	-10.5041
▁weather	-10.5042
▁sets	-10.5046
▁independence	-10.5046
▁chamber	-10.5051
▁Nova	-10.5051
▁Early	-10.5055
ged	-10.5055
▁1991,	-10.5055
▁Dick	-10.5056
▁Nar	-10.5057
▁reaction	-10.5062
vor	-10.5063
▁driving	-10.5067
maker	-10.5068
ctic	-10.5069
▁Portuguese	-10.507
▁decade	-10.5072
▁mouth	-10.5073
▁Cooper	-10.5075
▁Mak	-10.5078
SL	-10.5081
▁Alabama	-10.5081
▁membership	-10.5082
▁mining	-10.5082
ott	-10.5085
▁anniversary	-10.509
itt	-10.509
etic	-10.5091
▁MA	-10.5091
▁sample	-10.5094
▁calls	-10.5102
MS	-10.5104
▁economy	-10.5105
▁crowd	-10.5105
Be	-10.5106
▁retained	-10.5108
▁Swa	-10.511
▁institute	-10.5116
iel	-10.5119
▁1998.	-10.5119
▁cal	-10.512
▁kick	-10.5121
▁cru	-10.5124
▁Originally	-10.5125
▁seems	-10.5125
nar	-10.5128
▁Senator	-10.5129
▁Jon	-10.5132
▁wheel	-10.5132
▁winners	-10.5135
▁speaker	-10.514
▁stem	-10.5142
rim	-10.5147
▁learned	-10.5148
▁Broadway	-10.5149
▁versus	-10.5157
▁duties	-10.5158
phon	-10.516
▁broken	-10.5161
▁reasons	-10.5166
rom	-10.5168
▁Lane	-10.5171
▁Trinity	-10.5173
▁Staff	-10.5177
▁kg	-10.5183
▁killing	-10.5184
▁express	-10.5187
▁user	-10.5196
ae	-10.5198
rell	-10.5201
mmer	-10.5201
▁mind	-10.5205
▁favor	-10.5208
▁Pin	-10.5209
▁believe	-10.5212
▁Baronet	-10.5213
▁visiting	-10.5213
▁correct	-10.5217
▁flying	-10.5218
▁Seattle	-10.5218
▁hu	-10.5219
▁Males	-10.5222
▁replacing	-10.5223
▁1899	-10.5227
▁Mai	-10.5227
ncing	-10.5228
▁Az	-10.5229
▁picture	-10.5232
eth	-10.5234
non	-10.5236
meter	-10.5241
▁tourist	-10.5242
▁Morgan	-10.5244
▁praised	-10.5244
rea	-10.5247
▁Only	-10.5248
aba	-10.5252
▁junction	-10.5252
▁bodies	-10.5252
▁helping	-10.5252
where	-10.5253
▁shore	-10.5254
app	-10.5254
▁$3	-10.5255
▁Back	-10.5256
▁looking	-10.5258
▁core	-10.5259
▁Bear	-10.5259
▁Prix	-10.5264
▁Bou	-10.5264
▁Iron	-10.527
▁opponent	-10.5273
ald	-10.5274
Ha	-10.5274
NA	-10.5274
▁bomb	-10.5276
▁Israeli	-10.5276
▁Vietnam	-10.5277
").	-10.5277
▁degrees	-10.5285
shed	-10.5285
anga	-10.5288
▁phone	-10.529
▁sq	-10.5293
▁Latino	-10.5293
▁Campbell	-10.5294
▁Zi	-10.5295
2,	-10.5295
▁dating	-10.5295
▁Sy	-10.5298
▁transition	-10.5299
▁dated	-10.5301
▁Ward	-10.5302
▁1865	-10.5303
nel	-10.5303
SE	-10.5307
▁Through	-10.5312
▁possibly	-10.5312
▁graphic	-10.5313
▁unusual	-10.5315
MP	-10.5316
box	-10.5316
▁AD	-10.5317
▁Row	-10.5317
▁flood	-10.5318
▁reduce	-10.532
clo	-10.532
char	-10.5322
▁finance	-10.5322
▁Ry	-10.5323
▁importance	-10.5331
▁branches	-10.5342
000	-10.5345
▁ticket	-10.5346
▁credit	-10.5346
▁fleet	-10.5346
▁Bernard	-10.5353
▁49	-10.5354
▁Heritage	-10.5354
zon	-10.5355
some	-10.5361
▁Norman	-10.5362
cat	-10.5364
▁introduction	-10.5367
▁Commissioner	-10.5371
▁Birmingham	-10.5376
eller	-10.5377
▁falls	-10.538
-17	-10.5381
▁lands	-10.5382
▁1897	-10.5385
▁Mountains	-10.5385
▁apartment	-10.5387
term	-10.5388
▁assist	-10.5389
gli	-10.5391
▁marine	-10.5393
▁rebuilt	-10.5396
▁Training	-10.5396
▁Bru	-10.5396
▁celebrated	-10.5397
▁Hungarian	-10.5401
▁activist	-10.5402
▁increasing	-10.5404
▁Brooklyn	-10.5404
▁contrast	-10.5406
▁Walker	-10.5406
▁device	-10.5409
▁solid	-10.5412
ł	-10.5412
▁relocated	-10.5415
▁1864	-10.5416
▁Hans	-10.5419
▁cycle	-10.5423
▁1885	-10.5423
▁(8	-10.5425
▁occur	-10.5427
▁seek	-10.543
▁Forces	-10.543
▁regarded	-10.5437
▁collections	-10.5445
▁Buck	-10.5445
▁dream	-10.5445
style	-10.5447
▁Motor	-10.545
▁grounds	-10.545
▁widow	-10.5452
▁arrangement	-10.5453
▁1893	-10.5454
▁FIFA	-10.5454
▁nu	-10.5455
▁Dave	-10.5456
Sa	-10.546
▁1895	-10.5462
esh	-10.5464
amp	-10.5474
▁wounded	-10.5476
▁gift	-10.5479
▁Bern	-10.5484
zen	-10.5485
▁Jesus	-10.5487
bound	-10.5488
▁initiative	-10.5489
▁Draft	-10.5491
▁interests	-10.5492
▁soccer	-10.5492
families	-10.5493
▁wild	-10.5498
▁Front	-10.55
▁attending	-10.5501
▁attacks	-10.5502
▁Puerto	-10.5503
pra	-10.5504
vol	-10.5505
"),	-10.5505
gun	-10.5507
rag	-10.5511
▁Knight	-10.5512
▁qualifying	-10.5514
▁1892	-10.5514
▁1860	-10.5517
▁specifically	-10.5519
▁Alan	-10.552
▁chemical	-10.552
cap	-10.552
leg	-10.5521
▁budget	-10.5522
▁Colonel	-10.5523
ics	-10.5528
▁Stock	-10.553
▁Challenge	-10.5531
▁roads	-10.5532
▁Your	-10.5532
▁capture	-10.5536
IN	-10.5538
▁catch	-10.554
hop	-10.554
▁identity	-10.5543
▁description	-10.5544
▁tenure	-10.5546
put	-10.5549
▁layer	-10.5549
▁biggest	-10.555
level	-10.5553
▁Bangladesh	-10.5555
▁observation	-10.5555
▁Call	-10.5557
▁Mrs	-10.5559
▁1889	-10.5562
▁41	-10.5563
▁assembly	-10.5568
▁stretch	-10.5569
ito	-10.5579
▁1896	-10.5587
▁drop	-10.5588
▁1997.	-10.5591
▁Ever	-10.5592
▁1894	-10.5592
▁Boys	-10.5593
▁55	-10.5599
▁Peace	-10.56
▁drawn	-10.56
Se	-10.5601
▁NCAA	-10.5601
▁teachers	-10.5603
▁ruled	-10.5607
▁distinct	-10.5607
▁Information	-10.5609
▁39	-10.561
position	-10.5612
▁fishing	-10.5614
later	-10.5615
▁evening	-10.5615
▁medieval	-10.562
▁arm	-10.5622
▁Global	-10.5627
▁Wing	-10.5629
▁sum	-10.5631
try	-10.5635
▁beautiful	-10.5638
▁surrounded	-10.5639
mir	-10.5639
▁Sarah	-10.564
including	-10.5641
ST	-10.5643
▁landing	-10.5643
mid	-10.5647
rig	-10.5649
cht	-10.565
▁papers	-10.5656
▁Daily	-10.5656
▁twin	-10.566
onia	-10.566
▁Chart	-10.566
▁fund	-10.5661
▁delivered	-10.5661
▁ro	-10.5665
▁improved	-10.5671
▁caught	-10.5671
rap	-10.5672
▁Louisiana	-10.5675
▁watch	-10.5675
▁subjects	-10.5676
▁venture	-10.5681
kes	-10.5691
▁Cleveland	-10.5693
▁Brothers	-10.5694
▁accused	-10.5694
5,000	-10.5695
Con	-10.5698
▁Upper	-10.5699
cro	-10.57
▁ensure	-10.5701
▁grown	-10.5703
▁sha	-10.5706
.”	-10.5707
▁auto	-10.5709
arch	-10.5715
tical	-10.5723
▁negative	-10.5723
▁Chu	-10.5725
wl	-10.5727
▁replacement	-10.5727
▁vo	-10.5728
RI	-10.5731
▁covering	-10.5733
▁proposal	-10.5734
▁strip	-10.5734
▁Agency	-10.5736
▁circuit	-10.5737
▁Morris	-10.5739
▁marry	-10.5746
▁poems	-10.5747
50,000	-10.5748
▁committed	-10.5748
far	-10.5749
ened	-10.5754
▁tend	-10.5756
PS	-10.5758
▁Dream	-10.5758
▁friendly	-10.5759
▁Along	-10.5762
▁Moon	-10.5767
▁conduct	-10.5774
Bo	-10.5778
▁images	-10.578
▁Kh	-10.5781
▁throw	-10.5784
▁Gulf	-10.5785
feld	-10.5785
▁demolished	-10.5788
▁Rhode	-10.5788
▁easily	-10.5789
ddy	-10.579
▁graduation	-10.5792
▁cup	-10.5795
▁gang	-10.5796
lov	-10.5796
▁distinguished	-10.5796
illo	-10.5799
▁pitch	-10.5801
▁Kha	-10.5802
pol	-10.5802
▁Mir	-10.5803
▁tip	-10.5808
dh	-10.5809
▁send	-10.5811
▁objects	-10.5812
▁novels	-10.5813
–6	-10.5823
▁Thompson	-10.5824
▁Nelson	-10.5824
▁pursue	-10.5828
▁bowl	-10.5829
▁damaged	-10.5833
▁planet	-10.5835
▁Culture	-10.5838
▁Kid	-10.5839
▁Key	-10.5841
▁Der	-10.5842
▁showing	-10.5846
▁1863	-10.5848
▁weak	-10.585
▁Just	-10.5851
▁Sil	-10.5853
ا	-10.5853
▁Ottoman	-10.5856
▁Athletic	-10.5857
▁Girls	-10.5857
rang	-10.5859
mina	-10.5864
lands	-10.5873
▁Las	-10.5875
▁architectural	-10.5875
▁margin	-10.5876
▁physician	-10.5877
▁Jordan	-10.5879
▁Rich	-10.5884
uld	-10.5887
mile	-10.5888
▁Baltimore	-10.5889
▁Munich	-10.5889
SI	-10.5892
▁birds	-10.5896
▁instrumental	-10.5897
▁patent	-10.5899
▁sections	-10.5899
▁José	-10.5907
▁Internet	-10.5911
▁Urban	-10.5913
▁afterwards	-10.5913
▁Tournament	-10.5913
▁Austin	-10.5915
▁Tal	-10.5917
atory	-10.5922
hall	-10.5925
▁bell	-10.5928
▁1862	-10.5929
▁Sto	-10.593
▁Ukraine	-10.5931
▁Die	-10.5936
▁exhibited	-10.5937
▁boundary	-10.5942
▁Roy	-10.5943
▁Delhi	-10.5949
ject	-10.595
▁select	-10.5952
▁Hunt	-10.5953
from	-10.5953
▁Gla	-10.5958
▁1996.	-10.5959
pha	-10.5963
▁Liga	-10.5963
▁ethnic	-10.5965
▁Report	-10.5966
▁column	-10.5967
inger	-10.5969
▁shooting	-10.5969
▁visitors	-10.5971
▁Studios	-10.5971
▁recordings	-10.5974
▁motion	-10.5975
▁Alliance	-10.5979
▁Natural	-10.5981
▁1989,	-10.5983
▁Convention	-10.5985
▁reporter	-10.5991
▁Portland	-10.5993
▁medium	-10.5995
▁observed	-10.5996
▁Sara	-10.6001
▁abroad	-10.6002
ui	-10.6002
▁ownership	-10.6003
▁cemetery	-10.6006
▁fu	-10.6009
▁Vas	-10.6009
avi	-10.601
▁Grade	-10.601
ES	-10.6011
▁athletic	-10.6011
▁standards	-10.6012
▁stating	-10.6017
▁guns	-10.6018
▁ways	-10.6019
▁epi	-10.6019
▁filmed	-10.6019
▁Rat	-10.602
▁tons	-10.6021
wal	-10.6022
▁invasion	-10.6022
▁Shin	-10.6023
▁Flor	-10.6023
▁filled	-10.6025
▁fighter	-10.6027
rr	-10.6031
▁Roger	-10.6031
▁challenge	-10.6033
▁1987,	-10.6039
bie	-10.6041
▁seed	-10.6042
▁writers	-10.6045
▁und	-10.6045
▁formally	-10.6047
▁wa	-10.6049
bach	-10.6052
▁fear	-10.6055
▁strength	-10.6058
Mi	-10.6062
▁presidential	-10.6063
▁seventh	-10.6063
▁Tower	-10.6066
gri	-10.6072
▁doctorate	-10.6074
▁completing	-10.6074
▁sang	-10.6075
▁Portugal	-10.6077
▁attorney	-10.6077
▁parliamentary	-10.6078
nut	-10.6081
▁Bol	-10.6083
phone	-10.6086
▁beach	-10.6087
via	-10.6088
▁Low	-10.6091
▁universities	-10.6091
▁trace	-10.6091
▁Euro	-10.6092
▁Metro	-10.6093
▁Tech	-10.6096
▁Hindu	-10.6098
▁mph	-10.6099
▁mark	-10.6099
▁Pas	-10.6104
SS	-10.6105
▁Kil	-10.6107
▁1990,	-10.6113
rant	-10.6114
▁wings	-10.6119
▁tape	-10.6119
eck	-10.6123
▁toward	-10.6125
▁gr	-10.6128
▁What	-10.6128
▁advantage	-10.6128
▁1888	-10.6128
▁kilometers	-10.6131
▁skin	-10.6133
▁circle	-10.6137
▁sing	-10.6137
▁Test	-10.6138
▁determine	-10.6139
▁Jam	-10.614
▁note	-10.614
cel	-10.6141
▁ABC	-10.6148
▁entering	-10.615
its	-10.6154
▁orbit	-10.6154
▁Hard	-10.6154
▁techniques	-10.6163
▁operator	-10.6168
▁coaching	-10.6172
but	-10.6175
▁submarine	-10.6176
▁Crown	-10.6178
▁venue	-10.6179
asi	-10.6181
ific	-10.6183
▁favour	-10.6184
▁verse	-10.6187
=	-10.6187
▁Baptist	-10.6189
▁Helen	-10.6192
▁App	-10.6193
▁sin	-10.6196
▁Graham	-10.6197
zh	-10.6198
▁completion	-10.6203
iff	-10.6205
▁rain	-10.6205
▁Anton	-10.6208
▁traveled	-10.621
▁Limited	-10.6212
▁popularity	-10.6212
AT	-10.6214
▁52	-10.6216
▁cinema	-10.6217
▁bed	-10.6218
hand	-10.622
▁Standard	-10.622
▁1891	-10.6222
take	-10.6223
ED	-10.6227
▁Berg	-10.6228
▁Av	-10.623
▁vocal	-10.6231
▁Symphony	-10.6234
▁document	-10.6235
▁expression	-10.6236
▁spirit	-10.6239
▁designs	-10.624
▁hosts	-10.6245
AN	-10.6246
▁Ky	-10.6249
▁reality	-10.625
▁Hil	-10.6259
▁mobile	-10.6259
▁Fra	-10.6261
▁Construction	-10.6262
▁hip	-10.6269
▁worth	-10.6269
lect	-10.627
▁pattern	-10.6271
▁calling	-10.6271
tting	-10.6273
▁Round	-10.6275
▁Historical	-10.6276
ë	-10.6276
▁wins	-10.6281
▁Range	-10.6283
▁causing	-10.6284
▁regarding	-10.6284
▁Dallas	-10.6285
▁Russell	-10.6285
▁erected	-10.6288
▁competing	-10.6289
▁charged	-10.6298
▁causes	-10.6302
▁limit	-10.6303
▁contested	-10.6305
hat	-10.6306
▁Kelly	-10.631
▁lose	-10.6311
logy	-10.6313
▁comment	-10.6313
▁Finland	-10.6316
▁Ant	-10.6319
▁Que	-10.6323
Do	-10.6326
▁Kon	-10.6326
▁convention	-10.6328
▁ahead	-10.6328
▁1861	-10.6329
▁Charlotte	-10.633
▁Stewart	-10.6339
▁Tha	-10.6342
ridge	-10.6342
▁reputation	-10.6343
▁Beau	-10.6345
uli	-10.6347
▁stopped	-10.6347
▁justice	-10.6347
▁Vancouver	-10.6349
▁Defense	-10.635
▁1995.	-10.635
▁competitions	-10.6351
bul	-10.6351
▁Mos	-10.6353
▁controlled	-10.6354
▁monastery	-10.6356
▁Week	-10.6356
table	-10.636
▁Taiwan	-10.6364
▁retain	-10.6366
▁Henri	-10.6369
sum	-10.6371
▁ideas	-10.6371
▁whilst	-10.6371
▁relegated	-10.6372
▁Bristol	-10.6374
General	-10.6375
Li	-10.6376
▁(10	-10.6379
▁Champion	-10.638
▁survive	-10.6384
▁1886	-10.6387
▁Five	-10.6388
▁charter	-10.6389
▁Ty	-10.639
▁Cardinal	-10.639
ural	-10.6391
▁expressed	-10.6395
▁fa	-10.6396
ör	-10.64
▁Archbishop	-10.6406
bank	-10.6406
▁Faculty	-10.6416
▁struggle	-10.6417
boat	-10.6422
▁forming	-10.6422
▁pale	-10.6423
zan	-10.6425
▁Gate	-10.6426
eon	-10.6426
▁Who	-10.6427
▁Cle	-10.6429
▁defeating	-10.6429
▁Dia	-10.6429
finals	-10.6431
▁armed	-10.644
▁drawing	-10.6442
▁championships	-10.6451
▁Islamic	-10.6452
▁Baker	-10.6453
path	-10.646
▁premiere	-10.6461
▁Ros	-10.6462
▁debate	-10.6462
dam	-10.6463
▁Steel	-10.6466
▁concerts	-10.6468
ssel	-10.6471
▁Abbey	-10.6472
▁highlight	-10.6474
▁arrival	-10.6477
pon	-10.6479
▁cho	-10.6481
▁lift	-10.6481
cla	-10.6487
▁annually	-10.6488
▁Care	-10.6491
▁downtown	-10.6493
fur	-10.6496
▁Princess	-10.6497
▁runner	-10.65
yr	-10.6507
▁technique	-10.6507
▁Madrid	-10.6508
▁Kennedy	-10.6509
▁measure	-10.6511
▁noble	-10.6515
cial	-10.6516
dio	-10.6519
▁Hampshire	-10.6523
▁cu	-10.6525
▁discover	-10.6526
ook	-10.6526
rill	-10.6527
▁Qui	-10.653
unk	-10.6534
▁Player	-10.6535
▁intention	-10.6538
▁Energy	-10.6539
▁Pittsburgh	-10.654
▁flower	-10.6544
ect	-10.6552
▁1887	-10.6554
▁fixed	-10.6562
▁legend	-10.6563
cell	-10.6566
▁golf	-10.6567
▁adaptation	-10.6567
nz	-10.6567
▁thirty	-10.6569
▁instrument	-10.6569
▁Associate	-10.6572
▁Honor	-10.6572
OR	-10.6578
▁Kenya	-10.6579
▁Qua	-10.6581
▁answer	-10.6582
▁Math	-10.6582
▁temporary	-10.6583
▁inaugural	-10.6586
▁Shortly	-10.6586
▁Gun	-10.6587
▁Marshall	-10.659
▁merger	-10.6591
▁gender	-10.6591
▁Robinson	-10.6593
▁UEFA	-10.6594
▁actual	-10.6594
▁deposit	-10.6597
▁Wo	-10.6598
▁Bun	-10.6599
▁hero	-10.6601
▁champions	-10.6603
vet	-10.6604
▁Pierre	-10.6606
▁Soccer	-10.6607
▁DC	-10.6607
▁inches	-10.6608
▁kW	-10.6611
▁satellite	-10.6615
▁Wright	-10.6616
▁span	-10.6618
▁Shan	-10.6623
▁belonged	-10.6623
gger	-10.6624
▁Penn	-10.6627
-10	-10.6632
▁Evans	-10.6633
▁Soon	-10.6634
▁benefit	-10.6635
roy	-10.6635
▁Richmond	-10.6636
wen	-10.6637
▁entertainment	-10.664
ă	-10.6644
▁ordained	-10.6654
▁Tr	-10.6655
▁protected	-10.6657
▁1850	-10.6661
▁Dur	-10.6665
▁leaf	-10.6665
▁missing	-10.6665
▁Auto	-10.6667
▁carrying	-10.6677
▁advertising	-10.6678
▁Yale	-10.668
▁Fal	-10.668
▁consider	-10.6683
▁craft	-10.6683
hir	-10.6685
▁Mann	-10.6687
dri	-10.6689
▁tunnel	-10.6694
▁affairs	-10.6695
▁bond	-10.6696
▁enjoy	-10.6697
Da	-10.6701
reg	-10.6706
▁Ron	-10.6708
▁Adams	-10.6709
▁ranking	-10.6709
body	-10.6716
▁Chair	-10.6716
▁vessel	-10.6721
▁1994.	-10.6729
uf	-10.673
▁lap	-10.6731
read	-10.6732
IP	-10.6734
▁parent	-10.6737
▁inscription	-10.6737
▁opinion	-10.6738
▁electoral	-10.6741
cept	-10.6741
▁Economic	-10.6743
▁storm	-10.6744
▁Bas	-10.6744
▁linked	-10.6749
▁prepared	-10.6754
br	-10.6755
▁Sab	-10.676
BE	-10.676
▁Authority	-10.6761
▁remainder	-10.6762
▁scholar	-10.6762
▁greatest	-10.6767
mbo	-10.677
▁Jazz	-10.6772
▁Girl	-10.6774
rose	-10.6775
llo	-10.6776
▁actions	-10.6778
р	-10.678
▁Work	-10.6782
▁qualification	-10.6786
tress	-10.6789
▁43	-10.679
▁representation	-10.6793
Lo	-10.6802
▁Has	-10.6803
▁Kings	-10.6804
▁exercise	-10.6805
▁nuclear	-10.6808
rou	-10.6812
▁hat	-10.6813
▁touch	-10.6816
ote	-10.6816
▁responsibility	-10.6817
▁Serie	-10.6817
CI	-10.6818
▁Orleans	-10.6819
▁Ob	-10.682
▁Until	-10.6821
▁posted	-10.6823
▁Our	-10.6827
HS	-10.6827
▁1988,	-10.6834
▁enrolled	-10.6835
▁resident	-10.6836
▁till	-10.6837
▁1881	-10.6837
▁grey	-10.6839
▁1884	-10.6841
▁heritage	-10.6842
▁Lower	-10.6842
▁DJ	-10.6842
▁Ay	-10.6843
▁Rick	-10.6843
▁huge	-10.6844
▁collaborated	-10.6844
▁fly	-10.6846
DP	-10.6846
▁cave	-10.6848
400	-10.6851
[	-10.6851
▁lecturer	-10.6852
▁restoration	-10.6856
▁Sport	-10.6859
▁concrete	-10.6859
▁1882	-10.6863
▁Guy	-10.6863
▁Mala	-10.6864
▁instruments	-10.6865
▁eyes	-10.6866
▁Kirk	-10.6868
▁Sai	-10.6871
▁Operation	-10.6873
▁adapted	-10.6876
▁Rub	-10.6877
▁palace	-10.6878
uz	-10.6878
▁Bush	-10.6883
pat	-10.6883
rock	-10.6891
▁Lau	-10.6891
▁Ukrainian	-10.6895
gre	-10.6899
▁franchise	-10.6904
eur	-10.6904
▁essay	-10.6907
▁terminal	-10.691
▁Additionally	-10.691
▁Hungary	-10.6912
▁instance	-10.6913
▁documents	-10.6918
▁businessman	-10.692
ME	-10.6921
▁1992.	-10.6921
ame	-10.6922
▁Murray	-10.6925
▁attracted	-10.693
▁1993.	-10.6932
▁somewhat	-10.6932
▁surviving	-10.6932
▁check	-10.6934
▁drummer	-10.6937
count	-10.6939
▁physics	-10.6939
▁islands	-10.6939
▁51	-10.6943
▁Adelaide	-10.6945
▁housed	-10.6946
▁Donald	-10.6948
ically	-10.6949
▁occasionally	-10.6949
▁op	-10.6949
*	-10.6952
▁cabinet	-10.6955
▁details	-10.6957
▁Nigeria	-10.696
▁Together	-10.6961
▁photography	-10.6963
▁Organization	-10.6963
▁elder	-10.6965
▁recipient	-10.6968
▁retiring	-10.6972
state	-10.6972
SP	-10.6973
▁touring	-10.6974
▁tra	-10.6976
▁segment	-10.6978
▁severe	-10.698
▁influential	-10.6981
▁defensive	-10.6983
▁46	-10.6985
▁creative	-10.6988
▁provision	-10.699
▁photographer	-10.699
▁behavior	-10.6991
▁Bruce	-10.7
▁demo	-10.7
▁Food	-10.7001
ante	-10.7001
▁Barr	-10.7002
▁Len	-10.7016
final	-10.7016
liga	-10.7017
▁roughly	-10.7017
▁Trail	-10.7018
▁AC	-10.7019
▁personnel	-10.7019
att	-10.7021
▁veteran	-10.7021
▁Monte	-10.7022
▁ge	-10.7023
▁Indonesia	-10.7023
▁Clo	-10.7026
▁refer	-10.7026
▁drafted	-10.7027
▁Brazilian	-10.7027
▁sentenced	-10.7029
▁lock	-10.7029
shan	-10.703
▁compilation	-10.7031
▁ceased	-10.7031
▁manufacturing	-10.7032
▁Canal	-10.7034
hon	-10.7039
▁terminus	-10.7039
▁agree	-10.7043
▁surgery	-10.7043
tend	-10.7045
GA	-10.7046
▁bright	-10.7046
▁gra	-10.7051
very	-10.7053
▁te	-10.7054
▁Hawk	-10.7054
▁Ryan	-10.7056
▁Fall	-10.7061
▁Horn	-10.7062
IT	-10.7062
▁marketing	-10.7063
ering	-10.7065
▁Professional	-10.7065
▁Race	-10.7066
▁underground	-10.7068
▁wedding	-10.707
oe	-10.7074
▁Victorian	-10.7075
▁net	-10.7075
▁weapons	-10.7078
Th	-10.7079
▁context	-10.7081
▁Wind	-10.7081
ident	-10.7084
▁ga	-10.7086
▁emb	-10.7086
▁ride	-10.7087
▁preserved	-10.7088
▁nothing	-10.7089
▁achievement	-10.7091
▁Beck	-10.7092
▁Reform	-10.7096
▁Franklin	-10.7096
face	-10.7096
high	-10.7101
ii	-10.7101
▁AM	-10.7102
▁tennis	-10.7103
▁prime	-10.7104
▁perfect	-10.7106
▁Eli	-10.7113
▁1986,	-10.7117
ao	-10.7121
▁printed	-10.7122
▁communication	-10.7132
▁SC	-10.7137
▁perhaps	-10.7139
▁snow	-10.7139
▁Communications	-10.714
▁YouTube	-10.7143
▁Drive	-10.7145
▁classified	-10.7146
▁NHL	-10.7148
▁CA	-10.7148
aria	-10.715
▁plus	-10.7152
▁Dy	-10.7152
▁Studio	-10.7156
▁Defence	-10.7156
▁variant	-10.7159
▁why	-10.716
▁Jimmy	-10.716
▁Belgian	-10.7161
▁charges	-10.7164
fish	-10.7168
arian	-10.717
fort	-10.717
▁Victor	-10.7173
▁Michel	-10.7175
▁goods	-10.7175
uma	-10.7176
▁Works	-10.718
▁portrait	-10.7183
▁traded	-10.7188
▁bid	-10.7189
▁1991.	-10.7191
ison	-10.7197
▁suicide	-10.7197
▁measures	-10.7198
▁Labor	-10.7199
▁1883	-10.7199
▁Kur	-10.72
▁magic	-10.7201
▁frequent	-10.7202
▁Thus	-10.7204
▁Classic	-10.7205
▁Rod	-10.7205
vas	-10.7208
▁Gill	-10.7209
▁Malaysia	-10.721
comp	-10.7211
▁Christopher	-10.7212
▁literacy	-10.7214
▁purposes	-10.7221
tten	-10.7225
▁compound	-10.7225
phy	-10.7227
▁represents	-10.723
▁arrest	-10.7232
▁rescue	-10.7233
▁grandson	-10.7233
▁performer	-10.7234
▁naval	-10.7234
anna	-10.7241
adi	-10.7241
-5	-10.7242
▁storage	-10.7248
bli	-10.7249
▁Maine	-10.725
▁discussion	-10.7251
▁bad	-10.7251
▁Jeff	-10.7252
▁involving	-10.7253
▁Story	-10.7257
▁brain	-10.7257
▁soundtrack	-10.7258
dro	-10.7261
▁coastal	-10.7262
▁sponsored	-10.7266
▁illness	-10.7267
nell	-10.7269
cycl	-10.7274
profit	-10.7276
▁wear	-10.7276
▁(12	-10.7285
PR	-10.7287
▁Dec	-10.7296
founded	-10.7297
▁Vel	-10.7297
▁Lanka	-10.7301
▁Maha	-10.7303
▁agriculture	-10.7304
▁Champions	-10.7305
▁Having	-10.7306
▁sentence	-10.7306
▁charity	-10.7307
▁illegal	-10.731
▁actors	-10.7312
▁truck	-10.7312
▁duo	-10.7313
▁freedom	-10.7316
▁Iraq	-10.7316
▁descent	-10.7324
▁Battalion	-10.7328
▁experienced	-10.7329
▁extremely	-10.7331
▁Shaw	-10.7332
▁guide	-10.7333
▁Stanley	-10.7338
▁anchor	-10.7343
▁Commons	-10.7347
uv	-10.7348
▁slave	-10.7348
SR	-10.7349
▁Utah	-10.7349
▁adventure	-10.735
ín	-10.7354
▁Hai	-10.7354
▁Jar	-10.7355
▁switch	-10.7357
pel	-10.7358
▁audio	-10.736
▁equivalent	-10.7362
fl	-10.7364
▁weekend	-10.7365
▁affected	-10.7366
Di	-10.7372
!"	-10.7372
rio	-10.7373
ace	-10.7373
▁hits	-10.7377
▁Model	-10.7379
▁peaked	-10.7383
▁Jews	-10.7383
▁Child	-10.7383
▁mental	-10.7387
▁heads	-10.7387
pers	-10.7391
▁dancer	-10.7394
tty	-10.7397
▁developer	-10.7402
▁Branch	-10.7402
▁1985,	-10.7404
-12	-10.7405
▁ago	-10.7405
▁Disney	-10.7405
▁Ny	-10.7405
▁assistance	-10.7409
▁contribution	-10.7412
▁Movement	-10.7415
▁feeling	-10.7419
▁dress	-10.7419
▁Pala	-10.742
▁VI	-10.7421
▁coverage	-10.7422
▁deliver	-10.7422
▁Jerusalem	-10.7423
stro	-10.7425
load	-10.7425
▁shares	-10.7427
-6	-10.7427
▁resistance	-10.743
▁Gray	-10.7431
▁returns	-10.7431
mination	-10.7432
▁Mand	-10.7435
▁filed	-10.7435
rad	-10.7438
▁volunteer	-10.7442
▁Here	-10.745
▁neuro	-10.745
▁BA	-10.745
▁occasions	-10.7452
▁trading	-10.7454
▁Diocese	-10.7455
▁banks	-10.7457
▁Fleet	-10.7458
▁Ei	-10.7462
▁Around	-10.7467
▁grows	-10.7467
cz	-10.7468
pop	-10.7468
cious	-10.747
smith	-10.7471
oz	-10.7472
nate	-10.7476
tech	-10.7477
▁Attorney	-10.7482
▁continuing	-10.7482
▁Bird	-10.7483
▁injuries	-10.7485
bat	-10.7487
Star	-10.7489
▁export	-10.7489
▁sto	-10.749
how	-10.749
ught	-10.7492
▁Baseball	-10.7492
▁smooth	-10.7495
▁fifteen	-10.7499
▁equipped	-10.7499
▁testing	-10.75
▁+	-10.75
▁cold	-10.7501
▁achieve	-10.7503
▁happen	-10.7505
▁earn	-10.7505
chy	-10.7507
▁wish	-10.7507
▁Political	-10.7508
▁Neu	-10.7509
▁Cole	-10.751
▁Pal	-10.7511
▁conductor	-10.7514
vat	-10.7518
–0	-10.7522
▁Carter	-10.7522
▁Finnish	-10.7523
▁discovery	-10.7526
OC	-10.753
▁criticism	-10.7533
1.6	-10.7533
ging	-10.7537
▁cited	-10.7537
▁Merc	-10.7543
▁possession	-10.7544
▁1876	-10.7547
:00	-10.7551
bia	-10.7558
▁swimming	-10.7559
SU	-10.756
▁adding	-10.7563
▁Even	-10.7563
▁platforms	-10.7565
▁unsuccessful	-10.7566
▁substantial	-10.7567
lat	-10.7568
▁outer	-10.7569
▁Tel	-10.7576
morph	-10.7576
▁Mis	-10.7581
rough	-10.7585
▁47	-10.7585
▁violence	-10.7586
▁salt	-10.7588
▁Greg	-10.7589
▁Kevin	-10.759
kel	-10.7593
▁Chan	-10.7597
▁mountains	-10.7598
▁Dragon	-10.7599
New	-10.76
▁stages	-10.7603
▁connect	-10.7606
▁Brad	-10.7607
flu	-10.7607
▁Lei	-10.7611
phe	-10.7613
▁manner	-10.7614
▁Meanwhile	-10.7615
CO	-10.7616
▁Roll	-10.7618
▁hole	-10.7618
▁bench	-10.7625
▁spending	-10.7629
▁1871	-10.763
▁newspapers	-10.7632
▁Rights	-10.7633
▁NA	-10.7634
▁charts	-10.7634
▁profit	-10.7637
rah	-10.7639
▁den	-10.764
▁cre	-10.7645
▁civilian	-10.7645
kins	-10.7647
▁celebration	-10.7647
▁Municipal	-10.7649
▁spend	-10.7651
▁travelled	-10.7657
▁visible	-10.7658
▁Trophy	-10.7662
▁Berkeley	-10.7666
▁Economics	-10.7668
▁inducted	-10.7671
▁1984,	-10.7672
▁Currently	-10.7675
▁corporate	-10.7675
ι	-10.7675
bla	-10.7676
▁Mall	-10.7678
▁crash	-10.7678
▁Lind	-10.7679
CS	-10.7681
▁Leeds	-10.7683
hard	-10.7684
▁1878	-10.7685
▁Amsterdam	-10.7687
For	-10.769
▁fame	-10.7691
fford	-10.7702
▁discuss	-10.7702
▁qua	-10.7702
gna	-10.7704
▁Ski	-10.7706
abad	-10.7707
▁1879	-10.771
▁pur	-10.7717
CE	-10.7719
nov	-10.7721
num	-10.7723
▁Leon	-10.7724
▁Cricket	-10.7727
▁Within	-10.7728
weight	-10.7728
▁Vin	-10.773
lem	-10.773
wise	-10.7731
You	-10.7732
kon	-10.7735
▁god	-10.7738
▁amongst	-10.7749
▁Language	-10.7749
▁Rus	-10.775
▁managing	-10.775
osa	-10.7752
▁fled	-10.7752
tile	-10.7754
DS	-10.7755
▁experiences	-10.7756
▁instruction	-10.7757
▁element	-10.7761
▁Benjamin	-10.7764
▁subsidiary	-10.7764
▁labor	-10.7765
▁Ship	-10.7766
▁nephew	-10.7772
▁Fan	-10.7774
ception	-10.7774
ographic	-10.7775
▁suffering	-10.7778
▁competitive	-10.7778
jun	-10.7779
organ	-10.778
▁PA	-10.7784
▁soft	-10.7788
▁crown	-10.7791
▁1872	-10.7794
▁Ivan	-10.7795
ening	-10.7796
▁rejected	-10.7797
gam	-10.78
▁Wel	-10.7801
▁chi	-10.7803
▁commanded	-10.7804
▁forests	-10.7806
rel	-10.7807
▁1945,	-10.7808
▁trouble	-10.7812
▁Broadcasting	-10.7813
▁Apple	-10.7813
▁raid	-10.7815
▁decides	-10.7817
▁renovation	-10.7823
month	-10.7823
uring	-10.7823
▁grass	-10.7823
ashi	-10.7827
ów	-10.783
erson	-10.7835
▁copy	-10.7837
▁passage	-10.7837
yama	-10.784
▁sole	-10.7841
▁trust	-10.7842
▁coat	-10.7842
▁Joan	-10.7844
▁revenue	-10.7847
▁Hope	-10.7847
▁academy	-10.7848
▁Gene	-10.7855
▁(11	-10.7857
▁1989.	-10.786
▁pack	-10.786
hin	-10.7861
lton	-10.7862
rai	-10.7864
ides	-10.7865
▁Billy	-10.7869
person	-10.7869
▁Bengal	-10.7871
▁bringing	-10.7876
▁picked	-10.7878
vision	-10.788
▁climb	-10.788
▁vision	-10.7881
▁concluded	-10.7881
related	-10.7883
mag	-10.7883
▁variation	-10.7884
scribe	-10.7886
graph	-10.7886
▁Orthodox	-10.7887
▁Islam	-10.7888
▁Technical	-10.7889
vie	-10.789
▁Mitchell	-10.7892
▁1874	-10.7893
▁acquisition	-10.7893
▁0.1	-10.7894
▁plain	-10.7894
▁Racing	-10.7896
▁Wen	-10.7896
▁executed	-10.79
▁construct	-10.7902
▁fr	-10.7903
mini	-10.7904
▁Rico	-10.7905
▁patron	-10.7911
▁Wu	-10.7911
▁possess	-10.7914
▁earth	-10.7916
▁Father	-10.7917
acre	-10.792
▁movies	-10.7921
igh	-10.7924
ather	-10.7925
ime	-10.7925
▁Alice	-10.7925
▁relief	-10.7926
▁existed	-10.7927
▁installation	-10.7928
▁riding	-10.7928
▁angle	-10.7929
▁streets	-10.793
▁Orange	-10.7932
llen	-10.7933
itive	-10.7934
▁funded	-10.7934
▁Spe	-10.7936
▁bird	-10.794
phil	-10.794
▁Palm	-10.7942
▁cable	-10.7943
brook	-10.795
▁Cultural	-10.795
▁Sor	-10.7956
▁Por	-10.7957
▁1868	-10.796
logical	-10.7965
▁Gas	-10.7966
pass	-10.7967
▁Basketball	-10.7973
▁Every	-10.7973
▁Dark	-10.7973
coming	-10.7974
▁1875	-10.7974
▁Kor	-10.7977
▁Chile	-10.7981
AF	-10.7982
azi	-10.7983
▁consul	-10.7986
rina	-10.7987
▁choose	-10.7987
▁Initially	-10.7989
▁fer	-10.7991
▁colonial	-10.7992
▁extensively	-10.7992
▁considerable	-10.7992
▁1866	-10.7994
–17	-10.7994
▁#1	-10.7995
rry	-10.7995
▁Falls	-10.7996
▁shut	-10.7998
▁cards	-10.7999
ingham	-10.7999
▁Barbara	-10.8002
▁secure	-10.8003
▁congregation	-10.8003
late	-10.8008
ici	-10.8008
▁controversial	-10.8009
▁gallery	-10.8009
▁understanding	-10.8011
▁thin	-10.8011
Ja	-10.8012
▁capable	-10.8012
akh	-10.8014
▁volumes	-10.8015
▁nurse	-10.8015
plane	-10.8017
▁Unlike	-10.8017
tial	-10.802
▁Mari	-10.8022
▁devoted	-10.8022
▁stable	-10.8023
een	-10.8025
II	-10.8029
ander	-10.8029
lent	-10.8031
▁undergraduate	-10.8034
aro	-10.8037
yne	-10.8037
▁fur	-10.8037
▁Susan	-10.8039
▁Warren	-10.804
▁Petersburg	-10.8041
▁carbon	-10.8043
▁fired	-10.8043
▁Beijing	-10.8044
▁gear	-10.8046
▁Cass	-10.805
called	-10.805
▁turning	-10.8053
▁Ir	-10.8053
▁alcohol	-10.8055
team	-10.8057
▁exception	-10.806
▁tea	-10.806
▁Short	-10.8061
▁festivals	-10.8065
▁Carlos	-10.8067
ller	-10.8068
▁Students	-10.8068
▁Plant	-10.8071
cular	-10.8073
▁intelligence	-10.8076
MC	-10.8077
▁defence	-10.8078
ür	-10.8079
▁Spi	-10.8081
▁Mau	-10.8082
▁Manhattan	-10.8084
▁Grey	-10.8087
▁Bert	-10.8087
>	-10.8088
rov	-10.8089
▁aspects	-10.8089
▁lasted	-10.809
ović	-10.809
struct	-10.8092
print	-10.8095
gio	-10.8096
cord	-10.81
core	-10.8105
ncies	-10.8105
▁pin	-10.8107
▁Lev	-10.8108
▁bat	-10.811
▁capita	-10.811
round	-10.811
▁outstanding	-10.8114
lation	-10.8115
length	-10.8116
▁Catherine	-10.8116
▁eliminated	-10.8117
EA	-10.8118
▁Vir	-10.8123
ž	-10.8123
▁suspended	-10.8125
sted	-10.8127
▁spoke	-10.8127
▁tell	-10.8128
▁affiliated	-10.8129
▁horses	-10.8131
member	-10.8132
dict	-10.8133
▁choir	-10.8133
▁shelter	-10.8136
▁bone	-10.8137
▁Florence	-10.814
▁1867	-10.8142
▁Transport	-10.8144
▁Dra	-10.8152
ffer	-10.8155
employ	-10.8157
▁nearest	-10.8158
▁120	-10.8159
▁concentration	-10.8163
ender	-10.8166
▁destroy	-10.8166
én	-10.8168
▁declined	-10.8173
▁Hel	-10.8174
▁Ridge	-10.8174
rab	-10.8175
▁eighteen	-10.8177
▁drew	-10.8177
▁devices	-10.8181
▁Johnny	-10.8183
died	-10.8185
▁reception	-10.8187
▁Gan	-10.8188
▁Democrat	-10.8188
▁mechanism	-10.8188
▁Johann	-10.819
▁identify	-10.819
▁Coach	-10.8195
▁Horse	-10.8197
sure	-10.8198
▁coached	-10.8198
▁pot	-10.8199
▁struck	-10.8199
osis	-10.8201
▁Finance	-10.8202
▁orders	-10.8203
▁otherwise	-10.8203
▁warm	-10.8206
away	-10.8206
▁Nicholas	-10.8207
ç	-10.8209
rink	-10.8209
▁SA	-10.8212
tine	-10.8215
▁1,000	-10.8216
lain	-10.8217
▁Survey	-10.8221
▁Fur	-10.8222
ş	-10.8222
▁dynasty	-10.8222
▁Minor	-10.823
▁Mile	-10.8232
▁1000	-10.8239
▁HMS	-10.8241
▁Thailand	-10.8241
▁strongly	-10.8243
▁march	-10.8245
▁Cher	-10.8251
▁uniform	-10.8252
stead	-10.8253
yu	-10.8254
▁departure	-10.8261
▁tele	-10.8262
▁tools	-10.8262
▁cattle	-10.8269
made	-10.8269
▁Blo	-10.8273
▁tribe	-10.8278
▁Code	-10.8279
▁che	-10.8281
▁exhibitions	-10.8283
CT	-10.8283
▁Sm	-10.8284
▁Friday	-10.8285
tier	-10.8285
▁Springs	-10.8286
▁directors	-10.8287
▁Leonard	-10.8288
▁affect	-10.8291
▁Ul	-10.8292
▁1983,	-10.8292
▁Mother	-10.8292
▁Ice	-10.8292
▁Alberta	-10.8294
▁changing	-10.8295
▁(14	-10.8298
▁Off	-10.8298
rest	-10.8301
ional	-10.8304
▁tied	-10.8304
▁thousands	-10.8309
▁PC	-10.8313
▁assisted	-10.8313
▁wants	-10.8314
▁spiritual	-10.8315
▁suggests	-10.8317
▁Auckland	-10.8317
kha	-10.8317
▁Zu	-10.8318
▁prince	-10.832
▁preparation	-10.8325
▁enjoyed	-10.8325
▁aim	-10.8326
▁1990.	-10.8329
Go	-10.8333
▁cool	-10.8335
▁require	-10.8337
▁ratio	-10.8337
▁Ker	-10.8338
▁clan	-10.834
▁1982,	-10.834
▁notice	-10.834
▁Was	-10.8341
ár	-10.8342
▁apply	-10.8344
▁Brand	-10.8345
lee	-10.8346
▁modified	-10.8349
game	-10.8354
▁Last	-10.8354
▁Base	-10.8355
▁criticized	-10.8355
▁1987.	-10.8356
mble	-10.8358
borough	-10.836
yon	-10.836
▁Century	-10.8362
winning	-10.8363
▁Web	-10.8364
▁Kel	-10.8366
▁Literature	-10.8367
▁Computer	-10.8371
_	-10.8373
▁values	-10.8375
▁inspiration	-10.8378
horn	-10.8383
▁fitted	-10.8384
▁Lloyd	-10.8386
▁sailed	-10.8391
▁fin	-10.8393
▁assault	-10.8395
▁inherited	-10.8396
▁Punjab	-10.8399
making	-10.8399
▁mall	-10.8399
▁credits	-10.84
▁boats	-10.84
▁routes	-10.84
ON	-10.8404
▁Box	-10.8406
Man	-10.8408
▁Had	-10.8408
▁flu	-10.8412
▁Lor	-10.8417
▁Grove	-10.8422
▁1873	-10.8422
▁Uni	-10.8427
▁Barcelona	-10.8427
▁sort	-10.8427
▁differ	-10.8431
▁Hamburg	-10.8432
▁54	-10.8432
▁Raja	-10.8436
▁thereafter	-10.8438
acle	-10.8441
▁belief	-10.8441
▁(13	-10.8442
▁serial	-10.8442
▁lit	-10.8443
▁authors	-10.8443
▁SS	-10.8447
▁Near	-10.8447
▁1877	-10.8448
▁displayed	-10.8449
▁magazines	-10.845
▁nor	-10.8453
uka	-10.8454
bing	-10.8455
▁wealthy	-10.8456
hra	-10.8459
gged	-10.846
quest	-10.8462
iva	-10.8464
▁factor	-10.8467
▁Control	-10.8473
rm	-10.8474
▁Hunter	-10.8475
une	-10.8475
RO	-10.8478
▁Hat	-10.8479
▁Amb	-10.8479
▁Serbian	-10.8479
▁Constitution	-10.8482
▁obtain	-10.8483
exp	-10.8485
ppe	-10.8485
enti	-10.8485
▁Athens	-10.8488
▁1972,	-10.849
▁maintenance	-10.849
▁Bible	-10.8491
▁Peninsula	-10.8492
▁eggs	-10.8493
▁debt	-10.8494
▁lb	-10.8497
rav	-10.8497
ssen	-10.8498
▁hometown	-10.8498
-16	-10.85
▁Charlie	-10.8501
▁Electric	-10.8505
▁Hawaii	-10.8509
▁Wayne	-10.851
▁Py	-10.8511
▁difference	-10.8513
▁Nik	-10.8514
▁Peru	-10.8514
ô	-10.8514
▁patrol	-10.8518
▁CBS	-10.8518
▁unlike	-10.8518
▁finals	-10.8519
wich	-10.8523
hai	-10.8523
▁Hur	-10.8524
ago	-10.8525
▁Socialist	-10.8525
▁blocks	-10.8528
tag	-10.8528
emi	-10.8529
▁Stanford	-10.8529
▁recruit	-10.853
▁medals	-10.8533
AL	-10.8537
▁mounted	-10.854
▁Santo	-10.854
–0.	-10.854
▁argued	-10.8543
▁1986.	-10.8547
▁everything	-10.8548
▁Venice	-10.855
▁Small	-10.8551
ched	-10.8554
▁1988.	-10.8554
▁mini	-10.8554
ature	-10.8556
▁Gru	-10.8557
▁cartoon	-10.8558
▁conservation	-10.8561
▁ruler	-10.8562
▁describe	-10.8562
▁canal	-10.8563
arrow	-10.8564
▁occasion	-10.8569
▁tie	-10.857
assi	-10.857
▁photographs	-10.857
▁easy	-10.857
▁blog	-10.8574
vention	-10.8575
▁shift	-10.8575
▁farming	-10.8576
▁predecessor	-10.8577
signed	-10.8578
▁customers	-10.8578
direct	-10.8579
inch	-10.8583
▁Alt	-10.8585
▁internationally	-10.8585
▁sisters	-10.8585
▁examples	-10.8586
dian	-10.8588
▁cy	-10.8588
▁1979,	-10.8593
▁exile	-10.8594
▁questions	-10.8598
▁Din	-10.8599
-8	-10.8599
hour	-10.8599
▁videos	-10.8601
▁vocalist	-10.8602
hur	-10.8602
▁qualify	-10.8602
hold	-10.8602
▁Newcastle	-10.8604
posed	-10.8605
▁assists	-10.8607
▁honors	-10.8609
ET	-10.8613
▁holiday	-10.8614
▁85	-10.8614
▁Ap	-10.8614
▁Dead	-10.8614
▁Parish	-10.8615
▁53	-10.8618
▁Vermont	-10.8621
tak	-10.8624
▁laws	-10.8625
▁Gabriel	-10.8625
▁facing	-10.8629
▁opportunities	-10.8633
Na	-10.8639
poli	-10.8643
▁focuses	-10.8646
▁attributed	-10.8648
▁persons	-10.8648
etti	-10.8649
pho	-10.865
▁broadcasting	-10.8653
▁detect	-10.8657
jar	-10.8657
▁Jose	-10.8658
▁elementary	-10.8658
▁1.5	-10.8659
▁insurance	-10.8661
▁delegate	-10.8661
▁requirements	-10.8662
▁Mason	-10.8662
▁gone	-10.8664
orn	-10.8665
dell	-10.8665
▁Arkansas	-10.8667
issa	-10.8667
▁1974,	-10.8669
▁output	-10.8674
▁600	-10.8678
▁reaches	-10.8678
bble	-10.868
▁56	-10.8681
▁counties	-10.8682
3)	-10.8687
▁apart	-10.8688
▁NBA	-10.8692
▁Collection	-10.8693
▁sponsor	-10.8695
▁sight	-10.8698
▁Med	-10.8698
script	-10.8701
▁Virgin	-10.8702
▁summit	-10.8703
▁commune	-10.8704
▁Fisher	-10.8705
▁affiliate	-10.8705
▁skill	-10.8707
▁organised	-10.8707
▁Salt	-10.8708
▁vessels	-10.8709
▁divisions	-10.871
aku	-10.871
then	-10.8715
had	-10.8715
▁participation	-10.8717
fire	-10.8722
▁breed	-10.8723
▁ridge	-10.8723
ía	-10.8724
▁1981,	-10.8724
▁Books	-10.8725
▁Chapel	-10.8726
iko	-10.8727
▁earthquake	-10.8727
four	-10.8729
▁250	-10.873
▁Pet	-10.8734
▁1840	-10.8736
л	-10.874
iki	-10.874
▁controversy	-10.874
▁Fr	-10.8743
▁Sad	-10.8745
▁sack	-10.8747
▁Buffalo	-10.8748
▁Junction	-10.875
▁Thi	-10.8752
▁significantly	-10.8756
▁Section	-10.8757
▁scholars	-10.8758
▁Chester	-10.8759
▁Luis	-10.8767
▁thousand	-10.8768
▁processes	-10.8768
▁thesis	-10.8769
▁approval	-10.877
vari	-10.877
▁Primary	-10.8772
▁Warner	-10.8774
▁experimental	-10.8778
card	-10.8779
▁decorated	-10.8779
▁schedule	-10.8782
▁proper	-10.8784
▁topics	-10.8784
▁1869	-10.8789
▁concerns	-10.8791
▁produces	-10.8792
▁Abu	-10.8793
▁costs	-10.8793
rated	-10.8794
–5	-10.8795
mour	-10.8801
RS	-10.8801
▁convert	-10.8803
▁involvement	-10.8808
gil	-10.8815
▁Whi	-10.8816
▁peer	-10.8818
▁stamp	-10.882
empt	-10.8822
ée	-10.8822
cott	-10.8822
▁begun	-10.8826
ppen	-10.8831
oph	-10.8834
▁consultant	-10.8835
pose	-10.8837
▁Industrial	-10.8838
▁Turner	-10.8845
▁Jun	-10.8845
▁Arabic	-10.8847
▁crosses	-10.8847
night	-10.8847
▁cent	-10.8847
▁Bai	-10.8848
Ca	-10.8848
▁procedure	-10.8855
▁Pont	-10.8857
▁chemistry	-10.8857
▁prisoners	-10.8858
▁roster	-10.8859
▁Zone	-10.8862
mine	-10.8863
omi	-10.8864
PC	-10.8865
▁consumer	-10.8867
▁Sultan	-10.8869
▁1857	-10.887
▁threatened	-10.8874
▁soldier	-10.8879
▁abuse	-10.8879
▁Stockholm	-10.888
▁sleep	-10.8881
▁teammate	-10.8884
▁ear	-10.8884
▁victims	-10.8884
▁1848	-10.8884
▁treat	-10.8885
▁consist	-10.8886
▁Hugh	-10.8886
sche	-10.8886
TS	-10.8888
lant	-10.889
Ta	-10.8891
▁Kill	-10.8897
▁Rama	-10.8897
▁Borough	-10.8899
mos	-10.8899
▁jail	-10.89
▁sixteen	-10.8902
▁penalty	-10.8905
▁switched	-10.8907
eta	-10.891
▁Guinea	-10.891
▁rising	-10.8911
▁advocate	-10.8911
▁1985.	-10.8912
hawk	-10.8917
▁apparently	-10.8922
▁accessible	-10.8927
▁thirteen	-10.8928
▁Shanghai	-10.8928
▁1945.	-10.8934
▁Windows	-10.8934
▁Norfolk	-10.8936
▁pain	-10.8948
▁vertical	-10.8949
▁electrical	-10.8949
▁altitude	-10.895
▁spec	-10.8952
▁Romanian	-10.8952
▁worship	-10.8953
▁Nord	-10.8953
▁Caribbean	-10.8954
rod	-10.8956
▁happened	-10.8957
oi	-10.8961
▁64,	-10.8963
▁É	-10.8964
uro	-10.8964
astic	-10.8966
▁secured	-10.8967
rise	-10.8968
org	-10.897
▁attract	-10.8971
TE	-10.8974
▁tackles	-10.8976
etta	-10.8984
minute	-10.8984
ν	-10.8984
dig	-10.8989
▁1978,	-10.899
ois	-10.8991
▁rebel	-10.8993
▁profile	-10.8993
▁encourage	-10.8998
IM	-10.8998
▁Gary	-10.9004
▁behalf	-10.9007
blo	-10.9008
▁rounds	-10.901
▁72	-10.9013
▁Record	-10.9014
▁Tin	-10.9014
hav	-10.902
▁portrayed	-10.902
mper	-10.9021
▁Rabbi	-10.9022
▁spots	-10.9023
ffi	-10.9023
▁meta	-10.9023
teen	-10.9024
omb	-10.9025
ule	-10.9025
▁fresh	-10.9025
н	-10.9027
fri	-10.9027
▁Mediterranean	-10.9028
▁Guide	-10.9032
▁encouraged	-10.9035
llie	-10.9036
▁mat	-10.9042
▁expand	-10.9042
▁colony	-10.9042
RE	-10.9043
▁Blues	-10.9043
▁Thor	-10.9046
▁productions	-10.9047
▁Barry	-10.9047
rog	-10.9049
FC	-10.905
▁Marc	-10.9051
▁balance	-10.9053
▁liquid	-10.9055
▁rated	-10.9055
▁Rai	-10.9056
founder	-10.9058
▁Parker	-10.9063
▁decline	-10.9063
▁resort	-10.9065
▁exists	-10.9065
NC	-10.9066
▁writes	-10.9066
▁requires	-10.9067
▁components	-10.9069
▁tune	-10.9069
▁Jamaica	-10.9072
▁locally	-10.9072
tum	-10.9073
▁ambassador	-10.9075
▁Nashville	-10.9077
his	-10.9079
▁remix	-10.9082
nica	-10.9082
▁roots	-10.9083
▁44,	-10.9085
amba	-10.9085
cum	-10.9086
eld	-10.9088
▁Sher	-10.9089
▁Cru	-10.9089
▁depend	-10.9092
▁Death	-10.9093
▁kingdom	-10.9095
▁0.2	-10.9096
▁alternate	-10.9097
borg	-10.9099
▁Derby	-10.9099
▁Season	-10.9102
bird	-10.9102
tia	-10.9105
NS	-10.911
present	-10.9112
▁variable	-10.9114
▁Isle	-10.9115
▁exit	-10.9116
▁Rangers	-10.9116
lade	-10.9118
tam	-10.9119
▁Cincinnati	-10.9121
Pro	-10.9123
▁Wellington	-10.9123
▁Nam	-10.9123
▁NBC	-10.9124
zza	-10.9125
æ	-10.9127
▁Fun	-10.9128
lab	-10.9128
MI	-10.9135
▁clerk	-10.9138
▁ideal	-10.9139
▁Nation	-10.9139
▁1975,	-10.9139
▁Costa	-10.9142
▁CF	-10.9142
▁eighth	-10.9142
▁sugar	-10.9143
▁66	-10.9144
quin	-10.9145
ids	-10.9147
▁attraction	-10.9152
polis	-10.9152
–4	-10.9157
▁Track	-10.9158
▁commenced	-10.9162
▁ministry	-10.9163
▁download	-10.9164
▁Dog	-10.9166
oh	-10.9167
▁1984.	-10.9167
▁stake	-10.9168
word	-10.9168
▁external	-10.917
▁Editor	-10.9172
▁desert	-10.9173
▁outdoor	-10.9175
▁coin	-10.9178
▁Pot	-10.9179
mpl	-10.9181
▁missed	-10.9182
▁recommended	-10.9185
post	-10.9189
▁specialist	-10.9193
inter	-10.9194
▁1859	-10.9195
▁800	-10.9197
▁beating	-10.9204
▁reportedly	-10.9205
▁fragment	-10.9206
thal	-10.9207
ush	-10.921
dow	-10.9212
▁settlers	-10.9212
German	-10.9213
lish	-10.9214
▁outbreak	-10.9214
ech	-10.9214
pul	-10.9214
▁Andy	-10.9219
▁Common	-10.922
▁Wang	-10.9224
▁Alaska	-10.9225
▁pianist	-10.9232
▁Lim	-10.9234
lap	-10.9236
▁1976,	-10.9237
▁Lea	-10.9238
▁Holland	-10.9238
▁fit	-10.9239
▁manage	-10.9245
▁log	-10.9246
▁Vic	-10.9248
▁archive	-10.9249
▁editorial	-10.9249
hurst	-10.9249
▁ocean	-10.9252
▁Video	-10.9254
▁Barn	-10.9255
▁gradually	-10.9256
▁sym	-10.9256
▁sur	-10.9257
▁pictures	-10.926
▁crisis	-10.9261
▁rec	-10.9261
RT	-10.9262
▁Exchange	-10.9264
▁Craig	-10.9265
▁legislation	-10.9268
lling	-10.9268
▁Gui	-10.9268
ough	-10.9268
stock	-10.9274
▁bear	-10.9279
▁servant	-10.9283
▁Hebrew	-10.9291
ensis	-10.9292
than	-10.9295
▁Egyptian	-10.9295
▁Persian	-10.9295
▁Cinema	-10.9295
▁Commerce	-10.9299
▁classification	-10.9299
▁Places	-10.9299
▁cash	-10.9302
▁2.5	-10.9304
▁meetings	-10.9308
apa	-10.9309
▁Friends	-10.9309
inus	-10.931
▁assignment	-10.9311
▁giant	-10.9311
▁bound	-10.9313
▁Much	-10.9313
▁1968,	-10.9314
ulu	-10.9315
▁longest	-10.9315
▁incumbent	-10.9316
mount	-10.9316
stad	-10.9316
▁loaned	-10.9316
▁birthday	-10.9316
oke	-10.9326
▁Bio	-10.9326
▁Pradesh	-10.9326
▁disbanded	-10.9328
▁tier	-10.9328
▁clock	-10.9329
▁ka	-10.933
▁operational	-10.9333
▁payment	-10.9333
shaw	-10.9333
ode	-10.9334
▁Stein	-10.9334
▁tomb	-10.9336
▁1971,	-10.9338
▁teach	-10.934
▁elect	-10.9347
▁Copenhagen	-10.9347
▁powered	-10.9348
▁Herbert	-10.9348
▁Tai	-10.9349
▁artwork	-10.9354
▁constant	-10.9356
▁Vincent	-10.9356
▁instructor	-10.9358
▁massive	-10.936
▁Muhammad	-10.9361
▁partners	-10.9362
▁Owen	-10.9364
scale	-10.9365
▁mod	-10.9366
▁resignation	-10.9367
▁none	-10.9367
▁neck	-10.9372
▁integrated	-10.9374
▁sessions	-10.9374
▁Digital	-10.9375
▁syn	-10.9377
▁airline	-10.9379
▁Ghana	-10.938
dre	-10.9383
pot	-10.9384
▁inner	-10.9389
▁Romania	-10.9392
▁remote	-10.9394
▁hearing	-10.9396
▁DNA	-10.9397
▁Sat	-10.94
hil	-10.9404
ña	-10.9404
▁hydro	-10.9405
▁algorithm	-10.9408
▁keyboard	-10.9409
▁Arena	-10.9412
▁1969,	-10.9416
▁paint	-10.9418
▁fourteen	-10.9419
plan	-10.942
▁doesn	-10.942
▁Eye	-10.942
roll	-10.9424
▁Mit	-10.9425
▁monk	-10.943
▁Systems	-10.9432
▁objective	-10.9433
▁Dakota	-10.9436
▁characterized	-10.9436
▁alleged	-10.9439
▁latest	-10.9441
▁useful	-10.9443
▁Brisbane	-10.9446
cken	-10.9448
▁Gy	-10.9449
▁Eventually	-10.9451
▁Sr	-10.9454
current	-10.9461
▁advisor	-10.9465
ink	-10.9467
▁interaction	-10.9468
▁Non	-10.9471
▁explore	-10.9473
▁rob	-10.9474
▁solve	-10.9474
▁Ian	-10.9474
▁expect	-10.9475
▁Ring	-10.9476
▁electro	-10.9478
West	-10.9481
gard	-10.9481
ID	-10.9482
▁Lyon	-10.9486
ο	-10.9486
▁beam	-10.9489
▁Cuba	-10.9491
▁Harrison	-10.9495
▁1983.	-10.9496
▁infrastructure	-10.9499
▁economics	-10.9501
▁Cad	-10.9501
▁proceed	-10.9502
▁cluster	-10.9506
▁heir	-10.9507
▁anything	-10.9508
▁drink	-10.9512
▁Armenian	-10.9512
▁employment	-10.9518
▁Methodist	-10.9519
PI	-10.9521
▁minimum	-10.9523
▁Bab	-10.9525
▁Hon	-10.9528
▁agencies	-10.9529
▁emergency	-10.9529
▁faith	-10.953
▁1977,	-10.953
▁Territory	-10.9531
▁Rosa	-10.9531
▁offensive	-10.9532
loy	-10.9532
▁Hau	-10.9533
ym	-10.9533
▁Morning	-10.9533
▁drums	-10.9534
▁Scout	-10.9538
▁ranks	-10.9538
ody	-10.9539
▁corporation	-10.9539
▁encounter	-10.954
▁Venezuela	-10.9541
▁Gran	-10.9544
eve	-10.9544
▁Prague	-10.9546
▁package	-10.9548
▁Oliver	-10.9549
▁Spirit	-10.9549
aff	-10.9552
piece	-10.9552
▁pit	-10.9553
▁LP	-10.9556
▁contestant	-10.9565
▁retreat	-10.9565
▁Late	-10.9567
▁locomotives	-10.957
▁1979.	-10.957
▁Artist	-10.9572
▁Tang	-10.9573
uda	-10.9574
▁funeral	-10.9577
▁genetic	-10.9578
▁z	-10.9578
CP	-10.9578
▁Industry	-10.958
▁1982.	-10.958
▁Ok	-10.9581
▁Secondary	-10.9582
▁advice	-10.9584
▁dr	-10.9587
such	-10.9589
▁1854	-10.9589
▁assets	-10.9591
Vi	-10.9591
▁dual	-10.9594
▁mineral	-10.96
▁counsel	-10.96
break	-10.9603
▁Mul	-10.9606
▁Kre	-10.961
▁1944,	-10.961
▁Gau	-10.961
▁sharp	-10.9612
bian	-10.9612
odo	-10.9613
▁62	-10.9614
▁RAF	-10.9615
▁phrase	-10.9616
▁$4	-10.962
rew	-10.9622
▁Ottawa	-10.9623
▁differences	-10.9627
life	-10.9627
idi	-10.9627
ending	-10.9629
▁Instead	-10.9631
▁establishing	-10.9633
pm	-10.9633
▁Devon	-10.9634
▁Bag	-10.9635
▁Bulgarian	-10.9639
▁Lions	-10.9643
▁Kara	-10.9644
▁walking	-10.9646
So	-10.9655
▁prestigious	-10.9657
raj	-10.966
▁wrong	-10.966
▁Luke	-10.9662
DC	-10.9664
ground	-10.9665
▁reverse	-10.9667
▁absence	-10.9667
▁Hudson	-10.9669
▁transportation	-10.9672
▁Nepal	-10.9674
raz	-10.9676
▁ensemble	-10.9676
▁Serbia	-10.9684
▁Woman	-10.9685
▁strategic	-10.9685
▁Dev	-10.9688
▁Bass	-10.9689
SD	-10.9692
▁1973,	-10.9693
▁Collins	-10.9694
▁knee	-10.9695
▁dynamic	-10.9695
▁Jason	-10.9702
ão	-10.9704
▁collect	-10.9706
té	-10.971
▁initiated	-10.9712
▁diocese	-10.9716
▁steep	-10.972
▁Xi	-10.9721
▁tract	-10.9725
▁hundreds	-10.973
▁Mora	-10.9737
▁jobs	-10.9738
▁collective	-10.974
▁originated	-10.974
▁Principal	-10.9742
▁extinct	-10.9745
▁Ambassador	-10.9748
▁specialized	-10.975
ê	-10.975
▁Leo	-10.9751
▁1855	-10.9751
▁examination	-10.9752
▁surprise	-10.9752
▁soul	-10.9752
Ka	-10.9753
▁Bath	-10.9754
iah	-10.9754
▁Throughout	-10.9755
vre	-10.9756
▁aimed	-10.9759
lick	-10.9759
cid	-10.9762
▁Fen	-10.9766
▁legs	-10.9767
▁Perth	-10.9769
▁prototype	-10.977
▁mal	-10.977
any	-10.9772
▁connecting	-10.9774
▁regime	-10.9777
▁Ober	-10.9778
▁Guardian	-10.9779
▁Julie	-10.9783
atic	-10.9785
▁Uganda	-10.9788
unda	-10.979
▁São	-10.9792
▁Wilhelm	-10.9794
▁participants	-10.9794
▁1830	-10.9797
oka	-10.9797
?"	-10.9797
▁tale	-10.9798
▁elevated	-10.9799
CD	-10.98
▁thing	-10.98
▁57	-10.9801
dha	-10.9806
▁Andrea	-10.9808
▁producers	-10.9809
с	-10.981
▁participating	-10.9812
▁practical	-10.9812
▁curve	-10.9812
anta	-10.9813
wy	-10.9815
Car	-10.9815
▁spoken	-10.9815
▁promoting	-10.9815
▁accommodate	-10.9819
nish	-10.9822
▁steal	-10.9823
gic	-10.9824
▁MS	-10.9824
▁€	-10.9825
▁pra	-10.9829
rite	-10.9829
▁Temp	-10.983
▁Ras	-10.9832
▁manor	-10.9834
▁Mumbai	-10.9837
▁error	-10.9837
▁destination	-10.9839
cient	-10.9839
▁58	-10.984
WA	-10.984
▁Jonathan	-10.9841
ffin	-10.9842
▁beauty	-10.9846
▁recovered	-10.9846
▁tribute	-10.9847
berry	-10.9847
▁Wor	-10.9847
AD	-10.9848
▁seal	-10.9848
cover	-10.985
front	-10.9853
▁Soul	-10.9854
▁columns	-10.9854
▁Pun	-10.9856
▁Cou	-10.9857
▁Phoenix	-10.9857
onne	-10.986
▁prove	-10.9863
▁deck	-10.9863
▁Than	-10.9864
hun	-10.9864
ifying	-10.9864
▁resumed	-10.9864
▁Masters	-10.9865
▁Action	-10.9866
▁depending	-10.9867
vant	-10.9867
owned	-10.9868
▁Protestant	-10.987
▁Bah	-10.9875
▁decide	-10.9877
▁hop	-10.9877
τ	-10.9881
▁renowned	-10.9881
▁rapidly	-10.9885
▁favorite	-10.9886
▁shopping	-10.9889
▁orange	-10.989
▁bull	-10.9893
sser	-10.9894
▁Warsaw	-10.9894
mill	-10.9894
▁Mei	-10.9894
–7	-10.9897
ista	-10.99
▁Guild	-10.9901
bha	-10.9902
▁exclusively	-10.9905
â	-10.9908
▁resolution	-10.9908
▁tropical	-10.991
▁coordinate	-10.9913
pple	-10.9913
ulating	-10.9917
grad	-10.9918
nom	-10.9919
▁divorced	-10.992
▁Corn	-10.992
▁dozen	-10.9923
▁closure	-10.9923
gia	-10.9924
▁Mess	-10.9935
▁sitting	-10.9938
▁partially	-10.9938
▁competitor	-10.9949
Sc	-10.9952
▁treated	-10.9952
▁Appeal	-10.9956
▁Leader	-10.9959
▁jurisdiction	-10.996
▁Policy	-10.996
▁understand	-10.9962
aged	-10.9965
▁policies	-10.9965
▁Gregory	-10.9968
▁baby	-10.9969
tail	-10.997
ement	-10.9972
▁romantic	-10.9974
ī	-10.9974
▁evolution	-10.9976
▁push	-10.9978
▁moral	-10.9982
▁95	-10.9982
hua	-10.9985
NT	-10.9985
aging	-10.9987
▁moderate	-10.9989
▁1967,	-10.9989
▁permit	-10.9993
▁Bart	-10.9994
▁Robin	-11.0008
▁Next	-11.0012
wor	-11.0015
▁cook	-11.0016
▁1972.	-11.0019
eira	-11.0022
▁donation	-11.0023
▁Manager	-11.0023
▁normally	-11.0023
▁Schu	-11.0024
▁Azerbaijan	-11.0024
▁sculptor	-11.0026
ulf	-11.0027
▁Competition	-11.0028
▁Kol	-11.0028
▁appropriate	-11.003
vig	-11.003
▁drum	-11.003
▁Institution	-11.0031
▁Provincial	-11.0032
last	-11.0033
▁interchange	-11.0036
▁Beat	-11.0037
▁Eight	-11.0038
▁Advisory	-11.0038
▁Data	-11.0039
▁Ernest	-11.004
▁graph	-11.0043
▁Plain	-11.0044
▁farmer	-11.0045
▁Agriculture	-11.0047
▁closing	-11.0047
▁CE	-11.0048
▁Vegas	-11.0049
main	-11.0049
▁everyone	-11.0049
▁partly	-11.005
hem	-11.0051
▁clinical	-11.0052
▁emperor	-11.0052
▁Mut	-11.0052
▁desire	-11.0053
▁handle	-11.0054
▁Jerry	-11.0054
▁Support	-11.0056
Ne	-11.0057
verse	-11.0059
▁frequency	-11.006
ño	-11.006
▁editions	-11.006
tang	-11.0061
TP	-11.0064
▁markets	-11.0066
▁Met	-11.0067
▁strategy	-11.0067
ude	-11.0068
▁Ground	-11.0069
1.8	-11.0071
▁categories	-11.0073
▁Bach	-11.0075
▁Mou	-11.0076
▁Afghanistan	-11.0076
say	-11.0077
IL	-11.0078
ß	-11.0078
eno	-11.0078
nant	-11.0079
▁enlisted	-11.008
▁Gay	-11.0081
▁exposed	-11.0084
▁mentor	-11.0084
▁resemble	-11.0084
▁abolished	-11.0086
▁speaking	-11.0088
lyn	-11.0089
uru	-11.0089
▁scar	-11.009
▁denied	-11.0092
т	-11.0093
ρ	-11.0093
▁enable	-11.0094
▁Rec	-11.0095
▁Fellowship	-11.0096
▁detailed	-11.0097
ffe	-11.0098
▁Fab	-11.0098
▁Universal	-11.0101
▁Yan	-11.0103
EL	-11.0104
▁1978.	-11.0108
acher	-11.0111
▁Sheffield	-11.0114
ovich	-11.0125
chel	-11.0126
▁Drama	-11.0132
▁stress	-11.0132
▁1981.	-11.0133
▁belongs	-11.0134
▁Sav	-11.0135
building	-11.0136
▁shops	-11.0137
▁recover	-11.0137
▁timber	-11.0138
▁1858	-11.0139
▁courts	-11.0141
lé	-11.0141
▁10,000	-11.0142
▁Magic	-11.0143
wai	-11.0147
▁Contemporary	-11.0148
▁Oslo	-11.0148
▁remove	-11.0149
▁Bryan	-11.015
itis	-11.0153
▁dialect	-11.0155
▁1974.	-11.0158
▁conclusion	-11.0159
CH	-11.0161
▁Blood	-11.0164
▁Cow	-11.0168
▁Medi	-11.0169
anti	-11.0171
ancy	-11.0172
▁Name	-11.0178
wide	-11.0181
▁knew	-11.0183
▁farmers	-11.0183
▁patient	-11.0185
▁designation	-11.0192
▁legislature	-11.0193
▁Freedom	-11.0194
▁63	-11.0194
▁diverse	-11.02
▁coup	-11.02
▁commemorate	-11.0202
▁ruling	-11.0203
▁Yama	-11.0207
▁processing	-11.0208
▁hectares	-11.0208
▁rapid	-11.0209
▁intellectual	-11.0212
▁stint	-11.0212
▁Def	-11.0223
▁Mine	-11.0226
▁1977.	-11.0226
bil	-11.0228
▁adults	-11.0228
kle	-11.0232
▁fossil	-11.0232
▁gay	-11.0235
▁Carol	-11.0235
▁innings	-11.0236
▁viewers	-11.0237
▁suitable	-11.0239
▁rivers	-11.024
fall	-11.0241
▁Letter	-11.0241
к	-11.0242
▁Grace	-11.0244
DI	-11.0245
▁restaurants	-11.0246
▁61	-11.0246
▁loop	-11.0248
▁borough	-11.0248
▁Bau	-11.0249
aud	-11.0251
▁conservative	-11.0253
imo	-11.0254
dler	-11.0255
▁Est	-11.0257
▁Sau	-11.0257
udi	-11.0259
▁cargo	-11.0259
▁1976.	-11.026
▁valid	-11.0263
▁Campaign	-11.0265
▁Butler	-11.0266
▁pull	-11.0266
▁photograph	-11.0267
cot	-11.0268
boro	-11.0269
arra	-11.0269
HA	-11.027
▁Financial	-11.027
kara	-11.0271
▁Harbor	-11.0271
▁signature	-11.0273
▁doors	-11.0274
▁59	-11.0274
▁Nature	-11.0276
▁Gilbert	-11.0278
cie	-11.0278
▁Nevada	-11.028
▁Cruz	-11.0285
▁AS	-11.0285
▁component	-11.029
▁dissolved	-11.0291
▁missions	-11.0292
▁Direct	-11.0292
ache	-11.0294
vic	-11.0295
▁Cent	-11.0299
▁internet	-11.03
wed	-11.03
▁rider	-11.0305
▁pure	-11.0307
ulated	-11.0309
duction	-11.0309
EN	-11.0309
▁excellent	-11.0312
enburg	-11.0314
▁carrier	-11.0316
▁Georg	-11.0317
▁enters	-11.032
▁Side	-11.0323
▁concerned	-11.0328
free	-11.0328
asa	-11.0329
▁Turk	-11.0329
kal	-11.0329
Te	-11.033
wall	-11.0331
toria	-11.0331
-7	-11.0332
▁Lab	-11.0332
▁fabric	-11.0333
▁increasingly	-11.0337
▁missile	-11.0337
▁Fish	-11.0338
▁mechanical	-11.0338
▁1852	-11.0339
▁Rand	-11.034
▁themes	-11.0342
▁Step	-11.0343
▁profession	-11.0344
▁seeking	-11.0347
dorf	-11.0348
dicate	-11.0349
▁keeping	-11.0349
▁explained	-11.0352
eman	-11.0352
▁Seminary	-11.0352
▁ranging	-11.036
▁Songs	-11.0364
ogen	-11.0364
turn	-11.0367
▁connects	-11.0367
▁1973.	-11.0369
▁Elementary	-11.037
IR	-11.037
▁bout	-11.0371
▁journalism	-11.0372
▁belonging	-11.0372
▁Anglo	-11.0373
▁1975.	-11.0375
▁permission	-11.0376
▁Lock	-11.0377
▁Well	-11.0378
▁collector	-11.038
▁Perry	-11.0381
▁execution	-11.0381
▁Hit	-11.0382
▁links	-11.0382
▁theatrical	-11.0383
range	-11.0392
oro	-11.0393
▁Type	-11.0394
▁manufactured	-11.0398
▁emigrated	-11.04
rot	-11.0401
▁knots	-11.0406
▁indigenous	-11.0408
space	-11.0414
▁scientist	-11.0414
▁Are	-11.0416
▁Bang	-11.0417
▁Jin	-11.0417
▁relation	-11.0419
▁Franco	-11.0419
▁Otto	-11.0419
▁Š	-11.0422
▁greatly	-11.0423
▁immediate	-11.0423
ota	-11.0423
▁Giovanni	-11.0424
▁reviewed	-11.0425
▁throne	-11.0425
▁reveal	-11.0428
NR	-11.0433
▁Estate	-11.0433
▁clothing	-11.0435
iana	-11.0435
two	-11.0437
▁gal	-11.044
▁Princeton	-11.0449
▁confront	-11.0449
▁1971.	-11.045
▁representatives	-11.0454
▁zoo	-11.0455
▁escort	-11.0456
▁Crow	-11.046
▁1856	-11.0461
▁immigrants	-11.0464
▁dish	-11.0467
▁Sid	-11.0483
3.3	-11.0484
▁submitted	-11.0484
raw	-11.0487
▁discipline	-11.0487
▁rhythm	-11.0487
▁Petr	-11.0488
▁sufficient	-11.0489
▁lover	-11.049
▁guilty	-11.0491
▁transmission	-11.0492
▁monthly	-11.0495
▁1851	-11.0499
mod	-11.0499
▁76	-11.0501
▁£1	-11.0502
▁|	-11.0502
Par	-11.0503
▁accounts	-11.0505
▁Card	-11.0506
▁sees	-11.0507
▁unincorporated	-11.0509
EM	-11.051
▁Mills	-11.0514
▁Tigers	-11.0515
▁register	-11.0517
open	-11.0517
▁Andre	-11.052
▁functional	-11.0522
▁99	-11.0522
▁Golf	-11.0526
▁petition	-11.0527
▁root	-11.0527
▁coalition	-11.0527
fra	-11.0527
urge	-11.0527
▁burned	-11.0528
▁matters	-11.053
▁Nat	-11.053
▁battalion	-11.053
▁falling	-11.0532
▁Finally	-11.0534
▁torpedo	-11.0534
▁Distinguished	-11.0544
▁hp	-11.0544
cation	-11.0546
SO	-11.0549
BL	-11.0553
▁harm	-11.0555
▁alliance	-11.0556
▁false	-11.0558
sworth	-11.0558
▁communications	-11.0559
▁Dai	-11.0561
▁ready	-11.0569
ching	-11.0569
▁helicopter	-11.0569
zzo	-11.057
▁ser	-11.057
qual	-11.0571
▁1965,	-11.0571
▁Pedro	-11.0572
▁Scotia	-11.0572
tig	-11.0572
▁conversion	-11.0572
dding	-11.0574
▁Denver	-11.0574
▁Sche	-11.0574
▁Manuel	-11.0577
▁wound	-11.0577
▁Hell	-11.0578
▁Cel	-11.0579
▁Jen	-11.0582
▁celebrate	-11.0583
moto	-11.0585
▁definition	-11.0587
▁cancelled	-11.0587
▁founders	-11.0587
▁hang	-11.059
▁Kun	-11.0593
▁solar	-11.0594
▁argument	-11.0595
▁runway	-11.06
▁Clinton	-11.0601
▁Bin	-11.0601
▁Concert	-11.0605
▁Higher	-11.0608
▁extends	-11.061
▁interviews	-11.0614
ibility	-11.0617
▁alter	-11.0618
▁Pic	-11.0619
▁contribute	-11.0621
▁Admiral	-11.0622
▁Philosophy	-11.0624
ried	-11.0627
▁scientists	-11.0632
–16	-11.0632
▁whi	-11.0633
▁Kay	-11.0636
▁claiming	-11.0638
▁oversee	-11.0642
Pe	-11.0643
▁sw	-11.0647
▁Snow	-11.0649
▁hunting	-11.0651
▁Rosen	-11.0654
▁Rem	-11.0655
▁Treaty	-11.0656
▁XI	-11.0656
▁placing	-11.0658
▁shock	-11.0659
uga	-11.0659
lang	-11.0659
▁nest	-11.066
▁detail	-11.066
dou	-11.0662
▁sung	-11.0663
▁Marco	-11.0665
▁Sco	-11.0667
▁pastor	-11.0669
▁Gang	-11.0669
▁Midland	-11.0673
▁Friedrich	-11.0678
▁whereas	-11.0678
▁corn	-11.0678
EP	-11.0681
▁Set	-11.0684
▁facade	-11.0686
▁voting	-11.0686
▁supplies	-11.0688
▁Diamond	-11.0688
▁Mind	-11.0689
▁Nicola	-11.0689
▁Yang	-11.0692
chrom	-11.0693
-15	-11.0694
▁database	-11.0694
active	-11.0696
▁extreme	-11.0697
▁Voice	-11.0701
Com	-11.0701
▁breaking	-11.0702
▁presentation	-11.0704
▁Rey	-11.0705
▁Athletics	-11.0705
▁dense	-11.0707
▁driven	-11.0709
CR	-11.0712
track	-11.0712
Chinese	-11.0713
▁recognised	-11.0717
▁CP	-11.0718
▁Confederate	-11.0719
▁Kumar	-11.0724
▁dominated	-11.0724
▁Years	-11.0726
▁crossed	-11.0727
▁hills	-11.0729
▁boundaries	-11.073
▁rocks	-11.0731
▁67	-11.0734
▁semifinal	-11.0734
▁burn	-11.0735
▁Keith	-11.0735
▁jury	-11.0737
▁Syn	-11.0737
▁runners	-11.0738
▁belt	-11.0739
▁Ful	-11.0739
▁Conservation	-11.0743
come	-11.0744
▁disorder	-11.0749
▁indicated	-11.0749
▁landed	-11.0751
▁Milwaukee	-11.0757
▁1853	-11.0759
▁contributor	-11.0759
▁Fel	-11.0763
▁rap	-11.0764
▁Crime	-11.0765
▁implementation	-11.0766
▁pages	-11.0774
500	-11.0776
▁explain	-11.0777
lag	-11.0779
▁classroom	-11.0782
▁Further	-11.0783
guard	-11.0786
▁Microsoft	-11.0787
▁Secret	-11.0787
CL	-11.0789
▁Say	-11.0789
▁pub	-11.0789
trans	-11.079
▁Westminster	-11.0791
lai	-11.0793
shima	-11.0793
▁Oil	-11.0793
▁logo	-11.0799
▁Railways	-11.0806
pit	-11.0807
▁Travel	-11.0809
▁gardens	-11.0809
▁Murphy	-11.081
page	-11.081
▁Essex	-11.0811
▁pig	-11.0812
▁68	-11.0814
ML	-11.0814
ichi	-11.0816
▁Store	-11.0817
▁Aviation	-11.0817
temp	-11.0818
▁Ruth	-11.0821
▁Terry	-11.0822
▁licensed	-11.0822
uca	-11.0823
▁legislative	-11.0823
▁Highland	-11.0824
group	-11.0827
▁fictional	-11.0827
omy	-11.0829
▁liberal	-11.0829
▁athletes	-11.0831
▁Rogers	-11.0832
lift	-11.0834
▁Rag	-11.0838
▁Ralph	-11.0839
2.1	-11.0844
▁rifle	-11.0845
▁finalist	-11.0847
hoe	-11.0847
▁weigh	-11.0847
titude	-11.0848
▁conventional	-11.0853
CM	-11.0857
▁publicly	-11.0858
▁Spa	-11.0859
▁Nebraska	-11.0859
▁overseas	-11.086
▁weapon	-11.0863
▁revolution	-11.0864
PL	-11.0866
▁losses	-11.0866
▁flew	-11.0867
El	-11.0868
fusion	-11.0868
▁vast	-11.0869
▁Bloom	-11.0869
▁Nine	-11.0871
▁aviation	-11.0874
▁Pine	-11.0876
▁Consul	-11.0877
▁refuge	-11.0877
▁playoffs	-11.0878
▁chancel	-11.0879
bru	-11.0879
▁commented	-11.0881
▁Lion	-11.0884
League	-11.0884
igan	-11.0886
▁1968.	-11.0891
radi	-11.0891
▁mansion	-11.0893
▁auction	-11.0898
atta	-11.0899
▁truth	-11.09
▁parking	-11.0902
test	-11.0904
▁Palmer	-11.0904
▁milk	-11.0907
PP	-11.0908
ault	-11.0909
▁USS	-11.0913
▁Lancashire	-11.0918
▁narrative	-11.0918
▁Sex	-11.0918
mma	-11.0921
▁printing	-11.0925
omo	-11.0929
▁asks	-11.093
▁Greater	-11.0931
▁carries	-11.0932
▁•	-11.0932
▁distinctive	-11.0934
▁Madison	-11.0935
▁recruited	-11.0937
tun	-11.0937
▁violin	-11.0938
▁settlements	-11.0939
▁Canterbury	-11.094
bot	-11.0941
7.5	-11.0941
▁formula	-11.0944
▁pet	-11.0944
lop	-11.0947
▁effectively	-11.0949
▁perspective	-11.0951
▁murdered	-11.0953
pell	-11.0953
▁linear	-11.0953
▁bow	-11.0953
▁realize	-11.0957
fan	-11.0957
▁Byzantine	-11.0961
▁1966,	-11.0961
▁indicate	-11.0962
usa	-11.0962
▁emerged	-11.0965
▁arriving	-11.0967
▁dimension	-11.0967
▁bonus	-11.0969
▁Java	-11.097
▁colonel	-11.0973
▁withdrew	-11.0973
▁extend	-11.0978
▁stroke	-11.0979
idae	-11.098
▁1969.	-11.0982
▁stick	-11.0984
ution	-11.0989
pher	-11.0989
▁Peak	-11.0989
▁blow	-11.099
▁distinction	-11.099
real	-11.099
▁74	-11.0991
▁Forum	-11.0992
▁sit	-11.0992
▁Stuart	-11.0992
▁Lil	-11.0992
▁siblings	-11.0993
▁mines	-11.0994
▁ninth	-11.0996
▁Production	-11.0998
▁Operations	-11.0999
▁Weekly	-11.0999
▁Beth	-11.1001
▁discontinued	-11.1002
▁Singles	-11.1002
▁marking	-11.1002
look	-11.1004
▁dancing	-11.1007
gene	-11.1007
▁cooperation	-11.1008
▁relegation	-11.1008
▁blind	-11.1008
▁Aires	-11.1008
▁convicted	-11.1008
This	-11.1008
▁wrestling	-11.101
▁Price	-11.1011
▁Bud	-11.1012
eni	-11.1012
Su	-11.1013
▁municipalities	-11.1014
▁pupils	-11.1015
▁index	-11.1016
▁Cork	-11.1017
▁Chang	-11.1017
▁travels	-11.102
▁sweet	-11.102
▁Dol	-11.1022
▁Monday	-11.1022
▁nickname	-11.1023
pound	-11.1025
DF	-11.1027
▁Independence	-11.1028
chief	-11.1029
▁98	-11.103
▁reward	-11.1032
▁seeing	-11.1034
▁wearing	-11.1034
▁82	-11.1037
▁researchers	-11.1039
▁Enterprise	-11.104
▁Sala	-11.1042
quet	-11.1043
▁Flower	-11.1043
nin	-11.1045
tie	-11.1046
▁extract	-11.1047
Or	-11.1048
Art	-11.1051
▁commissioner	-11.1051
▁burial	-11.1053
NE	-11.1054
▁Lamb	-11.1055
▁Circuit	-11.1059
▁MD	-11.106
▁Micro	-11.106
▁banned	-11.106
▁Room	-11.1062
▁steps	-11.1062
▁borders	-11.1063
▁Pel	-11.1065
▁enterprise	-11.1069
▁Planet	-11.107
▁Prof	-11.107
▁maps	-11.1074
itu	-11.1075
▁Train	-11.1078
▁ste	-11.1078
▁tissue	-11.1082
▁dismissed	-11.1084
▁Wells	-11.1089
▁1849	-11.1093
▁colors	-11.1099
är	-11.11
amo	-11.1101
▁Quarter	-11.1102
keeper	-11.1103
▁MTV	-11.1103
▁Physics	-11.1104
▁Laboratory	-11.1107
▁Fil	-11.1107
▁Drum	-11.1108
▁Philippine	-11.1109
▁hamlet	-11.1111
▁1967.	-11.1111
▁concern	-11.1112
▁citizen	-11.1114
▁78	-11.1115
▁Hum	-11.1116
▁Swan	-11.1121
▁imprisoned	-11.1127
▁Dennis	-11.1127
figur	-11.1128
▁Buenos	-11.1129
▁practiced	-11.113
▁Archive	-11.1134
▁entrepreneur	-11.1135
witch	-11.1142
▁Durham	-11.1144
hydr	-11.1146
uba	-11.1147
▁superior	-11.1148
para	-11.1148
ket	-11.1148
mur	-11.1148
▁sheet	-11.1153
▁Larry	-11.1153
▁relay	-11.1154
▁electricity	-11.1154
▁sn	-11.1157
▁seeds	-11.1159
▁basin	-11.1161
TI	-11.1161
▁lyric	-11.1161
▁saint	-11.1162
▁hyper	-11.1162
▁Arnold	-11.1163
▁flank	-11.1165
▁locomotive	-11.1166
▁describing	-11.1169
▁Abraham	-11.1171
▁Coll	-11.1176
▁caps	-11.1176
▁Corp	-11.1178
2.2	-11.118
▁Stage	-11.1181
▁widespread	-11.1181
ière	-11.1181
vation	-11.1181
▁loose	-11.1185
fest	-11.119
▁councillor	-11.119
▁factors	-11.119
▁IT	-11.1191
▁freight	-11.1192
▁Mack	-11.1196
▁Rain	-11.1196
▁pairs	-11.1196
power	-11.1196
▁raising	-11.1196
▁Sabha	-11.1197
zzi	-11.1198
▁Rou	-11.1199
▁deployed	-11.1199
▁Future	-11.1201
▁Watson	-11.1202
▁Hughes	-11.1203
craft	-11.1203
▁regard	-11.1203
▁1847	-11.1204
▁División	-11.1204
ema	-11.1206
▁drugs	-11.1206
oto	-11.1206
etto	-11.1207
▁Let	-11.1207
mme	-11.1209
Qu	-11.1211
▁guests	-11.1213
▁lord	-11.1215
▁destruction	-11.1217
▁journals	-11.1219
bay	-11.1219
▁footballer	-11.122
issue	-11.1221
▁boot	-11.1222
▁specimens	-11.1222
▁Harold	-11.1222
dine	-11.1223
▁Metal	-11.1223
▁rebounds	-11.1225
▁generated	-11.1229
3.2	-11.1229
▁mail	-11.1234
▁Anglican	-11.1242
▁reporting	-11.1242
fit	-11.1244
standing	-11.1245
▁Lebanon	-11.1246
▁Colombia	-11.1247
▁administrator	-11.1248
▁71	-11.1248
▁wealth	-11.1249
▁implemented	-11.1251
▁prefer	-11.1252
▁Blanc	-11.1253
▁Joint	-11.1253
1.9	-11.1254
▁Page	-11.1254
iddle	-11.1254
▁underwent	-11.1256
▁laboratory	-11.1259
▁buses	-11.126
▁Sz	-11.126
▁Productions	-11.1264
▁Taka	-11.1265
▁trend	-11.1265
▁cult	-11.1265
asse	-11.1265
▁crystal	-11.1265
▁ongoing	-11.1265
▁whorl	-11.1265
▁identical	-11.1269
rik	-11.1271
▁Brunswick	-11.1275
▁labour	-11.1277
Best	-11.1277
▁emphasis	-11.1277
brand	-11.1279
▁industries	-11.1279
▁trials	-11.128
▁Bee	-11.1281
fon	-11.1283
▁Wheel	-11.1284
▁Block	-11.1284
▁certified	-11.1288
▁interpretation	-11.129
▁wait	-11.129
▁meat	-11.129
bell	-11.1292
mitt	-11.1294
care	-11.1295
▁por	-11.1298
RL	-11.1299
▁Iranian	-11.1301
▁cathedral	-11.1303
▁yield	-11.1303
3.1	-11.1304
▁consequence	-11.1305
▁supplement	-11.1305
▁Oscar	-11.1311
south	-11.1312
▁Brun	-11.1313
Fi	-11.1319
▁pump	-11.1323
▁supposed	-11.1324
▁supporters	-11.1325
▁Brussels	-11.1326
▁Esp	-11.1326
cade	-11.1328
▁wicket	-11.133
▁Representative	-11.1332
▁Clare	-11.1337
▁preserve	-11.1337
-21	-11.1338
▁Syria	-11.1341
week	-11.1342
▁1800	-11.1345
▁Cab	-11.1348
▁Based	-11.1351
▁Chen	-11.1351
▁tests	-11.1352
▁Adventure	-11.1353
▁Emil	-11.1354
gui	-11.1354
▁anyone	-11.1355
▁clients	-11.1356
▁77	-11.1358
▁Municipality	-11.136
▁finger	-11.1364
▁pipe	-11.1365
physi	-11.1366
▁Phillips	-11.1367
color	-11.137
▁characteristic	-11.1371
▁Cul	-11.1372
glo	-11.1372
gging	-11.1375
▁rarely	-11.1376
vir	-11.1379
▁Multi	-11.138
▁copper	-11.1383
▁Prefecture	-11.1385
▁renovated	-11.1387
Jo	-11.1388
rine	-11.139
▁neighboring	-11.1393
▁Rail	-11.1394
spor	-11.1395
acy	-11.14
▁Georgian	-11.14
▁Jefferson	-11.14
▁wider	-11.1403
▁diploma	-11.141
▁Break	-11.1412
▁Kerala	-11.1414
▁69	-11.1414
▁1966.	-11.1418
▁disaster	-11.1421
▁Advanced	-11.1422
iri	-11.1423
▁machines	-11.1423
▁corps	-11.1424
▁channels	-11.1426
▁involves	-11.1428
▁Shakespeare	-11.1428
▁tributary	-11.1428
▁Pictures	-11.1429
▁origins	-11.1429
▁escaped	-11.1431
▁Spec	-11.1431
▁compiled	-11.1432
▁1946,	-11.1432
▁lab	-11.1436
▁col	-11.1438
▁Mam	-11.1439
▁lessons	-11.144
▁departed	-11.1441
▁delivery	-11.1445
▁Dame	-11.1448
▁rat	-11.145
▁animated	-11.1451
▁fortune	-11.1453
▁pole	-11.1455
▁teenager	-11.1459
▁eligible	-11.146
mouth	-11.146
▁breeding	-11.1462
▁engagement	-11.1462
▁else	-11.1467
own	-11.1468
▁honored	-11.147
▁Such	-11.1471
▁Private	-11.1473
fully	-11.1473
▁rush	-11.1475
▁nations	-11.1475
–8	-11.1479
▁yard	-11.148
▁compositions	-11.148
▁marks	-11.1486
▁costume	-11.1487
▁adopt	-11.1488
▁Rural	-11.1488
▁Yugoslavia	-11.1489
▁Players	-11.1489
▁Bour	-11.1497
▁Folk	-11.1497
rama	-11.1499
scape	-11.1499
▁beside	-11.15
▁interface	-11.1508
eff	-11.1508
▁repeated	-11.1509
▁Fight	-11.1512
SM	-11.1514
covered	-11.1518
▁Cold	-11.1521
about	-11.1523
▁odd	-11.1523
▁Krishna	-11.1524
▁1965.	-11.1524
wyn	-11.1525
▁Harvey	-11.1525
▁percentage	-11.1526
▁comprises	-11.1527
▁continuous	-11.153
▁prepare	-11.1531
▁Student	-11.1531
▁fifty	-11.1533
▁Bonn	-11.1533
Russian	-11.1534
▁Gon	-11.1534
▁radical	-11.1535
▁Deep	-11.1537
▁Sierra	-11.1537
▁96	-11.1538
▁forty	-11.154
court	-11.1546
▁gauge	-11.1546
▁indoor	-11.1546
▁reduction	-11.1548
▁Ellis	-11.155
▁CO	-11.155
▁flee	-11.1553
▁Jet	-11.1554
kai	-11.1557
▁judges	-11.1565
▁Fat	-11.1569
hang	-11.1571
dem	-11.1571
▁Sheriff	-11.1572
▁def	-11.1572
▁Beginning	-11.1574
shing	-11.1574
▁saved	-11.1576
dit	-11.1577
hm	-11.1577
▁suggest	-11.1578
▁elsewhere	-11.1578
vian	-11.158
▁traveling	-11.158
▁extent	-11.1582
oriented	-11.1584
▁Bulgaria	-11.1584
▁LA	-11.1589
▁Walk	-11.1595
fre	-11.1595
▁Bomb	-11.1595
▁implement	-11.1596
▁plastic	-11.1598
▁Bosnia	-11.1598
▁0.5	-11.1598
▁closer	-11.1599
▁Ari	-11.1599
▁portraits	-11.16
▁NC	-11.1604
Wa	-11.1604
▁hence	-11.1605
▁73	-11.1606
▁Neil	-11.1607
iano	-11.1608
mobil	-11.1608
nen	-11.1609
▁ruins	-11.1611
▁Kla	-11.1613
0.6	-11.1617
▁boss	-11.1618
▁Ahmed	-11.1624
▁traditionally	-11.1626
▁Artillery	-11.1628
▁Subsequently	-11.163
▁framework	-11.163
▁Glo	-11.1637
kie	-11.1639
lash	-11.1642
▁Fle	-11.1645
▁Montgomery	-11.1646
▁exclusive	-11.1648
▁seem	-11.1649
▁Devil	-11.1651
▁strange	-11.1653
▁tram	-11.1653
▁Bradford	-11.1654
▁difficulties	-11.1657
▁Grammar	-11.1657
▁Steven	-11.1659
▁canon	-11.1666
▁Storm	-11.1667
▁exploit	-11.1667
▁Rep	-11.1669
umi	-11.167
▁affair	-11.1671
formerly	-11.1671
stand	-11.1671
▁synth	-11.1679
▁Adult	-11.1683
PM	-11.1686
▁artillery	-11.1687
▁mosque	-11.1689
▁Argentine	-11.1691
▁lowest	-11.1694
▁prospect	-11.1696
▁Ent	-11.1699
▁random	-11.17
▁Ep	-11.1702
Don	-11.1703
▁Pearl	-11.1704
▁Besides	-11.1707
otic	-11.1711
▁WW	-11.1713
▁Google	-11.1713
esis	-11.1714
▁exceed	-11.1716
▁Bobby	-11.1716
▁connections	-11.1717
▁cloud	-11.1718
▁personality	-11.1718
▁Pul	-11.1718
▁illustrated	-11.1722
▁rotation	-11.1724
elia	-11.1724
▁Isaac	-11.1725
▁coaches	-11.1725
▁prayer	-11.1725
▁trio	-11.1726
ido	-11.1726
▁dorsal	-11.1727
▁touchdowns	-11.173
2.3	-11.1738
▁Columbus	-11.1739
▁lie	-11.174
tribu	-11.1742
oku	-11.1743
▁Wol	-11.1744
▁pursued	-11.1744
▁Somerset	-11.1744
throp	-11.1747
▁Tree	-11.1751
▁dangerous	-11.1752
▁lectures	-11.1752
▁recognize	-11.1753
▁rounded	-11.1754
▁Thai	-11.1754
▁Artists	-11.1756
▁defended	-11.1756
nagar	-11.1757
lumin	-11.176
▁Napoleon	-11.1762
▁shoulder	-11.1763
▁Northwest	-11.1764
▁viewed	-11.1764
mission	-11.1766
ün	-11.1767
▁rector	-11.1769
▁tribes	-11.177
▁approached	-11.1771
▁Kai	-11.1772
tina	-11.1773
On	-11.1775
▁usual	-11.1776
▁discussed	-11.1777
▁Lyn	-11.1777
▁releasing	-11.1779
▁Franz	-11.1783
▁Panama	-11.1783
▁Workers	-11.1785
works	-11.1786
▁81	-11.1786
▁0.3	-11.1788
▁worker	-11.179
▁gap	-11.1792
▁Maz	-11.1793
rak	-11.1793
▁Arabia	-11.1799
nai	-11.18
fel	-11.1801
may	-11.1802
▁Take	-11.1803
▁presenter	-11.1804
▁Bul	-11.1806
-9	-11.1807
nova	-11.1807
force	-11.1814
▁pink	-11.1814
▁Surrey	-11.1817
▁Poly	-11.1821
▁Eagle	-11.1826
▁remembered	-11.1828
▁Still	-11.1831
posit	-11.1833
▁volunteers	-11.1833
▁horror	-11.1837
IF	-11.1837
▁Eddie	-11.1839
zel	-11.1841
▁drain	-11.1842
▁Cornwall	-11.1844
▁chorus	-11.1844
▁workshops	-11.1847
▁AR	-11.1847
▁asteroid	-11.1848
quar	-11.1848
▁exact	-11.1851
▁Cop	-11.1854
▁Newton	-11.1856
▁Deb	-11.1858
▁wore	-11.1859
▁provider	-11.1859
oul	-11.186
▁tourism	-11.1862
ulate	-11.1862
▁reservoir	-11.1864
▁Warrior	-11.1864
▁1846	-11.187
▁1845	-11.187
enza	-11.1872
▁breast	-11.1873
▁Former	-11.1875
▁tight	-11.1875
sbury	-11.1877
▁2–1	-11.1877
▁Vale	-11.1877
▁Get	-11.1877
▁failing	-11.1877
▁transform	-11.1878
▁Sussex	-11.1879
▁manufacture	-11.1881
▁requested	-11.1883
▁venues	-11.1883
▁Reich	-11.189
cock	-11.189
▁gaining	-11.189
▁Sca	-11.1891
My	-11.1891
▁contributing	-11.1893
▁psychology	-11.1893
▁Raymond	-11.1894
oga	-11.1897
▁robot	-11.1897
▁locality	-11.1898
uku	-11.1899
▁taste	-11.19
▁commitment	-11.1902
▁rice	-11.1905
–9	-11.1906
▁proteins	-11.1906
hit	-11.1907
▁awareness	-11.1909
▁define	-11.191
▁adjust	-11.1911
▁abstract	-11.1913
▁Delaware	-11.1915
hap	-11.1917
▁supporter	-11.1918
nation	-11.1921
▁dia	-11.1922
▁surgeon	-11.1922
bun	-11.1923
▁Chal	-11.1924
roid	-11.1928
▁Foster	-11.193
▁Abdul	-11.193
▁configuration	-11.1935
▁Celtic	-11.1935
school	-11.1937
▁myth	-11.1938
1.2	-11.194
tron	-11.1941
▁receives	-11.1943
▁Rovers	-11.1952
▁refuse	-11.1959
▁Leg	-11.1959
▁preferred	-11.1961
▁archaeological	-11.1962
▁certificate	-11.1962
▁bore	-11.1963
▁brigade	-11.1965
▁voyage	-11.1965
writer	-11.1965
▁Apart	-11.1965
▁triple	-11.1966
▁actively	-11.1966
▁predict	-11.1968
▁Relations	-11.1976
▁Writing	-11.1978
▁gross	-11.1978
erie	-11.198
ania	-11.198
▁diesel	-11.1981
▁88	-11.1981
▁sail	-11.1982
green	-11.1983
▁Tyr	-11.1985
▁analog	-11.1985
▁extending	-11.1986
▁Ted	-11.1987
▁Mé	-11.1988
▁Tat	-11.199
▁Tun	-11.199
▁companion	-11.1994
▁introduce	-11.1995
▁particle	-11.1995
▁Laura	-11.1995
▁pill	-11.1996
uta	-11.1998
▁Formula	-11.1999
▁Too	-11.2
▁Musical	-11.2002
▁supplied	-11.2003
▁violent	-11.2003
▁Visit	-11.2003
▁clearly	-11.201
▁Tong	-11.2011
language	-11.2011
▁Eagles	-11.2012
▁decoration	-11.2012
▁Environmental	-11.2013
LP	-11.2013
▁bordered	-11.2014
▁Pack	-11.2014
▁circumstances	-11.2019
May	-11.2019
▁pounds	-11.2021
▁programmes	-11.2022
▁Kingston	-11.2025
▁flour	-11.2025
▁Ton	-11.2029
▁Hull	-11.2029
▁Reading	-11.203
▁constitution	-11.2031
▁accurate	-11.2032
▁consecrated	-11.2032
▁Architecture	-11.2033
▁Machine	-11.2037
▁Cove	-11.2038
▁succeed	-11.2042
▁Boulevard	-11.2044
▁Frankfurt	-11.2044
▁waiting	-11.2048
DE	-11.205
▁agents	-11.2053
▁bin	-11.2053
▁favourite	-11.2055
▁alien	-11.2057
▁Gothic	-11.2057
quo	-11.2058
cross	-11.2059
▁cutting	-11.2061
ario	-11.2061
▁Maj	-11.2061
▁biography	-11.2064
▁Mathematics	-11.2064
▁lifetime	-11.2068
LC	-11.2068
Un	-11.2069
Ex	-11.207
▁Antarctic	-11.207
5.5	-11.2074
▁Starting	-11.2074
Sha	-11.2075
▁looks	-11.2075
▁Conservatory	-11.2076
2.6	-11.2076
▁tro	-11.2076
▁resides	-11.2081
lich	-11.2081
tention	-11.2082
▁landmark	-11.2083
uter	-11.2084
▁Know	-11.2084
▁wire	-11.2085
▁dealer	-11.2087
▁photos	-11.2087
DR	-11.2089
▁Protection	-11.2091
▁97	-11.2092
▁isolated	-11.2096
▁horn	-11.2097
oxide	-11.2098
▁Honours	-11.2101
▁holder	-11.2102
▁filming	-11.2108
logist	-11.2108
▁Wool	-11.2109
▁Edmund	-11.2112
fold	-11.2113
▁Merit	-11.2114
▁Paulo	-11.2115
▁Interstate	-11.2115
▁1841	-11.2115
▁reviewer	-11.2115
▁ferry	-11.2116
▁Presbyterian	-11.2119
▁Delta	-11.2119
▁starter	-11.212
▁quick	-11.2121
▁ancestor	-11.2121
▁facilitate	-11.2123
▁valuable	-11.2126
▁bottle	-11.2127
▁descendants	-11.2128
endra	-11.213
▁coffee	-11.213
▁Jacques	-11.2132
▁pond	-11.2138
▁concerning	-11.2138
ucci	-11.214
shot	-11.214
▁SE	-11.2146
▁1837	-11.2149
▁Astro	-11.2149
agne	-11.2149
▁plantation	-11.2149
▁interesting	-11.2152
▁Teacher	-11.2153
▁artificial	-11.2156
▁Rah	-11.2157
▁Buddhist	-11.2158
▁administered	-11.2159
logue	-11.2159
▁divorce	-11.2161
▁receiver	-11.2161
▁Kate	-11.2162
▁Writers	-11.2162
uel	-11.2164
▁inventor	-11.2164
▁shoe	-11.2167
▁Newport	-11.2174
▁animation	-11.2174
▁reinforce	-11.2176
interpret	-11.2176
▁prose	-11.2176
▁flash	-11.2176
base	-11.2177
phan	-11.2177
▁neighbouring	-11.2181
▁Wan	-11.2182
▁Bennett	-11.2184
▁friendship	-11.2186
▁dramatic	-11.2189
city	-11.2191
▁Maurice	-11.2193
▁imperial	-11.2195
▁cream	-11.2195
▁Foot	-11.2196
▁restricted	-11.2199
sher	-11.22
MO	-11.22
▁adapt	-11.2202
▁sheep	-11.2202
▁Actor	-11.2205
jur	-11.2205
▁ERA	-11.2206
▁hidden	-11.2206
▁victim	-11.2209
ñ	-11.221
▁sequel	-11.2211
lig	-11.2212
lived	-11.2213
▁Bond	-11.2217
zhou	-11.2217
▁girlfriend	-11.222
rance	-11.2221
▁happy	-11.2222
▁golden	-11.2223
▁Davies	-11.2223
prov	-11.2226
▁queen	-11.2229
▁Croatian	-11.223
▁limits	-11.223
world	-11.223
▁Shri	-11.223
▁thanks	-11.2233
▁Dom	-11.2233
▁Stakes	-11.2233
▁documented	-11.2234
fen	-11.2234
▁Environment	-11.2238
▁audition	-11.2238
▁comprehensive	-11.2241
▁Palestine	-11.2245
corp	-11.2248
Br	-11.2248
▁Ballet	-11.2249
▁Saudi	-11.2249
▁corresponding	-11.225
▁principles	-11.225
▁110	-11.2251
▁progressive	-11.2251
▁combine	-11.2252
kra	-11.2253
▁recommendation	-11.2258
▁Shore	-11.2259
▁acoustic	-11.2264
rug	-11.2265
▁organic	-11.2265
FI	-11.2267
▁muscle	-11.2269
▁evolved	-11.2276
▁believes	-11.2276
pati	-11.2279
▁Spencer	-11.228
▁neo	-11.2284
▁Wallace	-11.2288
▁Transportation	-11.229
▁Bran	-11.2292
▁grain	-11.2293
9.5	-11.2294
▁Geneva	-11.2296
▁aboard	-11.2301
shin	-11.2302
All	-11.2303
▁Clarke	-11.2307
▁recalled	-11.2308
▁pulled	-11.2309
▁que	-11.231
▁eat	-11.231
▁exterior	-11.2313
▁Justin	-11.232
▁readers	-11.2321
▁characteristics	-11.2321
titled	-11.2326
▁EU	-11.2328
wel	-11.2328
▁Movie	-11.2329
▁travelling	-11.2331
▁Sak	-11.2332
mut	-11.2333
▁rabbi	-11.2333
▁Legend	-11.2333
▁kit	-11.2333
▁Comics	-11.2334
▁diplomatic	-11.2334
▁Burg	-11.2337
▁respond	-11.234
▁×	-11.234
▁84	-11.2346
▁Form	-11.2346
▁Yi	-11.2346
▁depicted	-11.2347
▁Amazon	-11.2348
▁Herald	-11.2348
▁Outstanding	-11.2351
▁skate	-11.2352
▁Electronic	-11.2354
▁aims	-11.2358
▁investigate	-11.2359
course	-11.236
rack	-11.2364
300	-11.2365
▁Graduate	-11.2367
PO	-11.2371
▁homo	-11.2371
▁Holl	-11.2372
▁Qa	-11.2372
▁VII	-11.2374
▁bag	-11.2375
tant	-11.2377
▁Circle	-11.238
▁Agu	-11.2385
▁input	-11.2385
▁92	-11.2385
Bu	-11.2386
eastern	-11.2386
▁2,000	-11.2387
▁atmosphere	-11.2388
mura	-11.2388
▁Pay	-11.2391
written	-11.2394
▁organisations	-11.2397
▁Bet	-11.24
6.5	-11.2409
develop	-11.2409
▁Flying	-11.2413
gno	-11.2413
▁incorporate	-11.2413
▁Scho	-11.2418
▁intersect	-11.2418
▁fra	-11.2421
▁carved	-11.2425
▁focusing	-11.2428
▁2020	-11.2428
▁Legion	-11.2429
▁Worcester	-11.243
▁79	-11.243
▁Diploma	-11.2432
▁Right	-11.2437
▁Naples	-11.2437
hart	-11.2438
▁View	-11.2439
▁colon	-11.2442
▁Eva	-11.2442
▁Bala	-11.2442
▁playoff	-11.2443
▁attendance	-11.2443
amma	-11.2444
▁regain	-11.2444
▁Torre	-11.2445
▁Tol	-11.2446
▁François	-11.2447
▁Twin	-11.2447
eiro	-11.2447
▁filmmaker	-11.2448
▁Allied	-11.245
▁possibility	-11.2451
▁temporarily	-11.2451
▁biological	-11.2453
order	-11.2454
▁Domin	-11.2455
▁Intelligence	-11.2456
▁tenth	-11.2457
▁Blake	-11.2457
OP	-11.2461
beck	-11.2465
chester	-11.2466
▁defend	-11.2466
second	-11.2467
▁Broad	-11.2469
▁Tommy	-11.2471
▁rib	-11.2472
▁Organ	-11.2473
▁Manitoba	-11.2475
▁referee	-11.2477
media	-11.2479
tique	-11.2479
-11	-11.2479
▁Flight	-11.248
▁WA	-11.2481
▁Rush	-11.2481
▁import	-11.2482
▁Olympia	-11.2482
tham	-11.2483
▁promise	-11.2487
▁entertain	-11.2488
▁inaugurated	-11.2489
mato	-11.2492
▁quit	-11.2494
▁surname	-11.2496
▁teeth	-11.2497
▁ties	-11.2498
▁mixture	-11.2502
uki	-11.2507
▁Link	-11.2508
kill	-11.251
▁Lutheran	-11.2512
igo	-11.2514
▁rocket	-11.2517
▁Congo	-11.2519
▁Renaissance	-11.252
▁inhabited	-11.2521
▁minority	-11.2523
▁IF	-11.2526
▁Ancient	-11.2528
▁Belle	-11.2529
▁portray	-11.253
▁coins	-11.253
▁Gha	-11.2531
▁respective	-11.2537
▁Publishing	-11.2539
▁maker	-11.2541
cit	-11.2544
▁battery	-11.2544
▁1–0	-11.2545
PD	-11.2546
holder	-11.2547
gni	-11.2548
▁comparison	-11.2549
▁Reed	-11.2552
▁Acc	-11.2552
▁impressive	-11.2554
lett	-11.2555
▁Rapid	-11.2555
lateral	-11.2558
▁Aberdeen	-11.2558
hole	-11.2561
▁Ng	-11.2563
▁furniture	-11.2563
half	-11.2565
▁employee	-11.2566
▁evil	-11.2568
▁waived	-11.2568
▁Bedford	-11.2568
▁André	-11.257
▁collapse	-11.257
agin	-11.2571
▁Mani	-11.2571
ør	-11.2573
▁*	-11.2574
wear	-11.2574
▁alive	-11.2576
▁interact	-11.2577
▁Performance	-11.2577
▁memoir	-11.2577
finite	-11.2578
▁trick	-11.2578
▁simultaneously	-11.2578
ente	-11.2579
▁Thunder	-11.2579
ego	-11.2579
▁Charter	-11.2581
▁colleagues	-11.2582
▁prisoner	-11.2582
▁Rule	-11.2584
SF	-11.2584
▁Uruguay	-11.2585
▁significance	-11.2585
1⁄2	-11.2586
mul	-11.2586
liter	-11.2587
▁clip	-11.2587
▁neither	-11.2587
ality	-11.2588
▁drawings	-11.259
▁unanimous	-11.2592
▁namely	-11.2592
▁essential	-11.2592
▁structural	-11.2594
▁empty	-11.2594
shore	-11.2595
▁1839	-11.2599
claim	-11.2599
mpton	-11.2599
▁Sony	-11.2599
odi	-11.26
En	-11.2601
▁exposure	-11.2601
▁shallow	-11.2602
▁slowly	-11.2602
▁1838	-11.2606
cate	-11.2607
bow	-11.2609
▁tutor	-11.2609
▁barrel	-11.2611
friend	-11.2613
▁confused	-11.2613
▁jet	-11.2615
▁AP	-11.2615
▁Croatia	-11.2615
▁Nacional	-11.2616
▁Sul	-11.2616
rent	-11.2619
▁banking	-11.2622
▁expensive	-11.2623
▁Gustav	-11.2626
TR	-11.2627
▁soap	-11.2628
▁lease	-11.263
,600	-11.2631
road	-11.2631
▁creek	-11.2632
MG	-11.2632
▁Parliamentary	-11.2633
▁Yar	-11.2634
▁sharing	-11.2635
▁Kom	-11.2635
▁benefits	-11.2639
inda	-11.264
▁bombing	-11.2641
▁monitor	-11.2647
▁Pon	-11.2647
still	-11.2648
▁Scientific	-11.2649
▁Put	-11.265
wara	-11.265
▁lawsuit	-11.2651
▁radar	-11.2654
▁1812	-11.2656
▁pointed	-11.2657
▁dollars	-11.2658
▁Heath	-11.2658
▁Nancy	-11.2661
▁Gur	-11.2661
▁dialogue	-11.2662
▁Carlo	-11.2663
Cha	-11.2666
▁Election	-11.2666
OT	-11.2669
tell	-11.267
▁Mali	-11.267
▁Volunteer	-11.2671
▁confess	-11.2671
▁Path	-11.2671
▁territories	-11.2678
▁Nikola	-11.268
▁strengthen	-11.2681
ordination	-11.2682
▁organize	-11.2682
▁cow	-11.2683
Bar	-11.2684
▁correspondent	-11.2687
▁Gardens	-11.2687
▁Slovenia	-11.2688
▁shrub	-11.2691
holm	-11.2691
▁Flo	-11.2692
▁mutual	-11.2694
▁worn	-11.2694
mere	-11.2694
▁1836	-11.2698
▁footage	-11.2699
▁Clement	-11.2699
▁athlete	-11.27
▁manages	-11.2701
▁dominant	-11.2703
tori	-11.2703
▁constitute	-11.2705
▁predominantly	-11.2708
▁suddenly	-11.2709
–15	-11.2712
OL	-11.2713
▁Louise	-11.2714
▁$5	-11.2716
▁Legislature	-11.2717
wald	-11.2718
▁bears	-11.272
▁prop	-11.272
▁marble	-11.2721
▁patch	-11.2723
▁Audi	-11.2723
▁saving	-11.2729
▁Lodge	-11.273
▁Stefan	-11.2733
▁creator	-11.2733
cene	-11.2734
▁discovers	-11.2736
▁Simpson	-11.2737
▁86	-11.2737
▁trap	-11.2744
hausen	-11.2747
▁permanently	-11.2747
▁arena	-11.2748
▁Lud	-11.275
▁doubt	-11.2751
▁dealing	-11.2753
▁Marg	-11.2754
▁revival	-11.2754
▁Manila	-11.2754
▁workshop	-11.2759
▁700	-11.276
▁Number	-11.2761
▁bassist	-11.2761
▁referring	-11.2763
▁Montana	-11.2763
▁Engineers	-11.2765
▁Meh	-11.2766
▁authored	-11.2769
▁Pier	-11.2771
isa	-11.2772
name	-11.2773
produced	-11.2775
▁telephone	-11.2776
▁Chess	-11.2776
▁acclaimed	-11.2778
lik	-11.2779
▁songwriter	-11.278
▁fail	-11.278
lement	-11.2781
rating	-11.2783
▁estimate	-11.2783
▁Pick	-11.2786
▁doctoral	-11.2787
▁Cameron	-11.2788
him	-11.2791
grove	-11.2794
quire	-11.2797
general	-11.2797
▁Academic	-11.2798
▁curriculum	-11.2798
▁width	-11.2798
▁nave	-11.2798
▁Abd	-11.2807
▁quad	-11.2812
hof	-11.2813
▁Hour	-11.2814
▁seventeen	-11.2814
▁Epi	-11.2815
▁circulation	-11.2815
▁Lac	-11.2815
▁Marcel	-11.2818
▁segments	-11.2818
▁Ferdinand	-11.282
▁egg	-11.2821
▁Cabinet	-11.2822
▁averaged	-11.2822
▁3.5	-11.2824
aver	-11.2824
▁autumn	-11.2829
▁PS	-11.2832
▁regulations	-11.2833
▁Jer	-11.2833
hid	-11.2835
▁Sudan	-11.2835
▁Cardiff	-11.2837
▁researcher	-11.2839
▁Cata	-11.284
▁shorter	-11.284
enko	-11.2841
▁SH	-11.2843
▁server	-11.2844
aq	-11.2844
▁clay	-11.2844
▁Chronicle	-11.2844
▁Hopkins	-11.2844
▁Naga	-11.2845
▁measurement	-11.2845
▁Semi	-11.2847
psi	-11.2853
phi	-11.2856
▁Rein	-11.2857
▁usage	-11.2858
▁manual	-11.2861
▁sword	-11.2862
zio	-11.2862
▁Rochester	-11.2863
▁Hin	-11.2864
vio	-11.2865
rect	-11.2866
ograph	-11.2866
1.3	-11.2867
▁handed	-11.287
▁ballet	-11.2874
dé	-11.2875
▁Planning	-11.2876
▁scout	-11.2876
▁cabin	-11.2878
▁slot	-11.288
▁Julian	-11.288
Mu	-11.2881
cop	-11.2881
▁conducting	-11.2882
▁altar	-11.2882
▁Therefore	-11.2884
▁publish	-11.2887
0°	-11.2888
▁Heights	-11.289
▁demonstrated	-11.2891
▁suppress	-11.2892
▁Double	-11.2894
▁Grande	-11.2899
hana	-11.2899
▁guidance	-11.2903
▁afternoon	-11.2904
▁Study	-11.2905
▁Ble	-11.2907
ulous	-11.2907
▁encompass	-11.2908
3.9	-11.2909
▁Neo	-11.291
▁recovery	-11.2912
atus	-11.2912
▁marsh	-11.2918
▁invented	-11.2918
▁infection	-11.2918
▁patterns	-11.2919
▁specimen	-11.2922
RNA	-11.2924
tree	-11.2925
▁Blu	-11.2926
▁praise	-11.2927
▁delay	-11.2933
▁naming	-11.2933
▁bearing	-11.2933
▁Album	-11.2935
▁emotional	-11.2936
▁argue	-11.2937
▁lip	-11.2937
▁clinic	-11.2939
,800	-11.294
▁1820	-11.2941
▁announcement	-11.2943
▁Halifax	-11.2943
nock	-11.2944
appa	-11.2946
▁Cornell	-11.2947
self	-11.295
▁client	-11.295
▁fold	-11.2951
▁principle	-11.2953
pent	-11.296
▁Prison	-11.2964
▁Tasmania	-11.2966
▁Course	-11.2968
▁cotton	-11.2968
▁defender	-11.297
plication	-11.297
▁Saskatchewan	-11.297
jack	-11.2981
▁UFC	-11.2982
▁Sean	-11.2983
▁dock	-11.2989
liber	-11.2991
▁Kri	-11.2992
▁hosting	-11.2994
▁ritual	-11.2995
▁sky	-11.2996
▁passion	-11.2996
▁apparent	-11.2996
▁Knights	-11.2997
▁Albanian	-11.2998
▁Fol	-11.2998
▁fundamental	-11.3
▁Stoke	-11.3005
▁Maur	-11.3006
▁citing	-11.3006
hab	-11.3006
Gra	-11.3007
▁Dominican	-11.3009
▁Rud	-11.301
▁educator	-11.301
national	-11.301
rib	-11.3011
▁faction	-11.3012
▁Edmonton	-11.3013
▁Wie	-11.3015
▁Chor	-11.3016
link	-11.3016
▁communist	-11.3018
von	-11.302
ische	-11.3026
▁Lip	-11.3032
▁equation	-11.3033
grave	-11.3037
enne	-11.3039
nick	-11.3042
▁Stu	-11.3043
woman	-11.3043
GC	-11.3044
▁goalkeeper	-11.3044
▁infantry	-11.3046
▁technologies	-11.3048
▁chest	-11.3048
▁Rao	-11.3048
▁efficient	-11.305
IV	-11.305
posing	-11.3054
▁Pit	-11.3057
▁Gall	-11.3057
▁slopes	-11.3057
▁mount	-11.3058
▁beaten	-11.3058
1.1	-11.306
▁relating	-11.3061
▁Net	-11.3063
▁83	-11.3065
▁bullet	-11.3065
▁Indies	-11.3065
:30	-11.3066
▁hide	-11.3067
▁pu	-11.3069
▁1842	-11.3074
4.6	-11.308
▁pad	-11.308
jer	-11.3082
president	-11.3082
enstein	-11.3085
trip	-11.3086
pie	-11.3087
host	-11.3088
▁hum	-11.309
▁looked	-11.309
seat	-11.3091
▁poison	-11.3091
▁gathered	-11.3094
▁fortress	-11.3096
VA	-11.3097
▁Expedition	-11.3098
▁enemies	-11.3098
▁1843	-11.3099
▁backing	-11.31
▁shaft	-11.3101
ivo	-11.3102
▁excavation	-11.3103
aux	-11.3107
▁challenges	-11.3108
▁1832	-11.3108
▁Liberty	-11.3108
▁Site	-11.3108
▁160	-11.3108
▁Rom	-11.3109
lac	-11.3109
▁Annual	-11.311
▁orphan	-11.3111
▁Belfast	-11.3111
five	-11.3111
▁fault	-11.3112
walk	-11.3114
▁Episcopal	-11.3116
▁Speaker	-11.3116
▁Gospel	-11.3116
▁Solomon	-11.3117
▁vol	-11.3118
▁Haz	-11.3119
▁novelist	-11.3121
ère	-11.3121
▁woodland	-11.3123
mie	-11.3123
▁relevant	-11.3123
▁Cecil	-11.3124
ön	-11.3125
▁renewed	-11.3129
-14	-11.3132
▁Roth	-11.3132
▁voters	-11.3139
▁biology	-11.3139
▁geo	-11.3139
published	-11.3141
▁Falcon	-11.3141
emon	-11.3146
▁assess	-11.3146
–10	-11.3147
▁scandal	-11.3147
▁Giants	-11.3148
▁ni	-11.3148
▁arc	-11.3149
▁Revival	-11.3149
lude	-11.3149
▁1835	-11.3149
bourne	-11.3152
▁Recording	-11.3153
▁Architect	-11.3155
▁Democrats	-11.3156
▁drinking	-11.3158
▁circular	-11.3159
▁Danny	-11.3161
▁Tsu	-11.317
4.8	-11.3175
▁admission	-11.3175
▁reveals	-11.3175
circ	-11.3176
mara	-11.3176
▁permitted	-11.3176
mili	-11.3176
▁protagonist	-11.3177
▁revised	-11.3177
▁Raven	-11.3179
▁Rice	-11.3184
▁showcase	-11.3184
white	-11.3186
▁oak	-11.3186
▁mainstream	-11.3186
▁engage	-11.3187
▁diet	-11.3189
▁directing	-11.3189
▁bike	-11.3192
▁ST	-11.3193
▁customer	-11.3193
▁sits	-11.3195
▁shipping	-11.3197
▁Brit	-11.3198
▁Algeria	-11.3199
▁freshman	-11.3199
▁updated	-11.3202
▁Bren	-11.3203
cultural	-11.3205
▁measuring	-11.3207
2.9	-11.321
▁horizontal	-11.321
▁Wildlife	-11.3213
▁Christianity	-11.3213
▁reader	-11.3213
▁Ludwig	-11.3215
▁Pac	-11.3218
▁upcoming	-11.322
hman	-11.322
▁Cox	-11.3222
▁shall	-11.3226
ensive	-11.3226
▁sensor	-11.3228
▁hypo	-11.3229
pid	-11.3229
▁Santiago	-11.323
▁confirm	-11.323
▁1844	-11.3234
▁explains	-11.3234
este	-11.3234
nard	-11.3235
▁87	-11.3235
XX	-11.3236
▁negotiations	-11.3237
▁expense	-11.3238
▁Henderson	-11.324
▁Sum	-11.3242
▁investors	-11.3246
▁Curtis	-11.3247
▁conjunction	-11.3248
▁Vladimir	-11.3251
eater	-11.3253
camp	-11.3257
owski	-11.3258
tica	-11.3259
▁Oakland	-11.326
▁shrine	-11.3261
ider	-11.3262
lica	-11.3266
▁Calgary	-11.3269
▁ranch	-11.3271
▁pupil	-11.3273
▁motorcycle	-11.3277
▁constitutional	-11.3278
▁Wonder	-11.3287
▁touchdown	-11.3289
▁privately	-11.3295
▁attempting	-11.3296
lom	-11.3296
action	-11.3296
4.0	-11.3296
▁mature	-11.3298
▁trainer	-11.3301
▁Liber	-11.3303
▁ghost	-11.3303
▁kitchen	-11.3305
▁Scha	-11.3305
▁Marian	-11.3306
OM	-11.3307
ennial	-11.3308
▁reconstruction	-11.331
▁Facebook	-11.3313
▁Grave	-11.3314
▁substance	-11.3315
▁complement	-11.3318
▁commentary	-11.3319
TO	-11.3322
▁Triple	-11.3322
▁gable	-11.3325
▁complaint	-11.3325
She	-11.3327
4.1	-11.3329
▁neighbourhood	-11.3331
NG	-11.3332
▁arrives	-11.3332
▁Johan	-11.3332
kur	-11.3338
▁Sweet	-11.3338
ility	-11.3338
▁fallen	-11.334
xa	-11.334
▁partial	-11.3342
3.6	-11.3344
▁innovation	-11.3349
▁viola	-11.3351
stadt	-11.3351
other	-11.3352
▁Brother	-11.3358
▁limestone	-11.3361
▁Found	-11.3362
▁distinguish	-11.3364
▁Marcus	-11.3374
▁Salvador	-11.3377
▁missionary	-11.3378
▁danger	-11.3379
▁Contest	-11.3385
licit	-11.3385
▁Belgrade	-11.3385
▁exactly	-11.3385
▁Gamb	-11.3386
▁diplomat	-11.339
▁listen	-11.3392
▁shi	-11.3394
▁91	-11.3395
▁Comedy	-11.3397
operative	-11.3399
▁0.6	-11.3399
▁thinking	-11.34
▁exam	-11.34
▁Leipzig	-11.3403
▁suspension	-11.3403
yang	-11.3403
▁fuselage	-11.3405
2.4	-11.3406
▁generate	-11.3409
large	-11.3411
NP	-11.3411
▁Furthermore	-11.3411
▁Richardson	-11.3414
ulator	-11.3415
▁Manor	-11.3418
▁vegetation	-11.3418
▁Eco	-11.342
▁occasional	-11.3422
▁corruption	-11.3423
crat	-11.3424
▁creature	-11.3424
▁Fraser	-11.3425
▁Ellen	-11.3429
▁Liu	-11.3431
▁Armed	-11.3431
▁repeat	-11.3434
▁Got	-11.3434
▁suspect	-11.3435
3.4	-11.3436
▁treaty	-11.3438
▁hind	-11.3441
▁calendar	-11.3442
▁molecule	-11.3442
MT	-11.3446
▁Nadu	-11.3447
▁Divi	-11.3452
▁onwards	-11.3453
▁ornament	-11.3457
▁Mega	-11.3458
▁uncertain	-11.346
▁sailing	-11.3466
▁siege	-11.3466
▁indicates	-11.3468
▁drove	-11.3469
▁Julia	-11.3473
▁Pav	-11.3473
xton	-11.3474
▁tested	-11.3474
▁Citizen	-11.3476
▁premises	-11.3477
market	-11.3479
owner	-11.3481
5.6	-11.3481
▁Those	-11.3481
▁Poll	-11.3483
▁Mail	-11.3485
▁pier	-11.3489
в	-11.3491
▁kn	-11.3495
▁Campus	-11.3499
▁Come	-11.3499
▁succession	-11.3502
▁Wrestling	-11.3502
▁occupy	-11.3502
▁ordinary	-11.3507
▁shield	-11.3508
stat	-11.3513
▁mathematical	-11.3518
▁nominee	-11.3518
▁shifted	-11.3519
▁(0.2	-11.352
▁supervision	-11.3521
▁depicting	-11.3522
▁Webb	-11.3528
▁Alpha	-11.353
▁icon	-11.3531
▁Copa	-11.3531
▁transaction	-11.3531
▁collecting	-11.3532
▁Albany	-11.3533
⁄	-11.3538
naut	-11.3543
▁absolute	-11.3544
▁commit	-11.3544
8.5	-11.3547
▁independently	-11.355
▁assert	-11.3554
▁fasci	-11.3555
▁fantasy	-11.3557
▁130	-11.3558
▁Rap	-11.3559
▁Agricultural	-11.356
▁Official	-11.356
▁measured	-11.3562
hom	-11.3564
worthy	-11.3568
▁Clear	-11.357
▁chaired	-11.3571
GS	-11.3573
▁Miguel	-11.3573
illon	-11.3575
▁Sign	-11.3575
▁Sullivan	-11.3576
▁demonstration	-11.3576
Am	-11.3576
▁mechanic	-11.3577
▁Poetry	-11.3578
▁hull	-11.3579
2000	-11.3579
▁fluid	-11.3579
▁Hip	-11.3582
▁teaches	-11.3582
▁Note	-11.3583
▁grid	-11.3583
▁Sisters	-11.3584
▁snake	-11.3584
▁quarterback	-11.3584
▁tension	-11.3586
▁historically	-11.3587
▁cliff	-11.3587
FF	-11.3587
wind	-11.3591
▁Kru	-11.3591
▁plaque	-11.3592
▁grandmother	-11.3592
▁fulfill	-11.3594
▁indicating	-11.3595
▁(0.1	-11.3595
▁Zen	-11.3595
▁deemed	-11.3595
▁Casa	-11.3595
▁fellowship	-11.3597
▁Fran	-11.3598
▁Marathon	-11.36
▁Khal	-11.3601
▁Mode	-11.3603
after	-11.3605
▁Gerald	-11.3607
▁Talk	-11.3609
▁Chancellor	-11.361
▁Apollo	-11.3611
▁invitation	-11.3611
▁decree	-11.3611
▁Armstrong	-11.3618
trop	-11.3619
child	-11.3621
▁Gibson	-11.3621
▁Mik	-11.3625
chor	-11.3626
▁Fuji	-11.3628
▁inhibit	-11.3629
/20	-11.363
▁gathering	-11.363
mol	-11.363
▁irregular	-11.3632
▁portfolio	-11.3632
▁legendary	-11.3633
▁rough	-11.3633
ographer	-11.3634
tempo	-11.3636
▁stri	-11.3637
▁carriage	-11.3637
▁Turn	-11.3638
▁nautical	-11.364
▁eventual	-11.3641
▁nationally	-11.3641
▁Paper	-11.3642
▁ballot	-11.3642
▁Bog	-11.3643
▁Thur	-11.3646
▁staged	-11.3646
LE	-11.3647
▁transformed	-11.3648
▁Left	-11.3649
▁philosopher	-11.365
troph	-11.3651
▁vary	-11.3652
▁Brewer	-11.3657
▁sick	-11.3658
▁familiar	-11.3658
▁Chin	-11.3658
▁Moor	-11.3659
▁Rot	-11.366
stage	-11.3661
▁Lie	-11.3662
▁Ek	-11.3664
▁Female	-11.3664
▁blend	-11.3664
▁mainland	-11.3665
bling	-11.3672
▁successive	-11.3673
▁FK	-11.3674
grand	-11.3675
▁theorem	-11.3676
▁apprentice	-11.3678
▁Animal	-11.368
▁Case	-11.3682
▁herb	-11.3683
▁reopened	-11.3685
vik	-11.3691
▁Llan	-11.3692
▁insert	-11.3693
ckle	-11.3695
▁Cran	-11.3695
▁Pakistani	-11.3698
atch	-11.3698
▁Kee	-11.3699
oso	-11.3699
vey	-11.3701
▁impressed	-11.3702
▁virus	-11.3703
▁scorer	-11.3705
▁Working	-11.3707
▁Arn	-11.3708
vice	-11.3709
trem	-11.3711
▁intermediate	-11.3712
▁resource	-11.3714
kawa	-11.3714
haus	-11.3714
▁Word	-11.3716
▁convoy	-11.3717
▁Mull	-11.3719
▁depot	-11.3719
▁Cyprus	-11.372
isse	-11.372
▁proof	-11.3721
▁tent	-11.3724
▁Eve	-11.3724
▁wake	-11.3727
▁Honorary	-11.3734
▁MC	-11.3735
Gu	-11.3735
▁wet	-11.3735
▁sure	-11.3735
▁automobile	-11.3741
dai	-11.3742
▁Brighton	-11.3743
▁Kamp	-11.3743
▁Dub	-11.3745
▁volleyball	-11.3747
▁Revolutionary	-11.3747
▁Airlines	-11.3747
▁improvements	-11.3748
▁Mobile	-11.3749
▁NASA	-11.375
▁Caroline	-11.3753
March	-11.3754
chang	-11.3754
▁difficulty	-11.3754
▁Hurricane	-11.3757
▁bath	-11.3759
▁Nicol	-11.376
dimensional	-11.376
▁<	-11.3764
▁resign	-11.3764
▁hardware	-11.3765
▁Martha	-11.3765
▁seriously	-11.3765
▁Indonesian	-11.3767
▁Portsmouth	-11.3768
▁conversation	-11.3771
▁mysterious	-11.3771
▁removal	-11.3771
▁Belarus	-11.3771
▁ramp	-11.3771
▁3,000	-11.3771
▁Nun	-11.3772
▁intense	-11.3772
▁Tradition	-11.3774
▁interred	-11.3775
0.4	-11.3775
▁Pitt	-11.3776
▁Pete	-11.3776
▁Universe	-11.3777
▁Vil	-11.3777
▁Glass	-11.3778
izer	-11.378
▁Harper	-11.378
UN	-11.3781
git	-11.3782
▁Southeast	-11.3784
▁enhance	-11.3784
▁Ronald	-11.3785
▁gig	-11.3786
ambi	-11.3787
▁depression	-11.3789
ovsky	-11.3792
▁fiber	-11.3796
gla	-11.3797
▁victories	-11.3801
▁Plymouth	-11.3801
▁Imp	-11.3801
▁heading	-11.3806
▁Geo	-11.3806
▁drag	-11.3806
▁Congregation	-11.3809
▁Baby	-11.381
▁disappeared	-11.3812
▁Desert	-11.3816
▁statistics	-11.3817
▁employer	-11.3818
▁arrive	-11.3821
▁Memphis	-11.3822
▁Malta	-11.3824
▁shaped	-11.3825
▁Progressive	-11.3829
music	-11.3829
▁NH	-11.3831
▁Shadow	-11.3832
▁slate	-11.3832
▁tan	-11.3836
▁surrender	-11.3839
TM	-11.384
4.9	-11.384
0.9	-11.3841
▁CR	-11.3842
▁Resources	-11.3847
▁comprising	-11.3849
▁93	-11.3849
▁advertisement	-11.3852
▁diamond	-11.3855
tler	-11.3857
metre	-11.3857
▁Nav	-11.3857
built	-11.3858
pression	-11.3859
ige	-11.3861
▁Todd	-11.3862
rze	-11.3863
▁Stevens	-11.3865
Har	-11.3866
▁Vijay	-11.3867
▁improvement	-11.3869
▁clergy	-11.3871
▁Yellow	-11.3871
▁Emma	-11.3872
▁Emmy	-11.3873
▁translator	-11.3877
▁Titan	-11.3877
▁IP	-11.388
▁topped	-11.3882
▁virtual	-11.3882
bid	-11.3885
▁Edition	-11.3889
▁chess	-11.3893
tender	-11.3894
▁140	-11.3895
wrote	-11.3895
▁Lucas	-11.3896
pole	-11.3897
−	-11.3898
▁Porter	-11.3899
▁Walt	-11.3902
▁punk	-11.3903
▁89	-11.3904
▁acquire	-11.3904
▁Where	-11.3904
▁McCa	-11.3905
▁Tampa	-11.3907
▁stepped	-11.3909
lou	-11.391
gol	-11.3911
▁SP	-11.3914
oko	-11.3915
▁millimetres	-11.3915
▁Fitz	-11.3919
▁silent	-11.3921
▁dome	-11.3922
▁Programme	-11.3924
▁Grammy	-11.3926
▁screenplay	-11.3928
▁fastest	-11.393
▁automatic	-11.3934
▁stolen	-11.3935
▁Gian	-11.3936
▁zero	-11.3938
,300	-11.394
▁je	-11.394
▁Sym	-11.3941
bbe	-11.3942
▁Him	-11.3943
etz	-11.3944
South	-11.3948
▁warning	-11.3949
▁Mich	-11.395
HF	-11.3955
▁Windsor	-11.3956
lice	-11.3957
iser	-11.3957
1.4	-11.3958
▁trustees	-11.3959
▁dean	-11.396
LL	-11.3963
▁Worth	-11.3964
▁hybrid	-11.3964
▁wildlife	-11.3965
▁restore	-11.3971
comb	-11.3974
▁Paralympic	-11.3975
▁Istanbul	-11.3978
▁approaches	-11.3979
▁Photo	-11.3979
cycle	-11.3979
▁Naka	-11.398
▁molecular	-11.3981
▁Patriot	-11.3981
▁Any	-11.3984
▁module	-11.3989
▁Indianapolis	-11.399
▁Fernando	-11.3992
▁IBM	-11.3992
6.1	-11.3994
▁upgraded	-11.3995
▁unsuccessfully	-11.3996
▁Iceland	-11.3998
▁Roo	-11.4
▁severely	-11.4001
▁Shield	-11.4001
▁dissertation	-11.4003
tral	-11.4003
ously	-11.4003
▁Creative	-11.4004
▁crops	-11.4005
▁trigger	-11.4012
▁Bailey	-11.4013
▁teen	-11.4013
▁exploration	-11.4017
engine	-11.4019
jin	-11.4019
▁explosion	-11.4019
▁Ox	-11.4022
▁universal	-11.4022
▁Investment	-11.4022
▁Doug	-11.4023
▁Stre	-11.4023
▁Exhibition	-11.4025
▁senator	-11.4025
▁lens	-11.403
▁Tax	-11.403
▁basement	-11.4032
▁kids	-11.4035
▁lighting	-11.4036
tai	-11.4036
▁coincide	-11.4037
strat	-11.404
▁Watt	-11.404
▁Albums	-11.404
▁2.0	-11.4042
▁Wesley	-11.4043
▁rectangular	-11.4044
▁Aero	-11.405
speed	-11.4051
▁putting	-11.4052
author	-11.4052
▁comedian	-11.4054
cil	-11.4055
▁spa	-11.4055
TH	-11.4058
▁Adrian	-11.4065
▁pursuit	-11.407
▁Allan	-11.407
▁instant	-11.407
▁interviewed	-11.4071
speaking	-11.4073
▁Carnegie	-11.4075
▁retire	-11.4076
▁fraud	-11.4077
dication	-11.4077
▁Haven	-11.4079
▁Cave	-11.4082
storey	-11.4082
▁Chase	-11.4083
▁Notre	-11.4084
▁Scholar	-11.4086
rash	-11.4086
▁Bak	-11.4087
▁accomplished	-11.4088
▁Border	-11.4089
iba	-11.4095
▁Living	-11.4096
▁assessment	-11.4097
illi	-11.4098
▁pitched	-11.4101
▁boxing	-11.4101
▁Zhang	-11.4102
▁rot	-11.4104
uto	-11.4104
▁Preston	-11.4105
enter	-11.4106
▁Jung	-11.4107
scope	-11.4108
GB	-11.4108
yev	-11.4108
▁habit	-11.4109
amine	-11.4112
▁Chemistry	-11.4114
▁bicycle	-11.4115
isch	-11.4115
▁innovative	-11.4117
ов	-11.4128
▁regulate	-11.413
▁airfield	-11.4131
▁Transit	-11.4131
tiv	-11.4133
▁realized	-11.4135
▁Exp	-11.4139
▁diagnosed	-11.4139
▁absorbed	-11.4142
▁fairly	-11.4144
▁Philharmonic	-11.4145
mental	-11.4145
RP	-11.4148
▁granite	-11.4148
▁thereby	-11.415
▁Amateur	-11.4153
▁Clay	-11.4159
▁Lynn	-11.416
▁Powell	-11.4162
▁essentially	-11.4164
▁wreck	-11.4164
▁Rhine	-11.4164
▁peninsula	-11.417
▁feud	-11.4174
▁promotional	-11.4174
▁disturb	-11.4176
pac	-11.4178
▁Serv	-11.4181
rator	-11.4182
▁libraries	-11.4184
▁Ahmad	-11.4184
serve	-11.4185
▁convinced	-11.4186
▁tonnes	-11.4186
mund	-11.4187
4.4	-11.4189
▁Fighter	-11.4189
▁lifestyle	-11.419
▁101	-11.4192
▁pine	-11.4193
▁delayed	-11.4195
▁rookie	-11.4195
▁Nigerian	-11.4196
▁Dale	-11.4203
5.1	-11.4206
▁beneath	-11.4209
▁terrorist	-11.421
▁Winnipeg	-11.4212
▁licence	-11.4212
▁Mario	-11.4212
▁premier	-11.4213
▁Monument	-11.4215
▁magnitude	-11.4215
▁1815	-11.4216
▁Amy	-11.4216
▁Trump	-11.4217
▁update	-11.4223
▁magn	-11.4225
5.0	-11.4232
tour	-11.4233
▁responded	-11.4233
▁governed	-11.4235
▁boarding	-11.4235
▁fixture	-11.4235
6.4	-11.4236
▁McN	-11.4239
▁Lisa	-11.4241
▁Emily	-11.4242
escu	-11.4243
▁Lancaster	-11.4243
▁defending	-11.4245
▁Pink	-11.4245
5.9	-11.4245
▁Bug	-11.4248
▁Harbour	-11.4249
▁cylinder	-11.4249
▁Jesuit	-11.4249
▁rent	-11.4251
▁enzyme	-11.4252
zia	-11.4254
park	-11.4255
▁slip	-11.4257
▁Mini	-11.4262
▁Pho	-11.4262
▁Kho	-11.4265
▁Male	-11.4266
corn	-11.4267
▁Trent	-11.4269
▁Bil	-11.4269
▁attitude	-11.4271
▁settle	-11.4276
▁Aaron	-11.4276
▁Morocco	-11.428
▁challenged	-11.4281
▁Sham	-11.4283
abil	-11.4286
ounce	-11.4288
▁Chapter	-11.4289
heart	-11.4289
▁array	-11.4289
▁accommodation	-11.4291
▁Francesco	-11.4291
▁enabled	-11.4296
▁Madras	-11.4296
▁closest	-11.4299
named	-11.4299
▁1834	-11.4299
▁Shiva	-11.4302
▁mirror	-11.4303
▁sustained	-11.4308
▁vein	-11.4308
▁allegedly	-11.4308
▁Duncan	-11.4313
▁stored	-11.4313
▁ceiling	-11.4314
▁Julius	-11.4317
earn	-11.4318
▁noise	-11.4319
▁Change	-11.4323
▁Plaza	-11.4324
released	-11.4325
▁Font	-11.4325
▁bacteria	-11.4328
▁fiscal	-11.4329
▁layout	-11.4331
▁Phi	-11.4334
▁stripe	-11.4335
▁proceeded	-11.4336
pil	-11.4336
hum	-11.4338
combe	-11.4338
▁receptor	-11.434
ppel	-11.434
▁2–0	-11.434
▁Edge	-11.4342
▁Gul	-11.4346
▁resided	-11.4346
▁informed	-11.4346
▁Cuban	-11.4349
dah	-11.435
▁commentator	-11.4351
▁registration	-11.4354
▁telling	-11.4355
7.6	-11.4357
▁Reid	-11.4358
▁Hammer	-11.4359
▁Deutsche	-11.4364
▁1831	-11.4366
▁militia	-11.4368
2.5	-11.437
ς	-11.4371
▁fatal	-11.4374
▁vicinity	-11.4374
▁0.4	-11.4375
▁Pir	-11.4376
▁vegetable	-11.4377
▁violation	-11.4381
▁Luxembourg	-11.4383
▁rebellion	-11.4383
▁divide	-11.4391
▁Budapest	-11.4394
model	-11.4395
▁textile	-11.4399
hari	-11.4401
▁intervention	-11.4401
▁Ley	-11.4406
▁elite	-11.4409
flow	-11.441
▁(24	-11.441
▁pushed	-11.4411
▁routine	-11.4411
Brien	-11.4412
▁playwright	-11.4413
▁belong	-11.4414
▁Excellence	-11.4414
▁emerging	-11.4414
▁Wai	-11.4416
▁5,000	-11.4422
▁Globe	-11.4422
▁defect	-11.443
▁Present	-11.4431
▁Sig	-11.4433
▁Holmes	-11.4435
onym	-11.4441
screen	-11.4444
▁Spo	-11.4445
gawa	-11.4445
▁Interior	-11.4446
dging	-11.4448
▁guy	-11.4449
▁submerged	-11.4449
3.5	-11.4451
▁Tag	-11.4453
▁precise	-11.4455
uous	-11.4456
▁Formation	-11.4457
▁varies	-11.446
▁sporting	-11.4462
lex	-11.4466
conscious	-11.4469
burgh	-11.4469
▁Watch	-11.447
▁erect	-11.4472
▁Counsel	-11.4472
▁ibn	-11.4473
▁Flu	-11.4474
▁tackle	-11.4475
▁Somali	-11.4477
▁mandate	-11.4477
▁Wald	-11.4483
▁Scar	-11.4483
▁borrow	-11.4484
▁vault	-11.4485
▁chronicle	-11.4486
6.2	-11.4486
▁1500	-11.4487
▁Mix	-11.4489
▁Observatory	-11.4489
IG	-11.449
▁metric	-11.4492
▁hook	-11.4496
▁Superior	-11.4501
▁Jag	-11.4502
▁Leicester	-11.4503
4.2	-11.4505
▁Wick	-11.4506
▁guarantee	-11.4507
▁Tiger	-11.4507
▁Mara	-11.451
▁Raw	-11.451
▁nineteenth	-11.4511
Connor	-11.4511
chal	-11.4512
mac	-11.4515
▁martial	-11.4519
▁minimal	-11.4519
▁mural	-11.4521
▁governing	-11.4521
▁Viking	-11.4522
5.3	-11.4523
▁contra	-11.4523
▁Cool	-11.4523
▁Rifle	-11.4524
▁preservation	-11.4527
#	-11.4528
SV	-11.453
▁(21	-11.4533
▁terrain	-11.4536
▁chase	-11.4537
▁Wednesday	-11.4539
▁Kap	-11.4542
three	-11.4543
▁McM	-11.4543
▁Lost	-11.4544
▁Made	-11.4544
▁elaborate	-11.4545
▁improving	-11.4545
▁Cour	-11.4546
▁Nottingham	-11.4547
▁Chau	-11.4548
▁depicts	-11.4548
nier	-11.4549
chair	-11.455
▁Colin	-11.4552
▁Insurance	-11.4553
▁lighthouse	-11.4554
▁Via	-11.4555
▁Forbes	-11.4555
▁Nag	-11.4557
▁Hag	-11.4559
▁protocol	-11.4559
▁syndrome	-11.4559
▁Milton	-11.456
▁Meyer	-11.4561
▁listing	-11.4564
▁1833	-11.4565
▁undertook	-11.4565
▁Lucy	-11.4566
▁demon	-11.4568
▁pregnant	-11.4571
▁reducing	-11.4571
▁quiet	-11.4571
▁Islander	-11.4572
▁nationwide	-11.4574
▁outcome	-11.4576
urban	-11.4576
fiction	-11.4577
▁Canyon	-11.4578
▁porch	-11.4579
▁Elm	-11.4583
▁mammal	-11.4585
▁Flag	-11.4587
▁sediment	-11.4591
▁nun	-11.4594
▁Canton	-11.4598
▁Johnston	-11.4598
▁maternal	-11.46
▁1.2	-11.4601
▁expelled	-11.4603
▁recurring	-11.4606
augh	-11.4606
rift	-11.4607
ça	-11.4613
▁automatically	-11.4619
▁Chemical	-11.4621
▁Idaho	-11.4621
▁firing	-11.4624
7.9	-11.4624
▁Communication	-11.4624
▁recall	-11.4626
▁Slav	-11.4628
▁Chelsea	-11.4629
hoot	-11.4631
▁sophomore	-11.4632
▁monarch	-11.4632
▁Heinrich	-11.4632
▁abbey	-11.4633
▁Partners	-11.4635
▁fate	-11.4635
▁Champ	-11.4636
▁crack	-11.4638
▁Twenty	-11.4641
▁maintaining	-11.4642
▁mut	-11.4643
▁Anders	-11.4644
▁bankruptcy	-11.4645
buck	-11.4646
▁Zimbabwe	-11.4647
▁insects	-11.465
1.7	-11.4651
English	-11.4652
▁Denis	-11.4652
▁USSR	-11.4652
iger	-11.4652
▁Kab	-11.4657
▁Hiro	-11.4658
▁Fourth	-11.4658
▁survivors	-11.4659
▁Gujarat	-11.4662
▁romance	-11.4662
▁Inspector	-11.4662
▁McKe	-11.4664
▁Pole	-11.4664
▁Robertson	-11.4667
▁handling	-11.4669
Pre	-11.4675
fal	-11.4679
▁acclaim	-11.468
first	-11.4681
▁Colonial	-11.4682
▁illustrations	-11.4684
▁Burton	-11.4684
▁Lok	-11.4688
▁tender	-11.4689
▁bush	-11.4692
▁descendant	-11.4693
▁imprisonment	-11.4694
▁bomber	-11.4696
▁$10	-11.4697
▁Factory	-11.4697
▁Pool	-11.4702
▁Marion	-11.4703
▁correspond	-11.4704
2.8	-11.4706
▁Eugene	-11.4706
▁Obama	-11.4707
▁Clinic	-11.4707
▁Half	-11.4709
▁vacant	-11.4718
▁sprint	-11.4719
–12	-11.472
▁jointly	-11.4724
▁deeply	-11.4724
▁filter	-11.4727
▁mate	-11.473
▁Ultimate	-11.473
▁worst	-11.4733
▁behaviour	-11.4736
▁spine	-11.4736
▁Account	-11.4736
▁refugees	-11.4739
▁Cohen	-11.4741
eight	-11.4741
▁Yoshi	-11.4742
ophi	-11.4742
▁barrier	-11.4742
▁expanding	-11.4743
▁dinner	-11.4745
▁assume	-11.4747
East	-11.4748
▁interim	-11.475
▁Inside	-11.475
▁compact	-11.475
▁modification	-11.4751
▁Eng	-11.4752
that	-11.4754
▁nose	-11.4755
▁VIII	-11.4756
▁terminated	-11.4757
▁therapy	-11.4759
▁riot	-11.4759
▁Bac	-11.4761
▁Lithuania	-11.4767
▁suffer	-11.4767
▁folded	-11.4771
▁Erik	-11.4771
▁Literary	-11.4771
▁ESPN	-11.4772
GP	-11.4772
▁asking	-11.4773
▁altered	-11.4774
▁Reynolds	-11.4774
lev	-11.4775
▁Commercial	-11.4777
▁grape	-11.4778
grade	-11.4778
▁Doll	-11.4779
pathy	-11.4779
icle	-11.4781
lysis	-11.4781
▁Pod	-11.4782
▁Roosevelt	-11.4786
tem	-11.4787
▁pun	-11.4788
▁50%	-11.479
▁Til	-11.479
▁withdrawn	-11.4791
▁Gibb	-11.4791
▁Look	-11.4792
▁neighbor	-11.4793
polit	-11.4796
utter	-11.4797
▁Syrian	-11.4797
▁Hugo	-11.4798
phen	-11.4799
▁Hun	-11.48
▁transit	-11.4802
▁commanding	-11.4803
▁Saf	-11.4803
▁Palestinian	-11.4804
▁AFC	-11.4805
▁geographical	-11.4805
rail	-11.4806
▁palm	-11.4806
AIDS	-11.4812
▁Pil	-11.4815
▁ultra	-11.4817
▁faster	-11.4818
▁seminar	-11.4819
▁Gott	-11.4819
▁cum	-11.482
quality	-11.4824
▁Faith	-11.4825
7.1	-11.4829
qi	-11.4832
connect	-11.4833
▁fat	-11.4834
9.8	-11.4835
mail	-11.4838
▁Tau	-11.4839
▁Make	-11.4848
▁quoted	-11.4848
▁recreational	-11.4851
▁Strait	-11.4851
▁neutral	-11.4852
August	-11.4852
▁hung	-11.4854
lob	-11.4854
5.8	-11.4855
▁derives	-11.4856
▁Clu	-11.4856
aceae	-11.4856
▁abandon	-11.4859
▁sandstone	-11.486
▁Chad	-11.4863
writing	-11.4864
▁transformation	-11.4864
▁dubbed	-11.4865
▁Haiti	-11.4865
▁mathematician	-11.4867
▁witness	-11.487
▁Legal	-11.487
▁cruise	-11.487
▁obtaining	-11.4872
▁integration	-11.4876
▁Sharp	-11.4878
▁theoretical	-11.4879
▁varied	-11.488
leigh	-11.4881
▁consumption	-11.4885
▁Springfield	-11.4887
▁remember	-11.4892
2.0	-11.4892
▁catalogue	-11.4893
▁Marty	-11.4894
both	-11.4898
▁Leslie	-11.4899
won	-11.4901
▁Annie	-11.4907
▁Cut	-11.491
▁vicar	-11.4914
▁revived	-11.4915
▁Cancer	-11.4915
▁Chandra	-11.4916
▁consideration	-11.4916
▁swing	-11.4917
än	-11.4921
▁partnered	-11.4923
▁Maxim	-11.4923
▁Achievement	-11.4925
7.3	-11.4925
phor	-11.4926
One	-11.4926
▁Franc	-11.4926
▁Siege	-11.4926
▁obvious	-11.4931
▁twist	-11.4937
▁lineup	-11.4938
▁periodical	-11.494
▁mask	-11.4941
▁spiral	-11.4948
▁cottage	-11.4949
▁wage	-11.4949
▁Cairo	-11.4949
▁Dock	-11.495
▁HD	-11.495
8.8	-11.4951
▁Saw	-11.4954
boo	-11.4954
▁Sei	-11.4958
hō	-11.4962
fight	-11.4963
anza	-11.4964
cellular	-11.4965
▁regulation	-11.4966
▁membrane	-11.4967
▁upgrade	-11.4968
▁Edgar	-11.4971
▁Bend	-11.4973
▁impossible	-11.4973
▁Á	-11.4974
▁Lead	-11.4977
▁literally	-11.4979
▁pageant	-11.498
▁lying	-11.4982
▁revenge	-11.4982
▁streak	-11.4985
▁Klein	-11.499
▁Josh	-11.4992
▁Joy	-11.4996
▁Krist	-11.4996
▁prevented	-11.4997
formation	-11.4997
fair	-11.5
▁unexpected	-11.5001
▁Xu	-11.5001
/10	-11.5003
▁dying	-11.501
▁knight	-11.501
▁Aviv	-11.5011
tsch	-11.5011
▁hunt	-11.5013
fill	-11.5015
ór	-11.5016
▁Hindi	-11.5016
▁chip	-11.5017
third	-11.5017
ifies	-11.5021
▁pace	-11.5023
▁Natal	-11.5026
▁FR	-11.5027
▁Basin	-11.5028
▁Southampton	-11.5028
just	-11.503
▁Seoul	-11.5031
▁authorized	-11.5031
▁Sofia	-11.5031
▁prolific	-11.5034
▁Potter	-11.5036
▁electron	-11.5037
▁Founded	-11.5038
▁Boat	-11.5039
▁Screen	-11.504
▁Claude	-11.5041
2.7	-11.5041
▁basal	-11.5042
▁crowned	-11.5043
▁125	-11.5047
▁wrestler	-11.505
▁Past	-11.505
▁Rachel	-11.5052
▁demonstrate	-11.5052
▁Monroe	-11.5053
▁sailor	-11.5053
▁Wagner	-11.5057
▁Stro	-11.5059
▁Ghost	-11.5059
▁Gab	-11.5063
▁emerge	-11.5066
▁impression	-11.5069
strand	-11.507
TU	-11.5072
litz	-11.5074
▁admit	-11.5074
cam	-11.5075
▁enthusiast	-11.5077
▁mud	-11.5077
western	-11.5079
▁Emp	-11.508
▁Rolling	-11.5081
league	-11.5084
HP	-11.5084
▁Orlando	-11.5086
stroke	-11.5089
▁Fro	-11.509
▁lodge	-11.509
▁arrange	-11.5091
▁Primera	-11.5092
hou	-11.5094
▁tar	-11.5095
RM	-11.5099
▁reject	-11.51
▁watching	-11.5103
▁Sugar	-11.5105
▁harvest	-11.5105
▁Bombay	-11.5106
▁republic	-11.5106
▁Nathan	-11.5112
▁transported	-11.5115
▁MI	-11.5116
▁loyal	-11.5119
▁strain	-11.5121
▁broadcaster	-11.5123
▁lecture	-11.5126
John	-11.5126
▁Dynasty	-11.5126
6.6	-11.5127
▁Disc	-11.5128
▁moon	-11.513
▁adviser	-11.5131
▁varieties	-11.5133
beat	-11.5133
▁concentrated	-11.5133
▁ingredient	-11.5139
▁delegation	-11.5139
▁vinyl	-11.5139
gill	-11.5142
▁Lecture	-11.5142
▁Crawford	-11.5145
▁planted	-11.5147
nett	-11.5148
▁destroyer	-11.5149
▁magnetic	-11.5151
▁Fiji	-11.5151
▁Marsh	-11.5154
▁Sou	-11.5156
▁parade	-11.5156
6.8	-11.5156
▁McDonald	-11.5157
▁Witt	-11.5159
▁Industries	-11.5161
▁Safety	-11.5161
mari	-11.5162
▁resist	-11.5163
▁repeatedly	-11.5165
7.4	-11.5167
▁antenna	-11.5167
science	-11.5168
▁Hack	-11.5169
▁Viscount	-11.517
▁Ernst	-11.517
▁Aboriginal	-11.517
llusion	-11.5172
▁reflected	-11.5173
akka	-11.5175
▁Pap	-11.5175
mph	-11.5178
volution	-11.518
▁Albania	-11.5182
▁harbour	-11.5182
▁endemic	-11.5182
▁Exeter	-11.5182
▁Kro	-11.5188
▁lung	-11.5194
▁specification	-11.5195
berger	-11.5195
▁Fiction	-11.5198
▁turbine	-11.5201
▁1814	-11.5205
▁consistent	-11.5205
▁followers	-11.521
lough	-11.5216
▁stab	-11.5217
5.2	-11.5218
▁halt	-11.5219
▁thorough	-11.522
cian	-11.5222
liv	-11.5222
ienne	-11.5222
▁absent	-11.5223
▁Poli	-11.5225
6.9	-11.5226
▁meter	-11.5227
▁Using	-11.5227
▁Located	-11.5229
If	-11.523
▁Louisville	-11.5231
▁Clara	-11.5231
▁Glenn	-11.5233
▁Iraqi	-11.5236
embl	-11.5238
▁spur	-11.5239
▁batting	-11.5243
icide	-11.5245
▁Access	-11.5246
▁180	-11.5247
▁lady	-11.5247
▁Ske	-11.5248
▁builder	-11.5248
▁plum	-11.5252
▁Normal	-11.5254
▁oxygen	-11.5254
▁trunk	-11.5257
▁collapsed	-11.5257
President	-11.526
▁Testament	-11.526
▁distant	-11.5263
lew	-11.5264
father	-11.5269
▁curator	-11.527
▁1825	-11.527
iller	-11.5271
lake	-11.5271
▁Headquarters	-11.5273
▁grammar	-11.5273
▁1829	-11.528
wheel	-11.5282
▁Face	-11.5282
▁replica	-11.5282
bh	-11.5283
▁Thorn	-11.5285
▁diversity	-11.5285
▁Slovakia	-11.5286
▁Capitol	-11.5288
▁1–1	-11.5291
▁Cumberland	-11.5292
▁freelance	-11.5292
▁Jew	-11.5293
▁cavalry	-11.5295
▁Twitter	-11.5298
▁Kala	-11.5302
▁decrease	-11.5304
▁GT	-11.5309
▁clothes	-11.531
risto	-11.531
▁preliminary	-11.531
▁María	-11.5311
▁manga	-11.5312
▁mild	-11.5315
▁Tab	-11.5315
▁Full	-11.5316
▁Tea	-11.532
▁LLC	-11.5321
▁enforcement	-11.5321
▁citizenship	-11.5322
▁Spin	-11.5322
▁Kenneth	-11.5323
9.3	-11.5327
rrington	-11.5327
▁purple	-11.5327
▁Batt	-11.5329
▁Crystal	-11.533
▁detective	-11.5331
▁ballad	-11.5332
▁editing	-11.5332
▁Shop	-11.5334
▁pitcher	-11.5334
OW	-11.5336
chlor	-11.5339
▁sixty	-11.5342
▁pseudonym	-11.5342
▁lobby	-11.5342
▁Rib	-11.5342
8.1	-11.5344
▁Carroll	-11.5345
rush	-11.5348
▁conceived	-11.5348
▁Bronze	-11.5349
▁tenant	-11.5351
▁negotiate	-11.5355
▁enlarged	-11.5361
▁Gö	-11.5364
French	-11.5364
▁suspected	-11.5365
▁examine	-11.5367
▁invested	-11.5369
▁judicial	-11.5374
mash	-11.5375
▁Mach	-11.5376
▁colleague	-11.5378
▁Chat	-11.5381
▁Devi	-11.5383
▁Ecuador	-11.5383
▁preparing	-11.5393
▁entity	-11.5393
▁AFL	-11.5394
8.0	-11.5397
▁Canon	-11.54
▁torture	-11.54
franc	-11.5403
▁drill	-11.5405
MD	-11.5407
▁Alternative	-11.5412
LI	-11.5415
▁allocated	-11.5415
▁leased	-11.5415
▁trophy	-11.5415
▁hymn	-11.5418
▁Valencia	-11.5418
▁sending	-11.5419
▁Arc	-11.542
▁Again	-11.5426
5.4	-11.5427
▁Barnes	-11.5429
▁Dorothy	-11.5431
▁Corner	-11.5431
▁Alexandria	-11.5431
▁Previously	-11.5432
▁Rab	-11.5432
▁Glacier	-11.5434
▁Leigh	-11.5437
▁Cologne	-11.5437
▁seized	-11.5438
Neill	-11.5438
hak	-11.544
www	-11.5444
▁Nevertheless	-11.5447
▁Charleston	-11.5447
▁linguistic	-11.5448
▁killer	-11.5448
▁metropolitan	-11.545
▁percussion	-11.545
▁handled	-11.5451
opter	-11.5453
▁stereo	-11.5454
▁Linda	-11.5456
▁investigated	-11.546
▁tap	-11.5461
▁Singer	-11.5461
onian	-11.5464
▁Sox	-11.5465
▁Hayes	-11.5465
▁Continental	-11.5466
▁upset	-11.5473
▁meal	-11.5474
▁privilege	-11.5475
jah	-11.5476
▁addressed	-11.5476
▁sacred	-11.5476
What	-11.5477
▁Suffolk	-11.5479
3.7	-11.548
MU	-11.5481
▁hub	-11.5481
iac	-11.5481
▁Cavalry	-11.5482
case	-11.5485
▁Dow	-11.5487
▁Grim	-11.5488
▁bounded	-11.5489
▁Complex	-11.5489
▁Author	-11.549
▁Papa	-11.549
brown	-11.5492
▁contractor	-11.5495
▁oval	-11.5495
▁Brig	-11.5497
▁organism	-11.5505
dog	-11.5509
▁Dayton	-11.5511
▁Maritime	-11.5514
▁Bradley	-11.5514
▁rocky	-11.5514
▁Mona	-11.5517
▁smoke	-11.5517
▁longtime	-11.5518
lace	-11.552
▁authentic	-11.552
▁humid	-11.5521
gha	-11.5523
▁nursing	-11.5523
▁blade	-11.5527
▁Finn	-11.5529
▁Heaven	-11.5531
7°	-11.5533
▁Software	-11.5533
▁tire	-11.5533
▁Southwest	-11.5535
quer	-11.5536
▁identification	-11.5536
▁loved	-11.554
▁crush	-11.5541
▁Tanzania	-11.5543
▁descend	-11.5544
▁Beg	-11.5546
▁Troy	-11.5547
▁Sebastian	-11.5549
▁Physical	-11.5549
vul	-11.5552
▁trailer	-11.5554
▁Stor	-11.5554
▁encountered	-11.5554
▁Tara	-11.5555
▁trumpet	-11.5556
▁Body	-11.5556
riving	-11.556
▁bureau	-11.5562
▁Herman	-11.5562
gress	-11.5564
▁Color	-11.5564
8.3	-11.5565
▁Ulster	-11.5565
▁bulk	-11.5566
▁Learning	-11.5569
▁cater	-11.557
cub	-11.5572
1.5	-11.5573
▁1.0	-11.5574
▁Oh	-11.5574
▁UCLA	-11.5575
▁mac	-11.5579
▁Shak	-11.5581
▁scattered	-11.5581
▁flora	-11.5582
assa	-11.5584
▁bread	-11.5585
▁Janeiro	-11.5589
▁seemed	-11.559
▁separation	-11.5591
▁disk	-11.5593
▁foster	-11.5595
And	-11.5596
iza	-11.5597
▁psycho	-11.5597
▁undertaken	-11.5601
▁blame	-11.5603
▁bypass	-11.5604
▁succeeding	-11.5604
▁1810	-11.5604
ogni	-11.5604
▁Map	-11.5604
▁coordinator	-11.5604
▁École	-11.5604
▁infant	-11.5605
ended	-11.561
▁aggregate	-11.5611
hound	-11.5611
▁garrison	-11.5614
Music	-11.5616
0.7	-11.5616
▁plea	-11.5617
established	-11.5618
▁Level	-11.5619
▁Griffith	-11.562
7.8	-11.5621
▁Original	-11.5627
▁thread	-11.5627
▁tag	-11.5628
Pri	-11.5629
▁trademark	-11.563
▁Rank	-11.5631
▁NSW	-11.5635
▁assassin	-11.5639
▁accredited	-11.564
▁Northwestern	-11.564
▁Morrison	-11.5641
▁artifacts	-11.5643
▁striking	-11.5644
▁cleared	-11.5644
version	-11.5647
▁Statistics	-11.565
▁monster	-11.565
▁Providence	-11.565
▁Bergen	-11.5651
▁twentieth	-11.5653
▁convince	-11.5654
▁societies	-11.5656
▁Indoor	-11.5657
▁typ	-11.566
▁Chennai	-11.5666
▁knock	-11.5666
▁entries	-11.5669
peak	-11.5671
▁Oct	-11.5675
▁Presidential	-11.5676
▁personally	-11.5676
rrh	-11.5678
▁Source	-11.5679
▁parishes	-11.5686
▁Antarctica	-11.5687
▁consulting	-11.5689
▁complain	-11.5689
▁Actress	-11.5693
▁Gai	-11.5697
▁rainfall	-11.5702
▁revolve	-11.5703
▁interception	-11.5703
▁tribal	-11.5707
▁Hop	-11.5708
▁climbing	-11.571
▁boom	-11.5711
▁Liberation	-11.5713
will	-11.5713
▁Housing	-11.5713
alaya	-11.5714
▁Kul	-11.5719
▁mistake	-11.572
▁secular	-11.5723
▁Jesse	-11.5724
▁convent	-11.5725
8.9	-11.5726
▁shareholder	-11.5729
prop	-11.573
June	-11.5731
fil	-11.5735
▁Kurt	-11.5736
▁strict	-11.5737
▁Amar	-11.5742
▁Popular	-11.5745
▁quantum	-11.5748
▁armor	-11.5748
▁struggled	-11.5754
wang	-11.5763
best	-11.5764
▁Gross	-11.5765
handed	-11.5766
cliffe	-11.5766
PG	-11.5767
▁duration	-11.5768
▁Edwin	-11.5768
▁continent	-11.5768
▁headquartered	-11.5771
▁Strange	-11.5776
▁Wave	-11.5779
▁valve	-11.5781
yō	-11.5782
▁Guitar	-11.5782
▁Own	-11.5786
▁Criminal	-11.5787
öl	-11.579
▁fresco	-11.5791
▁1821	-11.5792
▁Helsinki	-11.5794
▁consent	-11.5795
▁outline	-11.5796
bass	-11.5796
▁unveiled	-11.5797
▁Resident	-11.5797
defunct	-11.58
credit	-11.58
▁smart	-11.5801
▁Tunisia	-11.5801
kun	-11.5801
croft	-11.5804
▁qualifier	-11.5804
▁unless	-11.5804
▁abilities	-11.581
▁northeastern	-11.5812
▁backup	-11.5813
▁Calcutta	-11.5814
▁unclear	-11.5814
▁logic	-11.5815
▁350	-11.5815
▁textbook	-11.5816
▁citation	-11.5817
▁metre	-11.5819
▁Loch	-11.5821
Ru	-11.5823
▁emphasize	-11.5824
▁accomplish	-11.5824
▁Johannes	-11.5825
▁inclusion	-11.5827
▁Bavaria	-11.583
▁anthology	-11.5834
▁axis	-11.5836
▁Cock	-11.584
udge	-11.584
▁cannon	-11.5845
note	-11.5847
▁symptoms	-11.5847
▁Afterwards	-11.5849
▁remarkable	-11.585
▁headline	-11.5856
▁thrown	-11.586
girl	-11.5863
9.1	-11.5863
▁shirt	-11.5864
▁persist	-11.5868
▁relate	-11.5869
firm	-11.5871
▁pension	-11.5871
▁southeastern	-11.5874
▁crop	-11.5875
stream	-11.5877
▁Clan	-11.5878
▁Yankee	-11.588
limit	-11.5881
▁embarked	-11.5882
▁Syracuse	-11.5883
▁advisory	-11.5884
▁Pond	-11.5886
▁Baroque	-11.5887
▁requirement	-11.5887
1.0	-11.5889
▁electorate	-11.589
▁proximity	-11.589
▁Tap	-11.5895
▁Single	-11.5895
▁Nichols	-11.5897
▁warrior	-11.5897
vac	-11.59
▁badly	-11.59
▁celebrity	-11.59
▁Mae	-11.59
▁Without	-11.5902
▁exceptional	-11.5904
▁Geographic	-11.5905
code	-11.5907
▁Ethiopia	-11.5907
▁knockout	-11.5908
▁centimetres	-11.591
▁Adolf	-11.591
▁spark	-11.5911
vu	-11.5915
▁Merri	-11.5917
0.8	-11.5918
▁taxes	-11.5919
▁"...	-11.5919
▁Salem	-11.5921
▁Cant	-11.5922
▁100,000	-11.5924
▁suggestion	-11.5925
▁hitting	-11.5925
▁Slo	-11.5927
▁Bohemia	-11.5927
▁Zoo	-11.5928
▁Trial	-11.5931
▁Solar	-11.5933
graphic	-11.5934
▁disabled	-11.5937
▁cop	-11.5939
▁Marvel	-11.594
▁Read	-11.5942
▁1826	-11.5943
▁scan	-11.5945
▁proportion	-11.5946
▁1818	-11.5949
▁1824	-11.5952
WR	-11.5952
cession	-11.5952
http	-11.5953
zier	-11.5955
▁screening	-11.5957
▁larvae	-11.5961
▁Fashion	-11.5964
▁Tennis	-11.5964
://	-11.5964
▁similarly	-11.5968
▁Roma	-11.597
▁explosive	-11.597
▁constituencies	-11.597
▁skull	-11.597
▁populated	-11.5971
▁revolutionary	-11.5974
UP	-11.5975
complete	-11.5976
▁sketch	-11.5977
▁Tyler	-11.5978
▁1828	-11.598
▁crypt	-11.598
▁Tourism	-11.5982
▁fence	-11.5984
▁Have	-11.5987
▁statistical	-11.5987
▁navigation	-11.5991
bou	-11.5991
×	-11.5992
▁colonies	-11.5993
▁4.5	-11.5997
▁narrowly	-11.5999
▁empire	-11.6001
▁Arsenal	-11.6001
▁sustain	-11.6002
▁Quint	-11.6003
▁certification	-11.6004
immer	-11.6011
▁Cash	-11.6012
▁optical	-11.6019
▁Karen	-11.6021
itarian	-11.6021
▁taxi	-11.6021
suit	-11.6022
▁Brent	-11.6023
wave	-11.6023
▁Want	-11.6024
▁counterpart	-11.6026
▁Dunn	-11.6028
insky	-11.6034
▁Steam	-11.6034
▁Estonia	-11.6036
▁equi	-11.6037
▁Guru	-11.604
▁breath	-11.6045
▁binding	-11.6045
▁Fay	-11.6048
charge	-11.6048
▁Thursday	-11.6048
▁assembled	-11.6048
omen	-11.6049
▁slope	-11.6051
▁joke	-11.6052
▁Theodore	-11.6053
▁rebuild	-11.6054
▁True	-11.6055
▁garage	-11.6055
▁suburban	-11.6057
▁Petro	-11.6058
▁warehouse	-11.6062
khan	-11.6064
▁indeed	-11.6065
▁Lombard	-11.6065
bahn	-11.6067
▁Mata	-11.6067
▁Lima	-11.6067
▁chef	-11.6069
▁Table	-11.6073
ledge	-11.6079
8.2	-11.608
▁3.0	-11.608
▁migration	-11.6082
ubb	-11.6089
▁requiring	-11.6092
▁welfare	-11.6096
▁motif	-11.6096
▁publishes	-11.61
▁Pale	-11.6102
▁Prussian	-11.6103
original	-11.6104
▁Hampton	-11.6105
▁aesthetic	-11.6106
PE	-11.611
▁lion	-11.6116
▁ceramic	-11.6116
▁Trinidad	-11.6116
▁Custom	-11.6116
▁scrap	-11.6117
▁efficiency	-11.6119
▁"[	-11.612
▁Oriental	-11.6121
▁Credit	-11.6121
▁separately	-11.6123
▁explicit	-11.6123
continu	-11.6124
▁summa	-11.6127
▁encode	-11.6128
▁rapper	-11.6133
▁(2005)	-11.6133
▁Zan	-11.6135
frame	-11.6136
There	-11.6138
zie	-11.6142
▁Baltic	-11.6145
▁dependent	-11.6149
▁paying	-11.615
▁170	-11.6153
▁Concord	-11.6155
▁Article	-11.6156
blad	-11.6156
▁Jennifer	-11.6157
▁referendum	-11.6157
▁relieve	-11.6157
▁socio	-11.6159
▁epic	-11.6161
▁Classical	-11.6161
▁dwelling	-11.6164
ghan	-11.6164
▁Lithuanian	-11.6166
▁interval	-11.6169
▁Duck	-11.6174
▁copyright	-11.6175
Love	-11.6175
▁Norwich	-11.6175
▁cheese	-11.6176
▁universe	-11.6178
▁Chap	-11.6178
wig	-11.6179
▁pm	-11.6181
▁gray	-11.6182
▁Event	-11.6182
▁solely	-11.6182
▁cooking	-11.6187
▁immigrant	-11.6188
▁Kali	-11.619
▁mystery	-11.6191
▁Visual	-11.6192
▁Berry	-11.6193
▁Estonian	-11.6194
▁Winner	-11.6194
▁promised	-11.6195
▁Gol	-11.62
selling	-11.6201
LO	-11.6201
▁massacre	-11.6203
▁conquest	-11.6206
▁Kiev	-11.6207
▁prominence	-11.6208
▁Psychology	-11.6209
6.0	-11.6209
▁Educational	-11.6212
▁constantly	-11.6215
igne	-11.6217
▁Chand	-11.6218
▁Product	-11.6222
▁gentle	-11.6222
▁Baldwin	-11.6222
▁baronet	-11.6222
EG	-11.6223
USA	-11.6226
▁radiation	-11.6226
rica	-11.6228
▁anterior	-11.6229
▁Minneapolis	-11.6233
▁stag	-11.6235
grass	-11.6239
▁legacy	-11.624
▁900	-11.6241
hui	-11.6241
April	-11.6242
▁outfit	-11.6244
▁allegations	-11.6246
▁Dundee	-11.6246
▁Summit	-11.6247
▁Feature	-11.6248
▁flame	-11.6251
▁Burke	-11.6254
▁theories	-11.6254
▁Lisbon	-11.6257
▁aerial	-11.6257
▁oversaw	-11.6258
▁Qing	-11.6259
▁vital	-11.6259
▁Newfoundland	-11.6264
▁Colony	-11.6264
bili	-11.6266
▁thriller	-11.6267
▁barn	-11.627
▁explanation	-11.6271
▁catalog	-11.6273
dress	-11.6274
good	-11.6276
▁circum	-11.6278
▁Oblast	-11.6278
▁intent	-11.628
▁Yard	-11.6284
TL	-11.6284
▁exhaust	-11.6285
▁Armenia	-11.6286
▁humor	-11.6287
▁LGBT	-11.6288
4.5	-11.6291
▁revolt	-11.6292
▁reunited	-11.6292
▁gather	-11.6292
authored	-11.6293
▁Butter	-11.6294
▁HIV	-11.6296
▁Wyoming	-11.6298
▁Elliott	-11.6301
▁suite	-11.6302
8°	-11.6305
▁Jamie	-11.6306
▁Speed	-11.6308
kind	-11.6308
▁Flat	-11.6308
▁laser	-11.6309
▁talking	-11.631
▁dive	-11.6311
fried	-11.6311
▁Segunda	-11.6312
▁synthesis	-11.6313
▁Biology	-11.6314
▁Benedict	-11.6317
▁Rotten	-11.6318
▁Gaz	-11.6318
▁Tuesday	-11.6319
▁Engineer	-11.632
▁accidentally	-11.6321
▁Gandhi	-11.6323
eux	-11.6324
▁analyst	-11.6326
▁Duchy	-11.6329
September	-11.633
government	-11.6333
▁container	-11.6334
acci	-11.6336
lope	-11.6344
▁1816	-11.6344
July	-11.6344
▁Silva	-11.6344
▁landowner	-11.6346
▁hatch	-11.6347
▁Nash	-11.6347
▁endangered	-11.6354
▁powder	-11.6354
▁boyfriend	-11.6355
▁disrupt	-11.6355
▁Hind	-11.6355
▁Vietnamese	-11.6356
▁Notable	-11.6358
▁Dubai	-11.6359
▁Gala	-11.6361
▁phenomenon	-11.6361
Big	-11.6368
▁boost	-11.6368
▁silk	-11.637
bone	-11.637
▁confusion	-11.6371
▁Vision	-11.6374
▁Schul	-11.6375
▁screened	-11.6378
▁subdivision	-11.6379
▁Rica	-11.6382
▁chord	-11.6383
moor	-11.6384
▁propeller	-11.6386
▁Giuseppe	-11.6393
▁flagship	-11.6393
generation	-11.6394
zha	-11.6394
▁curved	-11.6395
8.6	-11.6395
▁sometime	-11.6396
▁settling	-11.6396
▁Eurovision	-11.6397
▁dressed	-11.6398
▁Betty	-11.6401
▁Diet	-11.6401
▁manifest	-11.6403
▁collegiate	-11.6407
▁Libya	-11.6407
▁Qi	-11.6407
▁Thames	-11.6408
▁advised	-11.6409
▁Telegraph	-11.6409
▁Lynch	-11.6409
▁tear	-11.641
▁tumor	-11.6412
▁varying	-11.6417
▁Uttar	-11.6422
▁feeding	-11.6422
▁vector	-11.6433
▁Blair	-11.6434
9.9	-11.6437
▁Bharat	-11.6437
▁surf	-11.6438
agno	-11.6439
▁Norton	-11.6442
▁enclosed	-11.6442
▁Prussia	-11.6442
▁rope	-11.6443
▁withdraw	-11.6445
▁Alexandr	-11.6446
▁Antwerp	-11.6449
cost	-11.645
▁villagers	-11.6451
responsibilities	-11.6452
▁Malcolm	-11.6452
▁merely	-11.6453
▁portal	-11.6454
patri	-11.6454
▁Never	-11.6454
▁Knox	-11.6456
hwa	-11.6457
▁villa	-11.646
▁sustainable	-11.6462
▁easier	-11.6463
FR	-11.6465
▁Logan	-11.6467
▁freestyle	-11.6467
designated	-11.6468
methyl	-11.6469
▁Qatar	-11.6471
▁Hood	-11.6472
Greek	-11.6475
▁southwestern	-11.6481
▁interrupted	-11.6481
drome	-11.6485
▁Rho	-11.6487
▁Picture	-11.6487
▁Guatemala	-11.6488
▁−	-11.6488
October	-11.6489
▁reserved	-11.649
runner	-11.6495
▁consume	-11.6496
▁decommissioned	-11.6498
1°	-11.65
film	-11.6505
▁Ferry	-11.6506
▁Money	-11.6507
▁mad	-11.6508
▁admire	-11.6511
▁rescued	-11.6511
▁Monster	-11.6514
▁spotted	-11.6519
▁peasant	-11.652
▁cheap	-11.6523
▁grandchildren	-11.6523
▁migrated	-11.6523
6°	-11.6523
▁congress	-11.6525
▁Adel	-11.6526
▁Lund	-11.6526
▁Coalition	-11.653
▁stair	-11.653
▁fountain	-11.6534
▁sovereign	-11.6534
▁Large	-11.6534
▁Producer	-11.6541
▁Ladies	-11.6542
▁Hale	-11.6546
▁charitable	-11.6548
▁mythology	-11.655
▁toxic	-11.6551
umba	-11.6555
▁Winchester	-11.6556
▁Shim	-11.6556
7.2	-11.6557
hardt	-11.6558
▁Diana	-11.6563
▁Choice	-11.6563
▁comprised	-11.6564
▁Agreement	-11.6566
▁remnant	-11.6566
▁equity	-11.6568
▁threw	-11.657
▁Zagreb	-11.6573
▁explored	-11.6574
▁sacrifice	-11.658
▁(2007)	-11.658
▁columnist	-11.6581
9.2	-11.6582
gau	-11.6582
▁Walsh	-11.6583
▁ITV	-11.6583
▁specializing	-11.6586
icular	-11.6586
▁lobe	-11.6586
▁1813	-11.6587
▁survival	-11.6587
▁Felix	-11.6589
▁hydrogen	-11.6589
▁correspondence	-11.6592
▁talented	-11.6593
▁congressional	-11.6595
▁dealt	-11.6595
▁knocked	-11.6598
itude	-11.6602
3°	-11.6603
▁Match	-11.6607
▁Cloud	-11.6608
▁Filipino	-11.6609
▁Ravi	-11.661
▁accompanying	-11.6612
▁reddish	-11.6612
▁merit	-11.6613
▁Aircraft	-11.6615
▁conviction	-11.6617
▁banner	-11.6617
tip	-11.6619
▁Discovery	-11.6619
▁Matsu	-11.662
▁attractive	-11.6621
▁Mori	-11.6621
▁prompted	-11.6627
▁Isabel	-11.6627
▁parameter	-11.6628
▁1806	-11.6629
▁reside	-11.663
▁Outside	-11.663
▁Hyderabad	-11.6634
▁achieving	-11.6634
▁civic	-11.6634
▁Current	-11.6635
▁Against	-11.6636
▁aggressive	-11.6637
▁Hermann	-11.664
▁worse	-11.664
▁marathon	-11.6645
November	-11.6647
▁Chapman	-11.6648
▁paved	-11.665
riot	-11.6651
▁eating	-11.6651
▁raw	-11.6653
▁Zam	-11.6655
▁Dresden	-11.6655
▁Sacred	-11.6659
▁soloist	-11.6661
▁considering	-11.6663
Donnell	-11.6664
▁1827	-11.6665
▁equally	-11.667
▁Honour	-11.6671
▁Moh	-11.6674
▁astronomer	-11.6677
▁Bologna	-11.6681
▁guided	-11.6682
▁appoint	-11.6683
▁Sever	-11.669
▁organise	-11.669
▁Polytechnic	-11.6691
▁Stru	-11.6692
▁Index	-11.6693
▁Alma	-11.6694
▁Bella	-11.6695
▁Claus	-11.6697
▁Fifth	-11.6699
▁Craft	-11.67
kow	-11.6701
▁nicknamed	-11.6705
▁Canberra	-11.6706
static	-11.671
▁Drug	-11.6713
▁iTunes	-11.6713
▁volcanic	-11.6713
▁MIT	-11.6715
▁rip	-11.6716
▁Leadership	-11.6719
HO	-11.672
▁modest	-11.6722
▁noticed	-11.6722
▁Tribune	-11.6724
▁Rac	-11.6726
UR	-11.6727
▁geometry	-11.6728
▁shadow	-11.6728
▁Generation	-11.6729
▁anime	-11.6729
▁watched	-11.6729
▁Liz	-11.6731
▁accordance	-11.6732
▁Applied	-11.6739
▁Griffin	-11.6739
▁Cell	-11.6741
NU	-11.6742
▁decorative	-11.6742
▁informal	-11.6743
▁slide	-11.6745
▁fortification	-11.6746
▁assassination	-11.6747
▁convey	-11.6749
sexual	-11.6749
▁supervised	-11.6749
▁posterior	-11.6749
▁canvas	-11.6754
–14	-11.6755
▁Unfortunately	-11.6757
▁feminist	-11.6757
▁Wad	-11.6759
gren	-11.676
telli	-11.6761
▁2012–13	-11.6762
▁Clyde	-11.6765
▁Publisher	-11.6771
GR	-11.6772
▁criticised	-11.6774
▁autobiography	-11.6775
▁MW	-11.6777
▁Swe	-11.6777
▁rape	-11.6779
▁continental	-11.6781
▁Sporting	-11.6781
▁Hitler	-11.6782
▁integral	-11.6782
▁Rocky	-11.6786
▁1823	-11.6787
▁lone	-11.6788
▁Dong	-11.6789
integr	-11.6789
▁granddaughter	-11.679
▁clash	-11.679
North	-11.6792
▁keen	-11.6792
▁Agnes	-11.6794
8,000	-11.6795
▁punishment	-11.6796
▁Reverend	-11.6797
▁pour	-11.6799
▁matrix	-11.6801
lene	-11.6801
▁sanctuary	-11.6808
▁leak	-11.6812
▁Caesar	-11.6812
▁submission	-11.6814
▁Eduard	-11.6815
▁Total	-11.6816
▁demanded	-11.6819
▁Elder	-11.682
▁burning	-11.6822
▁Ranch	-11.6822
▁20,000	-11.6822
▁posthumously	-11.6823
▁illustrator	-11.6826
▁psychological	-11.6826
▁targeted	-11.6829
▁confluence	-11.683
▁Middlesex	-11.683
▁(2006)	-11.6833
▁Bundesliga	-11.6833
▁Bhu	-11.6834
kom	-11.6835
▁Arctic	-11.6835
▁marker	-11.6838
▁Jake	-11.684
▁Morton	-11.684
▁Wine	-11.6841
▁für	-11.6842
family	-11.6844
▁Drag	-11.6845
▁recreation	-11.6846
▁Ré	-11.6851
▁1817	-11.6858
dock	-11.6859
9.4	-11.6865
▁Crew	-11.6865
▁BCE	-11.6869
Univers	-11.6869
▁crashed	-11.687
▁Mick	-11.6872
▁collaborator	-11.6874
▁compensation	-11.6877
▁rubber	-11.6879
▁suggesting	-11.6883
▁overlap	-11.6884
wife	-11.6884
NZ	-11.689
▁denote	-11.6893
▁Jorge	-11.6895
▁prohibit	-11.6896
▁Zhu	-11.6897
▁Institut	-11.6898
▁0.7	-11.6898
▁bark	-11.69
▁Roland	-11.6901
▁Kolkata	-11.6903
▁melody	-11.6903
▁Bruno	-11.6904
▁Choir	-11.6904
occu	-11.6905
▁Venture	-11.6909
▁Strong	-11.691
▁1803	-11.691
▁presidency	-11.6911
▁Tribe	-11.6912
▁fed	-11.6913
▁monitoring	-11.6915
▁LL	-11.6922
▁polar	-11.6929
helm	-11.6932
▁confidence	-11.6933
▁Critics	-11.6933
▁flooding	-11.6934
region	-11.6939
▁narrator	-11.694
▁Jenkins	-11.6941
▁Thomson	-11.695
▁Bolivia	-11.6952
▁Boris	-11.6952
▁feather	-11.6953
former	-11.6957
▁Expo	-11.696
▁Kenny	-11.696
▁hoped	-11.6962
▁sac	-11.6962
▁Stuttgart	-11.6962
▁leather	-11.6964
▁sponsorship	-11.6965
▁Chuck	-11.6966
garh	-11.6969
▁Leone	-11.6973
▁2017–18	-11.6973
▁immigration	-11.6974
▁transmitter	-11.6976
▁Valle	-11.6976
▁drunk	-11.6978
▁Close	-11.6978
▁treasure	-11.6979
▁emission	-11.6984
▁merge	-11.6984
▁luxury	-11.6985
▁restrict	-11.6986
▁galleries	-11.6992
EX	-11.6993
clav	-11.6995
▁Recreation	-11.6996
▁Moreover	-11.6996
flex	-11.6998
▁cloth	-11.6998
▁Victory	-11.7002
lide	-11.7003
▁petals	-11.7004
▁finite	-11.7005
▁Churchill	-11.7008
December	-11.7008
though	-11.701
▁villain	-11.7012
▁Kiss	-11.7012
▁opt	-11.7014
▁Pioneer	-11.7015
▁rally	-11.7015
▁sudden	-11.7019
▁brake	-11.702
▁Brave	-11.7021
▁2016–17	-11.7021
▁FIBA	-11.7022
district	-11.7025
▁1790	-11.7026
▁Lance	-11.7027
▁laude	-11.7028
▁critically	-11.7028
▁Leopold	-11.7029
▁mast	-11.703
▁Cedar	-11.7033
▁rolling	-11.7036
▁pirate	-11.7036
▁criteria	-11.7037
▁Borg	-11.7038
▁spare	-11.7039
▁Vernon	-11.704
▁pottery	-11.7041
▁excess	-11.7042
▁respected	-11.7044
▁repertoire	-11.7044
▁flavor	-11.7044
▁lamp	-11.7045
ggle	-11.7046
ń	-11.7047
▁salary	-11.7048
▁ammunition	-11.7048
▁cord	-11.7048
▁occurring	-11.7051
structure	-11.7051
▁digit	-11.7052
▁2013–14	-11.7053
champ	-11.7055
▁Kemp	-11.7055
9°	-11.7055
▁continuously	-11.7057
▁activated	-11.7059
▁Novel	-11.7059
▁commercially	-11.7061
Ireland	-11.7061
▁wheat	-11.7067
▁Kitt	-11.7068
▁Lambert	-11.7069
▁Cort	-11.707
▁northwestern	-11.7071
▁Treasury	-11.7074
▁specified	-11.7076
▁stability	-11.7078
▁interactive	-11.7079
▁ease	-11.708
▁Jiang	-11.708
▁sanction	-11.7082
▁Sandy	-11.7083
January	-11.7083
NY	-11.7084
▁Evening	-11.7084
▁remind	-11.709
▁Journalism	-11.7093
▁synonym	-11.7093
▁Fresh	-11.7095
olla	-11.7098
▁explorer	-11.7099
▁rejoined	-11.71
▁rendered	-11.7101
▁Piano	-11.7102
▁understood	-11.7104
▁Mozart	-11.7104
rø	-11.7106
▁Whitney	-11.7108
▁chaplain	-11.7108
▁democratic	-11.7108
▁doctrine	-11.7108
▁glacier	-11.7108
▁acknowledged	-11.711
▁examined	-11.7112
▁swamp	-11.7112
▁Meadow	-11.7113
gall	-11.7115
▁induce	-11.7121
▁Tell	-11.7124
appointed	-11.7125
▁2015–16	-11.7126
▁Degree	-11.7127
▁Kawa	-11.7128
▁105	-11.713
▁irre	-11.7134
▁Fuller	-11.7135
▁Constantinople	-11.7138
▁Scots	-11.7139
otti	-11.714
8.4	-11.714
▁Willie	-11.7142
rü	-11.7142
lecommunications	-11.7146
▁Bangalore	-11.7146
▁embassy	-11.715
▁juvenile	-11.7161
▁cricketer	-11.7162
▁puzzle	-11.7165
▁triangle	-11.7165
▁Performing	-11.7165
▁Cheng	-11.717
▁Claire	-11.7171
▁1819	-11.7172
▁communicate	-11.7172
▁react	-11.7173
▁Nobel	-11.7174
▁3–1	-11.7176
▁boiler	-11.7176
▁Magdalen	-11.7177
▁Hou	-11.7182
4.7	-11.7183
emia	-11.7186
▁1822	-11.7188
activated	-11.7188
▁trustee	-11.719
▁blast	-11.7191
▁imported	-11.7193
▁Fear	-11.7195
▁coral	-11.72
▁1801	-11.7201
specific	-11.7201
▁wool	-11.7203
▁pathway	-11.7204
▁Joel	-11.7205
▁alignment	-11.721
▁Drake	-11.7213
▁Paraguay	-11.7214
▁Bolton	-11.7219
▁Macedonia	-11.7219
▁Sanskrit	-11.7222
▁botanist	-11.7222
▁ignore	-11.7222
flat	-11.7225
pack	-11.7227
▁mega	-11.7228
7.0	-11.7233
▁considerably	-11.7234
▁Helm	-11.7235
▁sitcom	-11.7236
▁scope	-11.7236
▁shade	-11.7241
▁Sparta	-11.7242
max	-11.7243
▁audit	-11.7243
▁Kashmir	-11.7245
▁Kö	-11.7246
▁translate	-11.7248
▁capabilities	-11.7248
▁Cliff	-11.7249
▁Toledo	-11.7249
▁drainage	-11.7249
▁charm	-11.7249
▁3000	-11.7254
▁insight	-11.7254
▁autonomous	-11.7256
▁exclude	-11.7256
▁lend	-11.7256
compatible	-11.7256
cite	-11.7257
▁McA	-11.7257
▁haul	-11.7258
▁expertise	-11.726
▁0.8	-11.7261
▁discharge	-11.7263
,900	-11.7263
▁Winston	-11.7264
▁Mira	-11.7265
▁Harmon	-11.7266
4.3	-11.7267
▁socialist	-11.7267
▁banker	-11.7268
▁pocket	-11.7268
▁slight	-11.7271
▁complications	-11.7275
▁Dou	-11.7276
▁restrictions	-11.728
▁Helena	-11.7281
▁evaluate	-11.7283
▁niece	-11.7283
▁condemned	-11.7294
▁Georgetown	-11.7296
▁trait	-11.7297
▁tobacco	-11.7302
▁Castro	-11.7302
▁Copp	-11.7302
▁Depression	-11.7303
▁1,500	-11.7303
▁Mongolia	-11.7304
▁Freeman	-11.7304
grant	-11.7307
▁Samoa	-11.7307
▁reef	-11.7308
close	-11.731
▁Title	-11.7311
▁Additional	-11.7311
▁Pirates	-11.7315
▁attained	-11.7315
▁Population	-11.7315
▁2014–15	-11.7316
modern	-11.7318
loch	-11.7323
▁Constitutional	-11.7327
▁Brock	-11.7327
clusive	-11.7328
▁Josef	-11.7328
▁observer	-11.7329
▁superintendent	-11.7329
▁preceded	-11.7329
around	-11.7329
▁fix	-11.7331
skaya	-11.7331
▁Stern	-11.7335
▁involve	-11.7336
▁Livingston	-11.7336
▁preceding	-11.7337
match	-11.7338
▁spelling	-11.7338
▁propose	-11.7341
partisan	-11.7342
▁mascot	-11.7344
▁Turin	-11.7349
▁#2	-11.7352
▁seminary	-11.7352
▁Camb	-11.7355
mmel	-11.7356
3.0	-11.7359
▁Maxwell	-11.736
▁descended	-11.736
▁storyline	-11.7362
glass	-11.7364
▁properly	-11.7366
▁struggling	-11.7368
▁supervisor	-11.7368
▁goddess	-11.7368
▁emotion	-11.7369
escent	-11.7371
▁Olive	-11.7371
▁busy	-11.7371
▁brass	-11.7371
ISBN	-11.7371
shirt	-11.7371
▁organizer	-11.7373
▁2011–12	-11.7374
▁Belt	-11.7375
▁Hanover	-11.7376
▁Hof	-11.7376
▁Porto	-11.7377
oxi	-11.7377
▁navy	-11.7377
▁Speedway	-11.7377
▁Hartford	-11.738
▁submit	-11.7381
▁Hook	-11.7383
▁occupies	-11.7383
cylinder	-11.7387
▁Sanders	-11.7389
$1	-11.7392
▁Latvia	-11.7394
ologie	-11.7394
▁Atlético	-11.7395
▁Bé	-11.7395
▁wishes	-11.7396
ffle	-11.7397
III	-11.7397
▁evident	-11.7399
disc	-11.74
▁(2008)	-11.7403
▁Gardner	-11.7406
mother	-11.7409
2011	-11.7413
▁celebrities	-11.7414
▁virtually	-11.7414
▁devote	-11.7416
▁Beaver	-11.7417
▁introducing	-11.7418
▁honey	-11.742
▁dining	-11.742
▁Czechoslovakia	-11.7421
▁Session	-11.7423
▁Image	-11.7426
Old	-11.7431
▁spite	-11.7431
▁unofficial	-11.7435
wake	-11.744
▁melt	-11.7441
▁laugh	-11.7441
▁Albion	-11.7445
ło	-11.7447
4°	-11.7448
pf	-11.7453
▁genera	-11.7453
▁£2	-11.7456
▁organist	-11.7457
▁Scandinavia	-11.7457
▁rode	-11.7463
▁Gunn	-11.7466
▁NATO	-11.7469
▁dys	-11.7471
▁Patricia	-11.7472
▁podcast	-11.7472
▁elderly	-11.7477
▁chicken	-11.7485
powered	-11.7485
▁Beyond	-11.7488
▁Volume	-11.7492
▁Cotton	-11.7492
▁Dixon	-11.7496
▁polymer	-11.7497
▁poorly	-11.7497
▁enrollment	-11.7498
▁sunk	-11.7503
▁sensitive	-11.7504
wil	-11.7504
▁Marshal	-11.7506
–13	-11.7508
▁inhabit	-11.7514
▁finishes	-11.7514
▁ISO	-11.7514
▁stained	-11.7519
▁barb	-11.7522
▁Jeremy	-11.7523
▁territorial	-11.7523
lund	-11.7526
enbach	-11.7526
▁hunter	-11.7527
▁Cambodia	-11.7528
▁olive	-11.7528
[...]
