<unk>	0
<s>	0
▁the	-2.99953
,	-3.18415
.	-3.26338
▁of	-3.57355
▁and	-3.71391
▁in	-3.77462
▁a	-4.0823
▁to	-4.12646
s	-4.40248
▁was	-4.40701
▁The	-4.77936
-	-4.865
▁is	-4.93442
▁for	-4.96154
▁on	-5.04189
'	-5.08637
▁as	-5.0949
▁with	-5.11584
▁by	-5.20751
▁at	-5.2967
▁(	-5.34891
▁from	-5.41609
▁his	-5.4203
▁	-5.43885
▁he	-5.47896
▁In	-5.51832
▁that	-5.60094
▁He	-5.64516
▁"	-5.72283
)	-5.72756
▁an	-5.78509
▁were	-6.02385
▁which	-6.03723
▁are	-6.12606
▁it	-6.12868
▁has	-6.13188
▁also	-6.18732
▁first	-6.24938
"	-6.25049
▁had	-6.30999
▁be	-6.38335
▁her	-6.43738
▁or	-6.49798
▁It	-6.50617
▁one	-6.53872
▁its	-6.56267
▁who	-6.57938
▁two	-6.59268
▁their	-6.60487
▁but	-6.61788
▁A	-6.62081
:	-6.69639
▁been	-6.73501
▁she	-6.74003
▁this	-6.75683
▁after	-6.77112
;	-6.77241
▁not	-6.78795
▁have	-6.79054
▁University	-6.90268
),	-6.91944
▁years	-6.92142
th	-6.92498
).	-6.93103
▁She	-6.96653
▁where	-6.97523
▁into	-6.9778
▁other	-6.98238
▁New	-6.98366
▁On	-6.99052
▁time	-6.99796
▁they	-7.03785
▁when	-7.05569
▁became	-7.08051
a	-7.12751
▁made	-7.14101
▁over	-7.14352
▁all	-7.14484
▁then	-7.15715
▁during	-7.16421
▁up	-7.17488
▁later	-7.19794
▁three	-7.22499
▁new	-7.22797
▁year	-7.25563
▁more	-7.26514
▁him	-7.26574
▁season	-7.26605
▁under	-7.26689
▁After	-7.26872
▁This	-7.27576
▁part	-7.28036
▁only	-7.30138
▁between	-7.3055
▁team	-7.30992
▁out	-7.33164
▁until	-7.33374
e	-7.3415
▁used	-7.35764
▁would	-7.36677
▁about	-7.38225
▁school	-7.39758
▁including	-7.39896
▁United	-7.40135
▁there	-7.41573
▁well	-7.41704
▁His	-7.41801
▁played	-7.41814
▁School	-7.41945
▁work	-7.43537
▁can	-7.43553
▁known	-7.43805
▁before	-7.45807
▁being	-7.45816
▁most	-7.45854
▁de	-7.45889
▁such	-7.46267
▁I	-7.46969
▁film	-7.47908
▁second	-7.48057
▁born	-7.49685
▁name	-7.50587
▁through	-7.51159
▁against	-7.51229
▁area	-7.52912
▁won	-7.53557
t	-7.55988
▁many	-7.56205
▁World	-7.56816
’	-7.57416
▁American	-7.57565
▁National	-7.58109
▁some	-7.58189
▁served	-7.58401
▁than	-7.58706
▁As	-7.58777
▁family	-7.58983
/	-7.59465
▁1	-7.60465
S	-7.6078
▁age	-7.61034
".	-7.61366
▁May	-7.61463
▁while	-7.62904
▁released	-7.63255
▁both	-7.63961
▁member	-7.64358
▁named	-7.66994
▁four	-7.67786
▁died	-7.67886
▁June	-7.68222
▁January	-7.68389
▁began	-7.6856
▁called	-7.68707
▁July	-7.69375
▁album	-7.69475
ing	-7.69487
▁September	-7.69548
▁several	-7.7022
▁March	-7.70348
▁York	-7.70606
▁2	-7.70846
▁them	-7.70984
▁John	-7.71367
i	-7.71422
▁August	-7.72043
▁States	-7.72968
▁October	-7.73329
▁number	-7.74375
."	-7.74554
▁April	-7.75569
▁people	-7.7607
▁company	-7.76554
▁no	-7.77091
▁early	-7.7711
▁–	-7.77231
▁series	-7.77739
▁U	-7.77774
▁College	-7.77775
▁same	-7.78795
▁They	-7.78866
▁St	-7.78891
▁music	-7.79127
▁received	-7.80236
▁November	-7.80296
▁December	-7.80404
▁At	-7.8074
▁War	-7.82324
▁club	-7.82443
▁moved	-7.83006
in	-7.83338
▁city	-7.83375
▁City	-7.83718
▁South	-7.83933
▁3	-7.84049
n	-7.84842
▁located	-7.85983
▁group	-7.8637
▁There	-7.86381
▁son	-7.86592
▁will	-7.86928
▁km	-7.87629
▁career	-7.87809
▁held	-7.88324
▁station	-7.88462
▁since	-7.89222
▁took	-7.89456
▁game	-7.90423
▁State	-7.90624
▁married	-7.91015
▁built	-7.91329
▁end	-7.91718
▁published	-7.92062
▁song	-7.92182
y	-7.922
▁February	-7.9231
▁town	-7.93025
▁home	-7.93783
",	-7.93918
▁League	-7.95219
▁County	-7.95987
▁joined	-7.96072
▁place	-7.96259
▁high	-7.96553
er	-7.96596
▁worked	-7.9661
▁local	-7.97057
▁During	-7.97222
▁building	-7.97364
▁found	-7.98065
▁state	-7.98195
▁following	-7.98978
▁band	-7.99175
▁father	-7.99678
A	-7.9982
▁each	-8.00346
▁&	-8.00476
▁4	-8.00477
▁B	-8.00661
▁left	-8.01019
▁so	-8.01441
▁-	-8.02018
▁now	-8.02064
▁British	-8.02207
▁former	-8.02214
▁around	-8.02363
▁back	-8.0352
▁London	-8.03847
▁long	-8.04486
▁along	-8.04626
▁children	-8.04756
▁population	-8.05295
▁started	-8.06037
▁single	-8.0631
▁use	-8.06563
▁'	-8.07169
▁North	-8.07623
o	-8.07652
ed	-8.08057
▁10	-8.08131
d	-8.08408
▁death	-8.08587
▁5	-8.10201
▁these	-8.10785
▁century	-8.11234
▁18	-8.11267
▁However	-8.11804
▁side	-8.12042
▁life	-8.1206
▁small	-8.12262
▁village	-8.12354
▁five	-8.13482
▁show	-8.13612
▁book	-8.15333
▁play	-8.1539
▁line	-8.15557
▁went	-8.15823
▁included	-8.16039
▁may	-8.16337
▁did	-8.16356
▁public	-8.1686
m	-8.1698
▁include	-8.17036
▁For	-8.1743
▁based	-8.17441
▁own	-8.18079
▁national	-8.18284
▁S	-8.19123
▁government	-8.19227
▁From	-8.19427
▁appointed	-8.19648
C	-8.19658
▁members	-8.19982
▁due	-8.20231
▁signed	-8.20637
▁20	-8.20935
▁C	-8.21249
▁large	-8.21286
▁6	-8.21652
▁main	-8.21829
▁near	-8.21864
▁m	-8.21939
▁returned	-8.22006
▁set	-8.22081
▁established	-8.22498
▁last	-8.23374
▁any	-8.2345
▁world	-8.2391
▁English	-8.23941
▁M	-8.24723
▁debut	-8.25241
▁D	-8.25722
▁day	-8.25816
▁service	-8.25898
▁founded	-8.26401
▁third	-8.26417
▁elected	-8.26682
▁again	-8.27104
▁River	-8.27139
▁Cup	-8.27275
▁system	-8.27341
▁West	-8.27757
▁II	-8.28073
▁final	-8.28173
▁original	-8.28875
▁house	-8.29058
the	-8.29225
▁very	-8.29254
▁like	-8.29528
▁still	-8.29615
▁International	-8.30069
▁French	-8.30888
▁role	-8.3098
▁best	-8.31008
▁When	-8.3138
▁title	-8.31546
▁because	-8.3164
▁High	-8.31876
▁could	-8.32432
▁off	-8.32451
▁House	-8.32769
▁north	-8.32938
▁12	-8.33025
▁wife	-8.33142
▁church	-8.33332
▁within	-8.33723
▁All	-8.33792
▁late	-8.33836
The	-8.34081
▁another	-8.34099
▁major	-8.34298
▁games	-8.34301
▁came	-8.3533
▁England	-8.35357
▁San	-8.36053
▁German	-8.36255
▁led	-8.36536
▁announced	-8.36937
▁said	-8.37374
▁per	-8.37431
▁water	-8.37447
▁daughter	-8.37676
▁land	-8.37876
▁community	-8.38137
▁total	-8.38474
▁Her	-8.38507
ly	-8.39201
▁co	-8.39263
▁created	-8.39348
▁15	-8.39594
▁8	-8.39722
▁million	-8.39758
▁7	-8.40065
▁opened	-8.40098
▁history	-8.40126
▁those	-8.40127
▁top	-8.40204
▁site	-8.40233
▁become	-8.40426
▁re	-8.40607
▁six	-8.40628
▁south	-8.40749
▁square	-8.41231
▁William	-8.41384
▁appeared	-8.41932
▁record	-8.42055
▁Park	-8.42485
▁election	-8.42731
▁form	-8.42894
▁various	-8.42963
▁miles	-8.42981
▁works	-8.43164
▁wrote	-8.4321
▁O	-8.43473
▁down	-8.43574
▁species	-8.43811
▁Council	-8.44013
▁different	-8.4407
▁One	-8.44292
▁California	-8.44607
▁just	-8.45528
▁general	-8.4631
▁playing	-8.46327
▁head	-8.46676
▁Award	-8.46683
▁students	-8.46963
▁Royal	-8.46973
▁working	-8.47082
▁director	-8.47773
▁Association	-8.47815
▁District	-8.47841
▁period	-8.48279
▁often	-8.48558
▁district	-8.48587
D	-8.48789
▁East	-8.48962
▁next	-8.49117
▁degree	-8.49361
▁11	-8.49578
▁business	-8.5018
▁old	-8.50242
▁country	-8.503
▁player	-8.50328
▁make	-8.50405
▁Street	-8.50447
▁short	-8.50465
▁produced	-8.50492
▁average	-8.5054
▁President	-8.51044
▁together	-8.51287
▁Church	-8.51389
▁position	-8.51742
▁women	-8.51878
▁among	-8.52105
▁having	-8.52252
year	-8.52712
▁9	-8.52722
▁E	-8.52832
▁George	-8.52892
▁16	-8.52963
▁Party	-8.53055
▁King	-8.54054
an	-8.54055
▁19	-8.54504
▁attended	-8.54665
▁According	-8.54728
▁living	-8.5495
▁Institute	-8.55062
▁non	-8.55102
▁much	-8.55404
▁office	-8.55652
▁continued	-8.55799
▁research	-8.5589
▁given	-8.56085
▁development	-8.56135
▁India	-8.56171
▁football	-8.56289
st	-8.56333
▁law	-8.56479
▁J	-8.56517
▁production	-8.56693
▁recorded	-8.56731
▁few	-8.56903
▁order	-8.56918
▁international	-8.57059
▁Australia	-8.5711
▁US	-8.57124
▁program	-8.57137
▁James	-8.57169
▁video	-8.57488
▁General	-8.57538
▁present	-8.57701
▁full	-8.57706
▁version	-8.57786
▁brother	-8.5849
▁14	-8.58568
▁France	-8.58708
▁studied	-8.59106
▁Society	-8.59126
▁what	-8.59147
▁European	-8.59249
I	-8.59875
▁2010	-8.59966
▁formed	-8.59972
▁30	-8.60028
▁support	-8.60042
▁F	-8.60331
▁25	-8.60391
▁sold	-8.60417
▁13	-8.60523
▁if	-8.60632
▁war	-8.60821
man	-8.61156
▁Academy	-8.61318
▁Division	-8.61364
▁awarded	-8.61631
▁using	-8.61662
▁2011	-8.61674
▁mother	-8.61711
en	-8.61839
▁No	-8.62002
r	-8.62142
▁written	-8.6221
▁way	-8.62251
▁100	-8.62329
▁win	-8.62749
▁R	-8.63102
▁T	-8.63247
es	-8.63252
▁P	-8.63305
▁An	-8.63394
2	-8.63565
▁men	-8.63713
▁do	-8.63716
▁La	-8.63783
▁times	-8.63797
▁however	-8.63897
▁television	-8.64093
▁take	-8.64355
▁art	-8.64462
▁By	-8.64466
▁Army	-8.64615
▁league	-8.64777
▁every	-8.64953
▁round	-8.6514
▁Canada	-8.65253
▁completed	-8.65459
▁17	-8.65746
▁Company	-8.65831
▁K	-8.66365
▁lost	-8.66621
on	-8.66825
▁project	-8.66826
▁finished	-8.67492
▁level	-8.67585
▁Road	-8.67906
▁“	-8.68172
▁Hall	-8.6855
▁east	-8.68681
▁performed	-8.68925
▁described	-8.69075
▁professional	-8.69572
▁2012	-8.69573
▁party	-8.69581
▁2008	-8.6978
▁young	-8.7023
–	-8.70265
▁G	-8.70298
to	-8.70496
▁run	-8.70948
▁education	-8.71028
▁post	-8.71211
or	-8.71367
born	-8.71555
▁event	-8.71798
▁design	-8.71976
▁graduated	-8.72042
▁match	-8.72051
▁teams	-8.72056
▁president	-8.72095
▁story	-8.72189
▁L	-8.72282
▁west	-8.7236
▁region	-8.72668
▁While	-8.72752
▁political	-8.72843
▁days	-8.73119
▁Club	-8.73142
▁These	-8.73276
▁addition	-8.73297
▁release	-8.73346
▁Art	-8.73594
▁2014	-8.73783
▁Union	-8.7386
▁America	-8.73952
B	-8.74112
▁Thomas	-8.74222
▁live	-8.74332
▁making	-8.74493
▁2009	-8.74506
▁With	-8.74774
▁Department	-8.74972
▁contract	-8.75146
▁himself	-8.75612
▁Since	-8.76103
h	-8.76295
▁1,	-8.76352
▁H	-8.76417
▁2013	-8.76513
▁featured	-8.76711
▁even	-8.76798
▁Music	-8.76859
▁point	-8.77193
▁man	-8.77355
▁remained	-8.77705
▁2007	-8.7771
▁half	-8.77834
▁without	-8.77868
▁Center	-8.78302
▁popular	-8.78568
▁field	-8.78608
▁developed	-8.78785
▁David	-8.79243
▁power	-8.79453
▁designed	-8.79482
▁construction	-8.7969
▁services	-8.7973
▁originally	-8.80164
▁Germany	-8.80433
▁important	-8.80634
▁road	-8.81088
▁First	-8.81166
▁Australian	-8.81172
▁military	-8.81226
▁track	-8.81505
▁Arts	-8.81536
▁considered	-8.8155
al	-8.81715
▁training	-8.81819
▁coach	-8.82055
▁Robert	-8.82113
▁further	-8.82236
▁Group	-8.82311
▁2015	-8.82528
▁Court	-8.82619
▁points	-8.83089
▁months	-8.83336
▁right	-8.83498
▁Charles	-8.83596
▁currently	-8.83743
▁followed	-8.83774
▁race	-8.83892
▁gave	-8.83907
▁To	-8.84138
▁current	-8.84217
▁2006	-8.84324
▁away	-8.845
▁Washington	-8.84669
▁24	-8.84831
▁TV	-8.84921
▁Championship	-8.84974
▁Paris	-8.85356
▁similar	-8.8566
▁across	-8.85679
▁open	-8.85773
▁Museum	-8.85819
▁2016	-8.86536
▁others	-8.86574
▁body	-8.87086
▁once	-8.87128
▁Island	-8.87332
▁W	-8.87339
▁available	-8.87388
▁songs	-8.87517
▁Paul	-8.87606
▁lead	-8.87809
▁result	-8.87862
▁term	-8.88326
▁Air	-8.88621
▁areas	-8.88626
▁21	-8.88819
▁college	-8.88826
▁eventually	-8.89048
▁Minister	-8.89075
▁involved	-8.89187
▁Indian	-8.8931
N	-8.89715
▁features	-8.89922
▁spent	-8.89981
l	-8.89993
▁great	-8.90126
▁UK	-8.90233
▁seven	-8.90359
▁Central	-8.90418
▁ft	-8.90524
▁scored	-8.90665
▁style	-8.90819
▁leading	-8.90845
▁radio	-8.91016
▁Europe	-8.91066
▁official	-8.91659
▁study	-8.91706
▁white	-8.92108
▁free	-8.92164
▁includes	-8.92245
g	-8.92311
▁taken	-8.92355
▁never	-8.92459
▁events	-8.93073
▁Festival	-8.93121
c	-8.9318
▁V	-8.93718
up	-8.93747
▁stage	-8.93749
▁1990	-8.93864
nd	-8.93935
▁Japan	-8.94019
▁although	-8.94191
▁1980	-8.94392
▁female	-8.94457
▁replaced	-8.94474
▁competition	-8.9469
▁private	-8.94887
▁Dr	-8.94999
▁size	-8.95165
E	-8.95207
▁help	-8.95226
▁Los	-8.95298
▁active	-8.95401
▁eight	-8.95514
▁Mary	-8.95723
us	-8.9581
▁senior	-8.95939
▁2015,	-8.96115
▁China	-8.96532
re	-8.96567
▁22	-8.96594
▁control	-8.96711
▁2010,	-8.96934
M	-8.96974
▁2014,	-8.97052
▁Lake	-8.97151
▁Committee	-8.97291
▁Sir	-8.97351
▁throughout	-8.97468
▁language	-8.97469
▁books	-8.97486
▁2016,	-8.97504
▁N	-8.97728
▁Henry	-8.97834
▁White	-8.97843
▁changed	-8.97907
▁magazine	-8.98022
▁social	-8.98167
▁return	-8.98227
▁2012,	-8.98228
▁2013,	-8.98617
▁Western	-8.99132
▁2017,	-8.99244
▁husband	-8.99621
▁2011,	-8.99646
▁performance	-8.99753
▁summer	-8.99874
▁added	-8.9993
▁seat	-9.00075
—	-9.00101
▁black	-9.00128
▁decided	-9.00134
▁lived	-9.00287
▁placed	-9.00318
▁schools	-9.0042
▁2000	-9.00425
▁shows	-9.00592
▁though	-9.00636
▁De	-9.01053
▁African	-9.01312
▁2017	-9.0156
▁center	-9.01692
▁board	-9.01745
▁case	-9.0206
▁winning	-9.02108
▁Some	-9.02166
▁Russian	-9.02201
▁1970	-9.02376
▁you	-9.02384
▁good	-9.02418
▁2005	-9.02667
▁Its	-9.02818
k	-9.02832
▁studies	-9.02842
▁example	-9.02896
and	-9.03059
▁collection	-9.03159
▁common	-9.03168
▁earned	-9.03321
▁writing	-9.03397
▁sent	-9.03451
▁professor	-9.03724
▁feet	-9.03778
▁largest	-9.03804
▁modern	-9.039
▁close	-9.03963
▁23	-9.04063
▁range	-9.04169
▁class	-9.04324
▁older	-9.04352
▁Saint	-9.04525
▁Canadian	-9.04566
▁Born	-9.04657
▁go	-9.0467
▁players	-9.04765
▁how	-9.04771
▁special	-9.04805
▁2018,	-9.05221
▁Board	-9.05287
▁Italian	-9.0533
▁river	-9.05355
▁directed	-9.05386
▁Following	-9.05437
▁character	-9.05662
▁successful	-9.05696
▁retired	-9.05942
▁Great	-9.0599
▁Chicago	-9.06002
▁award	-9.06211
▁above	-9.06309
▁get	-9.06382
▁2009,	-9.06387
▁Africa	-9.06478
▁seen	-9.06567
u	-9.06604
▁car	-9.06638
▁mm	-9.07021
▁Texas	-9.07597
▁Although	-9.07598
▁does	-9.07642
▁section	-9.07777
▁mi	-9.07978
▁via	-9.08212
▁start	-9.08427
▁Al	-9.08516
▁Michael	-9.0853
▁Film	-9.08638
▁whom	-9.08716
▁Peter	-9.08835
▁artist	-9.08853
▁mid	-9.09001
▁2004	-9.09095
▁Japanese	-9.09227
▁2018	-9.09606
▁Best	-9.09636
▁Angeles	-9.09666
▁novel	-9.09695
▁division	-9.0972
▁Bay	-9.09767
▁goal	-9.09824
▁reported	-9.09881
▁owned	-9.10025
▁success	-9.10028
1	-9.10322
▁organization	-9.10602
▁Science	-9.10761
▁process	-9.10887
▁2008,	-9.10974
▁promoted	-9.11032
▁income	-9.11182
▁Hill	-9.11208
▁provided	-9.11214
▁selected	-9.11323
▁ten	-9.11408
▁Red	-9.11481
▁regular	-9.11635
▁closed	-9.11797
▁entered	-9.11881
time	-9.12013
▁usually	-9.1215
▁reached	-9.12191
▁28	-9.12328
▁films	-9.12329
▁Spanish	-9.12616
▁families	-9.12696
▁26	-9.12723
▁Ireland	-9.12725
▁upon	-9.12784
▁1960	-9.12914
▁ran	-9.12915
▁Chinese	-9.13002
▁Law	-9.13318
▁island	-9.1347
▁campaign	-9.13526
▁able	-9.13734
▁killed	-9.13769
▁Two	-9.13899
▁student	-9.14114
▁Smith	-9.14233
▁court	-9.14259
▁Zealand	-9.14309
▁aircraft	-9.14311
▁soon	-9.14313
W	-9.14365
▁Richard	-9.14456
▁fire	-9.14523
▁represented	-9.14627
▁front	-9.1468
▁industry	-9.14829
▁Christian	-9.14852
▁park	-9.14954
▁less	-9.15007
▁metres	-9.15017
▁serving	-9.1506
▁becoming	-9.15184
▁author	-9.15434
▁Director	-9.15816
▁air	-9.15842
▁27	-9.15959
▁Government	-9.16005
▁whose	-9.16009
▁Roman	-9.16028
▁information	-9.16091
▁2007,	-9.16229
▁Later	-9.16394
rd	-9.16469
▁met	-9.16563
▁contains	-9.166
▁love	-9.16698
▁practice	-9.16816
▁Grand	-9.1682
▁writer	-9.16896
▁Records	-9.16923
▁ship	-9.17033
▁fourth	-9.17194
▁space	-9.17203
▁raised	-9.17292
▁previous	-9.17374
▁runs	-9.17397
▁interest	-9.17411
▁low	-9.17442
▁route	-9.1745
▁introduced	-9.17537
P	-9.17763
▁location	-9.17777
▁goals	-9.17847
▁list	-9.1788
▁central	-9.18081
▁wide	-9.18128
▁numerous	-9.18251
▁beginning	-9.18276
▁Women	-9.18355
▁matches	-9.18411
▁brought	-9.18595
▁Catholic	-9.18598
▁Italy	-9.18828
▁police	-9.18949
▁Act	-9.18987
▁must	-9.19121
▁railway	-9.1913
▁sister	-9.19145
▁should	-9.19234
▁defeated	-9.19281
▁manager	-9.19327
▁ground	-9.19394
▁we	-9.19403
▁saw	-9.1952
▁buildings	-9.19532
▁launched	-9.19808
ia	-9.1986
▁either	-9.20081
▁subsequently	-9.2015
▁50	-9.20227
▁groups	-9.20278
▁Co	-9.2028
▁Championships	-9.20513
▁acquired	-9.20543
▁households	-9.20686
▁behind	-9.20856
]	-9.20905
▁almost	-9.20948
▁median	-9.21015
▁previously	-9.21107
▁parents	-9.21131
▁famous	-9.21138
”	-9.21212
▁tour	-9.21462
▁hit	-9.21472
▁artists	-9.21482
▁provide	-9.21483
▁child	-9.2152
▁Kingdom	-9.21585
▁listed	-9.21638
▁editor	-9.21642
▁Wales	-9.21744
▁Black	-9.21846
b	-9.21913
▁structure	-9.21937
▁base	-9.22027
▁tournament	-9.22226
▁Republic	-9.22435
as	-9.22443
▁taking	-9.2248
based	-9.22638
▁light	-9.22784
▁2001	-9.22797
▁woman	-9.22856
▁Football	-9.22915
▁Other	-9.23011
▁Year	-9.23167
▁females	-9.23176
▁Theatre	-9.23248
▁appearances	-9.2326
▁put	-9.2333
▁countries	-9.23519
▁course	-9.23529
▁length	-9.23775
▁2003	-9.23816
F	-9.23949
▁40	-9.24292
▁Second	-9.24408
▁d	-9.24428
3	-9.24637
▁primary	-9.24644
▁episode	-9.24657
▁29	-9.24817
▁65	-9.24997
▁assistant	-9.25192
▁Parliament	-9.25282
▁musical	-9.25315
▁human	-9.25393
le	-9.25459
T	-9.25495
▁property	-9.25526
▁Education	-9.25626
▁independent	-9.25922
▁ended	-9.25941
▁rock	-9.26038
▁Radio	-9.26107
▁leader	-9.26125
▁Assembly	-9.26144
▁southern	-9.26156
▁change	-9.26355
▁northern	-9.26388
▁FC	-9.26432
is	-9.26454
▁studio	-9.26468
na	-9.26502
▁appearance	-9.26567
▁parts	-9.2658
▁Research	-9.26715
(	-9.27157
z	-9.27337
▁feature	-9.27402
▁units	-9.27429
▁gold	-9.27457
▁2002	-9.27479
▁2006,	-9.27498
▁Virginia	-9.2794
▁helped	-9.28083
▁Service	-9.28195
▁Greek	-9.28217
▁model	-9.28247
▁Le	-9.28294
▁opening	-9.28484
▁least	-9.28532
▁youth	-9.28569
▁grew	-9.28615
▁ever	-9.28909
▁health	-9.29184
▁Most	-9.2926
R	-9.29292
▁media	-9.29343
▁movie	-9.29389
▁championship	-9.29414
▁Man	-9.29494
▁Chief	-9.29582
▁transferred	-9.29591
▁Joseph	-9.29633
2)	-9.29652
▁running	-9.29772
▁money	-9.29843
▁Commission	-9.29846
▁officer	-9.29877
▁centre	-9.29922
▁find	-9.29928
▁traditional	-9.29979
ers	-9.30013
▁market	-9.30101
▁Valley	-9.30105
▁operations	-9.30108
▁Town	-9.30126
▁little	-9.30135
▁instead	-9.30144
▁type	-9.30322
▁Lord	-9.30374
▁staff	-9.30918
▁annual	-9.30927
▁seasons	-9.31017
▁outside	-9.31097
▁[	-9.31251
▁Creek	-9.31305
▁Their	-9.31391
▁Professor	-9.31416
▁itself	-9.31494
▁El	-9.31602
▁night	-9.31641
▁county	-9.31744
▁Foundation	-9.31948
▁Florida	-9.31957
▁medal	-9.31976
▁week	-9.32166
▁management	-9.32361
▁date	-9.32477
▁approximately	-9.3264
▁Times	-9.32816
▁data	-9.32996
▁rights	-9.32998
▁forces	-9.33016
▁below	-9.33024
▁lower	-9.33038
▁renamed	-9.33042
▁stated	-9.33295
▁network	-9.33563
O	-9.33655
▁deal	-9.33994
▁rather	-9.34046
▁companies	-9.34049
▁Public	-9.34051
▁come	-9.34051
▁got	-9.34201
▁science	-9.34323
▁Railway	-9.34342
▁operated	-9.34382
▁Station	-9.34385
▁Force	-9.34414
▁Mexico	-9.34462
▁friend	-9.34567
▁31	-9.34682
▁lives	-9.34753
▁real	-9.34821
▁Northern	-9.34965
▁Bank	-9.3507
▁candidate	-9.35159
▁initially	-9.3534
▁Irish	-9.35413
▁future	-9.35503
▁1950	-9.35512
▁red	-9.35639
▁participated	-9.35728
▁recording	-9.35758
▁taught	-9.35828
▁commercial	-9.35829
▁Navy	-9.35862
▁remains	-9.3604
▁university	-9.36046
▁buried	-9.36083
▁Louis	-9.36159
▁rest	-9.36199
▁cover	-9.36237
▁see	-9.36247
▁plant	-9.36372
▁nearby	-9.36427
▁towards	-9.36528
▁attack	-9.36546
▁Green	-9.36562
▁edition	-9.36571
▁leaving	-9.36839
▁chief	-9.37
▁means	-9.37226
▁sometimes	-9.37289
▁especially	-9.37581
▁activities	-9.37631
▁movement	-9.37636
▁noted	-9.37713
▁starting	-9.37893
▁census	-9.37922
▁create	-9.38062
▁Queen	-9.38069
▁2,	-9.38213
▁fellow	-9.38214
▁issues	-9.3824
▁highest	-9.38307
▁possible	-9.38367
▁Southern	-9.38383
▁move	-9.38736
▁firm	-9.38836
▁sea	-9.38945
▁Pacific	-9.39298
▁newspaper	-9.39299
K	-9.39361
▁("	-9.39393
▁Day	-9.39603
▁But	-9.39618
▁singer	-9.39731
▁nine	-9.39758
▁Martin	-9.3979
▁allowed	-9.40207
▁action	-9.40224
▁presented	-9.40321
▁going	-9.40779
▁earlier	-9.40876
▁cast	-9.40947
▁takes	-9.40956
▁past	-9.41084
ton	-9.41091
▁far	-9.41092
▁Centre	-9.41219
▁hand	-9.41295
▁mostly	-9.4136
▁army	-9.4138
▁Under	-9.41411
▁today	-9.41447
▁related	-9.41463
▁constructed	-9.41464
▁male	-9.41495
▁medical	-9.41501
▁Hospital	-9.41552
▁purchased	-9.41594
▁mainly	-9.41829
▁1999	-9.41887
▁Me	-9.41931
▁Edward	-9.42191
▁consists	-9.4248
▁personal	-9.42554
▁covered	-9.42624
▁mile	-9.4265
▁houses	-9.42712
de	-9.42727
G	-9.42783
▁strong	-9.42789
▁entire	-9.42822
▁teacher	-9.42851
▁You	-9.43077
▁complete	-9.43155
▁too	-9.43187
▁passed	-9.43347
▁Congress	-9.43444
▁sports	-9.43531
▁Boston	-9.43736
▁variety	-9.43869
▁Mr	-9.44038
▁Bishop	-9.44104
▁educated	-9.44183
▁la	-9.44239
▁Battle	-9.44385
▁Brown	-9.44412
▁associated	-9.44558
▁Order	-9.44585
▁western	-9.44657
▁already	-9.4479
▁Scotland	-9.44842
▁programs	-9.44911
▁X	-9.45157
!	-9.45202
▁supported	-9.45202
▁2005,	-9.45219
▁room	-9.45226
▁Soviet	-9.4524
▁bridge	-9.45327
▁access	-9.45372
▁That	-9.45452
▁victory	-9.4547
▁parish	-9.45484
▁producer	-9.45611
▁competed	-9.45629
▁al	-9.4564
▁marriage	-9.45697
▁pre	-9.45709
▁thus	-9.45715
▁2019,	-9.4578
▁loss	-9.45788
▁self	-9.45809
▁Pennsylvania	-9.4584
▁unit	-9.4587
▁surface	-9.45915
▁shot	-9.46053
▁Many	-9.46141
▁person	-9.46248
▁engine	-9.46304
4	-9.46322
▁Old	-9.46463
▁politician	-9.46559
▁Oxford	-9.47075
▁capital	-9.47129
▁department	-9.4715
at	-9.47211
▁races	-9.47252
▁label	-9.4734
▁according	-9.47352
&	-9.47415
▁food	-9.47456
▁trade	-9.47474
▁Governor	-9.47502
▁higher	-9.4756
▁minutes	-9.47685
▁natural	-9.47697
▁middle	-9.47704
▁significant	-9.47713
▁Star	-9.47732
L	-9.47759
▁Carolina	-9.47783
▁Lee	-9.47837
▁composed	-9.47915
▁Summer	-9.47956
▁Games	-9.48031
▁Mark	-9.48052
▁density	-9.48194
▁native	-9.48235
▁hospital	-9.48367
▁finally	-9.48522
▁1998	-9.48579
▁Spain	-9.48624
▁standard	-9.48741
▁systems	-9.48855
p	-9.48945
▁train	-9.48985
▁museum	-9.49051
▁offered	-9.49372
▁estate	-9.49419
▁BBC	-9.49525
▁Berlin	-9.49573
▁Young	-9.4973
▁Francisco	-9.49924
▁generally	-9.49992
▁turn	-9.50024
▁Columbia	-9.50136
")	-9.50137
▁provides	-9.50171
▁Jewish	-9.50203
▁master	-9.50274
▁states	-9.50297
▁Awards	-9.50395
▁Secretary	-9.50425
▁serve	-9.50525
▁dedicated	-9.50628
▁hours	-9.50655
▁word	-9.50817
▁required	-9.5092
▁managed	-9.5093
▁latter	-9.51161
▁1996	-9.51238
▁financial	-9.5125
▁council	-9.51425
▁moving	-9.51618
▁Olympics	-9.51702
▁larger	-9.51715
▁Sea	-9.51719
▁material	-9.51742
▁forced	-9.51767
▁plays	-9.51888
▁additional	-9.51997
▁decision	-9.52058
▁Prince	-9.5216
▁Line	-9.52168
▁give	-9.52196
▁here	-9.52302
▁alongside	-9.52352
▁carried	-9.52425
▁elections	-9.52535
▁discovered	-9.52569
▁complex	-9.52627
▁meeting	-9.52824
▁tracks	-9.52857
▁month	-9.5291
▁2011.	-9.53021
▁thought	-9.53074
com	-9.5325
▁males	-9.53263
▁join	-9.53364
day	-9.53397
ville	-9.53437
▁Sydney	-9.53484
▁my	-9.53506
▁fight	-9.53758
▁majority	-9.53808
▁acting	-9.53829
now	-9.53972
▁turned	-9.54088
▁2012.	-9.54133
x	-9.54154
▁plan	-9.54157
▁Both	-9.54169
▁individual	-9.54267
▁operation	-9.54367
▁Ohio	-9.54394
ta	-9.54515
2).	-9.54656
▁remaining	-9.5476
▁2000,	-9.54783
▁friends	-9.54784
▁obtained	-9.54864
old	-9.54902
▁succeeded	-9.55275
▁responsible	-9.55404
▁particularly	-9.55411
▁Democratic	-9.55414
▁3,	-9.55485
no	-9.55589
▁individuals	-9.55593
▁prior	-9.55613
▁2013.	-9.55632
▁better	-9.55636
▁weeks	-9.55705
▁sound	-9.55757
▁2019	-9.5594
▁historical	-9.56058
▁failed	-9.56075
▁fact	-9.56216
▁projects	-9.56246
▁Illinois	-9.56317
▁appears	-9.56348
▁battle	-9.56384
▁2014.	-9.56402
▁2010.	-9.5645
▁III	-9.5654
▁force	-9.56549
▁experience	-9.56575
▁overall	-9.566
▁anti	-9.56693
▁1997	-9.56695
▁issue	-9.56736
el	-9.56781
▁stone	-9.56782
▁housing	-9.56819
▁paper	-9.56877
▁stories	-9.56923
▁shown	-9.5697
▁limited	-9.56988
▁website	-9.57004
▁culture	-9.57079
▁caused	-9.57097
▁Development	-9.57142
▁prominent	-9.57168
▁subject	-9.57169
▁status	-9.57208
▁call	-9.57222
▁separate	-9.57346
▁2009.	-9.57351
▁Latin	-9.57426
▁Russia	-9.5744
▁—	-9.57466
▁Empire	-9.57546
▁leaves	-9.57606
▁minor	-9.57607
one	-9.57644
▁technology	-9.57656
▁Dutch	-9.57769
km	-9.578
▁Jones	-9.57933
land	-9.57934
▁extended	-9.58006
▁Team	-9.58008
▁owner	-9.5808
▁longer	-9.58336
▁Ministry	-9.58395
▁characters	-9.58479
▁Civil	-9.58496
▁uses	-9.58532
▁Conference	-9.58609
▁My	-9.58699
▁Eastern	-9.58781
▁eastern	-9.58944
▁particular	-9.59082
▁Alexander	-9.59168
▁recent	-9.5922
▁Michigan	-9.59273
▁45	-9.59382
▁chairman	-9.59395
▁household	-9.59468
▁couple	-9.59521
▁lines	-9.59584
▁History	-9.59661
▁1995	-9.59763
▁Office	-9.59867
▁Fort	-9.59926
▁nominated	-9.59998
▁Massachusetts	-9.60044
▁ancient	-9.60061
▁Asian	-9.60171
▁Cambridge	-9.60211
▁2015.	-9.60227
▁cm	-9.60237
▁Love	-9.60292
la	-9.60375
▁job	-9.60516
▁1930	-9.60519
▁broadcast	-9.60551
▁Senate	-9.6057
▁king	-9.6063
▁actor	-9.60633
▁painting	-9.60672
▁legal	-9.60692
▁Scottish	-9.60703
▁products	-9.60719
▁squad	-9.6078
▁e	-9.6081
▁notable	-9.60812
▁2004,	-9.60882
▁command	-9.60957
▁score	-9.60988
▁1994	-9.61004
▁Britain	-9.61054
▁semi	-9.6116
▁1992	-9.6116
▁done	-9.61197
▁2016.	-9.61291
▁tower	-9.61392
▁comes	-9.61411
um	-9.61445
▁Corporation	-9.61529
▁cost	-9.61595
▁solo	-9.61647
▁Life	-9.61687
▁teaching	-9.61721
▁executive	-9.61745
▁sons	-9.61848
▁residents	-9.62072
▁People	-9.62141
▁municipality	-9.6215
▁Route	-9.62198
▁relationship	-9.62201
▁Prize	-9.62271
▁winner	-9.62296
▁terms	-9.62344
▁2008.	-9.62429
▁Elizabeth	-9.62466
▁store	-9.62553
▁Library	-9.62611
▁gained	-9.62699
▁Super	-9.62782
▁Big	-9.62796
▁officially	-9.62849
▁scoring	-9.62867
▁/	-9.62917
▁claimed	-9.62959
▁host	-9.63034
▁If	-9.63169
▁source	-9.63249
▁Jersey	-9.6328
▁assigned	-9.63356
▁Mount	-9.63392
▁always	-9.63432
▁society	-9.6363
▁Health	-9.63662
▁religious	-9.63715
▁200	-9.63754
▁Rome	-9.63797
▁recently	-9.63833
▁Georgia	-9.63846
▁referred	-9.63894
▁titled	-9.63894
▁offers	-9.63948
▁fall	-9.63971
▁bought	-9.64001
▁review	-9.64334
▁mission	-9.64363
▁civil	-9.64421
▁meaning	-9.64472
▁cross	-9.64589
▁forms	-9.64598
▁records	-9.64712
▁floor	-9.6479
▁believed	-9.64843
▁multiple	-9.65014
▁Rock	-9.6512
▁Republican	-9.65181
ar	-9.65208
ley	-9.65263
▁format	-9.65345
▁regional	-9.65351
▁platform	-9.65405
▁plans	-9.65433
▁bank	-9.65467
▁Middle	-9.65523
▁stations	-9.65649
ic	-9.65652
▁news	-9.65789
▁changes	-9.6591
son	-9.65914
▁nearly	-9.65938
▁Bill	-9.6595
▁Victoria	-9.66013
▁leave	-9.66157
▁theory	-9.66203
▁serves	-9.66236
▁Census	-9.66251
▁2007.	-9.66273
H	-9.66345
▁continues	-9.66375
▁Master	-9.66456
▁founder	-9.66486
▁makes	-9.66486
▁library	-9.66501
▁academic	-9.66513
▁increased	-9.66676
▁settlement	-9.6673
▁arrived	-9.66767
▁4,	-9.66768
▁2017.	-9.66779
▁Business	-9.66802
▁border	-9.66851
▁Johnson	-9.66858
▁Technology	-9.669
▁Bureau	-9.66949
▁Santa	-9.66962
▁Coast	-9.66965
▁me	-9.67048
▁Tom	-9.67095
▁need	-9.67194
▁Toronto	-9.67207
▁retirement	-9.67218
▁coast	-9.67228
▁basketball	-9.67248
▁festival	-9.6726
ka	-9.67447
▁vote	-9.67519
▁problems	-9.67528
▁double	-9.67535
by	-9.67543
ra	-9.67559
▁street	-9.6756
▁oil	-9.6772
▁online	-9.6772
▁branch	-9.67752
▁Jean	-9.67754
▁Frank	-9.67814
▁Williams	-9.67836
▁Despite	-9.67881
▁younger	-9.67958
▁dance	-9.68164
▁probably	-9.68246
▁twice	-9.68256
▁Avenue	-9.68322
▁Little	-9.68371
▁awards	-9.68385
▁conducted	-9.68505
▁build	-9.68571
▁primarily	-9.68688
▁face	-9.68732
▁Also	-9.68958
▁guitar	-9.68997
▁Each	-9.69001
▁care	-9.69144
▁mentioned	-9.6915
▁Long	-9.69209
▁chart	-9.69392
▁Justice	-9.69445
▁results	-9.69462
▁whole	-9.69465
▁star	-9.695
▁Blue	-9.69584
of	-9.6963
▁key	-9.69742
▁fifth	-9.69825
▁Cross	-9.69838
▁capacity	-9.69898
▁theatre	-9.69947
▁Show	-9.70049
▁featuring	-9.70196
▁upper	-9.70419
▁newly	-9.70435
▁facilities	-9.70486
▁Sun	-9.7051
▁Don	-9.70511
▁township	-9.7056
▁settled	-9.70605
▁Duke	-9.70611
▁Scott	-9.7065
▁economic	-9.70716
▁heart	-9.7072
▁themselves	-9.70761
▁hosted	-9.70932
ie	-9.71033
▁Polish	-9.71058
te	-9.71075
▁Hong	-9.71168
▁defeat	-9.71224
▁certain	-9.71274
▁1993	-9.71324
▁organized	-9.71369
▁channel	-9.71373
▁Van	-9.71432
▁Top	-9.71449
▁divided	-9.71458
▁proposed	-9.71481
▁scene	-9.71513
▁Kong	-9.71515
▁rate	-9.71526
▁Bar	-9.71548
▁produce	-9.71795
▁1920	-9.71805
▁60	-9.71811
▁Highway	-9.71842
▁camp	-9.71847
▁attempt	-9.72045
▁cultural	-9.72172
▁destroyed	-9.72191
ne	-9.72368
▁test	-9.72477
f	-9.72502
▁roles	-9.7252
▁di	-9.72522
▁So	-9.72586
▁castle	-9.72633
▁enough	-9.72684
▁appear	-9.72765
▁1991	-9.72898
am	-9.72985
▁situated	-9.73078
▁expanded	-9.73098
▁Another	-9.7313
▁24,	-9.7328
▁act	-9.73393
▁Inc	-9.73397
▁Press	-9.73467
▁issued	-9.73491
▁Book	-9.73584
▁continue	-9.73597
▁18,	-9.73631
▁Before	-9.73653
▁removed	-9.73779
▁Between	-9.73805
▁Wisconsin	-9.73818
▁Castle	-9.73984
▁cut	-9.74012
▁province	-9.74023
▁charge	-9.74055
▁Three	-9.74145
▁Of	-9.74221
▁holds	-9.74278
V	-9.74312
▁Post	-9.74313
▁report	-9.74431
▁product	-9.74512
▁direction	-9.74703
▁acres	-9.74724
▁News	-9.74801
▁aged	-9.74835
▁commissioned	-9.7484
▁Norwegian	-9.74843
▁Gold	-9.74849
▁computer	-9.74854
▁alone	-9.74903
▁clubs	-9.74951
▁asked	-9.74967
▁silver	-9.75132
ni	-9.75172
▁brothers	-9.75285
▁minister	-9.75359
▁Over	-9.75436
▁green	-9.75583
▁Asia	-9.75627
▁2003,	-9.75647
▁founding	-9.7567
▁Port	-9.75758
▁coming	-9.75762
▁architect	-9.75885
▁captain	-9.75898
▁Junior	-9.75924
▁Among	-9.7606
▁promotion	-9.76062
▁campus	-9.76074
▁specific	-9.76195
da	-9.76204
▁names	-9.76403
American	-9.76488
▁Swedish	-9.76591
▁nature	-9.76614
▁begins	-9.76625
▁Sports	-9.76628
2),	-9.76632
▁farm	-9.76692
▁un	-9.76783
▁Major	-9.76817
▁focus	-9.76824
▁highly	-9.76849
▁smaller	-9.76955
▁attention	-9.77011
▁lies	-9.77096
▁speed	-9.771
▁Sciences	-9.77142
▁Province	-9.77168
▁energy	-9.77176
▁distance	-9.77178
▁junior	-9.77243
▁Member	-9.77305
▁2018.	-9.77373
▁drama	-9.7738
▁USA	-9.77444
▁influence	-9.77579
▁quickly	-9.7761
▁wanted	-9.77623
▁Medical	-9.77647
▁committee	-9.77656
▁federal	-9.77751
▁Corps	-9.7779
▁granted	-9.77792
▁suffered	-9.77885
▁Ontario	-9.7792
▁Israel	-9.77923
▁von	-9.77971
▁facility	-9.77994
▁initial	-9.78031
▁idea	-9.7804
▁loan	-9.78057
▁basis	-9.78065
▁despite	-9.781
▁Jack	-9.78132
▁2006.	-9.78141
▁Philadelphia	-9.78177
▁allow	-9.78181
▁voice	-9.78241
▁We	-9.78273
▁crew	-9.78295
▁reach	-9.78296
▁policy	-9.78299
▁1940	-9.78307
▁our	-9.78313
▁Series	-9.78324
▁Jr	-9.78359
▁CD	-9.78441
▁kilometres	-9.78461
▁graduating	-9.78507
▁entitled	-9.78547
▁Premier	-9.78657
▁direct	-9.78719
▁directly	-9.78759
▁God	-9.78838
▁returning	-9.78949
▁performances	-9.78967
▁1989	-9.79199
ve	-9.79227
▁contemporary	-9.79234
▁foreign	-9.79257
off	-9.79281
▁inside	-9.7931
▁partner	-9.79372
▁temple	-9.79378
▁wing	-9.79384
▁accepted	-9.79491
▁prison	-9.79491
co	-9.79504
▁evidence	-9.79546
▁Maria	-9.79595
▁5,	-9.79644
▁text	-9.79669
▁1988	-9.79733
▁immediately	-9.79833
▁literature	-9.79857
▁sub	-9.80054
▁performing	-9.80093
▁Olympic	-9.80136
▁Studies	-9.80166
▁Open	-9.80252
▁votes	-9.80466
▁dark	-9.80493
▁effect	-9.80494
▁spring	-9.80622
▁meet	-9.80691
▁Land	-9.80727
▁Federal	-9.80881
▁injury	-9.81135
▁guest	-9.81164
▁rank	-9.81389
▁mountain	-9.81418
▁reviews	-9.81437
▁bar	-9.81552
▁chosen	-9.81656
▁planned	-9.81774
▁operating	-9.81787
▁split	-9.81972
▁Tour	-9.82012
▁intended	-9.82103
▁poor	-9.82116
▁graduate	-9.82328
▁twenty	-9.82393
▁cases	-9.82416
▁joining	-9.8246
it	-9.825
▁composer	-9.82653
like	-9.82701
▁spread	-9.82708
▁Lady	-9.82843
▁(1	-9.82998
5	-9.83126
▁Media	-9.83153
▁increase	-9.83195
▁constituency	-9.83268
▁cause	-9.83301
▁Netherlands	-9.83391
▁surrounding	-9.8342
▁i	-9.83435
▁widely	-9.83445
▁Community	-9.83571
▁forest	-9.83649
▁publication	-9.837
▁Today	-9.83709
▁‘	-9.83741
▁Pro	-9.83745
▁saying	-9.83834
▁giving	-9.8398
▁Social	-9.84105
▁adopted	-9.84162
▁connected	-9.84217
▁administration	-9.84396
▁cities	-9.84473
▁travel	-9.8451
▁girl	-9.84748
▁recognized	-9.84899
▁designated	-9.84949
▁c	-9.85023
▁heavy	-9.85222
▁Captain	-9.85239
▁concert	-9.85337
▁Islands	-9.85371
▁Medal	-9.85402
▁goes	-9.85427
▁Moscow	-9.85429
▁resigned	-9.85471
▁Home	-9.85496
▁2002,	-9.8551
▁Poland	-9.85561
▁covers	-9.85571
▁conditions	-9.8559
▁merged	-9.85667
▁1987	-9.85769
▁Sweden	-9.85776
▁articles	-9.85798
);	-9.85806
▁hall	-9.85835
▁finish	-9.85871
▁principal	-9.859
▁flight	-9.85935
▁elements	-9.86115
▁Cemetery	-9.86161
▁inspired	-9.86161
ian	-9.86223
▁software	-9.86288
▁ships	-9.8635
▁association	-9.86361
ist	-9.86393
▁draw	-9.86477
▁And	-9.86597
▁troops	-9.86693
▁respectively	-9.86704
▁Vice	-9.86757
▁classes	-9.86811
▁arts	-9.86989
▁birth	-9.87068
▁politics	-9.87096
▁painter	-9.871
▁35	-9.8714
▁might	-9.87227
▁Ben	-9.87248
▁1984	-9.87267
▁wall	-9.87355
▁told	-9.87484
▁levels	-9.87532
class	-9.87569
▁2001,	-9.87579
▁trial	-9.87603
▁providing	-9.87656
▁Francis	-9.87676
▁agent	-9.87793
▁honor	-9.87796
▁fell	-9.87939
▁engineering	-9.88005
▁yards	-9.88133
▁conference	-9.88148
▁yet	-9.88176
▁Journal	-9.88418
▁secondary	-9.88422
▁view	-9.88433
▁documentary	-9.88551
ma	-9.88614
▁quality	-9.88795
▁secretary	-9.88802
▁titles	-9.88805
▁rural	-9.88826
▁1986	-9.88832
▁equipment	-9.88848
▁growth	-9.88854
▁6,	-9.88983
▁revealed	-9.89058
▁big	-9.89071
▁tree	-9.89094
▁develop	-9.8918
▁vice	-9.89386
▁Bridge	-9.89505
▁likely	-9.89539
▁Pakistan	-9.89558
▁Joe	-9.89565
ri	-9.89579
▁Edinburgh	-9.89611
▁hold	-9.89624
▁7,	-9.89662
▁comedy	-9.89664
▁efforts	-9.89707
▁positive	-9.89711
▁lack	-9.89749
▁finishing	-9.89842
for	-9.89851
ism	-9.89876
▁creation	-9.89921
▁Re	-9.89943
▁stars	-9.89959
▁Go	-9.90011
▁mayor	-9.90056
▁cancer	-9.90068
▁hotel	-9.90097
▁multi	-9.90158
ch	-9.90163
▁places	-9.90187
▁becomes	-9.90219
▁Miss	-9.90299
▁words	-9.90301
▁Wilson	-9.90303
▁response	-9.90435
▁Earth	-9.90521
▁15,	-9.90597
▁contributed	-9.9061
▁exhibition	-9.90635
et	-9.90702
▁stop	-9.90716
▁losing	-9.90742
▁champion	-9.90778
U	-9.9079
▁blue	-9.90931
▁security	-9.90935
▁article	-9.90988
▁mixed	-9.91031
▁growing	-9.91058
▁Taylor	-9.91144
▁Affairs	-9.91238
▁value	-9.91304
▁entrance	-9.9133
▁Airport	-9.91346
▁lake	-9.91387
▁Melbourne	-9.91387
▁Pope	-9.91411
▁figure	-9.91424
▁leadership	-9.91576
▁Bachelor	-9.91626
▁Men	-9.91694
▁someone	-9.91695
▁hard	-9.91772
▁activity	-9.9185
▁captured	-9.91856
▁Beach	-9.919
▁color	-9.91995
▁ice	-9.92122
▁Supreme	-9.92129
ner	-9.92152
6	-9.92181
▁poet	-9.9219
▁Police	-9.92202
▁Prime	-9.92261
▁treatment	-9.92285
▁Like	-9.92372
▁keep	-9.92389
▁kept	-9.9245
▁Magazine	-9.92456
▁arrested	-9.92469
▁Executive	-9.92616
▁Jackson	-9.92619
▁Arthur	-9.92655
▁confirmed	-9.92707
▁2005.	-9.92708
▁incorporated	-9.92827
▁oldest	-9.92855
▁1985	-9.92861
▁pay	-9.92882
▁remain	-9.92917
▁languages	-9.9296
▁1983	-9.93008
▁account	-9.93018
▁traffic	-9.93091
century	-9.93129
▁trains	-9.93157
▁function	-9.93196
▁plants	-9.93205
▁concept	-9.93226
▁occurs	-9.93262
▁Cape	-9.93274
▁visit	-9.9328
▁Engineering	-9.93284
▁piece	-9.93299
li	-9.93341
▁offer	-9.93362
▁invited	-9.93363
▁soldiers	-9.93527
▁episodes	-9.93543
▁Nations	-9.93595
▁brand	-9.93616
▁trained	-9.93703
▁unique	-9.93731
▁del	-9.93732
▁Sam	-9.93753
▁bronze	-9.93754
▁digital	-9.93887
▁headquarters	-9.93899
▁Mountain	-9.93932
▁sign	-9.93936
▁Network	-9.93937
▁Management	-9.93995
▁Missouri	-9.94042
▁highway	-9.94079
▁declared	-9.94118
▁shortly	-9.94159
▁journalist	-9.94263
▁letter	-9.94264
▁combined	-9.94282
▁judge	-9.94374
▁Time	-9.944
▁Forest	-9.94414
▁literary	-9.94479
▁portion	-9.94543
▁daily	-9.94597
▁p	-9.94631
▁actress	-9.94671
▁Atlantic	-9.94684
▁airport	-9.94691
▁receiving	-9.94743
▁era	-9.9475
▁bus	-9.94812
▁Country	-9.94875
▁converted	-9.94924
▁rule	-9.94926
▁territory	-9.94966
men	-9.95027
▁governor	-9.95055
▁1982	-9.95193
▁albums	-9.95282
▁method	-9.95296
▁share	-9.95345
ya	-9.95395
▁Labour	-9.95485
▁transfer	-9.95605
▁typically	-9.95649
▁perform	-9.9567
▁van	-9.95679
▁Military	-9.95694
▁piano	-9.95695
able	-9.95759
▁Federation	-9.95776
▁metal	-9.95802
▁brown	-9.95827
▁copies	-9.95894
▁Earl	-9.95906
▁visited	-9.96017
▁historic	-9.96066
▁forward	-9.96071
▁achieved	-9.96105
▁etc	-9.96163
▁interview	-9.96164
▁Village	-9.96195
▁Due	-9.962
▁gives	-9.96211
▁Ph	-9.96241
▁height	-9.96261
▁10,	-9.9632
▁press	-9.96409
▁Davis	-9.96412
▁Head	-9.96528
ness	-9.96628
▁largely	-9.96691
▁hired	-9.96709
▁architecture	-9.96753
▁Z	-9.96836
▁Mike	-9.9692
▁poetry	-9.97083
▁positions	-9.97112
▁Chairman	-9.9713
▁Regiment	-9.97148
▁purpose	-9.97152
▁Upon	-9.97238
▁reserve	-9.97301
▁1979	-9.97312
▁Memorial	-9.97328
▁Orchestra	-9.97356
▁physical	-9.97406
▁fish	-9.97429
▁Harvard	-9.9743
▁scientific	-9.97473
▁Korea	-9.97497
J	-9.97583
▁Bob	-9.97641
▁Liberal	-9.97666
▁foundation	-9.97694
▁singing	-9.97703
▁Township	-9.97708
▁ordered	-9.97724
▁starts	-9.97793
▁Norway	-9.97856
▁80	-9.97902
▁Andrew	-9.97925
▁theme	-9.98035
known	-9.98068
which	-9.98089
▁communities	-9.98118
▁Minnesota	-9.98149
▁prize	-9.98205
▁Prior	-9.98318
▁Channel	-9.98349
▁yellow	-9.98367
▁Daniel	-9.98413
▁Special	-9.98472
▁8,	-9.98481
▁resulted	-9.98538
▁identified	-9.98688
ur	-9.98768
▁follows	-9.98772
▁paintings	-9.98818
▁presence	-9.98821
▁disease	-9.98825
▁content	-9.98906
▁16,	-9.98916
▁agreed	-9.98949
▁Gallery	-9.9903
▁commander	-9.9905
▁passes	-9.99076
▁fought	-9.99103
▁receive	-9.99143
▁girls	-9.99148
▁Sunday	-9.99166
▁winter	-9.99168
▁paid	-9.99226
▁Four	-9.99253
ko	-9.99265
▁organizations	-9.99319
▁joint	-9.99321
▁11,	-9.99391
▁officers	-9.99433
▁amount	-9.9948
▁Senior	-9.99522
▁actually	-9.99557
▁inhabitants	-9.99585
▁agreement	-9.99639
▁whether	-9.99682
▁break	-9.99746
▁des	-9.99918
▁1972	-10.0004
▁1949	-10.0006
▁analysis	-10.0008
▁BC	-10.0015
▁workers	-10.0017
▁seats	-10.0023
▁ranked	-10.0024
▁500	-10.003
▁12,	-10.0033
▁trees	-10.0043
▁14,	-10.0049
▁numbers	-10.0062
▁Manchester	-10.0068
▁Brazil	-10.0071
▁Because	-10.0072
▁17,	-10.0078
▁lot	-10.008
▁Native	-10.0089
▁sides	-10.0092
▁applied	-10.0094
▁1976	-10.0095
▁1999,	-10.0103
▁employed	-10.0104
▁distribution	-10.0109
▁sources	-10.0113
▁creating	-10.0119
▁9,	-10.0123
▁unknown	-10.0123
▁shape	-10.0126
▁Field	-10.0138
▁slightly	-10.0143
▁allows	-10.0147
▁Billboard	-10.0148
▁Officer	-10.0151
?	-10.0155
▁Point	-10.016
▁completely	-10.0161
▁opera	-10.0162
un	-10.0162
▁daughters	-10.017
▁Night	-10.0172
▁Fellow	-10.0176
▁approach	-10.0192
▁32	-10.0198
▁du	-10.0201
▁therefore	-10.0202
▁pass	-10.0203
▁potential	-10.0204
▁Then	-10.0213
▁pilot	-10.0215
▁needed	-10.0222
▁formation	-10.0225
▁estimated	-10.0231
8	-10.0235
▁Deputy	-10.0246
▁permanent	-10.0248
▁occupied	-10.0251
▁critical	-10.0255
▁deep	-10.0257
▁administrative	-10.0265
▁dead	-10.0267
▁2004.	-10.0273
▁Khan	-10.0277
▁sales	-10.0282
▁write	-10.0298
▁represent	-10.0299
▁know	-10.0301
▁boat	-10.0301
▁stand	-10.0303
▁expected	-10.0306
▁Albert	-10.0312
▁laid	-10.0322
▁villages	-10.0325
▁meters	-10.0334
▁difficult	-10.0335
▁gas	-10.0335
▁Kansas	-10.0335
▁Chris	-10.0336
▁Class	-10.034
▁factory	-10.0357
▁1974	-10.0365
▁ability	-10.0369
▁1978	-10.0373
▁1981	-10.0374
▁read	-10.038
ling	-10.0382
▁qualified	-10.0391
▁13,	-10.0392
▁engineer	-10.0394
▁survived	-10.0398
▁Lewis	-10.04
▁bishop	-10.0404
▁formerly	-10.0411
▁resulting	-10.0412
▁commonly	-10.0417
▁baseball	-10.0427
▁roof	-10.0429
▁tells	-10.0429
▁Project	-10.0429
with	-10.0435
▁frequently	-10.0446
▁Tennessee	-10.0447
▁finds	-10.045
▁union	-10.0453
▁code	-10.0454
▁EP	-10.0457
▁Jim	-10.0458
▁lyrics	-10.0458
▁starred	-10.0462
▁pieces	-10.0464
▁producing	-10.0471
▁Opera	-10.0475
▁focused	-10.0487
▁cars	-10.0491
▁Power	-10.0494
▁Anne	-10.0512
▁problem	-10.0515
▁reference	-10.0522
▁consisted	-10.0522
▁fully	-10.0527
▁Dublin	-10.053
▁programme	-10.0534
▁says	-10.0536
▁1977	-10.0536
▁Fox	-10.0536
▁industrial	-10.0539
▁regularly	-10.054
▁clear	-10.0543
▁offices	-10.0543
ca	-10.0561
▁urban	-10.0569
▁wood	-10.058
▁representing	-10.0587
▁Stephen	-10.0591
▁ends	-10.0596
▁effects	-10.0599
▁broke	-10.0601
▁audience	-10.0601
▁About	-10.0602
▁knowledge	-10.0615
▁Golden	-10.0618
▁painted	-10.062
▁singles	-10.0629
▁derived	-10.0629
▁types	-10.0632
▁cell	-10.0646
▁occurred	-10.0649
▁Fame	-10.0659
▁System	-10.0664
os	-10.0672
▁pair	-10.0675
▁1936	-10.0676
field	-10.068
▁image	-10.0689
▁21,	-10.069
▁et	-10.069
▁Vienna	-10.069
▁compared	-10.0705
▁category	-10.0705
▁pro	-10.0706
▁Jan	-10.071
▁Ali	-10.0712
▁tried	-10.0713
▁Y	-10.0715
▁true	-10.0716
▁Stadium	-10.0716
▁representative	-10.0718
7	-10.0719
▁fields	-10.0719
▁70	-10.073
▁Youth	-10.0734
▁1968	-10.0738
▁murder	-10.0739
▁debuted	-10.0739
▁studying	-10.0744
▁Foreign	-10.0748
▁makeup	-10.075
▁showed	-10.0751
▁courses	-10.0751
▁extensive	-10.0757
▁follow	-10.0767
▁maximum	-10.0772
ti	-10.0773
▁letters	-10.0773
▁valley	-10.0774
▁1975	-10.0777
▁bring	-10.0798
▁origin	-10.0802
▁Be	-10.0803
▁versions	-10.0809
▁Ma	-10.0811
▁Trust	-10.0815
▁22,	-10.0819
▁percent	-10.0823
▁except	-10.0825
▁grade	-10.0832
▁deputy	-10.0833
▁models	-10.0836
▁materials	-10.0839
▁marked	-10.0849
▁Walter	-10.085
▁things	-10.0858
▁parties	-10.0864
line	-10.0866
▁racing	-10.0867
less	-10.0868
▁Colorado	-10.087
▁Band	-10.0876
▁arms	-10.0878
▁abandoned	-10.0879
▁gun	-10.0896
▁Maryland	-10.0896
▁approved	-10.0898
▁dropped	-10.0901
▁transport	-10.0901
▁Miller	-10.091
▁Temple	-10.0916
▁Austria	-10.0916
▁tradition	-10.0919
▁30,	-10.0923
▁1998,	-10.0923
▁Free	-10.0925
▁Lieutenant	-10.0925
▁simple	-10.0933
▁faculty	-10.0936
▁existing	-10.094
▁advanced	-10.0945
▁classical	-10.096
▁effort	-10.0969
▁authorities	-10.0972
▁Steve	-10.0972
▁28,	-10.0978
▁1973	-10.0983
▁Li	-10.0985
▁Emperor	-10.0986
▁sites	-10.0989
▁23,	-10.0989
ry	-10.0992
▁application	-10.0992
▁sixth	-10.0997
▁kind	-10.0998
▁stands	-10.1006
▁funding	-10.1007
out	-10.1015
▁Area	-10.1022
▁Ltd	-10.1025
▁walls	-10.1026
▁exchange	-10.1035
▁CEO	-10.1036
▁collected	-10.1039
▁onto	-10.1048
▁Program	-10.1056
▁fans	-10.1059
▁Final	-10.1067
▁ending	-10.1075
▁subsequent	-10.1087
▁2003.	-10.1099
▁1969	-10.1107
▁suggested	-10.1108
▁1945	-10.1119
▁figures	-10.1121
▁admitted	-10.1125
▁edge	-10.1126
▁block	-10.1127
▁environment	-10.1128
▁priest	-10.1131
▁journal	-10.1131
▁26,	-10.1132
▁search	-10.1134
▁machine	-10.1149
▁herself	-10.1152
▁More	-10.1154
▁reduced	-10.1154
▁Samuel	-10.1168
▁Hot	-10.1168
▁20,	-10.1174
▁jazz	-10.1176
▁Simon	-10.1182
▁Naval	-10.1191
▁stay	-10.1192
▁horse	-10.1202
▁educational	-10.121
▁look	-10.1211
▁pop	-10.1213
▁engaged	-10.1221
▁mass	-10.1222
▁leaders	-10.1223
▁learning	-10.1233
▁hands	-10.1234
▁partnership	-10.1234
▁installed	-10.1241
▁1971	-10.1253
▁Sri	-10.1257
▁boy	-10.126
▁Dan	-10.1265
▁Oregon	-10.1271
v	-10.1273
▁Song	-10.1274
▁holding	-10.1276
▁19,	-10.1277
▁27,	-10.1278
▁animals	-10.1289
▁Game	-10.1294
▁volume	-10.1295
▁launch	-10.1296
▁recognition	-10.1297
▁Several	-10.1308
▁port	-10.1321
▁registered	-10.1325
▁Switzerland	-10.1333
▁climate	-10.1336
▁compete	-10.1338
▁theater	-10.134
▁box	-10.1343
▁Danish	-10.1351
▁interior	-10.1351
▁Services	-10.1359
▁Bell	-10.136
▁successfully	-10.1365
▁relatively	-10.137
▁Indiana	-10.1379
▁setting	-10.1381
▁dates	-10.1382
▁Hotel	-10.1383
▁Tokyo	-10.1387
▁contest	-10.1389
▁Howard	-10.139
▁Main	-10.1391
▁25,	-10.14
▁briefly	-10.1409
j	-10.1415
▁SR	-10.1417
▁flowers	-10.142
▁expansion	-10.1422
▁developing	-10.1422
▁bands	-10.1451
▁premiered	-10.1457
▁morning	-10.1457
▁spot	-10.1461
▁shared	-10.1466
▁passing	-10.1482
▁=	-10.1485
▁adult	-10.1488
▁unable	-10.1495
▁billion	-10.1495
▁try	-10.1499
▁reaching	-10.1499
▁technical	-10.15
▁twelve	-10.1503
▁publishing	-10.1505
ki	-10.1506
▁1997,	-10.152
▁Region	-10.1521
▁allowing	-10.1531
▁Frederick	-10.1535
▁promote	-10.1538
▁something	-10.154
▁fine	-10.1545
▁residence	-10.1553
▁1964	-10.1553
▁2019.	-10.1554
▁neighborhood	-10.1555
▁1967	-10.1559
▁lawyer	-10.1561
▁aired	-10.1569
▁90	-10.157
▁Rugby	-10.1572
▁corner	-10.1574
▁northeast	-10.1581
also	-10.1582
▁municipal	-10.1583
▁MP	-10.1587
▁Hockey	-10.1587
▁racial	-10.1589
▁claims	-10.159
berg	-10.1593
▁Rose	-10.1598
▁restaurant	-10.1603
▁Administration	-10.1608
▁starring	-10.161
▁...	-10.162
▁memory	-10.1624
▁pressure	-10.1626
way	-10.1633
▁doing	-10.1639
▁rules	-10.1639
▁weight	-10.1656
ke	-10.166
▁Mayor	-10.1676
▁1996,	-10.1678
▁PhD	-10.1686
▁Margaret	-10.1689
▁Tony	-10.169
he	-10.1695
▁establishment	-10.1698
▁refers	-10.1699
▁Historic	-10.1705
▁Regional	-10.1714
▁Harry	-10.1716
▁36	-10.172
ji	-10.1727
▁29,	-10.174
▁Design	-10.1749
▁gets	-10.1753
▁cells	-10.176
▁opposition	-10.1762
In	-10.1767
▁damage	-10.177
▁opposite	-10.1777
▁Mexican	-10.1778
-1	-10.1788
▁Korean	-10.1791
lin	-10.1792
▁stood	-10.1796
▁Pan	-10.1803
▁felt	-10.1815
▁injured	-10.1818
▁containing	-10.1821
side	-10.1826
▁sale	-10.1829
law	-10.183
▁shop	-10.1847
▁bass	-10.1849
▁genus	-10.1852
▁musicians	-10.1854
▁accident	-10.1856
▁Arizona	-10.1858
▁Mar	-10.1861
▁Water	-10.1863
▁condition	-10.1865
▁display	-10.1866
▁claim	-10.1867
▁beat	-10.1882
▁Anna	-10.1887
▁Television	-10.1895
▁Hamilton	-10.1896
▁Christ	-10.192
▁2001.	-10.1925
▁blood	-10.1927
▁straight	-10.1927
ov	-10.1927
sen	-10.193
▁nation	-10.1943
ity	-10.1949
▁medicine	-10.1949
▁restored	-10.1952
▁Commander	-10.1959
▁householder	-10.1961
▁Live	-10.1966
▁reports	-10.1967
▁1965	-10.1972
▁scenes	-10.1972
▁collaboration	-10.1972
▁begin	-10.1974
▁Diego	-10.1976
▁2002.	-10.1977
▁Montreal	-10.1977
▁Iowa	-10.1978
▁locations	-10.198
▁funds	-10.1981
▁stayed	-10.1989
▁signing	-10.1992
▁refused	-10.1999
▁safety	-10.2
▁Winter	-10.2003
▁fashion	-10.2009
▁glass	-10.2011
▁planning	-10.2013
▁Revolution	-10.2021
ine	-10.2029
▁sport	-10.203
▁DVD	-10.2032
▁entry	-10.2039
▁1966	-10.2046
▁Holy	-10.2052
▁Family	-10.2055
▁relations	-10.2061
ll	-10.2069
▁(2	-10.2074
▁steel	-10.2082
▁cannot	-10.2087
▁FM	-10.2092
▁philosophy	-10.2096
▁institutions	-10.2097
▁Wood	-10.2098
▁v	-10.2103
▁agency	-10.2109
▁translated	-10.2109
▁Children	-10.2114
▁supporting	-10.2117
▁2000.	-10.2125
▁hockey	-10.2132
▁Entertainment	-10.2134
▁historian	-10.2136
▁commission	-10.2146
▁Independent	-10.2151
▁flat	-10.2154
▁background	-10.2154
▁Philip	-10.2155
▁greater	-10.2159
▁impact	-10.2162
▁Singapore	-10.2164
do	-10.2165
▁Dean	-10.2165
▁influenced	-10.2166
▁adjacent	-10.2167
election	-10.2171
▁protection	-10.2177
▁Queensland	-10.2178
▁interested	-10.2184
▁boys	-10.2188
▁selection	-10.2192
▁Ocean	-10.2193
▁connection	-10.2201
▁Antonio	-10.2203
é	-10.2204
▁Baron	-10.2204
▁tries	-10.2224
▁sets	-10.2227
▁IV	-10.2234
go	-10.2242
▁1995,	-10.2243
▁programming	-10.2246
▁ex	-10.2247
▁ceremony	-10.2251
il	-10.2255
▁Christmas	-10.2256
▁quite	-10.2263
▁edited	-10.2269
▁royal	-10.2269
▁Kentucky	-10.2276
▁Hollywood	-10.2282
▁Fine	-10.2286
▁Square	-10.2291
▁your	-10.2293
▁beyond	-10.2299
den	-10.23
▁Cathedral	-10.2301
▁33	-10.2303
▁Ten	-10.2307
▁districts	-10.2308
▁turns	-10.2308
▁contained	-10.2316
▁stores	-10.2319
▁reason	-10.2321
▁Houston	-10.2323
ler	-10.2325
▁candidates	-10.2325
▁faced	-10.2326
▁300	-10.2333
▁stadium	-10.2345
▁needs	-10.235
▁Review	-10.2357
▁northwest	-10.2362
ha	-10.2367
▁composition	-10.2377
▁vocals	-10.238
▁Railroad	-10.2383
▁opposed	-10.2384
▁quarter	-10.2386
▁rare	-10.2389
ro	-10.2397
▁couples	-10.2397
▁flows	-10.24
▁enter	-10.2411
▁appearing	-10.2416
▁°	-10.2428
▁rugby	-10.243
▁establish	-10.2431
▁simply	-10.2433
▁critics	-10.2434
▁screen	-10.2437
▁extension	-10.2438
▁centuries	-10.244
▁Moore	-10.2442
▁residing	-10.2445
▁childhood	-10.2449
▁enemy	-10.2455
▁Denmark	-10.2455
▁appointment	-10.2478
▁attend	-10.2486
▁drive	-10.2487
▁Lincoln	-10.249
▁Camp	-10.2491
▁Philippines	-10.2501
▁Connecticut	-10.2501
▁global	-10.2507
▁Space	-10.2509
▁authority	-10.2514
TV	-10.2515
▁narrow	-10.2515
▁bottom	-10.2517
▁Legislative	-10.2525
wood	-10.2527
▁Light	-10.2529
▁draft	-10.2529
▁describes	-10.2536
di	-10.2546
▁card	-10.2549
▁fighting	-10.2552
▁Building	-10.2553
▁operate	-10.2556
▁Fire	-10.2558
▁CDP	-10.2559
▁windows	-10.2566
▁rooms	-10.2572
▁window	-10.2576
▁drug	-10.2577
▁vehicle	-10.2582
ng	-10.2583
▁Ross	-10.2587
▁Turkey	-10.2589
▁page	-10.2596
▁1994,	-10.2597
▁Ford	-10.26
▁heard	-10.2606
▁want	-10.2606
▁scheduled	-10.2606
▁chapel	-10.2612
▁mill	-10.2615
▁basic	-10.2619
▁rating	-10.2633
▁ultimately	-10.2634
▁crime	-10.2635
▁rear	-10.2636
▁Ray	-10.2637
▁lieutenant	-10.264
▁1948	-10.2643
▁Reserve	-10.2655
▁Up	-10.2657
▁publications	-10.2659
▁Turkish	-10.266
▁opportunity	-10.266
pur	-10.2663
▁chair	-10.267
▁situation	-10.2675
▁contributions	-10.2677
▁decades	-10.2678
▁agricultural	-10.2678
▁stock	-10.2679
▁Patrick	-10.268
▁Clark	-10.2681
▁Juan	-10.2682
se	-10.2682
▁Belgium	-10.2691
▁cricket	-10.2697
▁Car	-10.2699
▁voted	-10.2699
▁Czech	-10.27
▁passengers	-10.2705
▁1962	-10.2705
▁NFL	-10.2707
▁Stone	-10.2707
▁400	-10.271
▁consisting	-10.2715
▁34	-10.2717
▁powerful	-10.2721
▁maintained	-10.2726
▁Allen	-10.273
▁acts	-10.2731
▁closely	-10.2733
▁Infantry	-10.2737
▁hill	-10.2741
▁worldwide	-10.2744
▁defined	-10.2745
▁Ha	-10.2749
▁foot	-10.275
ul	-10.2763
▁regions	-10.2763
▁Brian	-10.2767
▁attempts	-10.2771
▁Assistant	-10.2775
▁uncle	-10.278
▁amateur	-10.278
▁say	-10.2786
▁tax	-10.2788
▁Muslim	-10.2797
▁brief	-10.2799
▁Human	-10.2807
▁notes	-10.2809
▁functions	-10.281
▁supply	-10.2813
▁Imperial	-10.282
▁Detroit	-10.2822
▁Quebec	-10.2824
▁31,	-10.2828
▁ring	-10.2828
▁towns	-10.2834
▁degrees	-10.2834
▁Do	-10.2842
▁weekly	-10.2863
▁1963	-10.2864
▁structures	-10.2869
▁iron	-10.2873
▁protein	-10.2875
▁Mac	-10.2875
▁leads	-10.2877
▁operates	-10.2879
▁Douglas	-10.288
▁Adam	-10.2884
▁prevent	-10.2889
▁Miami	-10.2895
▁Real	-10.29
▁entirely	-10.2904
▁Oklahoma	-10.2906
▁Glasgow	-10.2908
▁y	-10.2913
▁Saturday	-10.2914
▁officials	-10.2918
▁generation	-10.2919
▁trying	-10.2919
▁fiction	-10.2919
▁diameter	-10.2921
▁bachelor	-10.2928
▁animal	-10.293
▁Doctor	-10.2934
▁44	-10.2935
▁associate	-10.2939
▁employees	-10.2939
▁passenger	-10.2939
▁views	-10.2946
▁poverty	-10.2949
▁southeast	-10.2951
▁x	-10.2952
▁Anderson	-10.2953
▁en	-10.2953
▁l	-10.296
▁properties	-10.296
▁attempted	-10.2961
▁Medicine	-10.2961
▁Marine	-10.2974
▁getting	-10.2987
▁selling	-10.2992
▁Good	-10.2992
▁methods	-10.2995
▁wooden	-10.2996
▁residential	-10.2999
▁sought	-10.3002
▁alternative	-10.3005
▁1992,	-10.3006
▁resources	-10.3007
▁proved	-10.301
▁ball	-10.3011
▁38	-10.3011
▁peace	-10.3012
shaped	-10.3028
▁substitute	-10.3028
▁driver	-10.3033
▁Swiss	-10.3034
▁1999.	-10.3037
▁1946	-10.3039
▁toured	-10.3039
▁electric	-10.3041
▁chose	-10.3055
▁1915	-10.3057
▁Is	-10.3068
▁owners	-10.3071
▁Kent	-10.3076
▁provincial	-10.3082
▁normal	-10.3086
▁meets	-10.3088
▁engines	-10.3089
▁standing	-10.3091
▁necessary	-10.3091
▁vehicles	-10.3098
▁musician	-10.3101
▁existence	-10.3104
▁donated	-10.3107
It	-10.3112
▁garden	-10.3113
▁rich	-10.3125
▁rail	-10.3127
▁chain	-10.3127
▁arranged	-10.313
▁heavily	-10.3134
▁escape	-10.3136
▁cousin	-10.3142
▁participate	-10.3143
▁contact	-10.3144
▁determined	-10.3149
▁credited	-10.315
▁southwest	-10.3158
▁Argentina	-10.3161
▁effective	-10.3167
▁acted	-10.3167
▁duty	-10.3169
▁notably	-10.317
▁meant	-10.3176
ga	-10.3177
▁assumed	-10.318
▁Judge	-10.3186
▁businesses	-10.3197
▁us	-10.3198
▁Gordon	-10.3202
▁trip	-10.3206
▁improve	-10.3206
▁users	-10.3209
long	-10.3218
▁attached	-10.3219
▁eldest	-10.3231
▁Hispanic	-10.3232
▁sense	-10.3233
▁carry	-10.324
▁Theater	-10.3241
▁Greece	-10.3241
▁skills	-10.3244
▁Egypt	-10.3244
▁elevation	-10.3247
▁minute	-10.3249
▁grandfather	-10.325
▁applications	-10.3254
▁Carl	-10.3261
▁Register	-10.3263
▁youngest	-10.327
▁didn	-10.3278
▁headed	-10.3283
▁phase	-10.3284
▁typical	-10.3291
▁Te	-10.3293
▁Commonwealth	-10.3298
▁hundred	-10.3299
▁separated	-10.33
▁ha	-10.3305
▁purchase	-10.3308
▁Palace	-10.3314
▁institution	-10.3326
▁Marie	-10.3329
▁1944	-10.3333
▁Ann	-10.3336
▁Garden	-10.3339
▁Mississippi	-10.334
▁Conservative	-10.3343
▁churches	-10.3346
▁honorary	-10.3349
▁mathematics	-10.3351
▁1956	-10.3357
▁Welsh	-10.3362
▁organisation	-10.3364
▁Anthony	-10.3376
▁winners	-10.3376
▁distributed	-10.3381
▁Once	-10.3383
▁(3	-10.3387
▁Max	-10.3393
▁railroad	-10.3397
▁attacked	-10.3397
ina	-10.3399
▁collections	-10.3399
▁sector	-10.3401
▁stream	-10.3402
▁Yorkshire	-10.3406
ge	-10.3412
▁environmental	-10.3414
wa	-10.3421
▁investment	-10.343
▁Out	-10.343
▁Though	-10.3431
au	-10.3431
▁web	-10.3435
▁exist	-10.3443
▁earliest	-10.3444
▁reasons	-10.3446
▁serious	-10.3447
▁da	-10.3448
▁grounds	-10.3448
▁1961	-10.345
▁Communist	-10.3452
9	-10.3455
▁1993,	-10.3457
▁Silver	-10.3458
▁sell	-10.3465
▁Security	-10.3467
▁37	-10.3472
▁consecutive	-10.3473
ah	-10.3474
▁Rio	-10.3477
▁Lawrence	-10.348
▁Only	-10.3481
▁1942	-10.3482
▁patients	-10.3484
▁scholarship	-10.3485
▁1959	-10.349
▁really	-10.3491
▁lands	-10.3492
▁Singh	-10.3492
▁attacks	-10.3498
▁grow	-10.3503
▁comic	-10.3504
Z	-10.3505
▁0	-10.3507
▁shell	-10.3507
▁citizens	-10.3511
▁1957	-10.3512
▁intersection	-10.3513
▁interests	-10.3521
▁1947	-10.3522
▁Representatives	-10.3524
▁Kim	-10.3527
▁Iran	-10.3527
ham	-10.3529
▁Forces	-10.3539
▁accompanied	-10.3543
▁Third	-10.3545
▁Jane	-10.3546
▁Liverpool	-10.3552
▁brick	-10.3554
▁Squadron	-10.3555
▁folk	-10.3562
▁Modern	-10.3562
▁domestic	-10.3567
ation	-10.357
▁1911	-10.3576
▁roads	-10.3576
▁defense	-10.3581
▁Local	-10.3593
▁plot	-10.3594
▁Tamil	-10.3595
▁falls	-10.3599
▁calls	-10.3606
▁Early	-10.361
X	-10.3618
▁seems	-10.3619
▁Atlanta	-10.3619
▁sex	-10.3626
▁Lane	-10.3628
▁independence	-10.3631
▁1991,	-10.3642
▁ways	-10.3648
▁membership	-10.3649
▁driving	-10.3649
▁Portuguese	-10.365
be	-10.3651
▁failure	-10.3652
▁extra	-10.3653
▁poem	-10.3653
▁session	-10.3654
▁dry	-10.3658
▁items	-10.366
▁mining	-10.366
▁Alabama	-10.3663
▁retained	-10.3665
▁anniversary	-10.3672
ba	-10.3678
▁1958	-10.3681
▁1998.	-10.3683
▁mine	-10.3684
▁artistic	-10.3685
ja	-10.3687
▁economy	-10.3687
▁learned	-10.369
▁price	-10.3694
w	-10.3694
▁Mountains	-10.3695
▁designer	-10.3696
▁Mrs	-10.3699
▁replace	-10.3701
▁Originally	-10.3702
id	-10.3709
▁helping	-10.3709
▁Males	-10.3711
ion	-10.3713
▁novels	-10.3713
ey	-10.3716
▁peak	-10.3716
▁Broadway	-10.3726
▁broken	-10.3733
▁Harris	-10.3734
age	-10.3734
▁choice	-10.3736
▁matter	-10.3738
▁duties	-10.3739
▁visiting	-10.3739
▁versus	-10.3739
▁table	-10.3742
▁rise	-10.3746
▁teachers	-10.3749
▁kg	-10.3754
▁Trinity	-10.3755
▁contain	-10.3756
▁Austrian	-10.3762
▁scale	-10.3764
▁critic	-10.3771
▁temperature	-10.3772
▁designs	-10.3775
▁flying	-10.3779
▁protect	-10.3782
▁Boys	-10.3788
▁Brigade	-10.3789
▁crossing	-10.3791
▁End	-10.3791
▁conflict	-10.3796
▁Seattle	-10.3799
▁papers	-10.3805
▁replacing	-10.3806
▁subjects	-10.3807
▁wins	-10.3809
▁looking	-10.3809
▁1943	-10.3809
▁leg	-10.3814
▁risk	-10.3815
▁praised	-10.3817
▁think	-10.3818
▁dated	-10.3819
▁regiment	-10.382
▁successor	-10.3821
▁coal	-10.3827
▁Q	-10.3832
▁bodies	-10.3835
▁sections	-10.3842
▁Prix	-10.3843
see	-10.385
▁Vietnam	-10.386
▁avoid	-10.3862
▁combat	-10.3867
▁dating	-10.3872
▁Arab	-10.3875
▁sexual	-10.388
▁possibly	-10.3891
▁150	-10.3892
▁Through	-10.3895
war	-10.3902
▁branches	-10.3902
▁1952	-10.3909
▁classic	-10.3912
▁importance	-10.3912
.”	-10.3916
▁broad	-10.392
▁investigation	-10.3929
▁Heritage	-10.3936
▁der	-10.3938
▁Spring	-10.3956
▁Birmingham	-10.3958
").	-10.3959
▁Staff	-10.3959
▁Training	-10.3963
FM	-10.3965
▁celebrated	-10.3968
▁rebuilt	-10.3975
▁reading	-10.3979
▁Walker	-10.3979
▁Brooklyn	-10.3986
▁relocated	-10.3995
▁increasing	-10.4001
who	-10.4004
▁regarded	-10.4004
▁1941	-10.4019
▁user	-10.4022
▁flow	-10.4028
▁bill	-10.4032
▁Now	-10.4033
▁FIFA	-10.4036
▁wounded	-10.404
▁attending	-10.4044
▁Can	-10.4045
▁writers	-10.4047
▁Dance	-10.4048
▁Fund	-10.406
▁Not	-10.4061
▁Latino	-10.4063
▁Jesus	-10.4073
▁images	-10.4073
▁recordings	-10.4075
▁Morgan	-10.4075
▁soccer	-10.4075
▁qualifying	-10.4078
▁Di	-10.4079
▁filmed	-10.4081
house	-10.4083
▁equal	-10.4095
▁standards	-10.4095
▁specifically	-10.4101
▁eye	-10.4103
▁Alan	-10.4105
▁Colonel	-10.4109
▁42	-10.4111
▁1939	-10.4119
▁guitarist	-10.4125
▁identity	-10.4125
▁decade	-10.4131
▁signal	-10.4131
▁biggest	-10.4132
▁Puerto	-10.4137
▁1997.	-10.4144
"),	-10.4145
▁fishing	-10.4148
▁device	-10.4151
▁doctor	-10.4152
▁poems	-10.4154
▁objects	-10.4156
▁ruled	-10.4157
▁Campbell	-10.4158
town	-10.4158
▁showing	-10.4161
▁Metropolitan	-10.4163
▁incident	-10.4164
▁Hills	-10.4164
▁drawn	-10.4166
▁Ward	-10.4166
▁occur	-10.4174
▁Information	-10.4178
▁1954	-10.4178
▁Grant	-10.4179
▁Brothers	-10.4183
▁NCAA	-10.4184
▁tons	-10.419
▁competitions	-10.4191
sa	-10.4193
▁internal	-10.4198
▁core	-10.4205
▁tall	-10.4208
rs	-10.4211
▁surrounded	-10.4213
▁Sarah	-10.4213
▁1955	-10.4218
▁delivered	-10.422
▁hour	-10.4227
▁improved	-10.4231
▁Daily	-10.4231
ter	-10.4231
▁secret	-10.4231
▁covering	-10.4239
▁colour	-10.4244
including	-10.4246
▁Tim	-10.425
▁caught	-10.4253
▁Draft	-10.4256
▁Louisiana	-10.4256
▁parliament	-10.4269
▁introduction	-10.4271
▁Cleveland	-10.4275
▁grown	-10.4276
▁accused	-10.4276
▁Girls	-10.429
mi	-10.4294
▁sq	-10.4294
▁assembly	-10.4298
ana	-10.43
▁guns	-10.4303
▁Express	-10.4304
▁door	-10.4309
▁friendly	-10.4311
▁medieval	-10.4315
▁Agency	-10.4317
▁merchant	-10.4322
▁1906	-10.4325
▁committed	-10.433
well	-10.4334
level	-10.4334
▁Global	-10.4338
elected	-10.4344
▁rose	-10.4346
▁gain	-10.4354
▁hosts	-10.4356
families	-10.4364
▁reign	-10.4365
▁distinguished	-10.4366
▁birds	-10.4368
▁demolished	-10.437
▁easily	-10.4371
▁Un	-10.4372
▁toward	-10.4374
▁save	-10.4374
▁graduation	-10.4374
▁damaged	-10.4386
▁Age	-10.4387
▁1900	-10.4396
ford	-10.4397
ir	-10.4405
▁Nelson	-10.4406
▁Thompson	-10.4407
▁Bowl	-10.4409
▁Studios	-10.4411
▁flag	-10.4424
▁occupation	-10.4428
▁formal	-10.4429
▁Way	-10.4438
▁Israeli	-10.445
▁Upper	-10.4459
▁zone	-10.4463
▁Baltimore	-10.4471
▁Munich	-10.4471
▁Las	-10.4474
▁exhibited	-10.4484
io	-10.4486
▁Internet	-10.4492
▁Austin	-10.4495
▁championships	-10.4497
▁1909	-10.4501
▁1907	-10.4503
▁organ	-10.4503
▁visitors	-10.4505
▁fast	-10.4506
▁electronic	-10.4507
▁junction	-10.4508
▁combination	-10.4513
▁Ukraine	-10.4513
▁75	-10.4516
em	-10.4516
▁boundary	-10.4523
▁Place	-10.4523
▁afterwards	-10.4524
▁Delhi	-10.4529
▁mouth	-10.4533
▁picture	-10.4535
▁Guard	-10.4536
▁1996.	-10.4539
▁Sound	-10.4539
▁tail	-10.4549
▁sculpture	-10.4551
▁causes	-10.4552
▁translation	-10.4556
▁tenure	-10.4559
▁Alliance	-10.4561
▁Boy	-10.4562
▁64	-10.4564
▁ahead	-10.4565
▁map	-10.4566
▁Peace	-10.4567
▁statue	-10.4568
▁Portland	-10.4568
▁1989,	-10.4569
▁observed	-10.4572
▁fleet	-10.4574
▁1953	-10.4575
▁filled	-10.4579
▁talk	-10.4581
▁ownership	-10.4586
▁cemetery	-10.4587
▁techniques	-10.4589
▁abroad	-10.4589
▁weather	-10.4591
▁fruit	-10.4592
+	-10.4594
▁stating	-10.4599
▁39	-10.46
▁speech	-10.46
▁Athletic	-10.4602
▁formally	-10.4609
▁ideas	-10.462
from	-10.4621
▁coaching	-10.4623
▁seventh	-10.4623
ies	-10.4625
▁1987,	-10.4627
▁journey	-10.4628
▁killing	-10.4638
▁presidential	-10.464
▁Milan	-10.4643
▁question	-10.4645
▁mph	-10.4648
▁concerts	-10.4652
▁completing	-10.4656
▁parliamentary	-10.4658
▁Portugal	-10.4659
▁1951	-10.4662
▁Capital	-10.4663
▁eleven	-10.4667
▁marine	-10.467
▁universities	-10.4672
▁heads	-10.4673
▁José	-10.4678
▁grant	-10.468
-19	-10.4684
▁aid	-10.4685
▁Hungarian	-10.4696
▁Command	-10.4699
▁entering	-10.47
▁Knight	-10.4702
▁wind	-10.4709
▁Liga	-10.471
▁fund	-10.4711
▁forming	-10.4711
▁Culture	-10.4715
▁Will	-10.4716
▁ABC	-10.4716
▁1938	-10.4723
▁Gulf	-10.4723
▁kilometers	-10.4727
▁traveled	-10.4728
▁earning	-10.4731
▁Les	-10.4741
▁monument	-10.4745
▁publisher	-10.4745
▁Rev	-10.4751
▁offering	-10.4759
▁Heart	-10.4766
▁instrumental	-10.4768
▁memorial	-10.4773
▁calling	-10.4777
▁Dave	-10.4778
▁popularity	-10.4779
▁orchestra	-10.4779
▁Ken	-10.478
▁completion	-10.4784
▁chance	-10.4786
▁Limited	-10.4794
▁Bo	-10.4802
▁Alfred	-10.4804
▁islands	-10.4806
▁Tournament	-10.4806
▁replacement	-10.4811
▁Symphony	-10.4816
▁reality	-10.4817
▁kill	-10.482
▁Roger	-10.4825
▁path	-10.483
▁1990,	-10.4833
▁Crown	-10.4839
▁contested	-10.4841
▁charged	-10.4841
▁mobile	-10.4843
▁Construction	-10.4844
▁regarding	-10.485
▁homes	-10.4851
▁champions	-10.4856
▁erected	-10.4858
▁architectural	-10.486
▁actions	-10.486
▁sang	-10.4863
▁causing	-10.4866
▁target	-10.4867
▁competing	-10.4871
▁request	-10.4872
▁Dallas	-10.4876
▁shooting	-10.4876
▁landscape	-10.488
▁Kelly	-10.4881
▁honour	-10.4884
▁talent	-10.4888
▁Eric	-10.4889
▁41	-10.4897
▁Karl	-10.4906
▁gene	-10.492
▁Stewart	-10.4921
▁wine	-10.4923
▁Sky	-10.4923
▁1995.	-10.4924
▁reputation	-10.4924
▁controlled	-10.4925
▁venue	-10.4925
▁stopped	-10.4927
▁column	-10.4928
▁criminal	-10.493
▁address	-10.493
▁Vancouver	-10.4931
▁Defense	-10.4932
▁monastery	-10.4937
▁expressed	-10.4946
▁Grade	-10.4947
mann	-10.4948
▁defeating	-10.4951
all	-10.4953
▁whilst	-10.4953
▁relegated	-10.4954
▁Bristol	-10.4956
▁Five	-10.4958
▁inches	-10.4959
▁goods	-10.4967
▁step	-10.497
▁medium	-10.4976
General	-10.4979
▁ago	-10.4981
▁advance	-10.4991
▁armed	-10.4994
▁Faculty	-10.4998
20	-10.5006
▁squadron	-10.5008
▁grand	-10.5017
▁hot	-10.5025
▁annually	-10.5032
▁Russell	-10.5032
▁Islamic	-10.5033
▁1918	-10.5033
▁Your	-10.5036
▁Finland	-10.5041
▁believe	-10.5048
▁Norman	-10.5057
▁pick	-10.5058
▁depth	-10.5058
▁Bangladesh	-10.5062
▁Ed	-10.5064
me	-10.5066
▁downtown	-10.507
▁parallel	-10.5071
▁expedition	-10.5072
▁visual	-10.5073
▁Madrid	-10.509
▁Kennedy	-10.5091
▁beautiful	-10.51
▁Hampshire	-10.5104
▁(4	-10.5105
▁Abbey	-10.5106
▁acid	-10.5107
▁religion	-10.5116
▁Energy	-10.5121
▁Pittsburgh	-10.5122
▁pursue	-10.5124
west	-10.5124
▁drawing	-10.5126
back	-10.5126
▁ill	-10.5129
▁fixed	-10.5135
▁thirty	-10.5151
▁beach	-10.5152
▁Shortly	-10.5157
▁Nova	-10.5157
-18	-10.516
▁posted	-10.5161
▁nomination	-10.5164
▁temporary	-10.5166
▁inaugural	-10.5167
▁raise	-10.517
▁Marshall	-10.5172
▁gender	-10.5173
▁Robinson	-10.5174
▁frame	-10.5175
▁UEFA	-10.5176
▁affairs	-10.5178
▁fuel	-10.5182
▁doctorate	-10.5182
▁mark	-10.5183
▁distinct	-10.5185
▁protected	-10.5187
0	-10.519
▁belonged	-10.5192
▁Wright	-10.5194
▁returns	-10.5202
ite	-10.5208
▁runner	-10.5213
▁Richmond	-10.5218
▁entertainment	-10.5221
▁Princess	-10.5222
▁Ko	-10.5223
ek	-10.5227
▁n	-10.5229
▁carrying	-10.523
▁finals	-10.5232
▁1919	-10.5234
▁ordained	-10.5236
▁soil	-10.5237
▁Yale	-10.5247
▁missing	-10.5247
▁technique	-10.5252
▁Player	-10.5255
▁Per	-10.5256
▁1910	-10.5257
▁Convention	-10.5259
▁hits	-10.5259
▁advertising	-10.526
▁instruments	-10.5262
▁DC	-10.5263
▁invasion	-10.5266
▁don	-10.5271
▁Alex	-10.5279
▁Trade	-10.5285
▁measure	-10.5285
▁1929	-10.5286
▁Mo	-10.5289
▁1994.	-10.5296
▁linked	-10.5298
▁Soccer	-10.53
▁Wall	-10.5309
▁What	-10.531
▁documents	-10.531
▁1928	-10.5312
▁Graham	-10.5312
im	-10.5313
▁Archbishop	-10.5319
▁scheme	-10.5319
▁stages	-10.5321
▁electoral	-10.5323
▁Front	-10.5328
▁touring	-10.5328
▁1937	-10.533
▁remainder	-10.534
▁housed	-10.534
▁Authority	-10.5341
▁greatest	-10.5343
ak	-10.5346
▁directors	-10.5346
▁Da	-10.5347
▁motion	-10.5362
▁Natural	-10.5372
▁charges	-10.5381
▁pool	-10.5384
▁Morris	-10.5385
▁capture	-10.5389
▁nuclear	-10.5392
ten	-10.5394
▁responsibility	-10.5399
▁Orleans	-10.54
▁dam	-10.5402
▁Until	-10.5402
▁actual	-10.5406
▁details	-10.5407
▁vocal	-10.5408
▁enrolled	-10.541
▁Roy	-10.5411
▁1924	-10.5418
▁collaborated	-10.5421
▁heritage	-10.5423
▁1988,	-10.5427
▁strength	-10.5427
▁arrival	-10.5437
▁concrete	-10.5442
▁adapted	-10.5442
▁license	-10.5444
▁Ho	-10.5446
▁Adams	-10.545
▁kW	-10.5452
▁budget	-10.5453
▁Chi	-10.5458
▁1935	-10.5458
▁Jazz	-10.5459
▁actors	-10.5461
▁orders	-10.5462
▁Du	-10.5462
▁Pierre	-10.5463
▁businessman	-10.5465
▁vessel	-10.5466
ty	-10.5479
-17	-10.5483
▁purposes	-10.5484
▁Additionally	-10.5487
▁landing	-10.5488
▁Economic	-10.5489
▁camera	-10.5489
▁Jordan	-10.549
▁Hungary	-10.549
▁attracted	-10.5491
▁script	-10.5492
▁1992.	-10.5499
▁1993.	-10.5502
▁48	-10.5503
▁Fair	-10.5503
▁physics	-10.5505
▁surviving	-10.5514
▁somewhat	-10.5516
▁scholar	-10.552
▁justice	-10.5524
▁occasionally	-10.5524
▁Adelaide	-10.5527
▁Mission	-10.5527
▁represents	-10.5527
▁evening	-10.5528
▁photography	-10.5533
▁marketing	-10.554
▁weapons	-10.5541
▁Together	-10.5543
▁Ka	-10.5543
▁Serie	-10.5549
▁Nigeria	-10.5551
▁retiring	-10.5553
▁influential	-10.5563
▁drafted	-10.5566
▁banks	-10.557
▁Mill	-10.557
▁till	-10.557
▁Soon	-10.5578
▁Bruce	-10.5578
▁resident	-10.5584
▁sentenced	-10.5591
▁roughly	-10.5595
▁personnel	-10.5601
▁Brazilian	-10.5606
▁measures	-10.5607
▁ceased	-10.5607
▁credit	-10.5613
▁Indonesia	-10.5614
▁manufacturing	-10.5614
née	-10.562
▁terminus	-10.5621
▁print	-10.5625
▁surgery	-10.5626
▁Victorian	-10.5629
▁1922	-10.5637
▁Na	-10.5639
▁prepared	-10.5639
▁Commissioner	-10.5644
▁Communications	-10.5645
▁underground	-10.5646
sky	-10.565
later	-10.5652
▁maintain	-10.5653
▁preserved	-10.5661
▁fan	-10.5661
▁charts	-10.5664
▁printed	-10.5666
▁newspapers	-10.5668
mer	-10.5671
▁nothing	-10.5671
▁shares	-10.5671
▁Franklin	-10.5674
▁tennis	-10.5685
za	-10.5686
▁Thus	-10.5693
Y	-10.5697
▁survey	-10.5698
▁traded	-10.5702
▁1986,	-10.5702
▁Champions	-10.5703
▁learn	-10.5704
▁reduce	-10.5704
▁Ottoman	-10.5706
▁Our	-10.5715
We	-10.5721
▁Champion	-10.5722
foot	-10.5722
▁Lower	-10.5723
▁Hans	-10.5724
▁perhaps	-10.5724
▁defensive	-10.5724
▁NHL	-10.5725
▁platforms	-10.5726
▁classified	-10.5726
▁Murray	-10.5732
▁wings	-10.5732
▁Defence	-10.5737
▁Far	-10.5738
▁why	-10.5741
▁Jimmy	-10.5743
▁Belgian	-10.5744
▁Ryan	-10.5752
▁mind	-10.5753
▁Iron	-10.5753
▁1991.	-10.5765
ate	-10.5765
▁Maine	-10.5769
▁1890	-10.5769
US	-10.5778
▁suicide	-10.5779
▁attorney	-10.5784
▁Commons	-10.5793
▁55	-10.5793
▁literacy	-10.5796
▁unusual	-10.5797
▁Christopher	-10.5797
▁Here	-10.5799
▁Malaysia	-10.5802
▁49	-10.5808
▁grows	-10.5812
▁Challenge	-10.5814
▁Moon	-10.5814
▁naval	-10.5815
▁coastal	-10.5816
▁restoration	-10.5816
▁Along	-10.5818
▁Just	-10.582
▁bad	-10.5824
▁premiere	-10.5829
▁laws	-10.5829
▁storage	-10.583
▁sponsored	-10.583
▁negative	-10.5839
▁1914	-10.584
▁involving	-10.5841
ization	-10.5844
▁Canal	-10.5844
▁videos	-10.5846
▁lecturer	-10.5847
▁Baptist	-10.5855
▁Jews	-10.5856
▁experienced	-10.5858
▁creative	-10.5866
▁communication	-10.5867
▁experiences	-10.5869
▁mountains	-10.5873
▁forests	-10.5875
▁sequence	-10.588
▁movies	-10.5882
story	-10.5882
▁Having	-10.5884
ized	-10.5886
▁agriculture	-10.5886
▁occasions	-10.5887
▁charity	-10.5888
▁seconds	-10.5888
▁plane	-10.5889
▁Ukrainian	-10.5901
▁Studio	-10.5902
▁descent	-10.5904
▁extremely	-10.5905
▁Matt	-10.5908
▁t	-10.5909
▁Iraq	-10.591
▁Works	-10.5911
▁peaked	-10.5913
▁Stanley	-10.5916
▁Inter	-10.5919
▁YouTube	-10.5922
▁Labor	-10.5923
▁affected	-10.5923
▁Bad	-10.5931
▁let	-10.5931
▁1927	-10.5931
▁Utah	-10.5932
ani	-10.5939
don	-10.594
mm	-10.5943
▁steam	-10.5945
▁Girl	-10.5945
▁Count	-10.5947
▁Urban	-10.5949
▁domain	-10.5949
ally	-10.5951
si	-10.5951
▁heat	-10.5957
▁Victor	-10.5959
▁sat	-10.5964
▁plus	-10.5965
▁1933	-10.597
▁1880	-10.5971
▁AD	-10.5971
▁Nick	-10.5975
▁Back	-10.5975
▁rival	-10.5984
▁1985,	-10.5985
▁Chamber	-10.5985
▁filed	-10.5988
▁assistance	-10.5989
▁coverage	-10.5996
▁Movement	-10.5997
▁testing	-10.6
▁mean	-10.6003
▁adding	-10.6003
▁Jerusalem	-10.6006
▁resistance	-10.6011
▁am	-10.6024
yan	-10.6026
head	-10.603
▁Matthew	-10.6035
▁trading	-10.6036
▁Diocese	-10.6036
▁1934	-10.6037
▁Around	-10.6042
▁streets	-10.6044
▁duo	-10.6046
ad	-10.605
▁drummer	-10.6057
▁b	-10.6058
▁See	-10.6062
▁continuing	-10.6064
▁Attorney	-10.6064
▁injuries	-10.6066
▁Economics	-10.6074
▁Baseball	-10.6074
▁equipped	-10.6078
▁arm	-10.6084
▁discovery	-10.6092
▁authors	-10.6093
▁merger	-10.6099
▁Sa	-10.6099
▁Pat	-10.6101
▁determine	-10.6101
▁1923	-10.6104
▁Round	-10.6105
▁Finnish	-10.6106
▁Rights	-10.6109
▁Six	-10.6112
▁link	-10.6113
pa	-10.6116
▁1931	-10.6119
▁cited	-10.6121
▁outer	-10.6122
▁object	-10.6123
season	-10.6134
▁Farm	-10.614
▁pattern	-10.6141
▁swimming	-10.6141
▁eyes	-10.6142
▁demand	-10.6145
▁Tower	-10.6151
▁Even	-10.6152
▁magazines	-10.6154
ny	-10.6157
▁contribution	-10.6157
▁unsuccessful	-10.616
▁violence	-10.6169
▁Kevin	-10.6171
▁respect	-10.6176
▁1917	-10.6178
▁dog	-10.618
▁spending	-10.6184
les	-10.6185
▁reporter	-10.6185
▁(5	-10.6186
▁cycle	-10.6186
▁Meanwhile	-10.6197
▁Fred	-10.6198
▁routes	-10.6201
▁festivals	-10.6213
▁huge	-10.6216
▁visible	-10.6223
-2	-10.6225
▁travelled	-10.6237
▁worth	-10.6242
▁Trophy	-10.6244
▁Berkeley	-10.6249
▁Currently	-10.6252
▁inter	-10.6254
▁Leeds	-10.6255
▁rounds	-10.6255
▁inducted	-10.6257
▁productions	-10.6258
▁corporate	-10.6258
▁decides	-10.6258
▁1932	-10.6262
▁1984,	-10.6265
▁Within	-10.6267
▁Amsterdam	-10.627
▁Chart	-10.6272
▁freedom	-10.6272
▁description	-10.6273
▁cards	-10.6275
▁Senator	-10.6286
▁commanded	-10.6297
▁Story	-10.6301
▁amongst	-10.6303
per	-10.6303
▁palace	-10.6306
▁g	-10.6314
▁volumes	-10.6315
▁examples	-10.6318
▁Battalion	-10.6326
▁Nazi	-10.6328
▁Branch	-10.6331
▁managing	-10.6331
▁cabinet	-10.6343
▁subsidiary	-10.6345
▁Benjamin	-10.6346
▁medals	-10.6346
▁suffering	-10.6347
▁Baker	-10.6349
more	-10.6357
▁Carter	-10.636
▁hair	-10.6361
▁lasted	-10.6362
▁rejected	-10.6365
▁trail	-10.6369
▁Falls	-10.637
▁Charlotte	-10.6383
▁grandson	-10.6387
ini	-10.6387
▁Broadcasting	-10.6387
La	-10.6388
▁1945,	-10.6394
profit	-10.6396
▁Billy	-10.6396
▁bringing	-10.6397
▁picked	-10.6406
▁relative	-10.641
ard	-10.6417
▁genre	-10.6423
lo	-10.6424
▁academy	-10.643
▁1989.	-10.6431
▁1912	-10.6432
▁sisters	-10.6435
▁Or	-10.6451
▁divisions	-10.6455
▁concluded	-10.6456
star	-10.6458
han	-10.6461
▁Racing	-10.6463
▁document	-10.6464
▁chapter	-10.6465
▁1921	-10.6467
▁existed	-10.6471
▁Mitchell	-10.6474
▁executed	-10.6479
▁Alice	-10.6481
▁Fe	-10.6484
▁Professional	-10.6484
▁1926	-10.6488
▁funded	-10.649
▁chemical	-10.6493
▁Dam	-10.65
▁Metro	-10.65
▁solution	-10.6503
▁values	-10.6504
term	-10.651
▁exhibitions	-10.6512
▁fired	-10.6518
▁blocks	-10.6528
▁Students	-10.6531
▁Carlos	-10.6534
▁Rico	-10.6535
▁Cultural	-10.6535
▁43	-10.6537
▁turning	-10.654
▁Chile	-10.6544
▁elder	-10.6546
▁equivalent	-10.6549
▁devices	-10.6551
▁extensively	-10.6552
▁Basketball	-10.6554
▁wants	-10.6568
▁Initially	-10.6568
▁understanding	-10.6569
▁Shah	-10.657
▁finding	-10.657
▁habitat	-10.6571
▁considerable	-10.6572
▁circuit	-10.6576
▁statement	-10.6577
▁Week	-10.658
▁adaptation	-10.6581
▁note	-10.6582
▁Barbara	-10.6585
▁solid	-10.659
▁capable	-10.6591
▁gallery	-10.6591
▁guard	-10.6593
▁marry	-10.6595
▁devoted	-10.6596
▁Unlike	-10.6598
style	-10.6603
▁persons	-10.6603
▁coached	-10.6612
▁feel	-10.6621
▁Petersburg	-10.6624
▁Beijing	-10.6627
▁ethnic	-10.664
▁List	-10.6644
▁1925	-10.6645
team	-10.6645
▁52	-10.6648
▁Taiwan	-10.6651
▁Schools	-10.6652
▁intelligence	-10.666
▁Manhattan	-10.6666
-20	-10.6667
▁wild	-10.6669
called	-10.6669
▁honors	-10.6672
▁Who	-10.6673
▁Orange	-10.6676
▁chamber	-10.6678
▁physician	-10.6678
▁skin	-10.6683
▁challenge	-10.6685
▁FA	-10.6687
▁affiliated	-10.6689
▁eliminated	-10.6692
▁outstanding	-10.6696
▁Catherine	-10.6699
ce	-10.67
▁suspended	-10.6704
▁boats	-10.6705
▁Donald	-10.6705
▁capita	-10.6718
▁Su	-10.6721
▁Florence	-10.6721
▁nearest	-10.6724
▁Chair	-10.6726
▁aspects	-10.6726
▁inner	-10.6727
▁severe	-10.6728
▁Political	-10.6732
▁achieve	-10.6734
kin	-10.6735
▁declined	-10.6737
▁thousands	-10.6737
▁illness	-10.6737
▁credits	-10.6741
▁Municipal	-10.6741
▁Johnny	-10.675
▁Technical	-10.6752
▁Ram	-10.6754
▁costs	-10.6755
▁1850	-10.6757
▁drew	-10.6758
▁portrait	-10.6759
▁Han	-10.6759
▁Operation	-10.6771
▁suggests	-10.6774
▁strongly	-10.6775
▁otherwise	-10.6779
▁struck	-10.6782
▁Finance	-10.6783
▁questions	-10.6785
▁Sport	-10.6787
▁Nicholas	-10.6789
▁Run	-10.6792
▁1889	-10.6796
▁46	-10.6801
▁contrast	-10.6802
▁dynasty	-10.6804
▁walk	-10.6804
chi	-10.6805
▁cup	-10.6808
ish	-10.6818
bo	-10.6819
▁Thailand	-10.6822
▁HMS	-10.6822
▁tied	-10.6823
▁compilation	-10.6828
▁Orthodox	-10.6834
▁Cooper	-10.6844
▁Disney	-10.6846
▁cattle	-10.6849
▁Cricket	-10.6851
▁Alberta	-10.6854
▁twin	-10.6858
▁assisted	-10.686
ous	-10.6861
lu	-10.6866
▁fort	-10.6871
▁Warren	-10.6871
▁1983,	-10.6871
▁enjoyed	-10.6874
▁changing	-10.688
▁En	-10.6883
air	-10.6884
▁1000	-10.6884
▁Jay	-10.6889
▁Bush	-10.6893
▁Auckland	-10.6899
▁Bernard	-10.6899
▁golf	-10.6902
▁Transport	-10.6905
va	-10.6908
▁Evans	-10.6914
▁die	-10.6919
▁assists	-10.6922
▁segment	-10.6924
▁1982,	-10.6925
▁produces	-10.6926
▁tools	-10.6927
▁modified	-10.6931
▁1987.	-10.6932
▁criticized	-10.6935
▁Democrat	-10.6938
ant	-10.6945
▁Century	-10.6946
▁1,000	-10.6949
▁Literature	-10.6949
▁soundtrack	-10.6953
▁sailed	-10.6953
▁DJ	-10.6957
▁displayed	-10.6962
▁speak	-10.6963
▁fitted	-10.6966
▁photographs	-10.6969
▁inherited	-10.6971
not	-10.6972
▁margin	-10.6982
▁wedding	-10.6983
▁secure	-10.6992
▁ensure	-10.6999
▁retail	-10.7
▁task	-10.7004
▁assist	-10.7005
▁row	-10.7008
▁hip	-10.7008
▁instrument	-10.7009
▁Barcelona	-10.701
▁buy	-10.7013
era	-10.7017
▁tribe	-10.7018
▁thereafter	-10.7019
▁wealthy	-10.7027
▁cold	-10.7031
▁venture	-10.7034
▁1990.	-10.7037
▁Organization	-10.7038
▁franchise	-10.7038
▁reform	-10.7041
▁Villa	-10.7046
▁customers	-10.7052
▁Bible	-10.7053
▁Serbian	-10.7057
▁cap	-10.7061
ment	-10.7061
▁farming	-10.7062
▁fee	-10.7065
founded	-10.7065
▁element	-10.7066
▁internationally	-10.7067
▁colonial	-10.7068
▁advantage	-10.7069
▁strike	-10.707
▁Athens	-10.707
▁hometown	-10.707
▁Constitution	-10.7072
▁maintenance	-10.7073
▁audio	-10.7073
▁1972,	-10.7073
▁(6	-10.7078
▁manuscript	-10.7081
▁Jacob	-10.7088
▁reaction	-10.7088
▁supports	-10.7088
▁Charlie	-10.7089
▁vessels	-10.7095
▁Hawaii	-10.7098
▁require	-10.7099
▁Seven	-10.7109
▁Stanford	-10.7109
▁photo	-10.711
▁+	-10.711
▁mounted	-10.7111
▁argued	-10.7111
▁frequent	-10.7112
▁1986.	-10.7121
▁lay	-10.7121
▁sand	-10.7126
▁Venice	-10.7131
▁everything	-10.7131
winning	-10.7132
▁1988.	-10.7133
▁terminal	-10.7135
▁eggs	-10.7136
▁Blues	-10.7137
died	-10.7139
▁broadcasting	-10.714
▁Down	-10.714
▁scholars	-10.7144
▁bird	-10.7145
▁Part	-10.7147
so	-10.7147
▁nor	-10.7149
▁suburb	-10.7154
▁manner	-10.7156
▁NY	-10.716
▁satellite	-10.7161
▁slow	-10.7163
▁requirements	-10.7164
▁expression	-10.717
▁spell	-10.7179
▁undergraduate	-10.7183
▁1979,	-10.7184
▁Newcastle	-10.7187
▁Test	-10.7191
mo	-10.72
▁Trail	-10.72
▁Vermont	-10.7201
▁facing	-10.7202
▁Helen	-10.7203
▁focuses	-10.7203
▁message	-10.7206
▁qualify	-10.7209
▁riding	-10.7211
▁Unit	-10.7212
▁criticism	-10.7213
▁opportunities	-10.7215
▁option	-10.7215
▁controversial	-10.7216
▁gone	-10.7218
▁nephew	-10.7225
▁mode	-10.7225
▁rescue	-10.7228
▁Hart	-10.7229
▁attributed	-10.723
▁Fleet	-10.7231
▁apartment	-10.7236
▁reaches	-10.7237
▁elementary	-10.7238
▁47	-10.724
▁1974,	-10.724
▁insurance	-10.7243
▁concerns	-10.7244
▁spots	-10.7245
▁Arkansas	-10.7249
▁Historical	-10.7256
▁easy	-10.7257
▁difference	-10.7258
▁Ice	-10.7258
▁counties	-10.726
▁representation	-10.7269
▁thesis	-10.7269
▁prime	-10.7274
▁NBA	-10.7275
▁departure	-10.7278
▁organised	-10.728
▁expert	-10.7281
▁Wild	-10.7293
der	-10.7293
▁1981,	-10.7294
▁significantly	-10.7297
▁Hope	-10.7297
▁Jeff	-10.7298
▁participation	-10.7299
▁processes	-10.73
ol	-10.7307
▁writes	-10.731
▁horses	-10.7311
▁describe	-10.7318
▁Pre	-10.7319
▁meetings	-10.7319
▁prisoners	-10.7319
▁Springs	-10.7321
▁controversy	-10.7322
▁Warner	-10.7323
we	-10.7325
▁Am	-10.7327
▁Po	-10.733
▁Junction	-10.7331
▁competitive	-10.7334
▁Kings	-10.7338
▁spoke	-10.7343
month	-10.7346
▁victims	-10.7348
▁(16	-10.7349
▁Del	-10.735
Q	-10.735
▁approval	-10.7351
ier	-10.7353
▁Primary	-10.7354
▁Glen	-10.7354
▁brain	-10.7359
▁proper	-10.736
▁decorated	-10.7362
▁Phil	-10.7365
▁1908	-10.7366
▁sole	-10.7369
her	-10.7377
▁powers	-10.7379
▁widow	-10.7381
▁qualification	-10.7383
▁exists	-10.7383
▁involvement	-10.7389
▁refer	-10.7393
▁begun	-10.7397
▁crosses	-10.7397
▁Last	-10.7407
ino	-10.7409
▁Wayne	-10.7412
▁Turner	-10.7413
▁Arabic	-10.7414
▁relief	-10.7416
▁chemistry	-10.7417
▁CBS	-10.7418
▁seed	-10.7419
▁topics	-10.7421
▁phone	-10.7423
▁1913	-10.7426
▁Zone	-10.7427
▁cinema	-10.7448
con	-10.7451
▁Gary	-10.7452
▁Lloyd	-10.7453
▁context	-10.7453
▁locally	-10.7453
▁threatened	-10.7456
▁tackles	-10.7456
▁switched	-10.7456
▁Die	-10.7461
▁Base	-10.7462
▁Stockholm	-10.7462
▁64,	-10.7463
▁SC	-10.7463
▁conductor	-10.7463
▁partners	-10.7465
▁Tri	-10.7473
ting	-10.7474
▁requires	-10.7476
▁1985.	-10.7479
▁rated	-10.7482
▁drop	-10.7482
▁1870	-10.7483
▁penalty	-10.7486
▁Baronet	-10.7488
▁rising	-10.7493
▁Lu	-10.7494
▁(15	-10.7494
▁apparently	-10.7497
He	-10.7501
▁economics	-10.7501
▁happened	-10.7506
▁roots	-10.7506
▁Computer	-10.7507
▁accessible	-10.7508
▁components	-10.7509
▁1945.	-10.7509
▁Shanghai	-10.751
▁thousand	-10.7515
▁initiative	-10.7516
▁Norfolk	-10.7518
▁Jo	-10.752
▁Virgin	-10.7527
▁secured	-10.7527
▁Windows	-10.7531
▁Caribbean	-10.7538
▁Ki	-10.7556
▁photographer	-10.7559
▁1916	-10.756
▁1978,	-10.7564
▁leaf	-10.7571
▁Yu	-10.7583
▁portrayed	-10.7583
minute	-10.7586
▁behalf	-10.7589
▁Borough	-10.7591
bar	-10.7594
▁Places	-10.7595
▁encouraged	-10.7596
▁bay	-10.76
▁shore	-10.7602
east	-10.7611
▁Mediterranean	-10.7611
▁colony	-10.7612
end	-10.7613
▁VI	-10.7614
▁soldier	-10.7618
▁panel	-10.7619
▁string	-10.762
▁motor	-10.7624
▁occasion	-10.7626
▁Market	-10.7628
▁Cook	-10.7633
▁waters	-10.7637
▁beating	-10.7645
▁legend	-10.7653
▁benefit	-10.7655
▁Systems	-10.7657
▁Parker	-10.7659
▁Nashville	-10.7659
led	-10.7659
▁tell	-10.767
▁crown	-10.7675
▁courts	-10.7675
▁ranks	-10.7677
▁Industrial	-10.7677
▁Derby	-10.768
▁recipient	-10.7682
▁powered	-10.7686
▁progress	-10.769
▁44,	-10.7693
▁limit	-10.7695
▁250	-10.77
▁1975,	-10.7702
▁Cincinnati	-10.7703
▁Wellington	-10.7705
▁sessions	-10.7706
▁eighth	-10.7708
▁ward	-10.7713
▁markets	-10.7715
▁proposal	-10.7715
▁Chapel	-10.772
▁reportedly	-10.7724
▁Andy	-10.773
▁Rangers	-10.7731
▁Hugh	-10.7736
▁commenced	-10.7737
▁illegal	-10.7737
type	-10.7738
▁settlers	-10.7739
▁Buffalo	-10.774
▁ministry	-10.7745
▁1984.	-10.7745
▁appeal	-10.7747
▁Kenya	-10.7748
▁Ridge	-10.7751
▁producers	-10.7754
▁Books	-10.7755
▁themes	-10.7757
▁recommended	-10.7757
▁missed	-10.7763
▁Play	-10.7763
▁bit	-10.7772
▁none	-10.7776
▁feed	-10.7779
í	-10.7781
▁Death	-10.779
ci	-10.7801
▁safe	-10.7807
▁conservation	-10.7812
▁loaned	-10.7814
▁1976,	-10.7819
▁jobs	-10.783
▁gradually	-10.7836
▁crisis	-10.7842
▁Exchange	-10.7846
▁legislation	-10.7849
▁obtain	-10.785
▁arrest	-10.7853
▁institute	-10.7856
▁Americans	-10.786
mar	-10.7862
▁rivers	-10.7863
▁activist	-10.7863
▁smooth	-10.7865
▁roster	-10.7866
▁Hebrew	-10.7869
▁fled	-10.787
▁convention	-10.7873
▁1864	-10.7875
▁AM	-10.7876
▁longest	-10.7877
▁Commerce	-10.7881
▁1968,	-10.7888
▁experimental	-10.7892
▁1944,	-10.7893
▁birthday	-10.7897
▁factor	-10.7898
▁incumbent	-10.7898
ger	-10.7904
▁1971,	-10.7905
▁Food	-10.7906
▁Pradesh	-10.7908
▁disbanded	-10.791
▁Ian	-10.7912
▁Herbert	-10.7924
▁NBC	-10.7925
▁Copenhagen	-10.7929
▁Hamburg	-10.7931
▁editions	-10.7933
▁51	-10.7936
net	-10.7938
▁Socialist	-10.7942
▁Muhammad	-10.7943
▁resignation	-10.7946
▁integrated	-10.7951
▁instance	-10.7952
▁drums	-10.7954
▁1980,	-10.7955
▁doesn	-10.7957
▁Digital	-10.7959
▁Friday	-10.7959
▁Parish	-10.796
▁legs	-10.7962
▁Anti	-10.7966
▁Romania	-10.7967
▁teach	-10.7967
▁DNA	-10.7975
▁mix	-10.7976
▁Gray	-10.7978
▁f	-10.7978
▁1969,	-10.7981
▁spirit	-10.7983
▁latest	-10.7983
▁output	-10.7992
▁fifteen	-10.7992
▁Standard	-10.8006
▁file	-10.8008
▁characterized	-10.8011
▁locomotives	-10.8014
▁Dakota	-10.8017
hi	-10.8022
▁Brisbane	-10.8028
▁differences	-10.8029
▁hundreds	-10.803
▁alleged	-10.8033
▁Eventually	-10.8033
q	-10.8042
▁copy	-10.8046
▁Masters	-10.8059
▁1882	-10.8061
▁1983.	-10.8062
▁Survey	-10.8066
▁earn	-10.8073
▁vision	-10.8073
▁Cuba	-10.8074
ik	-10.8075
▁moment	-10.8077
▁ticket	-10.8079
▁infrastructure	-10.8081
▁1863	-10.8084
▁tie	-10.8087
No	-10.8089
▁anything	-10.809
▁Saints	-10.8091
over	-10.8093
▁Oliver	-10.81
▁employment	-10.8101
▁super	-10.8105
▁agencies	-10.8105
▁minimum	-10.8106
▁fly	-10.8108
▁1977,	-10.8111
▁Vincent	-10.8111
▁emergency	-10.8111
▁Territory	-10.8112
▁tank	-10.8122
▁Prague	-10.8127
▁summit	-10.8129
▁behavior	-10.8132
▁operational	-10.8132
▁Romanian	-10.8145
▁1979.	-10.8148
▁1982.	-10.8151
▁Costa	-10.8152
ship	-10.8154
▁Secondary	-10.8156
▁conduct	-10.8156
▁BA	-10.8161
▁Industry	-10.8162
▁walking	-10.8164
▁advice	-10.8165
▁Short	-10.8167
▁establishing	-10.8167
▁Arena	-10.8179
▁Instead	-10.818
▁Barry	-10.8186
▁Hunter	-10.819
▁Luke	-10.8191
▁parent	-10.8196
▁columns	-10.8196
ا	-10.8196
▁Guy	-10.8197
▁RAF	-10.8198
!"	-10.8198
▁partly	-10.8205
▁Ottawa	-10.8206
▁Stars	-10.8207
▁thick	-10.8207
▁assets	-10.8208
▁ratio	-10.8213
▁acquisition	-10.8221
▁Peninsula	-10.8222
▁Tu	-10.8229
▁Father	-10.823
▁Si	-10.823
▁Model	-10.8235
▁prestigious	-10.8238
▁manage	-10.824
▁transportation	-10.8246
▁electrical	-10.8249
▁absence	-10.8249
▁Hudson	-10.8253
▁Woman	-10.8262
▁Jason	-10.8265
▁accept	-10.8266
▁1973,	-10.8266
▁aim	-10.827
▁Serbia	-10.8273
▁crowd	-10.8274
▁120	-10.8277
▁grey	-10.8279
▁$1	-10.8279
▁Harrison	-10.8281
final	-10.8281
▁manufacturer	-10.8282
▁favor	-10.8284
ura	-10.8286
▁ranking	-10.8286
▁symbol	-10.8286
▁inspiration	-10.8289
▁stable	-10.8298
▁survive	-10.8299
▁initiated	-10.8301
▁outbreak	-10.8303
▁participants	-10.8303
▁aimed	-10.8305
▁sees	-10.8306
▁labor	-10.8307
▁cable	-10.8307
bi	-10.8315
▁originated	-10.8317
▁missions	-10.832
▁Drive	-10.8321
▁accounts	-10.8322
▁thin	-10.8323
▁specialized	-10.8323
▁connecting	-10.8323
2.	-10.8328
▁Throughout	-10.8336
▁Much	-10.8338
▁MA	-10.8338
▁offensive	-10.8342
▁Ron	-10.8343
▁constant	-10.8343
▁Val	-10.8343
▁watch	-10.8346
▁shops	-10.8353
▁Lanka	-10.8355
▁Dick	-10.8364
▁1860	-10.8364
▁São	-10.8366
Star	-10.8369
▁centers	-10.8371
▁consultant	-10.8374
▁opinion	-10.8376
▁apart	-10.838
▁elevated	-10.8381
▁Action	-10.8381
▁finance	-10.8387
▁Ku	-10.8387
-3	-10.8387
▁spoken	-10.8389
▁mention	-10.8392
▁Child	-10.8393
▁participating	-10.8393
▁planet	-10.8394
▁adults	-10.8395
▁recovered	-10.8395
▁Work	-10.8397
▁ride	-10.8397
▁Range	-10.8397
▁promoting	-10.8398
▁mental	-10.841
▁Mi	-10.8411
▁Jon	-10.8411
▁pioneer	-10.8411
wing	-10.8419
▁Years	-10.842
▁Mumbai	-10.842
▁depending	-10.842
▁Jonathan	-10.8423
New	-10.8424
▁beauty	-10.8428
▁resumed	-10.8439
▁Phoenix	-10.844
▁massive	-10.844
▁(12	-10.8454
▁rapidly	-10.8455
▁vocalist	-10.8458
▁rocks	-10.8458
finals	-10.846
dy	-10.8464
▁renowned	-10.8466
▁Wang	-10.8467
▁shopping	-10.847
▁Warsaw	-10.8477
▁exclusively	-10.8477
▁Collins	-10.8479
▁decline	-10.8483
▁divorced	-10.8487
ola	-10.8489
▁transition	-10.8493
▁choose	-10.8494
▁restaurants	-10.8495
▁pianist	-10.8495
▁tropical	-10.8495
▁disc	-10.8497
▁spaces	-10.8499
▁gang	-10.8502
art	-10.8503
▁Video	-10.8503
▁treated	-10.8504
▁choir	-10.8507
hour	-10.8512
▁partially	-10.8512
▁tunnel	-10.8512
▁Holland	-10.8513
▁Common	-10.8514
▁Section	-10.8517
▁sitting	-10.8518
▁doors	-10.8522
▁struggle	-10.8522
▁thing	-10.8524
▁o	-10.8528
▁Lions	-10.8532
▁submarine	-10.8532
▁Ba	-10.8534
▁Policy	-10.8542
▁possession	-10.8543
▁founders	-10.8543
▁Persian	-10.8545
▁policies	-10.8547
▁Gregory	-10.855
▁1905	-10.8554
▁sentence	-10.856
▁strip	-10.8563
▁1967,	-10.8564
ray	-10.8564
▁56	-10.8564
ich	-10.8565
▁(10	-10.8566
▁defence	-10.8566
▁Egyptian	-10.8568
▁Dark	-10.8569
▁flower	-10.8572
▁Craig	-10.8574
▁crash	-10.8576
▁enters	-10.8579
▁54	-10.8581
▁normally	-10.8583
▁farmers	-10.8586
▁add	-10.8587
▁faith	-10.8587
▁1972.	-10.8589
▁pale	-10.8592
je	-10.8594
▁bid	-10.8594
▁Songs	-10.8599
▁links	-10.8599
▁Salt	-10.8599
ney	-10.8605
▁Luis	-10.8605
▁speaking	-10.8609
▁belongs	-10.8609
▁Railways	-10.861
▁Advisory	-10.8614
▁Provincial	-10.8615
▁soft	-10.862
▁everyone	-10.8622
▁Hindu	-10.8623
▁editorial	-10.8624
length	-10.8624
▁Ball	-10.8625
▁Methodist	-10.8627
▁Agriculture	-10.8629
▁closing	-10.8629
▁processing	-10.863
▁Jerry	-10.8634
▁Ni	-10.864
▁Language	-10.8641
car	-10.8645
▁frequency	-10.8645
▁strategy	-10.8649
▁send	-10.865
▁detailed	-10.8651
▁Collection	-10.8652
▁Alaska	-10.8653
▁Late	-10.8654
▁enlisted	-10.8654
▁categories	-10.8655
▁Euro	-10.8655
▁wave	-10.8656
▁Mu	-10.8658
▁Afghanistan	-10.8659
part	-10.8662
▁Vegas	-10.8664
▁representatives	-10.8665
▁exposed	-10.8665
ius	-10.8666
▁useful	-10.8666
▁Bengal	-10.8666
▁1978.	-10.8667
▁weekend	-10.8667
▁abolished	-10.8668
▁denied	-10.8673
▁tours	-10.8675
▁seek	-10.8677
ster	-10.8681
▁connects	-10.8682
▁Grove	-10.8685
▁1.5	-10.8685
▁1981.	-10.8687
▁dual	-10.8687
▁funeral	-10.8691
▁Sheffield	-10.8696
▁practices	-10.8697
▁humans	-10.8705
▁Associate	-10.8706
▁1974.	-10.8713
▁Classic	-10.8713
▁Oak	-10.8714
▁interviews	-10.8716
▁(8	-10.8718
▁speaker	-10.8718
▁classification	-10.8722
▁Oslo	-10.8723
▁farmer	-10.8724
▁10,000	-10.8724
▁Contemporary	-10.8731
▁canal	-10.8735
▁Pa	-10.8738
▁Nation	-10.8742
est	-10.8744
▁Roberts	-10.8744
▁Pop	-10.8746
▁Minor	-10.8753
▁Jose	-10.8763
▁knew	-10.8763
▁Con	-10.8764
▁grave	-10.8766
▁Freedom	-10.8777
▁Johann	-10.878
▁diverse	-10.8782
▁debate	-10.879
▁1977.	-10.8793
▁gay	-10.8797
▁spend	-10.8797
▁hectares	-10.8805
▁pitch	-10.8814
▁suitable	-10.8817
▁external	-10.882
▁1904	-10.8822
▁keeping	-10.8823
▁Electric	-10.8825
▁600	-10.8826
▁1976.	-10.8827
▁innings	-10.8827
▁Dead	-10.8833
▁matters	-10.8834
▁Son	-10.8834
▁Mills	-10.8835
▁Butler	-10.8841
▁Campaign	-10.8847
▁counter	-10.8851
▁Financial	-10.8853
▁ambassador	-10.8858
▁Nevada	-10.8862
▁tier	-10.8864
such	-10.8864
▁Peru	-10.887
▁dissolved	-10.887
▁baby	-10.887
▁Fu	-10.887
▁charter	-10.8874
▁salt	-10.8879
▁internet	-10.8881
▁schedule	-10.8882
▁seeking	-10.8883
▁concerned	-10.8885
▁protest	-10.8888
▁releases	-10.8889
▁fair	-10.8891
▁colors	-10.8893
▁Next	-10.8896
▁excellent	-10.8897
▁increasingly	-10.8899
▁orange	-10.8902
▁Hu	-10.8903
▁tribute	-10.8905
▁explained	-10.8907
▁Mass	-10.8908
▁Drama	-10.8912
▁reviewed	-10.8912
▁Leo	-10.8913
▁communications	-10.8915
▁travels	-10.8917
▁lists	-10.8918
▁greatly	-10.8918
▁1975.	-10.8922
▁viewers	-10.8925
zi	-10.8926
▁1973.	-10.8928
▁clan	-10.8928
gen	-10.8932
kar	-10.8933
▁Indians	-10.8934
▁Seminary	-10.8934
▁Bulgarian	-10.8935
burg	-10.8935
▁Lo	-10.8937
▁settlements	-10.8944
▁Ambassador	-10.8945
▁ranging	-10.8945
▁journalism	-10.895
▁Elementary	-10.8951
▁immigrants	-10.8954
▁permission	-10.8955
▁Tan	-10.8957
▁tournaments	-10.896
▁manufactured	-10.8964
▁Tel	-10.8967
▁commune	-10.8971
▁Shaw	-10.8971
▁expand	-10.8975
▁landed	-10.8975
▁66	-10.898
▁affiliate	-10.8982
▁800	-10.8982
▁emigrated	-10.8982
▁gardens	-10.8982
▁Abu	-10.8983
▁Sr	-10.8985
yard	-10.8987
▁borders	-10.8991
▁indigenous	-10.8991
▁Higher	-10.8997
▁pictures	-10.8998
▁fill	-10.8998
▁concentration	-10.8998
▁1878	-10.8999
▁Small	-10.9
▁exception	-10.9002
▁sugar	-10.9003
▁1971.	-10.9003
▁clothing	-10.9003
▁Code	-10.9005
▁Giovanni	-10.9006
-4	-10.9008
▁throne	-10.9008
▁knots	-10.9009
if	-10.9014
▁Princeton	-10.9015
▁immediate	-10.9017
▁Grace	-10.9018
▁wear	-10.902
▁falling	-10.902
▁1903	-10.9022
▁Athletics	-10.9027
▁Guinea	-10.903
▁monthly	-10.9033
▁Control	-10.9035
▁component	-10.9036
▁extends	-10.9036
▁pages	-10.9038
▁Tigers	-10.9041
▁Nature	-10.9041
▁scientists	-10.9049
▁suit	-10.905
▁1902	-10.905
▁Wolf	-10.9052
▁bed	-10.9055
▁85	-10.9061
▁Fall	-10.9063
▁arrangement	-10.9063
▁submitted	-10.9066
▁guilty	-10.907
▁Every	-10.9075
▁runners	-10.9076
▁Finally	-10.9079
▁burned	-10.9082
▁tests	-10.9083
place	-10.9086
▁unincorporated	-10.909
▁Competition	-10.9092
round	-10.9092
▁closure	-10.9094
▁jump	-10.9097
-16	-10.9098
▁earthquake	-10.9104
▁Raja	-10.9104
▁ready	-10.9106
_	-10.9111
▁Type	-10.9113
▁Race	-10.9114
nes	-10.9118
▁Perth	-10.9126
▁Distinguished	-10.9126
▁clerk	-10.9127
▁spiritual	-10.913
▁patient	-10.913
▁hp	-10.913
▁1965,	-10.9134
▁guide	-10.9136
▁kingdom	-10.9137
▁Season	-10.9138
ber	-10.9142
▁Harbor	-10.9145
che	-10.9146
▁Bus	-10.9148
tz	-10.9148
▁Denver	-10.9154
▁whereas	-10.9158
du	-10.9159
▁moves	-10.9159
▁scientist	-10.9161
▁operator	-10.9161
▁claiming	-10.9162
▁k	-10.9163
▁Pedro	-10.9164
.1	-10.9165
▁cancelled	-10.9169
▁solar	-10.9169
ot	-10.9175
–17	-10.9177
▁Fellowship	-10.9177
▁networks	-10.9179
▁clinical	-10.918
▁Clinton	-10.9184
▁predecessor	-10.9188
▁breaking	-10.9192
▁pairs	-10.9195
▁sing	-10.9197
▁Sub	-10.9198
▁Sultan	-10.9198
▁crossed	-10.9198
▁inscription	-10.9201
▁How	-10.9201
▁mall	-10.9203
▁Philosophy	-10.9207
▁revenue	-10.9207
ex	-10.9211
uk	-10.9214
▁legislature	-10.9214
▁Perry	-10.9214
▁hunting	-10.9219
po	-10.9221
ski	-10.9223
▁repair	-10.9223
▁Anglo	-10.9229
▁Universal	-10.9233
▁Col	-10.9234
▁cargo	-10.9235
jo	-10.9236
▁Wing	-10.9237
▁fame	-10.9239
▁preparation	-10.9239
▁Treaty	-10.9239
▁placing	-10.924
▁publicly	-10.9243
▁sung	-10.9243
▁Morning	-10.925
▁Bath	-10.9251
ns	-10.9253
▁styles	-10.9255
▁Cardinal	-10.9255
▁guests	-10.9256
▁driven	-10.926
▁voting	-10.9267
▁supplies	-10.9269
▁Motor	-10.927
▁circle	-10.927
▁tourist	-10.927
vi	-10.9271
▁Joan	-10.9271
▁Rogers	-10.9273
ung	-10.9275
▁maps	-10.9275
▁perfect	-10.9276
▁tool	-10.9277
▁Hunt	-10.9279
▁athletes	-10.9281
▁congregation	-10.9281
▁substantial	-10.9284
▁bi	-10.9285
hill	-10.929
▁cave	-10.9291
▁recognised	-10.9294
▁strategic	-10.9296
▁parking	-10.9302
▁und	-10.9304
▁dominated	-10.9304
▁intention	-10.9308
▁Tech	-10.9308
ica	-10.9309
▁boundaries	-10.9311
▁jury	-10.9311
▁indicated	-10.9312
▁cash	-10.9313
▁count	-10.9314
down	-10.9317
Chinese	-10.9317
▁origins	-10.9318
▁bound	-10.9319
▁Keith	-10.9319
▁Operations	-10.932
▁SS	-10.9322
▁Manager	-10.9322
ron	-10.9323
▁Mother	-10.9323
▁favour	-10.9323
▁playoffs	-10.9323
▁Plan	-10.9324
▁asks	-10.9324
▁Conservation	-10.9325
▁lb	-10.9326
▁passage	-10.9328
▁1970,	-10.9331
▁threat	-10.9333
▁Side	-10.9336
▁micro	-10.9337
▁Leonard	-10.934
▁Apple	-10.934
▁Milwaukee	-10.9341
▁Dream	-10.9347
founder	-10.9349
▁trials	-10.9356
▁carbon	-10.9358
▁hearing	-10.9359
▁altitude	-10.936
▁1867	-10.9362
▁Further	-10.9365
▁timber	-10.9365
acre	-10.9365
▁Microsoft	-10.9369
▁licensed	-10.9372
▁Westminster	-10.9373
▁fighter	-10.9373
▁(11	-10.9379
▁opponent	-10.938
▁ruling	-10.938
▁vertical	-10.9382
▁Mal	-10.9386
▁forty	-10.9387
▁Guardian	-10.9388
▁fresh	-10.9388
▁fit	-10.9388
▁Mason	-10.9389
▁Murphy	-10.9392
▁Essex	-10.9393
▁|	-10.9395
ella	-10.9396
▁Terry	-10.9397
▁Aviation	-10.94
▁1963,	-10.94
▁dispute	-10.9401
▁1964,	-10.9402
▁Honor	-10.9403
ang	-10.9404
▁legislative	-10.9406
▁channels	-10.9406
▁Horse	-10.9407
▁losses	-10.9409
▁journals	-10.9413
▁Scotia	-10.9414
▁Greater	-10.9418
▁commented	-10.9418
▁Ralph	-10.9422
▁seeds	-10.9423
▁remote	-10.9425
▁Armenian	-10.9429
▁outdoor	-10.9433
▁resort	-10.9435
▁Cruz	-10.9435
”.	-10.9436
▁Otto	-10.9436
▁overseas	-10.9441
▁Nebraska	-10.9442
▁murdered	-10.9442
▁researchers	-10.9444
▁flew	-10.9447
▁Robin	-10.9448
▁storm	-10.945
▁1968.	-10.9451
▁printing	-10.9451
▁1942,	-10.9452
10	-10.9455
▁aviation	-10.9456
▁bear	-10.9456
–18	-10.9457
ston	-10.9464
▁bench	-10.9465
▁1866	-10.9465
▁pupils	-10.9468
▁Singles	-10.947
▁Gen	-10.9471
▁Il	-10.9473
▁Mid	-10.9476
▁57	-10.9477
dale	-10.948
▁Islam	-10.9481
▁recruited	-10.9483
▁seeing	-10.9489
▁1980.	-10.9492
▁Aires	-10.9498
▁Stock	-10.95
▁Lancashire	-10.95
▁periods	-10.9501
▁effectively	-10.9505
▁carries	-10.9506
▁Gilbert	-10.9507
▁judges	-10.9509
▁Madison	-10.951
▁Cole	-10.9512
▁•	-10.9512
gi	-10.9515
▁indicate	-10.9517
▁diocese	-10.9521
▁Canterbury	-10.9522
stone	-10.9523
▁1966,	-10.9526
▁verse	-10.9529
ev	-10.9529
ai	-10.9529
▁1969.	-10.9531
▁Forum	-10.9531
▁emerged	-10.9535
▁Mad	-10.9538
▁stem	-10.9538
▁Rick	-10.9541
▁Edwards	-10.9541
▁manor	-10.9543
α	-10.9544
▁(7	-10.9544
▁Golf	-10.9545
two	-10.9547
▁factors	-10.9547
▁arriving	-10.9548
▁favorite	-10.9549
▁conservative	-10.9551
▁hills	-10.9556
▁withdrew	-10.9557
▁Wells	-10.9559
▁Weekly	-10.9562
lan	-10.9567
▁campaigns	-10.9568
▁Wu	-10.9573
▁Stuart	-10.9574
▁practiced	-10.9575
▁advisor	-10.9578
▁wearing	-10.9579
▁Friedrich	-10.958
▁Penn	-10.9581
▁ninth	-10.9581
sch	-10.9581
▁convicted	-10.9581
▁Pi	-10.9582
▁1901	-10.9583
▁discontinued	-10.9583
point	-10.9587
▁dancing	-10.9589
▁machines	-10.9591
▁cooperation	-10.9591
▁relegation	-10.9591
▁wrestling	-10.9592
▁siblings	-10.9592
▁municipalities	-10.9594
▁1941,	-10.9594
▁tip	-10.9596
▁earth	-10.9596
▁consider	-10.9598
This	-10.9608
▁Bal	-10.9609
ho	-10.961
▁coat	-10.961
▁mechanical	-10.9611
▁Independence	-10.9611
▁Susan	-10.9615
▁decide	-10.9621
*	-10.9625
▁trust	-10.9639
▁banned	-10.9641
▁Circuit	-10.9641
▁rapid	-10.9643
▁giant	-10.9646
▁bomb	-10.9649
▁Lang	-10.9653
▁dismissed	-10.9666
▁regime	-10.9667
▁specimens	-10.9668
▁resolution	-10.9671
▁1967.	-10.9673
▁sun	-10.9675
▁MTV	-10.9676
▁emperor	-10.9678
▁1946,	-10.9679
▁Cork	-10.968
▁Productions	-10.968
▁Laboratory	-10.9688
▁compositions	-10.969
▁nations	-10.969
▁Physics	-10.9691
▁Friends	-10.9701
▁bell	-10.9703
nik	-10.9705
▁gift	-10.9708
▁imprisoned	-10.9709
▁supporters	-10.9709
▁instructor	-10.9713
▁Ivan	-10.9716
▁Buenos	-10.9718
▁designation	-10.9722
▁Larry	-10.9723
▁Durham	-10.9724
▁Chester	-10.9728
▁shoot	-10.9728
▁electricity	-10.973
▁coalition	-10.9732
run	-10.9733
▁Par	-10.9733
▁reporting	-10.9736
▁(9	-10.9737
▁Production	-10.974
▁58	-10.9742
▁Guide	-10.9743
▁Arnold	-10.9745
▁doubles	-10.9747
▁romantic	-10.975
▁USS	-10.975
▁describing	-10.975
▁Abraham	-10.9753
▁Manuel	-10.9756
▁Ghana	-10.9758
▁colonel	-10.9759
▁widespread	-10.9763
▁veteran	-10.9765
▁Sabha	-10.9766
▁drugs	-10.9767
▁Rob	-10.9768
▁extend	-10.9768
▁deployed	-10.9774
▁Hughes	-10.9774
▁raising	-10.9783
▁Watson	-10.9785
▁División	-10.9786
▁53	-10.9788
▁clients	-10.9789
ju	-10.9791
inch	-10.9796
▁Harold	-10.9797
▁Players	-10.9798
▁generated	-10.9798
▁destruction	-10.9799
▁filming	-10.9801
ou	-10.9802
▁implemented	-10.9806
▁mines	-10.9806
▁Grey	-10.9809
▁buses	-10.9815
▁1947,	-10.9815
▁rebounds	-10.9816
Best	-10.9818
▁72	-10.9828
▁Lebanon	-10.9828
cha	-10.9834
▁Joint	-10.9834
▁Price	-10.9838
▁extreme	-10.9838
▁PC	-10.9838
▁underwent	-10.9838
scale	-10.9839
▁laboratory	-10.984
▁jail	-10.9845
▁Colombia	-10.9846
▁62	-10.9847
▁Based	-10.985
▁belonging	-10.9851
ru	-10.9852
▁Philippine	-10.9855
▁Brunswick	-10.9857
You	-10.986
▁Dame	-10.986
▁ongoing	-10.9861
▁industries	-10.9861
▁1877	-10.9861
▁steps	-10.9862
▁Phillips	-10.9865
▁certified	-10.9873
▁installation	-10.9878
▁Angel	-10.9878
▁Iranian	-10.988
▁Punjab	-10.9883
MP	-10.9886
Re	-10.9888
▁Uganda	-10.9889
▁1943,	-10.9892
▁Oscar	-10.9892
▁Admiral	-10.9898
ran	-10.9902
▁wheel	-10.9904
▁Ji	-10.9905
▁movements	-10.9906
▁exhibit	-10.9908
▁locomotive	-10.9911
▁concern	-10.9911
▁Brussels	-10.9912
▁relation	-10.9917
▁UN	-10.9918
▁supposed	-10.9918
▁involves	-10.992
▁anyone	-10.992
▁portraits	-10.9921
▁conventional	-10.9925
▁rarely	-10.9933
▁connections	-10.9935
▁sculptor	-10.9935
▁Municipality	-10.9937
▁wider	-10.9939
▁influences	-10.9941
▁paint	-10.9943
▁hope	-10.9947
▁honored	-10.9948
▁Ke	-10.9949
▁artwork	-10.9953
▁Mars	-10.9953
▁neighboring	-10.9955
▁1830	-10.9966
▁escaped	-10.9966
▁Prefecture	-10.9967
▁lose	-10.9968
▁1966.	-10.9969
▁(17	-10.9969
▁renovated	-10.9969
▁1857	-10.9974
mile	-10.9977
▁59	-10.9979
red	-10.9988
▁Kerala	-10.9995
▁1962,	-10.9995
▁1948,	-10.9996
▁Advanced	-10.9997
ii	-11.0004
▁delivery	-11.0004
▁tributary	-11.0009
▁breeding	-11.0013
▁1939,	-11.0014
▁1961,	-11.0014
▁clean	-11.0015
▁compiled	-11.0015
▁remove	-11.0016
▁Cal	-11.0016
▁departed	-11.0022
▁Such	-11.0023
▁worker	-11.0025
tu	-11.0026
▁animated	-11.0035
▁programmes	-11.0037
▁distinctive	-11.0038
▁rounded	-11.0042
▁plate	-11.0042
▁eligible	-11.0042
▁else	-11.0044
German	-11.0046
▁lessons	-11.0047
▁thirteen	-11.0047
▁comprises	-11.0054
▁understand	-11.0054
▁Private	-11.0057
▁receives	-11.0058
▁traveling	-11.0058
▁Principal	-11.0061
▁Rural	-11.0062
▁identify	-11.0063
▁1940,	-11.0066
▁Pictures	-11.0066
▁Coach	-11.007
▁1965.	-11.0072
▁Der	-11.0075
▁Magic	-11.0076
Man	-11.0077
▁Representative	-11.0077
▁repeated	-11.008
▁Anglican	-11.008
▁relationships	-11.0086
▁Marc	-11.0089
▁1869	-11.0089
stein	-11.009
▁Bi	-11.0093
ata	-11.0097
▁Gabriel	-11.01
▁volunteers	-11.0101
▁layer	-11.0102
▁percentage	-11.0102
▁copper	-11.0103
▁Harvey	-11.0107
▁Artists	-11.011
▁profession	-11.011
▁agents	-11.0112
ram	-11.0112
▁Dar	-11.0112
▁63	-11.0113
▁saved	-11.0113
▁fifty	-11.0115
▁serial	-11.0116
▁Sierra	-11.0119
▁Key	-11.0119
▁Raj	-11.0123
▁continuous	-11.0124
▁(13	-11.0127
▁specialist	-11.0127
▁closer	-11.0128
▁tube	-11.0134
▁Ya	-11.0137
Russian	-11.0138
▁traditionally	-11.0139
▁(20	-11.014
▁proteins	-11.0142
?"	-11.0143
▁citizen	-11.0143
-21	-11.0146
▁desire	-11.0147
▁linear	-11.0148
que	-11.0149
▁phrase	-11.0151
▁Sheriff	-11.0154
▁Ar	-11.0154
▁Beginning	-11.0155
▁conclusion	-11.0156
izing	-11.016
▁elsewhere	-11.016
▁extent	-11.0162
▁milk	-11.0164
ska	-11.0165
▁characteristic	-11.0169
▁touchdowns	-11.0174
▁Bulgaria	-11.0176
▁alliance	-11.0179
▁renovation	-11.018
▁observation	-11.0182
▁venues	-11.0182
▁Jefferson	-11.0184
▁Pass	-11.0186
▁neck	-11.0192
▁borough	-11.0194
▁deck	-11.0195
▁civilian	-11.0195
▁looks	-11.0196
▁caps	-11.0201
▁Wilhelm	-11.0202
gar	-11.0204
▁Subsequently	-11.0208
▁Artillery	-11.021
▁lectures	-11.0211
shi	-11.0214
▁fourteen	-11.0218
▁marks	-11.0219
▁viewed	-11.0223
▁coaches	-11.0226
▁ruins	-11.0228
▁61	-11.0231
▁1964.	-11.0232
▁difficulties	-11.0234
▁Bradford	-11.0234
а	-11.0236
▁logo	-11.0237
▁Grammar	-11.0238
▁Confederate	-11.0239
▁exclusive	-11.0243
▁Shi	-11.0243
▁assault	-11.025
▁LP	-11.0251
▁trio	-11.0252
▁facade	-11.0253
▁Thai	-11.0254
▁texts	-11.0256
▁3-	-11.0259
ive	-11.026
related	-11.0262
▁transmission	-11.0265
▁signs	-11.0266
▁lowest	-11.0267
formerly	-11.0268
▁approached	-11.0268
▁artillery	-11.0269
▁conversion	-11.0276
▁Rail	-11.0277
▁(18	-11.0278
▁theatrical	-11.028
▁workshops	-11.0281
▁nickname	-11.0283
fi	-11.0285
▁Student	-11.0286
▁personality	-11.0286
▁pursued	-11.0291
▁(19	-11.0292
▁identical	-11.0294
▁Google	-11.0296
▁illustrated	-11.0297
▁Bobby	-11.0297
▁Artist	-11.0302
▁accommodate	-11.0303
▁Besides	-11.0303
-10	-11.0304
▁mansion	-11.0307
▁Dennis	-11.0308
▁defended	-11.0313
let	-11.0315
ful	-11.0316
▁discussed	-11.0317
▁1946.	-11.0317
▁Columbus	-11.032
then	-11.0321
▁1918,	-11.0322
▁athletic	-11.0324
▁Ham	-11.0324
▁Somerset	-11.0326
op	-11.0328
iya	-11.0329
▁consist	-11.0329
sh	-11.034
▁Jamaica	-11.034
▁Chen	-11.0341
▁sounds	-11.0344
▁violin	-11.0345
▁Lin	-11.0352
▁Northwest	-11.0354
▁Stan	-11.0355
▁fun	-11.0355
▁1944.	-11.0356
▁visits	-11.0357
ee	-11.0359
▁MD	-11.0361
▁releasing	-11.0362
▁Inn	-11.0366
▁abuse	-11.0366
▁Bel	-11.0368
▁usual	-11.0368
▁Workers	-11.0378
▁advocate	-11.0388
▁remembered	-11.039
▁sixteen	-11.0394
▁Mel	-11.0394
▁drum	-11.0394
▁Cat	-11.0394
ara	-11.0394
▁na	-11.0396
▁Bull	-11.0399
▁Surrey	-11.0399
▁requested	-11.0399
▁vs	-11.0405
ette	-11.0406
▁1899	-11.041
▁98	-11.041
▁vast	-11.041
▁grades	-11.0415
▁discussion	-11.0415
▁gaining	-11.0417
▁cathedral	-11.0418
ano	-11.0418
▁Eddie	-11.0421
▁locality	-11.0421
▁departments	-11.0422
▁truth	-11.043
▁Monte	-11.0431
▁Eagles	-11.0432
▁bright	-11.0432
▁failing	-11.0434
mon	-11.0435
▁tourism	-11.0435
▁Byzantine	-11.0436
▁2–1	-11.0438
▁Blood	-11.0441
▁knee	-11.0446
ium	-11.0448
▁affair	-11.045
▁dream	-11.0452
▁actively	-11.0452
▁plain	-11.0452
▁bonus	-11.0452
▁Rhode	-11.0455
ut	-11.0456
▁jurisdiction	-11.0459
▁Sussex	-11.0462
▁studios	-11.0463
▁Care	-11.0464
▁Data	-11.0465
▁prototype	-11.0465
▁alcohol	-11.0467
▁Newton	-11.0468
▁limits	-11.0473
▁contributing	-11.0475
▁psychology	-11.0476
▁Raymond	-11.0476
▁sciences	-11.0479
▁supporter	-11.048
▁bordered	-11.048
▁1897	-11.0482
▁rice	-11.0483
▁aboard	-11.0484
free	-11.0487
▁Vol	-11.0487
▁apply	-11.049
▁awareness	-11.0491
▁1885	-11.0494
▁meat	-11.0494
▁Brook	-11.0496
▁Delaware	-11.0497
▁1859	-11.0503
▁Foster	-11.0506
▁believes	-11.0511
▁beam	-11.0523
ku	-11.0523
▁yard	-11.053
▁gate	-11.0531
▁Web	-11.0532
▁Argentine	-11.0534
▁Ground	-11.0534
ary	-11.0539
▁extending	-11.0541
▁snow	-11.0542
▁preferred	-11.0543
▁fictional	-11.0544
▁archaeological	-11.0544
▁spin	-11.0546
▁Bird	-11.0547
▁resides	-11.0548
owned	-11.0548
▁clearly	-11.0549
ell	-11.055
min	-11.055
▁Honours	-11.0554
▁Rovers	-11.0556
▁Pearl	-11.0559
▁Writing	-11.0561
▁rain	-11.0564
▁diesel	-11.0564
▁1898	-11.0565
▁Formula	-11.0566
▁interesting	-11.0568
▁Eagle	-11.0571
▁truck	-11.0575
▁distinction	-11.0577
▁Shin	-11.058
▁leagues	-11.0585
▁descendants	-11.0585
▁supplied	-11.0586
▁Environmental	-11.0588
▁flights	-11.0589
League	-11.0593
but	-11.0594
▁Reading	-11.0594
▁Paulo	-11.06
▁Yugoslavia	-11.0602
▁waiting	-11.0605
▁helps	-11.0605
▁constitution	-11.0606
▁1956,	-11.0607
▁circumstances	-11.061
▁Ruth	-11.061
▁organisations	-11.0612
▁consecrated	-11.0615
▁Architecture	-11.0615
language	-11.0616
▁Ernest	-11.0618
ring	-11.0619
▁Kate	-11.062
▁Hull	-11.0623
▁aims	-11.0624
▁Laura	-11.0624
▁patron	-11.0625
▁Boulevard	-11.0626
zo	-11.0627
▁pounds	-11.0631
▁gauge	-11.0643
▁lifetime	-11.0644
▁Gothic	-11.0645
▁biography	-11.0645
▁Starting	-11.0646
▁Mathematics	-11.0646
▁ties	-11.0654
▁Conservatory	-11.0658
▁:	-11.066
▁Antarctic	-11.0662
▁(14	-11.0665
▁Ge	-11.0668
-12	-11.067
▁span	-11.0675
▁Writers	-11.0675
▁isolated	-11.0678
▁Days	-11.0679
▁principles	-11.0682
▁mechanism	-11.0682
▁95	-11.0689
▁Delta	-11.069
▁concerning	-11.0692
▁weapon	-11.0697
▁exact	-11.0697
▁Interstate	-11.0697
▁Presbyterian	-11.0702
▁Newport	-11.0705
▁Hi	-11.0705
▁appropriate	-11.0706
▁theology	-11.0706
▁valuable	-11.0708
▁implementation	-11.071
▁68	-11.0711
▁net	-11.0714
▁volunteer	-11.0715
▁Jacques	-11.0715
▁Se	-11.072
▁tribes	-11.0722
▁Gar	-11.0723
sson	-11.0723
▁readers	-11.0724
▁characteristics	-11.0725
▁dancer	-11.0726
▁Bach	-11.0727
▁AC	-11.0727
▁1895	-11.0728
▁administered	-11.073
sk	-11.0737
▁Leader	-11.0739
ari	-11.0741
▁namely	-11.0742
West	-11.0742
▁connect	-11.0743
▁boards	-11.0745
▁67	-11.0745
▁neighbouring	-11.0747
ac	-11.0752
▁Georgian	-11.0761
▁divorce	-11.0762
▁Are	-11.0762
▁restricted	-11.0764
▁1970.	-11.0764
▁dramatic	-11.0766
▁Bennett	-11.0767
▁roll	-11.0767
▁documented	-11.0769
▁writings	-11.077
▁rates	-11.0771
▁pastor	-11.0773
▁celebration	-11.0775
▁Maurice	-11.0777
▁Shakespeare	-11.0778
▁golden	-11.0779
▁Room	-11.0781
▁Montgomery	-11.0781
▁mini	-11.0781
▁ERA	-11.0782
ker	-11.0789
▁hidden	-11.079
▁correct	-11.0794
▁Steel	-11.0796
▁patent	-11.0797
▁Kingston	-11.08
▁coins	-11.0802
▁Soul	-11.0802
▁Ted	-11.0804
▁happy	-11.0806
▁99	-11.0806
▁girlfriend	-11.0807
▁Croatian	-11.0808
ach	-11.0809
▁Rabbi	-11.081
▁Low	-11.081
▁Ballet	-11.0811
▁Davies	-11.0817
▁Stakes	-11.082
▁Des	-11.0821
water	-11.0821
▁Members	-11.0821
▁Environment	-11.0827
▁alternate	-11.0828
▁Palestine	-11.0828
▁holiday	-11.0829
▁hence	-11.0833
▁Saudi	-11.0834
▁soul	-11.0835
▁Palmer	-11.0836
▁Clarke	-11.0838
▁Ana	-11.0841
▁Storm	-11.0841
▁execution	-11.0853
▁evolved	-11.0853
▁1894	-11.0854
▁traditions	-11.0857
▁pulled	-11.0857
▁1854	-11.0859
▁recalled	-11.0859
▁Trans	-11.086
▁Spencer	-11.0863
▁Geneva	-11.0865
▁Tar	-11.0866
▁Transportation	-11.0867
ula	-11.0868
▁Wallace	-11.0871
▁Protection	-11.0872
▁drawings	-11.0875
▁1957,	-11.0875
▁Non	-11.0876
My	-11.088
ab	-11.088
▁ensemble	-11.0883
▁practical	-11.0886
▁benefits	-11.0887
▁sheep	-11.0888
▁Gardens	-11.0891
▁Pen	-11.0892
▁airline	-11.0893
▁prince	-11.0893
▁exterior	-11.0894
▁Protestant	-11.0895
▁Mor	-11.0899
▁×	-11.0901
▁variant	-11.0904
▁1855	-11.0905
▁travelling	-11.0906
▁diplomatic	-11.0907
▁focusing	-11.0909
▁tomb	-11.0909
ye	-11.091
▁discovers	-11.0915
▁depicted	-11.0919
▁horror	-11.0921
▁floors	-11.0922
▁profile	-11.0928
▁1958,	-11.093
▁le	-11.0936
▁Outstanding	-11.0938
▁framework	-11.0938
▁dangerous	-11.0938
▁Franz	-11.0945
▁seem	-11.0947
▁stint	-11.0951
▁pointed	-11.0951
▁graphic	-11.0958
▁Monday	-11.0959
▁Circle	-11.0959
▁tea	-11.0959
▁2,000	-11.0965
▁atmosphere	-11.097
▁#1	-11.097
▁Comics	-11.0971
▁streams	-11.0972
▁interchange	-11.0975
▁Fisher	-11.0978
▁belt	-11.098
▁1893	-11.0982
▁con	-11.0982
▁relay	-11.0984
▁angle	-11.0987
▁warm	-11.0987
▁heir	-11.0988
▁freight	-11.0991
▁pain	-11.0996
▁ridge	-11.0997
bach	-11.0997
▁bears	-11.0997
▁Flying	-11.0998
▁unlike	-11.1003
▁carved	-11.1004
▁Nepal	-11.1009
▁provinces	-11.1009
▁Legion	-11.101
▁1896	-11.1018
▁Naples	-11.102
▁balance	-11.102
▁1892	-11.1021
▁attendance	-11.1021
▁1959,	-11.1022
▁faces	-11.1023
▁ban	-11.1024
▁1963.	-11.1025
ists	-11.1029
▁Allied	-11.1032
▁possibility	-11.1033
▁temporarily	-11.1034
▁Editor	-11.1034
▁noble	-11.1034
▁1962.	-11.1034
▁dorsal	-11.1038
▁ages	-11.104
▁colleagues	-11.1041
▁Flight	-11.1046
▁manages	-11.1052
▁Tommy	-11.1052
▁backing	-11.1056
▁Manitoba	-11.1057
▁Sara	-11.1057
▁96	-11.1062
chief	-11.1067
ze	-11.1069
ise	-11.1076
▁organic	-11.1077
▁ferry	-11.1078
sha	-11.1078
▁shut	-11.1078
▁teeth	-11.1079
▁inaugurated	-11.108
▁stones	-11.108
▁singers	-11.1083
▁banking	-11.1083
▁debt	-11.1086
▁inhabited	-11.1087
▁segments	-11.109
▁1–0	-11.1092
▁minority	-11.1092
▁worship	-11.1094
▁colleges	-11.1097
▁Ancient	-11.1099
making	-11.1103
▁Renaissance	-11.1104
▁authored	-11.1107
▁hero	-11.1108
▁Azerbaijan	-11.111
▁Gu	-11.1111
▁coffee	-11.1116
▁narrative	-11.1118
▁prove	-11.112
▁Isaac	-11.112
▁Publishing	-11.1121
▁ocean	-11.1121
▁Lou	-11.1122
▁Chan	-11.1122
▁Ta	-11.1124
game	-11.1125
▁Estate	-11.1125
▁respective	-11.1126
▁battery	-11.1127
▁Andrews	-11.1131
▁thanks	-11.1133
sville	-11.1139
▁ruler	-11.1143
▁averaged	-11.1143
▁furniture	-11.1145
member	-11.1147
▁evil	-11.1148
▁waived	-11.1149
▁starter	-11.1151
▁reflect	-11.1153
▁stationed	-11.1154
▁Hon	-11.1156
▁simultaneously	-11.1157
▁slowly	-11.1157
▁1800	-11.1158
▁Record	-11.1159
▁exercise	-11.1165
▁Reed	-11.1165
▁collective	-11.1165
▁Frankfurt	-11.1166
▁significance	-11.1167
ck	-11.1167
▁patterns	-11.1168
▁corresponding	-11.1168
▁neither	-11.117
18	-11.1172
▁flood	-11.1173
▁dollars	-11.1174
▁definition	-11.1174
▁Stage	-11.1178
▁playoff	-11.1178
▁comprehensive	-11.1179
▁reduction	-11.1181
▁alive	-11.1185
▁essential	-11.1188
▁extinct	-11.1191
▁Louise	-11.1192
▁1961.	-11.1193
▁confused	-11.1195
▁Ring	-11.1195
▁Kumar	-11.1196
pe	-11.1196
▁Relations	-11.1199
ology	-11.12
▁victim	-11.1202
▁Parliamentary	-11.1204
▁expensive	-11.1205
▁shorter	-11.1206
▁Croatia	-11.1206
▁76	-11.1209
▁footballer	-11.1212
19	-11.1214
▁custom	-11.1219
▁sharing	-11.1221
▁1955,	-11.1222
▁Engineers	-11.1228
▁eighteen	-11.1228
▁Scientific	-11.1232
▁handed	-11.1236
▁Nancy	-11.1238
▁Panama	-11.1239
▁Peak	-11.1248
▁Neil	-11.1258
▁Ra	-11.126
▁territories	-11.126
▁Steven	-11.1269
▁footage	-11.1273
▁prisoner	-11.1274
▁worn	-11.1277
ted	-11.1281
half	-11.1283
▁suddenly	-11.1283
▁regulations	-11.1285
▁dominant	-11.1286
▁predominantly	-11.1287
AM	-11.1292
▁permanently	-11.1293
▁chorus	-11.1294
▁perspective	-11.1295
▁Directors	-11.1295
hand	-11.1295
–16	-11.1296
▁Owen	-11.1296
▁Chess	-11.1297
▁Intelligence	-11.1298
▁Grande	-11.1304
▁grass	-11.1305
ae	-11.1307
high	-11.1308
life	-11.131
▁Lodge	-11.1312
▁employee	-11.1312
▁tape	-11.1314
▁Bear	-11.1322
▁examination	-11.1323
▁Dragon	-11.1324
bit	-11.1325
▁challenges	-11.1326
▁select	-11.1329
▁Manila	-11.133
▁indoor	-11.1332
▁doctoral	-11.1333
ren	-11.1333
▁bassist	-11.1334
▁acclaimed	-11.1338
▁Kai	-11.1339
▁runway	-11.1343
▁referring	-11.1345
▁variable	-11.1345
▁Montana	-11.1345
▁references	-11.1353
▁Track	-11.1359
▁Buddhist	-11.136
▁conferences	-11.1364
▁wrong	-11.1369
▁Cameron	-11.137
▁suggest	-11.1374
▁gear	-11.1375
▁curriculum	-11.1379
▁1960,	-11.1382
▁width	-11.1383
▁blog	-11.1389
▁hat	-11.1389
▁researcher	-11.1391
▁77	-11.1394
▁emphasis	-11.1396
▁circulation	-11.1398
▁anchor	-11.1399
yn	-11.1399
▁Spirit	-11.1399
▁Wind	-11.14
▁patrol	-11.1401
fa	-11.1401
▁Cabinet	-11.1404
▁Musical	-11.1407
▁conducting	-11.1411
▁autumn	-11.1412
▁Yang	-11.1413
▁1954,	-11.1414
▁Rich	-11.1417
▁Future	-11.1418
▁Cardiff	-11.1419
▁celebrate	-11.1425
▁Ver	-11.143
▁usage	-11.1434
▁Gate	-11.1434
▁Devon	-11.1437
▁1948.	-11.1438
▁hosting	-11.1441
▁Rochester	-11.1443
▁Sony	-11.1446
▁sample	-11.1447
▁athlete	-11.1447
▁sit	-11.1454
To	-11.1454
▁Plant	-11.1455
▁Planning	-11.1455
▁demonstrated	-11.1457
▁orbit	-11.1457
▁CF	-11.1458
▁false	-11.1458
▁Nacional	-11.1463
▁drivers	-11.1464
▁Therefore	-11.1466
▁express	-11.1469
▁recovery	-11.1473
▁impressive	-11.1474
▁Democrats	-11.1476
▁Nord	-11.1476
▁Heights	-11.1476
▁wealth	-11.1477
hu	-11.1479
▁Herald	-11.1485
▁guidance	-11.1485
▁reveals	-11.1485
▁Study	-11.1488
▁Mall	-11.1489
▁bars	-11.1491
▁waste	-11.1499
▁Michel	-11.1507
▁invented	-11.1511
▁basin	-11.1511
▁Wars	-11.1513
▁naming	-11.1513
▁slopes	-11.1514
▁Institution	-11.1517
▁78	-11.1518
▁god	-11.152
ita	-11.1524
▁Halifax	-11.1525
▁Cornell	-11.1527
▁Para	-11.153
▁sum	-11.1531
▁signature	-11.1532
▁Isle	-11.1533
gun	-11.1538
[	-11.154
ay	-11.1543
▁sits	-11.1547
▁Saskatchewan	-11.1552
ria	-11.1556
▁explains	-11.1557
▁UFC	-11.1557
▁answer	-11.156
▁Venezuela	-11.1565
▁posts	-11.1572
▁magic	-11.1574
▁estates	-11.1576
▁workshop	-11.1578
▁publish	-11.158
▁preserve	-11.158
▁Henri	-11.1584
gan	-11.1586
▁citing	-11.1591
▁apparent	-11.1591
▁looked	-11.1591
▁Edmonton	-11.1595
▁Knights	-11.1595
▁biological	-11.1597
▁1840	-11.1597
▁Report	-11.1606
▁exile	-11.1606
▁1951,	-11.1606
lived	-11.1607
▁Celtic	-11.1609
▁Syria	-11.1623
▁nave	-11.1623
▁beaten	-11.1626
▁technologies	-11.1629
four	-11.1634
▁1953,	-11.1635
room	-11.1637
▁Greg	-11.1637
▁scores	-11.1639
▁relating	-11.1642
five	-11.1643
▁Block	-11.1646
san	-11.1648
▁Ga	-11.1651
▁evolution	-11.1654
▁burial	-11.1656
▁gathered	-11.1656
ize	-11.1659
▁directing	-11.1661
▁intellectual	-11.1664
▁novelist	-11.1665
-5	-11.1667
▁specimen	-11.1667
▁Voice	-11.1671
▁artificial	-11.1676
▁Bon	-11.1676
▁2.5	-11.1677
▁Rice	-11.1677
▁Indies	-11.1679
▁hamlet	-11.168
▁cutting	-11.168
▁enemies	-11.168
▁arena	-11.1681
▁Album	-11.1682
ala	-11.1682
oli	-11.1683
▁PA	-11.1684
▁plastic	-11.1684
▁Liberty	-11.1689
▁Belfast	-11.1693
▁brings	-11.1696
ova	-11.1698
▁principle	-11.1699
▁bases	-11.1701
▁1856	-11.1702
▁drinking	-11.1703
▁relevant	-11.1706
▁uniform	-11.1707
▁renewed	-11.1711
sur	-11.1715
▁1947.	-11.1715
▁biology	-11.1716
▁friendship	-11.172
ated	-11.1721
▁1917,	-11.1727
▁stroke	-11.173
▁Revival	-11.173
▁touch	-11.1732
▁database	-11.1734
▁cuts	-11.1736
▁Danny	-11.1736
aka	-11.1738
signed	-11.1739
▁investors	-11.1742
▁circular	-11.1747
▁Let	-11.1747
▁voters	-11.1749
▁EU	-11.1751
▁handle	-11.1751
▁desert	-11.1753
▁permitted	-11.1756
▁displays	-11.1756
▁revised	-11.1759
▁arch	-11.176
▁arrives	-11.176
▁privately	-11.1764
▁updated	-11.1766
▁mainstream	-11.1768
▁Christianity	-11.1771
▁attempting	-11.1772
ken	-11.1773
▁freshman	-11.1773
▁solutions	-11.1775
▁shipping	-11.1775
▁temperatures	-11.1776
▁Giants	-11.1777
▁1887	-11.1778
▁Ban	-11.1778
▁surgeon	-11.1779
▁Hopkins	-11.1781
▁Leon	-11.1781
▁Films	-11.1782
▁1888	-11.1783
▁Cornwall	-11.1783
▁measuring	-11.1789
▁negotiations	-11.179
▁upcoming	-11.1792
▁Wildlife	-11.1794
▁grants	-11.1795
▁1942.	-11.1797
▁maintains	-11.1798
▁shall	-11.1803
";	-11.1804
▁presenter	-11.1805
▁liberal	-11.1809
▁Santiago	-11.1812
▁Lyon	-11.1815
▁marble	-11.1816
▁tenth	-11.1817
▁lakes	-11.1822
▁Sen	-11.1823
rock	-11.1824
▁110	-11.1829
▁cotton	-11.1829
▁conjunction	-11.183
▁empty	-11.1835
▁Liu	-11.1836
tan	-11.1836
▁Oakland	-11.1837
▁mixture	-11.1838
▁bond	-11.1839
▁indicates	-11.1839
▁imperial	-11.1843
▁egg	-11.1845
▁exposure	-11.1846
▁favourite	-11.1849
▁Calgary	-11.1851
▁animation	-11.1854
▁Guild	-11.1859
▁pink	-11.1862
▁1952,	-11.1865
▁camps	-11.1865
▁constitutional	-11.1868
▁Nine	-11.1869
á	-11.187
▁load	-11.1879
▁fear	-11.188
▁infantry	-11.1881
▁partial	-11.1886
rich	-11.1888
▁Facebook	-11.1894
▁options	-11.1894
ts	-11.1896
▁commentary	-11.1896
ika	-11.1897
oni	-11.1897
▁97	-11.1898
▁destination	-11.1899
▁customer	-11.19
▁fallen	-11.1901
▁stops	-11.1902
▁tested	-11.1902
▁Armed	-11.1904
▁thinking	-11.1905
▁hole	-11.1908
▁Auto	-11.191
▁Oil	-11.1916
▁belief	-11.1916
▁adventure	-11.1918
▁heading	-11.1919
▁queen	-11.1919
▁1957.	-11.1922
▁revolution	-11.1923
▁Hal	-11.1925
▁mail	-11.1926
▁soap	-11.1927
▁1938,	-11.1936
▁CE	-11.1941
▁Marcus	-11.1941
▁compound	-11.1941
▁limestone	-11.1943
▁Performance	-11.1945
▁nationally	-11.195
▁missionary	-11.1951
▁bone	-11.1952
▁exactly	-11.1954
my	-11.1956
light	-11.1957
▁disaster	-11.1957
▁Den	-11.1961
▁Secret	-11.1962
▁Belgrade	-11.1967
▁assignment	-11.1967
▁Comedy	-11.1978
▁violent	-11.1978
▁*	-11.1979
▁suspension	-11.1984
▁collect	-11.1985
▁Leipzig	-11.1986
▁fuselage	-11.1988
made	-11.1992
▁Furthermore	-11.1992
▁treaty	-11.1995
▁panels	-11.1998
▁Amazon	-11.2
▁occasional	-11.2001
▁vegetation	-11.2001
▁1958.	-11.2001
▁root	-11.2005
▁1956.	-11.2006
▁corruption	-11.2006
use	-11.2006
▁premises	-11.201
▁Right	-11.201
▁Rod	-11.2012
▁tend	-11.2012
▁sailing	-11.2017
▁sequel	-11.2017
▁Nadu	-11.2018
▁shallow	-11.2018
▁Muslims	-11.202
▁VII	-11.2022
▁staged	-11.2023
▁Ellen	-11.2027
white	-11.2027
▁defend	-11.2028
▁touchdown	-11.2033
▁brigade	-11.2034
▁82	-11.2036
ning	-11.2044
▁talks	-11.2044
▁sort	-11.2045
ised	-11.2046
▁siege	-11.2047
▁boss	-11.2049
▁independently	-11.2049
▁1891	-11.2051
dis	-11.2051
▁edges	-11.2052
▁1959.	-11.2054
▁shelter	-11.2054
▁succession	-11.2054
▁shifted	-11.2055
▁drink	-11.2057
▁pupil	-11.2058
▁dress	-11.2059
▁chaired	-11.206
▁Sisters	-11.2062
▁Those	-11.2063
▁reception	-11.2064
▁Campus	-11.2065
▁Lutheran	-11.2066
▁correspondent	-11.2068
21	-11.2069
▁onwards	-11.207
▁developer	-11.2071
▁Vladimir	-11.2071
▁Sha	-11.2074
▁SH	-11.2075
▁collecting	-11.2076
ea	-11.2077
▁Tor	-11.2077
▁1886	-11.208
▁commissioner	-11.2081
▁Henderson	-11.2081
▁Ellis	-11.2081
▁Wrestling	-11.2085
▁stretch	-11.2086
lane	-11.2088
▁ordinary	-11.2091
▁diseases	-11.2092
▁depicting	-11.2093
▁Fish	-11.2097
president	-11.2099
▁broadcasts	-11.2101
ada	-11.2102
▁supervision	-11.2102
▁historically	-11.2105
▁switch	-11.2105
▁Albany	-11.2106
▁measured	-11.2107
▁plates	-11.2107
▁manuscripts	-11.211
▁superior	-11.2111
и	-11.2114
▁Vale	-11.2117
tel	-11.212
▁Merit	-11.2121
▁Off	-11.2122
▁discover	-11.2124
▁Hell	-11.2125
▁Queens	-11.2127
▁telephone	-11.2128
▁Graduate	-11.2128
May	-11.2129
▁craft	-11.2131
▁Che	-11.2132
▁1943.	-11.2133
▁radar	-11.2134
▁fantasy	-11.2141
▁Min	-11.2141
▁Agricultural	-11.2142
▁surname	-11.2142
▁Planet	-11.2143
▁photos	-11.2144
▁1950,	-11.2147
▁teaches	-11.215
▁Sullivan	-11.2152
St	-11.2153
▁servant	-11.2154
▁Cold	-11.2154
▁auto	-11.2155
▁parks	-11.2155
▁mosque	-11.2156
▁Miguel	-11.2156
▁Poetry	-11.2159
▁instruction	-11.2159
▁88	-11.2161
▁notice	-11.2165
▁improvements	-11.217
▁ski	-11.2171
▁Annual	-11.2172
ud	-11.2174
▁deemed	-11.2176
▁grandmother	-11.2176
▁reservoir	-11.2177
▁owns	-11.2181
▁FK	-11.2182
▁Marathon	-11.2182
▁feeling	-11.2184
▁Har	-11.2186
▁clay	-11.2186
▁Fraser	-11.219
▁collapse	-11.2191
▁1955.	-11.2193
▁battalion	-11.2193
▁transformed	-11.2196
▁1919,	-11.2197
▁Gun	-11.2198
▁Armstrong	-11.2201
▁$2	-11.2201
▁Gibson	-11.2203
▁Kar	-11.2203
▁Mc	-11.2204
▁mainland	-11.2204
▁indicating	-11.2205
▁legendary	-11.2212
van	-11.2217
▁Stevens	-11.2219
▁nautical	-11.2221
▁71	-11.2221
▁Bor	-11.2223
▁Tree	-11.2227
▁eventual	-11.2227
▁acoustic	-11.2228
▁92	-11.2229
▁battles	-11.2229
▁revival	-11.2231
▁corporation	-11.2232
▁69	-11.2232
▁reserves	-11.2233
▁Pete	-11.2233
▁Diamond	-11.2237
▁Dominican	-11.2238
pm	-11.2239
▁drove	-11.224
▁liquid	-11.2242
▁1941.	-11.2242
▁attraction	-11.2244
-15	-11.2245
▁Pakistani	-11.2246
▁Richardson	-11.2246
▁sculptures	-11.2248
▁vary	-11.225
port	-11.2251
▁catch	-11.2252
▁Vi	-11.2252
▁dealing	-11.2254
▁presentation	-11.2254
▁Dog	-11.2255
▁interface	-11.2257
▁74	-11.226
▁shift	-11.2261
▁Java	-11.2264
▁wish	-11.2264
▁construct	-11.2267
▁reopened	-11.2268
▁shaped	-11.2271
▁Sal	-11.2272
▁towers	-11.2272
▁impressed	-11.2272
▁Gil	-11.2277
▁Krishna	-11.2279
▁prepare	-11.2281
▁difficulty	-11.2289
▁12-	-11.2293
▁Carlo	-11.2293
▁intermediate	-11.2294
▁1953.	-11.2296
▁Copa	-11.2297
▁lie	-11.2299
▁objective	-11.23
▁configuration	-11.2302
▁Cyprus	-11.2302
▁files	-11.2304
▁Ju	-11.2306
wi	-11.2312
▁Honorary	-11.2313
su	-11.2316
▁seriously	-11.2317
▁Brighton	-11.2322
▁Manor	-11.2323
▁gap	-11.2324
▁Jam	-11.2324
▁Revolutionary	-11.2325
▁Still	-11.2326
▁payment	-11.2327
tal	-11.2328
▁volleyball	-11.2328
▁Sar	-11.233
▁dies	-11.233
rin	-11.2331
▁Rosa	-11.2331
▁3,000	-11.2332
▁Caroline	-11.2332
▁NASA	-11.2335
▁Indonesian	-11.2335
▁Mobile	-11.2337
▁Ferdinand	-11.2338
▁Airlines	-11.234
ig	-11.2341
▁hardware	-11.2345
▁Solomon	-11.2345
▁Bu	-11.2346
gate	-11.235
▁Portsmouth	-11.235
▁interred	-11.2351
▁removal	-11.2353
ating	-11.2354
▁lighting	-11.2359
▁Resources	-11.236
▁Mon	-11.236
produced	-11.2361
▁Legislature	-11.2364
▁Julia	-11.2365
▁XI	-11.2369
▁teammate	-11.2372
▁disappeared	-11.2375
ball	-11.2377
▁input	-11.2379
▁victories	-11.2382
▁Plymouth	-11.2383
▁voyage	-11.2383
ens	-11.2384
▁joins	-11.2384
▁decisions	-11.2384
▁trouble	-11.2386
▁bridges	-11.2386
▁Malta	-11.2388
▁Edmund	-11.239
▁detail	-11.2394
dan	-11.2397
▁Desert	-11.2397
▁Todd	-11.24
▁clock	-11.2402
▁700	-11.2403
▁Memphis	-11.2404
March	-11.2405
▁achievement	-11.2408
▁statistics	-11.2409
▁engagement	-11.241
▁Abdul	-11.2412
▁Progressive	-11.2412
▁ballet	-11.2414
▁experiments	-11.2414
▁destroy	-11.2417
▁LA	-11.242
▁Contest	-11.2421
▁trustees	-11.2422
50	-11.2423
▁opponents	-11.2424
▁Ad	-11.2424
▁Triple	-11.2426
▁comprising	-11.2432
▁architects	-11.2434
▁1937,	-11.2435
▁breed	-11.2435
▁reverse	-11.2436
dar	-11.2436
▁rough	-11.2438
▁performer	-11.2439
▁1939.	-11.2441
▁Albums	-11.2442
▁Set	-11.2442
▁hear	-11.2442
▁crops	-11.2443
▁Palm	-11.2445
▁sharp	-11.2448
▁Bond	-11.2451
▁Gay	-11.2451
▁topped	-11.2453
▁chess	-11.2456
ow	-11.2459
▁carrier	-11.2462
▁consumer	-11.2465
▁passion	-11.2466
▁81	-11.2466
▁labour	-11.2469
▁Mail	-11.2474
▁interpretation	-11.2474
▁performs	-11.2475
▁1914,	-11.2477
=	-11.2485
▁Tampa	-11.2485
▁punk	-11.2486
▁Episcopal	-11.2488
▁professionals	-11.2489
▁stepped	-11.249
▁1954.	-11.249
▁François	-11.2494
▁Martha	-11.2499
▁populations	-11.25
▁millimetres	-11.25
▁Tang	-11.2506
▁Grammy	-11.2508
bu	-11.2508
▁goalkeeper	-11.2508
▁Cinema	-11.2508
▁fastest	-11.2509
ington	-11.2513
▁Allan	-11.2517
▁stolen	-11.2518
▁automatic	-11.2521
▁approaches	-11.2525
▁generations	-11.2525
▁Box	-11.2526
▁zero	-11.2527
▁Rao	-11.2527
▁ad	-11.2529
All	-11.2537
▁essays	-11.2539
▁Windsor	-11.2539
▁boarding	-11.254
▁interviewed	-11.2546
▁wildlife	-11.2546
▁stake	-11.2548
ene	-11.2551
▁crimes	-11.2553
▁unsuccessfully	-11.2556
bank	-11.2557
▁severely	-11.2558
▁upgraded	-11.2559
▁Istanbul	-11.2562
▁app	-11.2562
▁1884	-11.2563
ver	-11.2565
▁administrator	-11.2566
▁molecular	-11.2566
▁1881	-11.2568
▁1847	-11.2569
▁honours	-11.257
▁Indianapolis	-11.2571
▁Expedition	-11.2574
▁Fernando	-11.2574
▁IBM	-11.2578
▁Iceland	-11.258
cy	-11.2581
▁cream	-11.2582
▁Creative	-11.2583
▁boxing	-11.2583
▁arrive	-11.2584
▁dissertation	-11.2584
▁throw	-11.2586
▁1845	-11.2587
▁lap	-11.2588
▁basement	-11.2591
▁Bailey	-11.2591
▁Kan	-11.2594
▁dogs	-11.2596
▁Gene	-11.2596
▁Aberdeen	-11.2599
nia	-11.2603
▁coup	-11.2607
▁improvement	-11.2609
▁reconstruction	-11.2611
where	-11.2613
▁Franco	-11.2614
▁Congo	-11.2614
▁Porter	-11.2616
▁4-	-11.2616
▁Gas	-11.2618
▁putting	-11.2624
▁pitched	-11.2624
▁performers	-11.2625
▁rectangular	-11.2627
▁Store	-11.2628
▁structural	-11.2629
▁oak	-11.263
2,	-11.2633
▁Haven	-11.2636
ez	-11.2636
▁Notre	-11.2637
▁blind	-11.2638
▁slave	-11.2642
▁1920,	-11.2646
▁accomplished	-11.2647
▁exit	-11.2647
▁Page	-11.2648
▁fortune	-11.265
▁beer	-11.265
▁sufficient	-11.2651
▁73	-11.2655
var	-11.2656
▁Carnegie	-11.2657
▁Mont	-11.266
▁kids	-11.266
▁rector	-11.2666
▁Sean	-11.2666
▁bearing	-11.2667
▁fortress	-11.2669
▁Southeast	-11.2669
▁investigate	-11.2669
▁Glass	-11.267
▁farms	-11.2672
▁realized	-11.2677
speaking	-11.2677
▁ranges	-11.2679
▁thereby	-11.2681
kan	-11.2685
▁brands	-11.2686
▁trips	-11.269
▁loop	-11.2691
▁fairly	-11.2691
▁tale	-11.2692
▁Cox	-11.2693
▁Ca	-11.2693
▁Ludwig	-11.2694
▁Speaker	-11.2696
▁Chemistry	-11.2696
▁algorithm	-11.2697
▁Near	-11.2698
▁innovative	-11.2699
-6	-11.2701
▁quick	-11.2702
▁helicopter	-11.2703
▁radical	-11.2704
▁absorbed	-11.2709
isation	-11.2709
▁promotional	-11.271
▁Living	-11.2714
▁Tai	-11.2716
fer	-11.2716
under	-11.2718
▁graph	-11.2718
▁diagnosed	-11.2721
▁Rush	-11.2723
▁Philharmonic	-11.2726
▁granite	-11.2729
▁2-	-11.2731
▁essentially	-11.2734
▁Powell	-11.2736
▁Justin	-11.2739
built	-11.2742
▁CA	-11.2742
▁delayed	-11.2746
▁convinced	-11.2751
▁Blake	-11.2751
▁Woods	-11.2752
▁tri	-11.2752
▁te	-11.2755
▁deals	-11.2757
▁Nigerian	-11.2761
▁demo	-11.2762
▁Reform	-11.2763
▁84	-11.2764
▁libraries	-11.2765
▁tourists	-11.2767
▁Zhang	-11.277
▁Yan	-11.2772
▁succeed	-11.2773
▁Mario	-11.2773
▁1846	-11.2774
▁tonnes	-11.2774
▁rookie	-11.2778
▁mathematical	-11.2778
▁stored	-11.2779
▁genetic	-11.2779
▁Emmy	-11.2779
▁1935,	-11.278
▁1861	-11.2781
▁responded	-11.2781
▁achievements	-11.2787
▁contribute	-11.2788
▁Jin	-11.2788
▁beneath	-11.2792
▁1918.	-11.2793
▁Snow	-11.2793
▁Winnipeg	-11.2794
▁variation	-11.2795
▁defending	-11.2796
II	-11.2797
only	-11.2797
▁magnitude	-11.2797
tha	-11.2798
▁altar	-11.2799
▁lateral	-11.2799
▁error	-11.2802
▁79	-11.2802
▁Emily	-11.2803
▁Deep	-11.2804
har	-11.2806
$	-11.2809
▁Hard	-11.2811
▁cult	-11.2811
▁Was	-11.2811
▁Preston	-11.2813
▁Chancellor	-11.2815
wan	-11.2816
▁Left	-11.2816
▁encourage	-11.2817
▁governed	-11.2818
▁challenged	-11.2819
▁1929,	-11.282
▁Baby	-11.2821
▁Lancaster	-11.2825
▁Harbour	-11.2828
▁manufacture	-11.2829
▁cat	-11.283
▁experiment	-11.2846
▁closest	-11.2847
▁enabled	-11.285
▁Ahmed	-11.2851
▁5,000	-11.2852
▁Apart	-11.2853
An	-11.2854
▁observations	-11.2855
▁explore	-11.2856
▁Aaron	-11.2859
▁creates	-11.2861
▁speakers	-11.2862
▁Morocco	-11.2862
▁rivals	-11.2864
▁diploma	-11.2865
▁contributor	-11.2866
▁sustained	-11.2866
▁Win	-11.2869
▁client	-11.287
▁Francesco	-11.287
▁allegedly	-11.2871
▁quit	-11.2871
▁proceeded	-11.2872
▁Sand	-11.2872
▁Emma	-11.2873
▁1883	-11.2874
▁Reid	-11.2874
▁Lisa	-11.2876
most	-11.2876
▁1952.	-11.2879
▁2–0	-11.2881
▁Pine	-11.2884
▁blues	-11.2887
▁functional	-11.2888
▁ratings	-11.2892
▁telling	-11.2893
▁Duncan	-11.2898
▁moderate	-11.2899
▁Plaza	-11.2902
▁1960.	-11.2905
▁experts	-11.2906
▁eat	-11.2906
▁Cuban	-11.2907
▁exhibits	-11.2908
▁Amy	-11.2909
▁86	-11.2909
▁fiscal	-11.291
▁87	-11.291
▁resided	-11.2913
▁Carr	-11.2915
▁Brooks	-11.2917
▁1876	-11.2918
▁101	-11.292
▁permit	-11.293
▁portions	-11.293
▁chapters	-11.2936
▁dialogue	-11.2938
▁registration	-11.2938
▁1862	-11.2939
▁rises	-11.2948
▁pushed	-11.2949
▁ideal	-11.295
▁1949.	-11.2951
▁resource	-11.2953
▁package	-11.2954
▁vicinity	-11.2956
▁colours	-11.2958
▁tone	-11.296
tar	-11.296
On	-11.2964
▁Male	-11.2964
non	-11.2966
▁theorem	-11.2966
▁sporting	-11.2966
▁taste	-11.2968
▁Colin	-11.2968
▁protests	-11.2971
▁kitchen	-11.2976
▁Budapest	-11.2977
▁lover	-11.2978
Brien	-11.2983
bridge	-11.2983
▁announcement	-11.2985
▁computers	-11.2994
▁Excellence	-11.2997
▁emerging	-11.2997
▁Sur	-11.2998
seat	-11.2998
▁pure	-11.3001
▁triple	-11.3005
▁tune	-11.3006
▁steep	-11.3007
▁asking	-11.3009
▁informed	-11.3012
▁Course	-11.3015
▁Sol	-11.3015
▁Mir	-11.3016
▁Albanian	-11.3016
▁delegate	-11.3017
▁afternoon	-11.3017
▁Anton	-11.3018
▁virtual	-11.3018
▁1933,	-11.3021
▁progressive	-11.3025
▁Interior	-11.3028
▁submerged	-11.303
▁Formation	-11.3034
his	-11.3037
▁varies	-11.3039
▁ca	-11.3043
▁bin	-11.3047
ever	-11.305
▁ibn	-11.3054
▁depicts	-11.3054
▁1951.	-11.3056
▁fin	-11.3058
▁Lost	-11.3059
▁Ex	-11.3061
▁hull	-11.3061
▁1500	-11.3065
▁Lucy	-11.3066
▁composers	-11.3066
▁Observatory	-11.3071
▁lease	-11.3072
▁Chase	-11.3073
▁pen	-11.3081
ance	-11.3083
▁grid	-11.3084
▁Leicester	-11.3086
▁shoulder	-11.3089
▁comics	-11.3091
▁Ages	-11.3091
▁quarterback	-11.3093
▁nineteenth	-11.3093
pi	-11.3097
▁1837	-11.3098
low	-11.31
▁dean	-11.31
▁1940.	-11.31
▁Being	-11.3101
▁discuss	-11.3102
▁governing	-11.3106
three	-11.3106
▁audiences	-11.3107
▁Kay	-11.3107
▁auction	-11.3107
▁Simpson	-11.3108
▁insects	-11.3109
▁controls	-11.311
▁calendar	-11.311
▁Holmes	-11.3115
▁terrain	-11.312
▁register	-11.3122
▁lift	-11.3122
▁Milton	-11.3125
▁weak	-11.3126
▁improving	-11.3127
▁Nottingham	-11.3129
▁Mind	-11.3129
▁Ronald	-11.313
▁aspect	-11.3133
▁Insurance	-11.3135
▁maintaining	-11.3136
▁Forbes	-11.3136
▁View	-11.3137
▁1868	-11.3139
▁martial	-11.3139
▁syndrome	-11.3141
▁Fr	-11.3142
▁Buck	-11.3142
>	-11.3143
▁1872	-11.3147
▁undertook	-11.3147
▁enjoy	-11.3147
▁Julius	-11.3147
wrote	-11.3148
▁reviewer	-11.3152
▁certificate	-11.3152
▁Lucas	-11.3152
▁pregnant	-11.3153
▁creek	-11.3153
tic	-11.3153
mont	-11.3153
▁reducing	-11.3154
▁dialect	-11.3155
▁nationwide	-11.3156
▁athletics	-11.3158
▁Canyon	-11.3158
▁Arabia	-11.3159
▁restore	-11.3161
▁survivors	-11.3161
▁1865	-11.3161
▁presents	-11.3162
▁retire	-11.3162
▁Nu	-11.3165
El	-11.3166
▁silent	-11.3166
set	-11.3167
▁Working	-11.3172
▁Hay	-11.3177
▁peninsula	-11.3177
▁belong	-11.318
that	-11.318
▁maternal	-11.3182
▁Germans	-11.3182
▁Mann	-11.3182
▁expelled	-11.3185
ban	-11.3186
▁recurring	-11.3188
▁illustrations	-11.3188
▁prices	-11.319
hr	-11.3193
▁1820	-11.3193
▁dozen	-11.3196
▁Universe	-11.3196
▁automatically	-11.3199
▁Machine	-11.3202
▁Idaho	-11.3204
del	-11.3205
▁firing	-11.3207
▁procedure	-11.3208
▁Chelsea	-11.3212
▁Alpha	-11.3212
▁collector	-11.3214
▁abbey	-11.3214
▁sophomore	-11.3214
▁Heinrich	-11.3215
▁increases	-11.3215
mu	-11.3215
▁commanding	-11.3216
▁mentions	-11.3216
▁Fourth	-11.3217
ane	-11.3221
▁Robertson	-11.3221
▁Theological	-11.3222
▁1934,	-11.3225
▁Twenty	-11.3225
▁bankruptcy	-11.3226
1,	-11.3226
▁Eye	-11.3227
released	-11.3228
▁Salvador	-11.3229
▁(21	-11.3231
▁USSR	-11.3231
▁1871	-11.3232
▁commitment	-11.3232
▁Burton	-11.3236
▁skill	-11.3236
▁handling	-11.3237
▁deeply	-11.325
▁Academic	-11.3253
▁lawsuit	-11.3256
▁depression	-11.3256
English	-11.3256
nan	-11.3259
▁Partners	-11.3259
▁jointly	-11.3259
▁manufacturers	-11.3266
▁Colonial	-11.3266
▁bombing	-11.3269
▁slaves	-11.3269
▁tissue	-11.3273
▁1879	-11.3274
▁Eugene	-11.3275
▁imprisonment	-11.3276
▁Site	-11.3279
▁expanding	-11.3281
▁Factory	-11.3281
▁wet	-11.3282
▁93	-11.3284
▁acclaim	-11.3288
▁Obama	-11.3289
first	-11.3292
▁Sweet	-11.3292
▁1874	-11.3299
▁Julian	-11.3299
▁vacant	-11.33
▁dense	-11.3305
▁50%	-11.3307
▁Napoleon	-11.3312
▁therapy	-11.3312
▁arrangements	-11.3313
▁altered	-11.3313
▁Cohen	-11.3314
▁worst	-11.3317
▁1919.	-11.3319
▁interim	-11.3319
▁folded	-11.332
▁Eve	-11.3321
▁Amateur	-11.3324
▁terminated	-11.3327
▁index	-11.3327
▁breaks	-11.3328
org	-11.3332
cher	-11.3335
▁communist	-11.3336
▁VIII	-11.3336
▁Ti	-11.3338
▁Th	-11.3339
▁deposits	-11.334
vin	-11.3343
ei	-11.3343
yl	-11.3344
▁3.5	-11.3347
-8	-11.3352
▁comments	-11.3352
▁scorer	-11.3353
▁Literary	-11.3354
▁faster	-11.3356
▁Lithuania	-11.3358
ial	-11.3359
▁Hugo	-11.3361
▁Reynolds	-11.3361
▁deliver	-11.3362
▁sheet	-11.3362
▁Ch	-11.3363
▁graphics	-11.3363
▁Syrian	-11.3364
▁Za	-11.3365
▁Roosevelt	-11.3369
▁partnered	-11.337
ven	-11.337
▁Communication	-11.3371
▁1838	-11.3371
▁Tiger	-11.3372
▁surrender	-11.3372
▁refugees	-11.3374
state	-11.3374
▁mutual	-11.3379
▁withdrawn	-11.3381
▁praise	-11.3382
▁Miles	-11.3384
pin	-11.3385
▁Double	-11.3386
ong	-11.339
▁ESPN	-11.339
▁Lab	-11.339
▁saint	-11.3393
One	-11.3394
▁depot	-11.3396
▁Kin	-11.3399
din	-11.3399
ent	-11.3404
▁landmark	-11.3404
▁obtaining	-11.3406
▁developers	-11.3409
dal	-11.3409
▁mature	-11.3409
▁amounts	-11.3411
▁quoted	-11.3419
▁Horn	-11.3419
kov	-11.3419
▁surprise	-11.3419
▁Exhibition	-11.3422
▁Hand	-11.3423
ert	-11.3424
▁Kara	-11.3427
▁recreational	-11.3427
”,	-11.3429
▁lights	-11.343
▁Chu	-11.3431
▁samples	-11.3431
▁diplomat	-11.3436
▁descendant	-11.3437
▁Curtis	-11.3438
12	-11.3439
▁(24	-11.344
rum	-11.3441
▁Marion	-11.3442
▁surfaces	-11.3444
▁familiar	-11.3445
▁peer	-11.3446
▁Berg	-11.3447
des	-11.3448
▁Clay	-11.3448
▁dubbed	-11.3449
▁Number	-11.3456
▁songwriter	-11.3457
▁prevented	-11.3458
▁integration	-11.346
▁Bedford	-11.3461
▁varied	-11.3461
▁rocket	-11.3462
enberg	-11.3465
▁formula	-11.3466
▁Springfield	-11.3466
▁governments	-11.3467
▁consumption	-11.3468
key	-11.3474
▁Annie	-11.3475
lar	-11.3475
ix	-11.3477
▁derives	-11.3479
▁Leslie	-11.348
▁Support	-11.3485
▁missile	-11.3486
▁topic	-11.3488
▁revived	-11.3489
▁Enterprise	-11.3492
written	-11.3492
▁lineup	-11.3494
▁AFC	-11.3494
▁Cancer	-11.3495
▁bout	-11.3497
▁download	-11.3497
▁Er	-11.3497
▁planted	-11.35
ela	-11.35
▁Superior	-11.3504
▁Achievement	-11.3506
▁nose	-11.3509
▁tanks	-11.3511
▁moral	-11.3511
▁Ber	-11.3516
▁sleep	-11.3516
▁learns	-11.3519
▁Sin	-11.3521
ett	-11.3524
▁Kid	-11.3527
▁hospitals	-11.3528
▁Get	-11.3528
▁Cairo	-11.3532
tra	-11.354
▁pub	-11.3541
▁Sons	-11.3547
▁IT	-11.3547
▁lying	-11.3549
▁relatives	-11.355
▁(30	-11.355
▁1938.	-11.3551
▁impossible	-11.3556
о	-11.3557
▁Shore	-11.3561
▁acquire	-11.3563
▁revenge	-11.3564
▁emotional	-11.3569
▁historians	-11.3572
▁crowned	-11.3573
▁rebellion	-11.3578
▁Wei	-11.3578
▁literally	-11.3578
▁interaction	-11.3581
▁transported	-11.3581
▁argument	-11.3581
▁Dale	-11.3582
yu	-11.3583
▁scandal	-11.3584
▁committees	-11.3584
▁Founded	-11.3586
▁Hindi	-11.3587
▁trails	-11.3588
▁dying	-11.3589
▁preservation	-11.3589
▁sight	-11.359
▁proof	-11.3591
▁authorized	-11.3602
▁Rolling	-11.3603
▁bow	-11.3604
▁Bears	-11.3609
▁Southampton	-11.361
▁Chapter	-11.361
▁Seoul	-11.361
▁trans	-11.3613
▁Sofia	-11.3617
▁Programme	-11.3618
▁watching	-11.362
▁random	-11.3625
bury	-11.3625
▁targets	-11.3627
om	-11.363
▁Rachel	-11.3636
▁mysterious	-11.3636
▁Monroe	-11.3637
▁comparison	-11.3639
▁semifinals	-11.3643
▁backed	-11.3648
▁mineral	-11.3649
▁enable	-11.3649
▁Globe	-11.365
▁Mine	-11.3652
▁demands	-11.3657
▁feelings	-11.3658
▁Primera	-11.3659
▁el	-11.3663
▁1950.	-11.3664
▁retreat	-11.3665
yo	-11.3665
she	-11.3667
▁1928,	-11.3668
▁Orlando	-11.3669
▁reflected	-11.3672
▁Actor	-11.3673
▁1937.	-11.3673
sized	-11.3675
If	-11.3678
▁Chang	-11.3681
▁exploration	-11.3683
ena	-11.3687
▁Bombay	-11.3688
board	-11.3688
▁retain	-11.369
▁trainer	-11.3695
▁teenager	-11.3696
▁nurse	-11.3698
▁Kirk	-11.37
▁concentrated	-11.3701
▁fate	-11.3701
▁numbered	-11.3702
▁Carol	-11.3704
▁Dynasty	-11.3708
▁1843	-11.371
▁varieties	-11.3714
▁intense	-11.3716
▁regulation	-11.3716
▁Basin	-11.3716
▁lifestyle	-11.3717
gu	-11.3719
▁magnetic	-11.372
Con	-11.3722
▁Commercial	-11.3726
dimensional	-11.3727
▁repeatedly	-11.373
е	-11.3733
band	-11.3734
▁sure	-11.3734
page	-11.3737
▁Case	-11.3738
▁contracted	-11.3738
▁McDonald	-11.3739
▁Legal	-11.3741
▁settle	-11.3742
▁vinyl	-11.3742
▁Safety	-11.3743
ft	-11.3745
▁centres	-11.3745
▁neighbourhood	-11.3749
▁reader	-11.3751
▁affect	-11.3752
▁Aboriginal	-11.3753
▁Ernst	-11.3753
ua	-11.3757
▁stress	-11.3757
▁Industries	-11.3763
16	-11.3764
▁Exeter	-11.3764
▁endemic	-11.3765
▁Madras	-11.3766
can	-11.3767
▁1916,	-11.3769
▁Albania	-11.3772
▁corps	-11.3774
▁consistent	-11.3779
▁finalist	-11.3779
▁Fiction	-11.378
▁translator	-11.3781
▁feels	-11.3782
▁Nan	-11.3783
▁Using	-11.3784
▁monks	-11.3784
▁fighters	-11.3784
▁politicians	-11.3785
▁Clara	-11.3787
was	-11.3789
▁pit	-11.3791
▁Guards	-11.3795
▁1922,	-11.3797
▁Iraqi	-11.3798
▁Louisville	-11.3807
▁Located	-11.381
▁followers	-11.3812
▁collapsed	-11.3814
▁Cho	-11.3816
▁wards	-11.3819
▁lady	-11.382
▁batting	-11.382
▁h	-11.3821
▁Adult	-11.3822
▁Eight	-11.3824
▁1812	-11.3826
▁elite	-11.3827
▁Harper	-11.3831
▁Former	-11.3835
▁priests	-11.3835
▁Sudan	-11.3836
▁asteroid	-11.3837
▁Luxembourg	-11.3839
▁Testament	-11.3842
▁portfolio	-11.3843
▁1923,	-11.3844
▁Op	-11.3847
▁pilots	-11.3851
▁Headquarters	-11.3854
▁1848	-11.3856
▁89	-11.3857
▁rotation	-11.386
▁Letters	-11.3862
▁associations	-11.3863
For	-11.3866
▁diversity	-11.3869
▁Frances	-11.387
▁Andrea	-11.3873
▁Cumberland	-11.3874
top	-11.3877
▁Twitter	-11.388
▁94	-11.3881
▁1927,	-11.3882
▁clothes	-11.3885
▁Gospel	-11.3885
40	-11.3887
▁sixty	-11.3888
▁layout	-11.3888
▁María	-11.389
▁1921,	-11.3891
▁sponsor	-11.3891
▁preliminary	-11.3892
▁160	-11.3892
▁LLC	-11.3894
▁editing	-11.39
▁citizenship	-11.3902
▁enforcement	-11.3902
▁Kenneth	-11.3906
▁ask	-11.3908
▁1875	-11.3909
▁Ash	-11.3909
▁purple	-11.3912
general	-11.3912
▁suspected	-11.3913
▁oxygen	-11.3913
▁1842	-11.3913
▁efficient	-11.3916
▁Call	-11.3917
▁Gran	-11.392
▁Mai	-11.3921
President	-11.3925
▁Claude	-11.3928
▁loved	-11.3928
▁sending	-11.3928
▁Lion	-11.3928
▁bore	-11.3929
mes	-11.393
▁Bronze	-11.3931
▁Edition	-11.3932
▁conceived	-11.3932
▁petition	-11.3934
▁contracts	-11.3939
▁1917.	-11.3941
▁enlarged	-11.3943
pro	-11.3944
work	-11.3945
▁Swan	-11.3947
▁pole	-11.3947
▁rifle	-11.3948
ović	-11.3949
▁invested	-11.395
▁noise	-11.3952
▁presenting	-11.3953
▁check	-11.3957
▁judicial	-11.3957
▁cabin	-11.396
Le	-11.3961
▁130	-11.3963
▁Bryan	-11.3966
▁rocky	-11.3967
French	-11.3969
▁leased	-11.3971
▁entity	-11.3974
▁preparing	-11.3974
▁Brad	-11.3978
▁addressed	-11.3978
▁Bros	-11.3979
▁Charleston	-11.3979
▁Sox	-11.3982
▁sweet	-11.3983
▁prayer	-11.3985
▁Wagner	-11.3986
▁Barnes	-11.3987
▁Ger	-11.3987
▁poll	-11.3987
▁plaque	-11.3993
▁1930,	-11.3994
▁handled	-11.3994
▁allocated	-11.3997
▁trophy	-11.3998
▁breast	-11.4001
tis	-11.4002
▁Inspector	-11.4004
▁Walk	-11.4008
▁seized	-11.401
▁kills	-11.401
▁Previously	-11.401
▁Dorothy	-11.4014
▁Edgar	-11.4014
▁1873	-11.4014
▁Again	-11.4014
▁Hayes	-11.4015
▁Glacier	-11.4016
▁investigated	-11.4016
▁Tur	-11.4016
▁torpedo	-11.4018
▁protagonist	-11.4019
▁Cologne	-11.4021
some	-11.4021
▁bounded	-11.4022
▁tables	-11.4025
▁Nevertheless	-11.4028
▁1912,	-11.403
▁Movie	-11.4031
school	-11.4031
▁regard	-11.4034
▁metropolitan	-11.4036
▁83	-11.404
▁grain	-11.4044
▁Dal	-11.4047
▁Trump	-11.4047
▁Continental	-11.405
ó	-11.4053
▁engage	-11.4059
▁sacred	-11.4059
▁explain	-11.4061
▁Suffolk	-11.4061
▁Cavalry	-11.4063
▁landscapes	-11.4066
▁Crawford	-11.4067
after	-11.4071
▁Bass	-11.4073
▁reads	-11.4075
▁oval	-11.4075
▁Georg	-11.4076
▁journalists	-11.4076
▁180	-11.4077
▁refuge	-11.4082
▁encountered	-11.4085
▁wire	-11.4086
▁cleared	-11.4088
▁Bradley	-11.409
▁Warriors	-11.4091
▁wheels	-11.4091
▁longtime	-11.4092
brown	-11.4093
▁Stein	-11.4094
▁prolific	-11.4095
▁Maritime	-11.4096
▁Lakes	-11.4099
▁Yi	-11.4102
▁nursing	-11.4105
tus	-11.4105
▁behaviour	-11.4108
▁1925,	-11.4108
▁Cha	-11.4108
Don	-11.4109
▁Christians	-11.411
▁lighthouse	-11.4112
▁Lynn	-11.4116
▁Software	-11.4116
▁identification	-11.4119
▁Parks	-11.4121
▁scales	-11.4122
▁colleague	-11.4123
▁1932,	-11.4126
▁accurate	-11.4126
▁1–1	-11.4127
▁Crystal	-11.4127
▁seemed	-11.4129
▁1931,	-11.4129
▁profit	-11.4131
▁airfield	-11.4136
▁Gang	-11.414
▁porch	-11.4142
▁Ulster	-11.4145
▁succeeding	-11.415
▁array	-11.4151
▁situations	-11.4154
▁Learning	-11.4154
▁engineers	-11.4154
▁enterprise	-11.4159
▁UCLA	-11.416
▁personally	-11.4162
▁Capitol	-11.4163
▁scattered	-11.4163
speed	-11.4166
▁remix	-11.4167
▁Janeiro	-11.417
▁horizontal	-11.4172
▁separation	-11.4173
▁refuses	-11.418
▁essay	-11.418
▁André	-11.418
▁cavalry	-11.4182
▁undertaken	-11.4185
▁Mas	-11.4185
▁coordinator	-11.4186
▁École	-11.4189
▁Metal	-11.4191
illa	-11.4192
▁Bosnia	-11.4199
▁Ja	-11.42
▁parishes	-11.4202
play	-11.4203
▁Chemical	-11.4206
▁Original	-11.4209
▁Brand	-11.4209
▁Morrison	-11.4211
▁meter	-11.4216
▁Bergen	-11.4218
▁licence	-11.4218
ō	-11.4219
▁Northwestern	-11.422
▁Viscount	-11.4221
ok	-11.4222
▁accredited	-11.4224
▁encounter	-11.4226
▁Glenn	-11.4227
▁1924,	-11.4228
▁treat	-11.4229
▁centered	-11.423
▁Statistics	-11.4231
▁Providence	-11.4232
▁climbing	-11.4234
▁twentieth	-11.4237
▁91	-11.4238
▁societies	-11.4238
▁Presidential	-11.424
stad	-11.424
▁sky	-11.4241
▁Full	-11.4243
▁AFL	-11.4246
▁artifacts	-11.4247
▁Cave	-11.425
▁entries	-11.4251
23	-11.4252
▁admission	-11.4254
▁playwright	-11.4254
▁Antarctica	-11.4255
▁<	-11.4256
box	-11.4256
▁bio	-11.4265
▁fluid	-11.4265
▁layers	-11.4267
▁consulting	-11.4268
▁dinner	-11.4269
▁reveal	-11.4273
▁militia	-11.4273
▁Thunder	-11.4273
▁fruits	-11.4274
▁Actress	-11.4274
▁Marco	-11.4275
tor	-11.4276
▁Inside	-11.4278
▁romance	-11.4279
zen	-11.4282
▁rainfall	-11.4283
▁struggled	-11.4285
second	-11.4286
▁tribal	-11.4289
▁Liberation	-11.4291
▁Beck	-11.4292
▁Housing	-11.4293
▁diet	-11.4295
▁1910,	-11.4295
▁chancel	-11.4297
▁Yellow	-11.4297
▁Das	-11.4298
▁Chronicle	-11.4298
▁Belle	-11.4298
new	-11.4301
▁Kil	-11.4307
▁danger	-11.431
▁Ro	-11.4314
▁invitation	-11.4315
▁companion	-11.4317
▁Lok	-11.4319
▁--	-11.432
▁Wednesday	-11.4324
▁Popular	-11.4328
▁educator	-11.433
▁quantum	-11.4331
▁variations	-11.4332
June	-11.4334
▁screenplay	-11.4334
book	-11.4339
17	-11.4344
▁muscle	-11.4344
▁prizes	-11.4346
▁Edwin	-11.4347
▁Prof	-11.4347
▁duration	-11.4347
▁log	-11.4348
king	-11.4348
wide	-11.4349
heim	-11.435
▁Lords	-11.4351
▁fabric	-11.4352
▁woodland	-11.4356
▁headquartered	-11.4356
▁unless	-11.4357
án	-11.4358
▁Watch	-11.4363
▁backup	-11.4366
▁Aviv	-11.437
▁Criminal	-11.437
▁140	-11.4373
▁opens	-11.4375
▁Slovakia	-11.4375
▁Helsinki	-11.4376
▁Nathan	-11.4377
▁Va	-11.4378
▁doctors	-11.4378
▁unveiled	-11.4379
▁firms	-11.438
week	-11.4381
▁unclear	-11.4381
ić	-11.4382
▁similarly	-11.4385
▁holder	-11.4387
▁shrine	-11.4388
▁northeastern	-11.439
▁hopes	-11.4394
▁habitats	-11.4395
ky	-11.4396
▁Calcutta	-11.4396
▁explosion	-11.4397
metre	-11.4399
▁abilities	-11.4401
▁donations	-11.4402
▁sandstone	-11.4407
▁agree	-11.4408
▁Worcester	-11.4409
▁axis	-11.4409
▁thrown	-11.4413
len	-11.4414
▁Linda	-11.4414
▁anthology	-11.4415
▁Sugar	-11.442
▁Bavaria	-11.4421
▁competitors	-11.4429
tes	-11.443
bay	-11.4431
▁Complex	-11.4431
▁remarkable	-11.4434
▁advisory	-11.4438
-9	-11.444
▁Nam	-11.444
▁stems	-11.444
▁sword	-11.444
▁symptoms	-11.4442
rat	-11.4448
▁1935.	-11.4448
are	-11.4449
▁embarked	-11.445
-7	-11.4452
▁assessment	-11.4452
▁seating	-11.4452
fish	-11.4453
▁Indoor	-11.4453
▁southeastern	-11.4453
▁badly	-11.4454
▁1926,	-11.4454
August	-11.4455
De	-11.4456
▁Afterwards	-11.4456
▁Alexandria	-11.4458
▁shots	-11.4458
▁compact	-11.4459
▁taxes	-11.4461
worth	-11.4462
▁fur	-11.4463
▁Well	-11.4465
▁Syracuse	-11.4465
▁Burns	-11.4468
▁corn	-11.4468
▁threats	-11.4471
▁lab	-11.4471
▁proximity	-11.4472
▁Baroque	-11.4472
▁metre	-11.4473
zer	-11.4476
▁Chennai	-11.4477
▁Without	-11.4478
▁celebrity	-11.4483
▁knockout	-11.4488
tier	-11.4492
▁Salem	-11.4492
▁125	-11.4492
▁Herman	-11.4494
ensis	-11.4496
both	-11.4496
▁Southwest	-11.4496
▁centimetres	-11.4496
▁Ethiopia	-11.4497
▁hitting	-11.4498
ins	-11.45
▁abstract	-11.4503
▁fundamental	-11.4507
▁Pu	-11.4509
▁Ski	-11.451
vo	-11.4513
▁Uruguay	-11.4513
à	-11.4517
▁Wan	-11.4517
▁convent	-11.4518
▁disabled	-11.452
▁valid	-11.4522
▁oral	-11.4523
▁draws	-11.4523
–19	-11.4524
▁100,000	-11.4524
▁hop	-11.4524
▁aware	-11.4525
▁temples	-11.4526
▁1929.	-11.4532
▁narrowly	-11.4532
▁larvae	-11.4533
▁(25	-11.4539
://	-11.4546
▁Fashion	-11.4547
▁knows	-11.4547
▁Tennis	-11.4548
▁constituencies	-11.4552
▁populated	-11.4555
▁Tourism	-11.4556
▁Tyler	-11.4556
▁revolutionary	-11.4558
▁accommodation	-11.4566
▁Physical	-11.4568
shan	-11.4569
▁colonies	-11.4572
▁1936.	-11.4579
▁paying	-11.458
▁Arsenal	-11.4583
▁Pal	-11.4586
lam	-11.4587
ν	-11.4588
▁cloud	-11.459
▁provision	-11.4591
What	-11.4595
▁Kids	-11.4597
▁pm	-11.4602
▁philosopher	-11.4604
▁wore	-11.4605
▁Official	-11.4611
▁Theodore	-11.4614
▁poets	-11.4615
▁recognize	-11.4618
▁binding	-11.4618
▁compounds	-11.4619
▁constitute	-11.462
▁separately	-11.4621
▁indeed	-11.4621
▁suburban	-11.4621
▁cent	-11.4624
▁Bio	-11.4624
▁receiver	-11.4625
▁tackle	-11.4625
▁assembled	-11.4626
SR	-11.4626
▁Fan	-11.4626
▁Estonia	-11.4626
▁requirement	-11.4627
▁1914.	-11.4632
▁concepts	-11.4633
ice	-11.4635
▁harbour	-11.4635
▁attract	-11.4636
▁tasks	-11.4642
▁MS	-11.4647
▁Santo	-11.4648
Al	-11.465
▁hotels	-11.4651
▁par	-11.4653
▁Webb	-11.4656
30	-11.4656
▁winds	-11.4658
▁commercials	-11.4661
▁Apollo	-11.4661
▁350	-11.4661
▁Access	-11.4664
▁1934.	-11.4664
▁"...	-11.4664
▁Jun	-11.4668
▁publishes	-11.4669
▁Prussian	-11.4671
,000	-11.4673
▁requiring	-11.4674
▁Johannes	-11.4676
▁welfare	-11.4677
▁Fighter	-11.4683
▁Hampton	-11.4684
There	-11.4684
▁Scout	-11.4687
▁inception	-11.4691
▁kick	-11.4693
▁dependent	-11.4694
▁convert	-11.4696
▁raid	-11.4696
▁Shu	-11.4696
ati	-11.4699
▁metric	-11.4699
▁strange	-11.4699
▁efficiency	-11.4704
▁Educational	-11.4707
▁stamps	-11.471
▁Baltic	-11.471
▁Classical	-11.4715
▁fellowship	-11.4716
▁cooking	-11.4717
▁decree	-11.4718
▁Johnston	-11.4719
▁distant	-11.472
nu	-11.4721
▁gathering	-11.4723
▁pageant	-11.4725
▁(26	-11.4725
▁Lithuanian	-11.4733
▁solely	-11.4736
▁Neo	-11.4738
enko	-11.4738
▁referendum	-11.4738
▁GT	-11.4739
▁Jennifer	-11.474
titled	-11.4748
▁promised	-11.4748
▁signals	-11.4748
tin	-11.475
▁Ny	-11.4752
▁creator	-11.4753
▁Norwich	-11.4756
▁cool	-11.4756
▁Appeals	-11.4757
▁Lt	-11.4758
▁universe	-11.476
ians	-11.4762
▁Estonian	-11.477
▁talking	-11.4772
sey	-11.4772
▁ministers	-11.4773
▁constantly	-11.4774
▁mystery	-11.4775
▁lord	-11.4776
lon	-11.4776
▁Wi	-11.4776
▁shed	-11.4778
▁pine	-11.4779
▁Carroll	-11.4781
bus	-11.4786
▁virus	-11.4789
▁prominence	-11.479
▁Psychology	-11.4791
▁labels	-11.4792
-14	-11.4794
▁Baldwin	-11.4804
▁holes	-11.4805
ities	-11.4808
▁radiation	-11.4808
▁Minneapolis	-11.4815
▁10-	-11.4816
aya	-11.4816
Go	-11.4819
▁legacy	-11.4821
▁Joy	-11.4822
▁Karen	-11.4823
▁theories	-11.4825
▁theoretical	-11.4827
▁variants	-11.4828
▁Dundee	-11.4828
tri	-11.4829
▁Summit	-11.4829
▁defender	-11.4832
▁aerial	-11.4835
uri	-11.4836
▁fights	-11.4836
▁generate	-11.4837
▁Lisbon	-11.484
▁oversaw	-11.484
▁allegations	-11.4845
▁screened	-11.4845
▁warning	-11.4845
▁Colony	-11.4846
▁Newfoundland	-11.4846
April	-11.4847
▁attacking	-11.4848
▁Sh	-11.4851
▁export	-11.4852
▁Doug	-11.4856
▁dish	-11.4856
▁Angels	-11.4859
▁Oblast	-11.4859
▁Santos	-11.4863
▁reunited	-11.4867
▁convoy	-11.487
▁traces	-11.487
▁Folk	-11.487
▁Fi	-11.4873
▁reforms	-11.4874
▁Where	-11.4876
ure	-11.4876
▁Elliott	-11.4876
▁Zimbabwe	-11.4878
▁Armenia	-11.4878
▁HIV	-11.4879
▁Biology	-11.488
▁Wyoming	-11.488
▁escort	-11.4884
▁(22	-11.4892
▁upset	-11.4893
▁Segunda	-11.4894
▁motorcycle	-11.4898
▁Kurt	-11.4898
▁accidentally	-11.4899
▁Benedict	-11.4901
▁intent	-11.4902
▁Arms	-11.4902
15	-11.4902
▁Duchy	-11.4908
▁Banks	-11.491
▁forcing	-11.4912
▁Shiva	-11.4913
▁fewer	-11.4916
▁dressed	-11.4916
▁feeding	-11.4917
Big	-11.4919
nie	-11.4921
▁deaths	-11.4921
▁lecture	-11.4922
▁listing	-11.4922
▁Greene	-11.4923
▁Ahmad	-11.4924
▁Notable	-11.4924
ora	-11.4925
▁airing	-11.4927
▁mentor	-11.4928
Me	-11.493
▁wickets	-11.493
▁infection	-11.4931
▁Dun	-11.4933
September	-11.4934
▁Marvel	-11.4934
▁Pink	-11.4935
▁immigrant	-11.4935
Co	-11.4936
▁endangered	-11.4938
▁bays	-11.4938
▁curved	-11.4939
▁Vietnamese	-11.494
▁Dubai	-11.494
▁boyfriend	-11.4941
▁phenomenon	-11.4943
▁1933.	-11.4945
▁premier	-11.4945
July	-11.4949
▁Ab	-11.4949
▁confusion	-11.495
▁Jesse	-11.495
▁HD	-11.4953
▁manga	-11.4955
▁reserved	-11.4957
▁Faith	-11.4958
▁witness	-11.496
▁arc	-11.4961
▁Got	-11.4961
▁waves	-11.4966
▁varying	-11.4968
▁flagship	-11.4971
▁Nor	-11.4973
▁Giuseppe	-11.4974
▁push	-11.4976
▁Eurovision	-11.4978
▁settling	-11.4978
▁wake	-11.4978
▁Betty	-11.4979
▁advised	-11.498
▁pipe	-11.498
▁pace	-11.4982
▁contestant	-11.4983
▁Telegraph	-11.4985
▁rhythm	-11.4986
eh	-11.4986
▁curve	-11.4986
▁Tal	-11.4989
▁fraud	-11.4992
▁tight	-11.4995
▁entrepreneur	-11.4997
▁delegation	-11.4997
▁True	-11.4999
▁Norton	-11.5003
▁villagers	-11.5005
track	-11.5006
▁Concert	-11.5009
Mo	-11.5013
ira	-11.5014
anti	-11.5015
mark	-11.5019
▁Visual	-11.5019
▁"[	-11.5022
▁verses	-11.5022
▁striking	-11.5023
▁enclosed	-11.5025
▁Clare	-11.5026
▁optical	-11.5027
▁1927.	-11.5028
▁consent	-11.5031
▁fossil	-11.5031
▁Antwerp	-11.5032
▁Palestinian	-11.5033
▁Prussia	-11.5034
responsibilities	-11.5034
▁Malcolm	-11.5035
▁merely	-11.5035
▁repairs	-11.5035
▁Half	-11.5036
▁Ne	-11.5038
▁Heath	-11.5038
pan	-11.5038
▁sustainable	-11.5042
▁1913,	-11.5044
▁rescued	-11.5044
▁easier	-11.5044
▁ghost	-11.5046
▁introduce	-11.5048
▁interrupted	-11.5048
▁quarters	-11.5048
▁Josh	-11.505
▁Julie	-11.5051
▁freestyle	-11.5053
▁dynamic	-11.5054
olo	-11.5057
▁1865.	-11.5057
▁operators	-11.5057
▁Gill	-11.5057
▁dealt	-11.5059
▁southwestern	-11.506
Love	-11.5062
▁Money	-11.5065
▁mathematician	-11.5065
▁Ferry	-11.5066
▁Sebastian	-11.5071
elli	-11.5072
win	-11.5076
▁decommissioned	-11.5078
Greek	-11.5079
▁talented	-11.5079
11	-11.5081
pop	-11.5082
▁Shadow	-11.5083
▁proceeds	-11.5083
▁speaks	-11.5083
▁Body	-11.5089
▁raw	-11.509
▁Micro	-11.5092
October	-11.5093
▁Prison	-11.5093
▁spotted	-11.5098
▁migrated	-11.5099
▁cluster	-11.51
Or	-11.5101
▁beds	-11.5101
sq	-11.5102
▁Diana	-11.5104
▁Moss	-11.5104
▁Pe	-11.5104
right	-11.5106
▁grandchildren	-11.511
▁Roll	-11.5111
▁Coalition	-11.5112
▁foundations	-11.5113
▁explored	-11.5116
▁NC	-11.5116
ona	-11.5117
etti	-11.5117
▁Midland	-11.5118
▁classrooms	-11.5121
▁inclusion	-11.5122
▁Ladies	-11.5124
▁comedian	-11.5124
rie	-11.5126
▁ballot	-11.5126
▁sometime	-11.5127
▁universal	-11.5128
▁charitable	-11.5129
▁mythology	-11.513
▁Phi	-11.5134
▁comprised	-11.5135
▁ITV	-11.5136
▁Winchester	-11.5137
▁contestants	-11.5139
▁Transit	-11.5142
▁Choice	-11.5142
▁strict	-11.5142
▁Change	-11.5145
▁Archives	-11.5146
▁Agreement	-11.5147
▁knocked	-11.5149
▁equity	-11.515
▁Walsh	-11.5151
▁threw	-11.5151
▁columnist	-11.5151
▁Blair	-11.5152
▁Zagreb	-11.5155
▁Rotten	-11.5156
▁bat	-11.5159
meter	-11.5161
▁Berry	-11.5163
▁specializing	-11.5164
▁Tasmania	-11.5165
▁outlets	-11.5167
nt	-11.5167
▁1931.	-11.5169
▁Newman	-11.5169
▁survival	-11.5169
▁disorder	-11.5171
▁Tin	-11.5172
▁correspondence	-11.5173
▁automobile	-11.5173
▁considering	-11.5173
▁climb	-11.5174
▁accompanying	-11.5176
▁congressional	-11.5176
▁ceiling	-11.5178
▁eating	-11.518
fu	-11.5181
▁Var	-11.5182
▁bowl	-11.5189
▁reddish	-11.5195
▁Aircraft	-11.5199
Do	-11.5199
▁equally	-11.5201
chen	-11.5201
▁Trinidad	-11.5201
▁Burke	-11.5201
▁messages	-11.5201
▁organize	-11.5201
zy	-11.5203
▁server	-11.5203
▁Discovery	-11.5203
▁Meyer	-11.5203
▁Hermann	-11.5204
▁prompted	-11.5209
about	-11.5211
▁Troy	-11.5211
▁realizes	-11.5214
▁civic	-11.5215
▁Against	-11.5215
▁Hyderabad	-11.5216
▁(23	-11.5216
▁achieving	-11.5217
▁guided	-11.5219
▁Devil	-11.5224
▁Chapman	-11.5224
▁1831	-11.5226
She	-11.5227
▁Current	-11.523
▁watched	-11.5231
▁genes	-11.5232
▁Ros	-11.5232
▁paved	-11.5232
▁shock	-11.5233
▁Picture	-11.5233
▁Rocky	-11.5234
▁referee	-11.5235
ret	-11.5235
▁Dresden	-11.5238
▁1923.	-11.5239
ali	-11.5241
▁Easter	-11.5242
▁Sacred	-11.5242
burn	-11.5244
▁recover	-11.5245
▁professionally	-11.5246
▁Pol	-11.5248
▁transit	-11.5248
▁Volunteer	-11.5251
▁anime	-11.5251
November	-11.5251
▁fragments	-11.5252
hop	-11.5254
▁Yo	-11.5255
▁noticed	-11.5255
▁nicknamed	-11.5257
▁Bologna	-11.5263
▁lots	-11.5266
š	-11.5267
▁1924.	-11.5267
sburg	-11.5271
▁Broad	-11.5273
▁1900,	-11.5276
▁Polytechnic	-11.5277
▁happen	-11.5278
▁empire	-11.5279
▁Index	-11.528
▁demanded	-11.528
▁Never	-11.5281
▁Fifth	-11.5282
▁1928.	-11.5282
ping	-11.5286
▁targeted	-11.5287
▁absolute	-11.5287
▁facilitate	-11.5287
▁Canberra	-11.5288
▁1920.	-11.5289
▁Adrian	-11.529
▁pull	-11.5291
▁jet	-11.5291
▁freelance	-11.5291
▁circles	-11.5292
▁MC	-11.5294
▁Sporting	-11.5294
▁iTunes	-11.5295
▁Leadership	-11.53
▁councillor	-11.5301
ile	-11.5302
▁Beat	-11.5305
▁adviser	-11.5305
▁suburbs	-11.5307
▁Tribune	-11.5308
▁geometry	-11.5309
▁dreams	-11.531
▁accordance	-11.5313
▁Sex	-11.5314
▁Sant	-11.5314
▁Mur	-11.5315
▁AG	-11.5317
▁Stoke	-11.5317
▁1932.	-11.5318
▁Applied	-11.532
▁Gerald	-11.5321
▁decorative	-11.5324
▁assassination	-11.5324
▁Mega	-11.533
▁Thames	-11.5331
▁MIT	-11.5331
▁activists	-11.5332
▁supervised	-11.5332
▁Rica	-11.5333
▁Investment	-11.5337
▁grammar	-11.5339
▁museums	-11.5339
▁shaft	-11.5339
▁Unfortunately	-11.534
▁2012–13	-11.5343
▁20,000	-11.5344
▁Klein	-11.5346
ill	-11.5351
▁continental	-11.5353
▁criticised	-11.5353
▁Ur	-11.5356
▁autobiography	-11.5356
present	-11.5357
▁burning	-11.5357
nica	-11.5357
▁commemorate	-11.536
▁Hitler	-11.5362
▁absent	-11.5362
▁agrees	-11.5363
▁marking	-11.5363
▁integral	-11.5366
▁item	-11.5366
▁slot	-11.5368
▁Hood	-11.5368
▁Level	-11.5369
▁manual	-11.537
▁Agnes	-11.5373
master	-11.5373
▁designing	-11.5374
ο	-11.5375
▁Fiji	-11.5376
cc	-11.5378
▁granddaughter	-11.5378
▁Reverend	-11.5379
▁Bang	-11.5382
▁Morton	-11.5384
▁crashed	-11.5384
▁matrix	-11.5385
▁Logan	-11.5386
▁Jake	-11.5386
▁Mini	-11.5387
▁sanctuary	-11.5389
▁photograph	-11.5394
▁transformation	-11.5397
▁archives	-11.5398
▁volcanic	-11.5398
▁Cu	-11.5399
▁posthumously	-11.5402
▁Female	-11.5402
▁discipline	-11.5408
par	-11.5409
▁Arctic	-11.5409
▁Diploma	-11.541
▁Deutsche	-11.5411
▁confluence	-11.5411
▁hub	-11.5412
▁spiral	-11.5412
▁raced	-11.5412
▁Middlesex	-11.5413
▁hoped	-11.5416
▁Bundesliga	-11.5417
▁dome	-11.5418
▁ports	-11.5418
▁modeling	-11.5419
▁barrel	-11.5419
▁customs	-11.542
▁Bruno	-11.5421
▁suggesting	-11.5422
▁für	-11.5424
▁flooding	-11.5429
▁Bern	-11.5431
▁BCE	-11.5433
▁recreation	-11.5434
▁se	-11.5438
100	-11.5443
south	-11.5447
nis	-11.5447
▁Bin	-11.5449
▁Gal	-11.5449
▁march	-11.5454
▁monitoring	-11.5455
▁compensation	-11.546
▁Mil	-11.546
▁rubber	-11.546
▁1922.	-11.5463
▁Fer	-11.5464
▁Row	-11.5464
▁Train	-11.5464
▁teamed	-11.5465
▁Rain	-11.5466
▁Theory	-11.5467
3)	-11.5467
▁Choir	-11.5469
▁Has	-11.547
▁united	-11.547
ids	-11.5477
▁fees	-11.5478
▁unanimous	-11.5479
▁Rad	-11.5481
▁fed	-11.5482
▁Hero	-11.5482
▁melody	-11.5485
▁hybrid	-11.5486
▁Kolkata	-11.5486
▁aunt	-11.5487
▁presidency	-11.5492
▁garage	-11.5493
▁1858	-11.5494
▁1833	-11.5494
▁Hurricane	-11.5495
▁Loch	-11.5497
▁shield	-11.5502
▁Engineer	-11.5503
▁charted	-11.5515
▁dancers	-11.5516
▁promise	-11.5517
▁Maha	-11.5518
▁Cardinals	-11.5519
▁commercially	-11.5519
▁confidence	-11.552
▁narrator	-11.5522
▁mills	-11.5522
▁rolling	-11.5529
▁Kiev	-11.5529
▁pitcher	-11.553
▁2.0	-11.553
▁Thomson	-11.5531
▁slope	-11.5535
▁Kenny	-11.5535
▁respected	-11.5537
▁Sandy	-11.5538
ability	-11.5541
▁consequence	-11.5541
▁1925.	-11.5543
▁keyboard	-11.5544
▁sponsorship	-11.5544
▁Stuttgart	-11.5545
▁bones	-11.5546
▁Victory	-11.5548
▁105	-11.555
▁2017–18	-11.555
▁1912.	-11.5551
▁1916.	-11.5551
▁critically	-11.5551
▁Tanzania	-11.5552
▁Critics	-11.5552
world	-11.5554
▁Note	-11.5555
▁immigration	-11.5556
▁bike	-11.5558
▁riders	-11.5558
▁logic	-11.5558
▁Tre	-11.5561
▁Mile	-11.5561
▁filmmaker	-11.5561
▁environments	-11.5565
▁killer	-11.5566
▁luxury	-11.5567
▁para	-11.5571
▁activated	-11.5572
▁loose	-11.5572
ese	-11.5573
▁provisions	-11.5573
▁Oriental	-11.5574
▁galleries	-11.5574
▁Moreover	-11.5574
▁innovation	-11.5579
▁Laws	-11.5585
▁Churchill	-11.5588
▁Ty	-11.559
▁cultures	-11.559
▁intervention	-11.5593
▁5-	-11.5594
▁1910.	-11.5597
idae	-11.5598
▁Mt	-11.56
▁migration	-11.5601
▁Paper	-11.5601
▁Evening	-11.5602
▁2016–17	-11.5602
▁FIBA	-11.5604
▁petals	-11.5604
▁collegiate	-11.5607
December	-11.5612
▁sudden	-11.5614
person	-11.5614
▁criteria	-11.5618
▁continuously	-11.5619
▁Vernon	-11.5621
raj	-11.5621
▁salary	-11.5622
▁pottery	-11.5623
▁hydrogen	-11.5625
CO	-11.5625
▁vicar	-11.5626
▁repertoire	-11.5626
handed	-11.5627
▁Rhine	-11.5628
▁Foot	-11.5628
▁ammunition	-11.563
▁certification	-11.563
▁occurring	-11.5632
▁2013–14	-11.5634
lla	-11.5635
jan	-11.5637
▁#	-11.5639
▁counts	-11.564
▁noting	-11.564
yi	-11.5644
ding	-11.5645
▁Boat	-11.5647
▁wheat	-11.5649
ero	-11.565
▁northwestern	-11.565
▁nest	-11.565
▁SA	-11.5651
ward	-11.5655
▁Treasury	-11.5656
▁Lambert	-11.5657
▁Pin	-11.5657
▁specified	-11.5657
▁interactive	-11.5658
▁sequences	-11.5659
▁stability	-11.566
▁conflicts	-11.5662
ida	-11.5664
Ireland	-11.5665
▁voices	-11.5666
▁Rai	-11.5666
▁Journalism	-11.5667
▁Silva	-11.5668
▁rejoined	-11.5669
▁membrane	-11.5669
▁examined	-11.5671
▁Piano	-11.5672
ado	-11.5675
eri	-11.5676
▁dimensions	-11.5676
▁acknowledged	-11.5679
▁Tr	-11.568
▁Via	-11.568
▁curator	-11.5681
▁Joel	-11.5681
▁Take	-11.5682
▁procedures	-11.5683
▁rendered	-11.5685
▁Whitney	-11.5687
▁understood	-11.5687
January	-11.5688
▁Past	-11.5688
▁seeks	-11.569
▁Lamb	-11.569
▁staying	-11.5694
ς	-11.5696
▁Rama	-11.5698
▁NSW	-11.5701
▁whorls	-11.5703
▁Architects	-11.5703
▁Willie	-11.5705
▁Gandhi	-11.5706
▁developments	-11.5706
▁2015–16	-11.5707
▁Spa	-11.5708
▁designers	-11.5708
▁decoration	-11.571
▁Ci	-11.5711
▁odd	-11.5711
▁1902,	-11.5712
▁1852	-11.5714
▁Pole	-11.5716
▁solve	-11.5718
▁counsel	-11.5719
▁Constantinople	-11.572
▁broadcaster	-11.5721
▁chest	-11.5723
▁attractive	-11.5728
▁Bangalore	-11.5729
▁imported	-11.573
▁embassy	-11.5731
▁genres	-11.5732
row	-11.5734
▁Heaven	-11.5734
▁blocked	-11.5737
▁scope	-11.5738
bound	-11.5739
▁Nobel	-11.574
▁prey	-11.5741
▁palm	-11.5743
▁thriller	-11.5744
▁Chuck	-11.5745
▁Performing	-11.5747
▁strings	-11.5758
▁plantation	-11.5759
▁Brother	-11.5759
▁Wa	-11.576
,”	-11.5765
ans	-11.5767
▁Felix	-11.5771
▁Fight	-11.5771
iz	-11.5776
▁1921.	-11.5778
▁Bolton	-11.5782
lecommunications	-11.5782
▁synthesis	-11.5783
▁epic	-11.5785
▁Thor	-11.5786
▁tubes	-11.5787
▁Guru	-11.5787
lit	-11.579
▁1905,	-11.5791
▁alignment	-11.5793
▁memoir	-11.5801
▁Pier	-11.5802
ap	-11.5806
▁seal	-11.5808
▁3–1	-11.5808
▁Sanskrit	-11.5809
▁Macedonia	-11.5809
▁bulk	-11.5811
▁substance	-11.5812
▁discussions	-11.5813
▁Winston	-11.5814
▁tips	-11.5814
▁considerably	-11.5815
▁monuments	-11.5815
val	-11.5816
ag	-11.5816
storey	-11.5819
▁Link	-11.5823
▁drainage	-11.5826
▁statistical	-11.5828
▁Toledo	-11.583
▁capabilities	-11.583
▁Dev	-11.5831
▁Helena	-11.5832
▁$3	-11.5832
▁3000	-11.5835
▁seventeen	-11.5836
▁1930.	-11.5836
oriented	-11.5836
▁expertise	-11.5838
▁Mer	-11.5842
▁£1	-11.5843
aga	-11.5843
▁bark	-11.5843
nus	-11.5845
▁detective	-11.5855
▁gates	-11.5855
▁cheese	-11.5856
▁humor	-11.5859
▁condemned	-11.5861
bert	-11.5862
▁MW	-11.5863
▁Georgetown	-11.5867
▁trunk	-11.5867
▁complications	-11.5868
▁resign	-11.5869
▁Edge	-11.587
▁Bud	-11.5871
▁pseudonym	-11.5871
▁busy	-11.5872
view	-11.5872
▁1908,	-11.5874
▁Ghost	-11.5875
▁Solar	-11.5877
▁Slovenia	-11.5877
▁Depression	-11.588
▁geographical	-11.588
▁Coal	-11.5886
authored	-11.5887
▁Rey	-11.5889
green	-11.589
▁Constitutional	-11.5891
▁Population	-11.5895
▁provider	-11.5896
▁2014–15	-11.5896
▁attained	-11.5896
▁keen	-11.5901
▁restrictions	-11.5902
▁trend	-11.5902
▁moon	-11.5903
▁considers	-11.5903
▁Additional	-11.5905
▁interact	-11.5908
▁wait	-11.5908
▁descended	-11.5909
▁codes	-11.5909
▁tickets	-11.591
▁preceded	-11.5911
▁beside	-11.5911
▁superintendent	-11.5912
▁seminary	-11.5912
▁disk	-11.5913
▁dealer	-11.5913
▁Cove	-11.5917
▁preceding	-11.5918
▁properly	-11.592
▁bicycle	-11.592
▁nominee	-11.5921
▁Marsh	-11.5921
form	-11.5923
▁Pirates	-11.5927
▁brass	-11.5927
▁rings	-11.5928
▁Zoo	-11.5929
▁à	-11.5929
eng	-11.593
▁copyright	-11.5932
▁pan	-11.5937
▁Maxwell	-11.594
▁sends	-11.5941
▁Turin	-11.5943
lia	-11.5943
▁happens	-11.5943
▁1926.	-11.5944
▁moments	-11.5945
▁elaborate	-11.5948
▁struggling	-11.5949
▁conquest	-11.5949
▁wishes	-11.5952
▁lock	-11.5953
▁2011–12	-11.5954
▁PS	-11.5954
▁skull	-11.5955
▁Ye	-11.5957
▁navy	-11.5957
▁Speedway	-11.5957
▁Hartford	-11.5958
▁AP	-11.596
▁cum	-11.5961
As	-11.5964
▁occupies	-11.5965
▁walks	-11.5967
▁Augustus	-11.5969
wick	-11.597
▁ear	-11.5973
▁Chad	-11.5974
▁Atlético	-11.5976
▁Talk	-11.5978
▁virtually	-11.5981
▁dining	-11.5982
▁Latvia	-11.5984
hara	-11.5985
▁Gardner	-11.5989
▁aggregate	-11.599
cylinder	-11.5991
▁rap	-11.5993
▁Richards	-11.5994
▁wound	-11.5994
ery	-11.5995
▁celebrities	-11.5996
):	-11.5998
eau	-11.5999
▁Names	-11.5999
▁Card	-11.5999
▁Finals	-11.6
▁introducing	-11.6
▁spite	-11.6002
▁Eva	-11.6003
▁poorly	-11.6005
▁Ser	-11.6006
▁lip	-11.6007
▁particles	-11.601
ros	-11.6012
▁sail	-11.6014
▁organist	-11.6019
▁Claire	-11.6025
▁Bur	-11.6025
▁elderly	-11.6025
▁statues	-11.6026
▁Albion	-11.6027
▁Wings	-11.6033
med	-11.6034
▁ا	-11.6036
▁Drake	-11.6039
▁mono	-11.6039
Old	-11.6041
▁finishes	-11.6041
ρ	-11.6046
▁lit	-11.6046
▁Ol	-11.6046
South	-11.6048
▁NATO	-11.6053
ff	-11.6055
▁kinds	-11.6056
▁secular	-11.6058
bel	-11.6058
▁Castro	-11.6061
▁faction	-11.6061
▁potentially	-11.6062
▁zones	-11.6064
▁reformed	-11.6066
▁vital	-11.6067
▁curves	-11.6068
tti	-11.607
▁Freeman	-11.6072
▁Beyond	-11.6075
▁Jenkins	-11.6076
▁Marshal	-11.6078
▁enrollment	-11.6078
▁Dixon	-11.608
▁Total	-11.6084
▁stronger	-11.6084
▁Ri	-11.6088
▁Monument	-11.6089
–1	-11.6089
▁Griffin	-11.6092
▁sensitive	-11.61
▁Teachers	-11.61
ridge	-11.6101
▁involve	-11.6102
▁stained	-11.6104
▁ISO	-11.6104
▁attitude	-11.6105
▁findings	-11.6106
▁Jeremy	-11.6106
▁Stories	-11.6106
▁(27	-11.6107
▁900	-11.6109
▁feminist	-11.6113
Be	-11.6114
▁Valencia	-11.6114
▁Sad	-11.6115
wal	-11.6116
▁Say	-11.6116
▁accounting	-11.6117
▁Linux	-11.612
▁Lima	-11.6121
▁Certificate	-11.6121
▁1864.	-11.6122
▁sued	-11.6124
▁subspecies	-11.6125
▁currency	-11.6125
▁anterior	-11.6126
▁flown	-11.6128
▁(28	-11.6129
▁cartoon	-11.6129
lock	-11.6132
▁Tomatoes	-11.6133
▁tobacco	-11.6133
▁garrison	-11.6135
▁Tele	-11.6138
▁marketed	-11.6139
▁Schedule	-11.6141
▁Johan	-11.6142
▁paternal	-11.6144
▁Thursday	-11.6147
▁midfielder	-11.6147
▁Potter	-11.6148
▁masters	-11.6152
▁Scholarship	-11.6152
▁saving	-11.6156
▁territorial	-11.6158
▁Dong	-11.6161
ising	-11.6161
▁Hardy	-11.6162
▁commentator	-11.6162
▁cameras	-11.6163
▁della	-11.6164
▁IF	-11.6166
▁née	-11.6166
▁immigrated	-11.6168
▁fitness	-11.6169
▁perceived	-11.6176
ites	-11.6177
▁woods	-11.6177
▁Joshua	-11.6178
▁1851	-11.6178
▁Bir	-11.6179
..."	-11.6181
▁statements	-11.6181
When	-11.6183
▁lens	-11.6186
▁Monica	-11.6189
▁Dragons	-11.6189
USA	-11.619
▁skating	-11.6191
▁Embassy	-11.6192
So	-11.6194
▁navigation	-11.6195
▁Conrad	-11.6196
▁Kosovo	-11.6196
oka	-11.6197
▁Corp	-11.6198
▁Salisbury	-11.62
▁psychological	-11.62
best	-11.6201
▁Built	-11.6201
▁conversation	-11.6203
▁Cap	-11.6203
▁diamond	-11.6203
▁gray	-11.6204
▁spectrum	-11.6205
▁deer	-11.6205
▁Kal	-11.6205
▁scholarly	-11.6206
▁MBA	-11.6211
▁Ker	-11.6211
uli	-11.6212
▁factories	-11.6212
▁trustee	-11.6217
▁Ever	-11.6217
▁torn	-11.6218
▁Ober	-11.6218
▁Eu	-11.622
▁maker	-11.6221
▁Speed	-11.6228
▁flowing	-11.6228
▁pond	-11.6229
▁streak	-11.623
▁1,500	-11.6232
▁Algeria	-11.6232
▁Davidson	-11.6235
▁Mohammad	-11.6235
▁Appeal	-11.6237
▁Charter	-11.6239
away	-11.624
▁Ming	-11.6241
▁crop	-11.6241
▁trailer	-11.6245
lis	-11.6247
▁Adolf	-11.6251
▁Chandra	-11.6251
ori	-11.6251
▁Walt	-11.6252
▁monk	-11.6254
▁Holdings	-11.6255
▁doubt	-11.6256
▁garnered	-11.6256
▁Bala	-11.6262
▁uncertain	-11.6263
▁organizing	-11.6265
▁Constituency	-11.6268
▁Poly	-11.627
▁Sherman	-11.6271
▁develops	-11.6274
sex	-11.6278
▁dissolution	-11.6279
▁promising	-11.6285
-23	-11.6286
▁Wigan	-11.6288
▁Cam	-11.629
▁parade	-11.6292
▁favorable	-11.6297
▁Yuan	-11.6297
▁archive	-11.6297
▁Shield	-11.6297
▁naturally	-11.6298
▁Jamie	-11.6299
▁maiden	-11.6299
▁sworn	-11.6299
▁mild	-11.63
▁celebrations	-11.6301
▁casualties	-11.6303
▁marathon	-11.6305
res	-11.6305
▁keeps	-11.6306
▁advancing	-11.6307
▁Roland	-11.6311
▁interpreted	-11.6312
▁Smart	-11.6314
▁Twin	-11.6314
▁submarines	-11.6315
▁Shri	-11.6317
▁dropping	-11.6318
▁1913.	-11.6319
▁Worth	-11.632
▁tension	-11.632
▁Jacksonville	-11.6323
▁opposing	-11.6323
▁Ecuador	-11.6323
▁OS	-11.6326
ming	-11.6332
▁investigations	-11.6332
▁Galway	-11.6336
▁drives	-11.6336
▁pin	-11.6337
▁adventures	-11.6341
▁pursuing	-11.6343
qui	-11.6343
▁Coventry	-11.6343
▁Credit	-11.6344
▁custody	-11.6351
▁democracy	-11.6352
▁trace	-11.6352
▁Animal	-11.6353
▁overcome	-11.6358
▁punishment	-11.6359
▁vacated	-11.636
▁Tuesday	-11.6361
cut	-11.6362
▁Election	-11.6363
ā	-11.6365
▁4,000	-11.6365
▁Eleanor	-11.6369
nam	-11.6369
▁3–0	-11.637
▁Gustav	-11.6371
▁deceased	-11.6372
▁Mozart	-11.6377
▁gymnasium	-11.6379
gal	-11.6379
▁nights	-11.6379
▁Highland	-11.638
▁veterans	-11.638
▁Webster	-11.6382
▁desired	-11.6382
▁violinist	-11.6384
▁surveys	-11.6385
▁Sacramento	-11.6386
▁1853	-11.6393
▁Lagos	-11.6393
▁initiatives	-11.6399
▁Come	-11.64
▁Berkshire	-11.64
▁Jorge	-11.6402
▁Char	-11.6404
▁define	-11.6408
▁Bee	-11.6408
▁autonomous	-11.6409
sia	-11.6413
▁sick	-11.6414
▁1915.	-11.6414
▁Gloucester	-11.6416
▁Pet	-11.6417
▁1841	-11.6418
▁Lynch	-11.6418
▁ritual	-11.6421
▁excess	-11.6426
▁everyday	-11.6426
▁Cedar	-11.6427
▁Generation	-11.6433
▁cylinder	-11.6435
▁Quartet	-11.6436
▁lung	-11.6436
▁bigger	-11.6441
▁swing	-11.6444
▁bishops	-11.6445
▁loyal	-11.6445
▁cycling	-11.6445
▁editors	-11.6448
▁Mercury	-11.6451
▁r	-11.6451
▁prints	-11.6451
▁Omaha	-11.6453
kai	-11.6453
▁liver	-11.6455
▁Legend	-11.6458
▁illustrator	-11.6458
pu	-11.6459
▁cultivated	-11.6462
▁annexed	-11.6463
▁Qatar	-11.6465
▁dedication	-11.6465
▁rebels	-11.6466
▁removing	-11.6469
▁Ensemble	-11.647
▁lasting	-11.6472
oma	-11.6473
▁machinery	-11.6475
▁Online	-11.6475
▁Moses	-11.6477
od	-11.6478
ib	-11.6479
ide	-11.6479
▁Civic	-11.6479
▁Rhodes	-11.648
▁commerce	-11.6484
▁rows	-11.6486
▁pursuit	-11.6486
▁Qu	-11.6486
▁minimal	-11.6487
ima	-11.6487
▁UNESCO	-11.6488
ick	-11.6492
▁Indo	-11.6492
▁Holt	-11.6492
MA	-11.6492
▁Geoffrey	-11.6494
▁slight	-11.6501
▁flee	-11.6501
▁Plains	-11.6501
▁Recording	-11.6502
▁trademark	-11.6502
▁Cheshire	-11.6502
▁Outside	-11.6502
▁Lorenzo	-11.6505
▁terrorist	-11.6505
▁textile	-11.6507
▁receptions	-11.651
▁Dhaka	-11.6512
▁settings	-11.6515
▁Gaelic	-11.6515
▁listening	-11.6516
▁knighted	-11.6516
▁Patricia	-11.6517
▁successive	-11.6517
▁hiking	-11.6518
▁Various	-11.6518
▁Karnataka	-11.6519
zu	-11.652
▁Luther	-11.6521
▁beliefs	-11.6521
▁García	-11.6522
this	-11.6522
▁countryside	-11.6523
▁implement	-11.6524
▁arose	-11.6525
▁Sheikh	-11.6526
▁Vic	-11.6527
dia	-11.6528
▁costume	-11.6529
▁Climate	-11.6531
aria	-11.6532
▁gross	-11.6532
▁Nash	-11.6532
-11	-11.6536
▁neo	-11.6538
▁boom	-11.6539
ī	-11.654
▁finest	-11.6541
istic	-11.6541
ama	-11.6542
▁Osaka	-11.6543
▁consensus	-11.6543
▁Associated	-11.6545
▁consul	-11.6547
90	-11.6548
▁catalogue	-11.6549
▁Ter	-11.655
▁kings	-11.6554
▁CBC	-11.6554
▁canon	-11.6556
▁Porto	-11.6557
▁Hague	-11.6563
▁hiding	-11.6564
▁hanging	-11.6568
ec	-11.6568
▁publishers	-11.6568
▁democratic	-11.6573
▁cubic	-11.6576
▁casting	-11.6577
▁challenging	-11.658
▁buying	-11.658
▁resembles	-11.6581
▁accessed	-11.6582
▁Percy	-11.6585
▁lesser	-11.6586
▁sandy	-11.6587
pre	-11.6587
▁Net	-11.6588
▁interactions	-11.659
▁Chilean	-11.6591
▁Humanities	-11.6592
▁Ferguson	-11.6593
▁formats	-11.66
lay	-11.6601
▁alien	-11.6602
▁102	-11.6603
hal	-11.6605
▁reflects	-11.6607
▁participant	-11.6607
▁Happy	-11.6609
▁Ranch	-11.661
▁mechanics	-11.661
▁Zurich	-11.6613
▁healthy	-11.6614
▁competitor	-11.6615
▁Emergency	-11.6617
▁Ru	-11.6619
▁Hyde	-11.662
▁Scholar	-11.6621
▁Boeing	-11.6622
ob	-11.6623
▁certainly	-11.6625
▁Theology	-11.6627
ovich	-11.6628
▁witnessed	-11.6628
▁Prairie	-11.663
▁2010–11	-11.6634
▁advocated	-11.6634
▁soils	-11.6635
▁rushing	-11.664
▁finite	-11.6642
▁healthcare	-11.6642
▁Rudolf	-11.6642
▁Munster	-11.6645
▁Counties	-11.6646
▁Sing	-11.6648
▁dairy	-11.6649
▁Eden	-11.6651
▁MVP	-11.6651
▁complement	-11.6651
▁clinic	-11.6652
▁colored	-11.6653
▁opted	-11.6654
John	-11.6656
sar	-11.6657
▁ancestry	-11.6658
▁Roma	-11.6658
▁Czechoslovakia	-11.6658
yang	-11.6658
▁Oh	-11.6659
▁Hawaiian	-11.6659
▁inscriptions	-11.666
▁Things	-11.6667
▁Strait	-11.6668
▁symbols	-11.6668
▁AU	-11.6669
▁Cor	-11.6669
▁Crime	-11.6669
▁posterior	-11.6669
▁couldn	-11.667
▁Dictionary	-11.6671
az	-11.6671
esh	-11.6672
▁painters	-11.6673
▁triangular	-11.6674
▁Tara	-11.6675
▁neutral	-11.6677
▁Coleman	-11.6678
▁Fletcher	-11.6679
▁bowling	-11.668
elle	-11.6681
▁horsepower	-11.6682
▁decreased	-11.6686
▁documentaries	-11.6687
▁mascot	-11.6687
▁Roberto	-11.6688
▁(31	-11.6689
Day	-11.6689
▁ceremonies	-11.6691
▁directions	-11.6692
▁Travel	-11.6695
ă	-11.6696
chan	-11.6697
▁Geological	-11.6697
▁modest	-11.6699
▁Lan	-11.6703
maker	-11.6703
▁1900.	-11.6705
▁poly	-11.6705
▁captained	-11.6707
▁Bat	-11.6707
▁Siege	-11.6709
▁Cloud	-11.6712
▁schooling	-11.6712
▁viewing	-11.6714
▁cultivation	-11.6716
▁sprint	-11.6716
▁Kor	-11.6716
selling	-11.6718
25	-11.6718
▁Boris	-11.6722
▁bacteria	-11.6725
▁irregular	-11.6727
▁Bulls	-11.6727
▁Burma	-11.6727
▁apartments	-11.6728
▁consideration	-11.6729
▁Clement	-11.673
▁Islander	-11.6731
▁sacks	-11.6733
▁finger	-11.6733
▁motto	-11.6734
▁protocol	-11.6734
▁Sutton	-11.6734
▁Canon	-11.6736
▁Monastery	-11.6741
▁1824	-11.6742
▁Met	-11.6742
▁combining	-11.6746
▁aside	-11.6749
▁livestock	-11.6751
▁Form	-11.6752
▁SK	-11.6753
▁Parade	-11.6755
▁Nordic	-11.6756
▁Kazakhstan	-11.6757
▁chef	-11.6758
▁proposals	-11.6759
pet	-11.6759
▁donation	-11.676
▁probability	-11.6763
▁socialist	-11.6763
▁computing	-11.6764
▁aftermath	-11.6764
▁Icelandic	-11.6764
▁1862.	-11.6765
▁cruise	-11.6767
▁Kala	-11.6769
ale	-11.6772
▁Zen	-11.6774
▁genera	-11.6774
▁pioneering	-11.6777
▁reactions	-11.6779
▁Inner	-11.6779
▁practicing	-11.6779
▁legally	-11.6785
▁intersects	-11.6786
▁linking	-11.6787
▁walked	-11.6787
▁averaging	-11.6787
World	-11.6789
▁1904,	-11.6791
▁Basel	-11.6795
▁physically	-11.6795
▁Fields	-11.6797
▁Janet	-11.6798
▁pronounced	-11.6799
▁endorsed	-11.6802
established	-11.6802
▁Vision	-11.6802
▁underlying	-11.6802
▁posting	-11.6807
▁proclaimed	-11.681
▁decrease	-11.6815
hall	-11.6815
▁Beth	-11.6815
▁Wal	-11.6815
▁Vatican	-11.6816
▁Hannah	-11.6816
▁adoption	-11.6817
▁cu	-11.6817
ue	-11.6818
▁quiet	-11.6819
▁Shire	-11.6821
▁searching	-11.6822
▁launching	-11.6822
▁mapping	-11.6823
▁snake	-11.6825
▁Hour	-11.6826
▁tiny	-11.6828
▁silk	-11.6828
▁Shop	-11.683
▁consistently	-11.683
▁operas	-11.6834
▁Jesuit	-11.6836
▁Maharashtra	-11.6839
▁Very	-11.6841
February	-11.6841
bed	-11.6843
▁cricketer	-11.6845
▁1903,	-11.6846
▁Pablo	-11.6847
▁Holocaust	-11.6847
lands	-11.6847
iana	-11.685
▁epithet	-11.685
▁warfare	-11.6851
▁spare	-11.6851
▁commissions	-11.6852
▁ranch	-11.6853
▁maritime	-11.6855
along	-11.6856
▁Volume	-11.6856
▁proceedings	-11.6857
▁Yard	-11.686
▁Kyle	-11.686
▁niece	-11.6861
▁Filipino	-11.6861
▁crucial	-11.6863
Ha	-11.6864
▁sponsors	-11.6864
▁extraordinary	-11.6866
▁Bengali	-11.6866
▁unopposed	-11.6867
▁Katherine	-11.6868
▁capped	-11.6869
▁1901,	-11.6871
▁powder	-11.6871
▁nominations	-11.6876
▁beaches	-11.6878
ries	-11.6883
▁teenage	-11.6884
feld	-11.6884
▁Tehran	-11.6884
▁Source	-11.6885
▁regardless	-11.6886
▁Tales	-11.6886
horn	-11.6887
▁gather	-11.6887
▁surrendered	-11.6889
Ar	-11.6892
▁Mat	-11.6895
UK	-11.6896
site	-11.6896
▁Sai	-11.6896
▁1818	-11.6898
▁Tax	-11.6898
▁w	-11.69
▁Returning	-11.69
Chief	-11.69
▁Andreas	-11.6901
▁reside	-11.6901
▁Warwick	-11.6901
▁Rafael	-11.6905
▁Clyde	-11.6906
▁1908.	-11.6907
▁Hor	-11.6908
▁skiing	-11.6908
▁discrimination	-11.6909
▁laser	-11.6909
▁Whilst	-11.691
▁hairs	-11.6911
▁hide	-11.6913
▁teammates	-11.6916
▁2009–10	-11.6919
▁Ole	-11.6919
▁portal	-11.6924
▁bread	-11.6925
▁darker	-11.6928
▁Border	-11.693
▁Sergeant	-11.6933
cal	-11.6933
▁knowing	-11.6933
▁Dom	-11.6934
ón	-11.6934
▁Recreation	-11.6934
▁wars	-11.6936
▁rebel	-11.6937
has	-11.6939
▁Boyd	-11.6939
▁Wanderers	-11.6941
▁liked	-11.6941
▁coin	-11.6942
gel	-11.6943
▁highlighted	-11.6943
▁1849	-11.6944
14	-11.6944
▁expired	-11.6947
bin	-11.6948
▁Sidney	-11.6949
▁Acting	-11.695
▁Belarus	-11.6952
▁Gur	-11.6953
▁Lebanese	-11.6954
▁Kon	-11.6956
▁Face	-11.6957
▁Collegiate	-11.6957
▁predicted	-11.6958
▁Hastings	-11.6958
▁invention	-11.6959
▁Stefan	-11.6959
▁percussion	-11.696
▁demolition	-11.6961
▁LGBT	-11.6962
▁Bangkok	-11.6962
▁rapper	-11.6962
▁Leigh	-11.6963
▁Apostolic	-11.6966
▁distinguish	-11.6967
▁websites	-11.6967
▁intact	-11.6974
▁Churches	-11.6979
▁mud	-11.698
▁Pius	-11.6981
▁adopt	-11.6981
▁hiatus	-11.6982
▁balls	-11.6986
▁Qing	-11.6986
▁lighter	-11.6986
▁erect	-11.6987
▁Gibraltar	-11.6992
▁Elisabeth	-11.6992
▁argues	-11.6993
▁Von	-11.6994
▁sings	-11.6996
▁Yugoslav	-11.6999
▁rally	-11.7004
▁Ren	-11.7007
▁Zi	-11.701
▁100%	-11.701
▁Nar	-11.7011
▁Adventures	-11.7011
▁botanist	-11.7012
▁obvious	-11.7012
▁Cecil	-11.7013
▁1905.	-11.7015
▁trucks	-11.7018
far	-11.7021
▁Any	-11.7023
▁leather	-11.7023
eta	-11.7025
Sc	-11.7025
▁NASCAR	-11.7025
▁brewery	-11.7026
▁controlling	-11.7028
▁AIDS	-11.7028
▁Technologies	-11.703
via	-11.703
▁AS	-11.7031
▁Newark	-11.7033
▁treasurer	-11.7035
mus	-11.7036
boat	-11.7036
▁truly	-11.7036
cia	-11.7037
▁sitcom	-11.7039
▁Beverly	-11.704
▁Fork	-11.704
East	-11.7042
▁Xi	-11.7046
▁Wong	-11.7047
▁Ibrahim	-11.7047
▁1906.	-11.7049
▁lanes	-11.705
▁Erik	-11.705
▁allied	-11.7051
▁ka	-11.7051
▁horn	-11.7052
▁indie	-11.7052
▁Bert	-11.7053
▁Greenwich	-11.7056
▁personalities	-11.7056
▁JR	-11.7057
▁Dee	-11.7057
log	-11.7057
▁delay	-11.7059
▁mouse	-11.706
▁banker	-11.7061
▁willing	-11.7061
▁utility	-11.7061
▁Democracy	-11.7062
▁rented	-11.7063
▁transferring	-11.7069
▁10%	-11.707
▁Marketing	-11.7071
▁Dawn	-11.7072
▁Sicily	-11.7073
▁builder	-11.7073
▁apex	-11.7073
yama	-11.7076
▁Europa	-11.7077
▁Sally	-11.7079
▁4.5	-11.7079
▁pack	-11.7081
offs	-11.7081
▁Hanover	-11.7082
▁rent	-11.7083
▁comeback	-11.7085
▁Joyce	-11.7087
▁Cher	-11.7089
▁Jets	-11.7089
▁Cash	-11.7091
▁hyper	-11.7091
▁fault	-11.7091
▁Devi	-11.7092
▁Plate	-11.7092
▁Combat	-11.7094
▁Alexandra	-11.7094
▁Multi	-11.7094
cho	-11.7094
▁Wonder	-11.7097
kh	-11.7097
▁Darwin	-11.7097
▁yellowish	-11.71
▁boxes	-11.7101
mel	-11.7101
▁amino	-11.7102
▁acute	-11.7103
▁Maple	-11.7104
tion	-11.7105
▁electorate	-11.7108
▁nobility	-11.7108
LP	-11.7108
▁banner	-11.7109
▁Leone	-11.7109
▁ballad	-11.7109
▁Politics	-11.711
▁Reservoir	-11.7112
▁senator	-11.7112
▁goddess	-11.7116
▁chaplain	-11.7117
▁sank	-11.7118
▁Garcia	-11.7121
▁slender	-11.7125
▁prose	-11.7126
▁Ly	-11.7127
▁springs	-11.7127
▁Panthers	-11.7128
▁Initiative	-11.7131
▁thermal	-11.7131
ante	-11.7133
▁photographic	-11.7135
▁Elder	-11.7135
▁1902.	-11.7136
▁Bag	-11.7136
tech	-11.7137
inger	-11.7138
▁Mathematical	-11.7139
▁Kerry	-11.714
▁Sho	-11.7143
▁Fast	-11.7144
▁rider	-11.7147
▁withdraw	-11.7147
▁complicated	-11.7148
▁circa	-11.715
jin	-11.7151
▁protecting	-11.7151
▁FBI	-11.7153
▁Large	-11.7154
▁progressed	-11.7154
etta	-11.7155
▁Degree	-11.7157
▁seasonal	-11.7157
н	-11.7158
met	-11.7159
▁2018–19	-11.7161
▁tender	-11.7163
▁tutor	-11.7163
▁translations	-11.7163
▁merchants	-11.7164
▁orientation	-11.7166
▁Electronic	-11.7172
▁Nat	-11.7173
▁Northeast	-11.7173
▁Augusta	-11.7174
▁coordinates	-11.7181
▁Nicolas	-11.7181
▁murders	-11.7182
▁CO	-11.7183
▁Patterson	-11.7188
▁valued	-11.7188
▁Corner	-11.7189
▁Universities	-11.719
▁postgraduate	-11.7191
order	-11.7193
▁Confederation	-11.7193
▁Gujarat	-11.7193
▁Derek	-11.7195
▁Dorset	-11.7196
ser	-11.7196
▁guards	-11.7196
▁Waterloo	-11.7197
▁Single	-11.7198
▁Hat	-11.7199
osa	-11.72
▁Teatro	-11.7201
▁Bavarian	-11.7203
▁cuisine	-11.7203
▁consumers	-11.7205
ris	-11.7205
▁Pierce	-11.7206
▁struggles	-11.7207
▁Guatemala	-11.7208
▁Riley	-11.7208
▁Dunn	-11.7211
▁revolt	-11.7212
▁Quarter	-11.7213
▁Sim	-11.7216
party	-11.7216
▁incorporates	-11.722
▁Innovation	-11.722
▁Barker	-11.722
▁Electrical	-11.722
▁Strategic	-11.7222
▁Christchurch	-11.7225
author	-11.7227
▁Task	-11.7227
▁360	-11.7228
▁Cherry	-11.7228
▁Heidelberg	-11.7231
▁Beta	-11.7231
beck	-11.7234
▁feeds	-11.7238
▁enhance	-11.7239
▁defunct	-11.724
ator	-11.7243
▁Pride	-11.7247
CD	-11.7248
six	-11.7248
▁fusion	-11.7249
▁den	-11.725
▁remember	-11.725
▁employs	-11.7251
▁Path	-11.7254
▁stamp	-11.7255
▁1863.	-11.7255
▁graduates	-11.7255
▁nonprofit	-11.7257
ello	-11.7258
nar	-11.7261
▁Raiders	-11.7261
▁tenor	-11.7262
▁Recently	-11.7262
▁disputed	-11.7263
BA	-11.7265
▁transmitter	-11.7269
Ma	-11.7271
▁1911.	-11.7274
▁pension	-11.7275
▁talents	-11.7277
cu	-11.7277
▁cloth	-11.7277
▁Carson	-11.7278
▁delegates	-11.7278
▁Isabella	-11.7279
▁Shirley	-11.728
▁monitor	-11.728
▁spelled	-11.728
▁Kur	-11.7282
▁Med	-11.7286
▁upgrade	-11.7288
▁conquered	-11.7288
▁sectors	-11.729
▁Dawson	-11.7291
▁diving	-11.7294
▁Pod	-11.7295
▁Jung	-11.7296
square	-11.7296
nen	-11.7297
▁sketches	-11.7297
▁Associates	-11.7298
▁explanation	-11.7298
▁Drew	-11.7299
▁Montenegro	-11.73
▁alumni	-11.73
▁Salon	-11.7304
▁Plain	-11.7304
▁Erie	-11.7304
fiction	-11.7305
▁Rivers	-11.7305
▁persuaded	-11.7306
good	-11.7306
▁Pike	-11.7308
▁zoo	-11.7308
▁Cotton	-11.7309
▁gameplay	-11.7309
▁breakthrough	-11.7309
▁exam	-11.7311
▁lane	-11.7314
▁Wade	-11.7315
▁holy	-11.7316
▁PM	-11.732
▁highlight	-11.7321
▁coined	-11.7321
ets	-11.7323
▁spelling	-11.7323
▁unions	-11.7324
▁bonds	-11.7325
▁Made	-11.7325
▁mammals	-11.7326
▁Bucharest	-11.7327
▁excellence	-11.7327
▁Variety	-11.7328
▁ancestors	-11.733
▁slate	-11.7331
▁excavated	-11.7332
▁Ravi	-11.7333
▁villa	-11.7336
▁Casa	-11.7337
▁sunk	-11.7338
ila	-11.7338
▁civilians	-11.734
▁ore	-11.734
tre	-11.734
▁Sel	-11.7342
▁Gi	-11.7343
▁CR	-11.7345
▁Sophie	-11.7347
▁1823	-11.7348
▁Pond	-11.7349
▁mate	-11.7349
▁Bro	-11.735
▁Jeffrey	-11.735
▁vector	-11.7352
▁1903.	-11.7353
▁Ling	-11.7354
▁Midlands	-11.7354
sis	-11.7354
▁Countess	-11.7359
▁1806	-11.7362
▁Kam	-11.7363
▁0.5	-11.7363
▁Dis	-11.7366
▁Bonn	-11.7367
▁finale	-11.7373
production	-11.7374
▁rehabilitation	-11.7376
▁[...]	-11.738
▁Canton	-11.7383
▁depends	-11.7386
▁18;	-11.7387
▁Buddha	-11.7387
▁Make	-11.7387
▁Philippe	-11.7389
▁MLS	-11.7389
▁ingredients	-11.7389
▁molecules	-11.739
▁Hai	-11.7391
▁ecclesiastical	-11.7391
▁aggressive	-11.7393
▁electronics	-11.7395
▁warehouse	-11.7398
▁excavations	-11.7398
▁Normal	-11.7398
▁Mali	-11.74
series	-11.7402
▁taxi	-11.7402
nagar	-11.7402
▁Barton	-11.7403
▁Malaysian	-11.7406
▁filling	-11.7407
▁Nuclear	-11.7408
-13	-11.7408
▁philosophical	-11.741
tro	-11.7411
▁Elite	-11.7413
▁shipped	-11.7417
▁specially	-11.7417
Black	-11.7418
▁exercises	-11.7418
▁Mara	-11.7419
▁Wine	-11.7419
▁Saxony	-11.7419
▁newer	-11.7422
▁Pratt	-11.7422
▁estimate	-11.7423
▁Know	-11.7424
▁shirt	-11.743
▁prohibited	-11.743
▁Trustees	-11.743
▁Ave	-11.7431
▁screening	-11.7431
▁watershed	-11.7432
▁Josef	-11.7434
▁Wai	-11.7436
▁Treasurer	-11.7438
▁IX	-11.744
SS	-11.7441
▁secretly	-11.7442
▁reconstructed	-11.7444
▁contents	-11.7446
▁evaluation	-11.7451
▁Singer	-11.7452
eva	-11.7453
▁z	-11.7453
▁halls	-11.7454
▁Ek	-11.7457
▁Xavier	-11.7459
▁demonstrate	-11.7459
▁acids	-11.746
▁Article	-11.746
▁inventor	-11.7461
ble	-11.7462
para	-11.7468
▁drag	-11.747
▁enabling	-11.747
▁smallest	-11.747
ito	-11.7472
▁Rifle	-11.7473
▁Wiltshire	-11.7474
▁floating	-11.7475
▁enhanced	-11.7475
▁retaining	-11.7476
▁lined	-11.7479
▁CNN	-11.7481
▁Hale	-11.7485
▁strategies	-11.7497
▁Era	-11.7497
▁loves	-11.7501
▁titular	-11.7501
▁Leopold	-11.7502
▁memories	-11.7506
▁comment	-11.7508
▁Carmen	-11.7508
size	-11.7514
▁Uttar	-11.7516
▁Baba	-11.7517
screen	-11.7524
▁Birthday	-11.7524
▁Fa	-11.7527
▁1907.	-11.7528
▁impression	-11.7531
▁abundant	-11.7531
▁theaters	-11.7533
▁(29	-11.7536
▁Marcel	-11.7536
▁broader	-11.7537
▁Mack	-11.7538
▁Kill	-11.7538
▁politically	-11.7538
▁Marina	-11.7539
▁farmland	-11.7542
▁presumably	-11.7543
▁stick	-11.7545
▁soloist	-11.7546
▁Im	-11.7547
▁Congregation	-11.7548
▁Haiti	-11.7549
▁demonstration	-11.7553
▁instructions	-11.7555
iv	-11.7555
▁recommendation	-11.7557
▁fountain	-11.7558
▁Kiss	-11.7561
▁Alberto	-11.7562
▁UC	-11.7563
die	-11.7566
▁humid	-11.7566
Neill	-11.7568
▁PlayStation	-11.7569
▁Ak	-11.7571
▁USL	-11.7571
▁collaborative	-11.7572
around	-11.7575
▁Terminal	-11.7575
▁Timothy	-11.7575
▁shoots	-11.7575
league	-11.7577
▁Amendment	-11.7578
▁peaks	-11.758
▁investments	-11.758
▁Papua	-11.7581
▁toll	-11.7582
▁sacked	-11.7584
-1990	-11.7587
▁1898,	-11.7587
▁Kane	-11.7587
▁massacre	-11.7587
▁Rotterdam	-11.7588
▁Latvian	-11.7589
▁Mohammed	-11.759
▁lifelong	-11.7591
▁discharge	-11.7592
▁Veterans	-11.7594
▁Alternative	-11.7596
ów	-11.7599
▁Fantasy	-11.7599
▁Ship	-11.7599
▁financing	-11.7603
▁Mining	-11.7605
▁Wimbledon	-11.7606
▁Similar	-11.7609
▁Saxon	-11.7609
▁Android	-11.7615
▁geography	-11.7617
our	-11.7617
▁Dor	-11.7622
▁classroom	-11.7624
▁frames	-11.7624
▁visitor	-11.7625
▁Cliff	-11.7625
▁Underground	-11.7625
kal	-11.763
▁Bend	-11.7631
▁Rebecca	-11.7634
▁planes	-11.7635
▁kit	-11.7635
mat	-11.7638
▁tract	-11.764
▁managers	-11.7641
▁adds	-11.7641
▁Administrative	-11.7644
▁survives	-11.7644
▁scrapped	-11.7651
▁Wakefield	-11.7652
▁Adventure	-11.7652
lik	-11.7653
▁Fleming	-11.7655
▁tough	-11.7656
▁streaming	-11.7656
▁Catholics	-11.7656
▁Finn	-11.7657
▁Swansea	-11.7661
▁princess	-11.7661
▁throwing	-11.7666
▁employer	-11.7666
▁utilized	-11.7667
▁Ashley	-11.7667
▁receptor	-11.7669
▁Tunnel	-11.7669
fest	-11.767
▁Gazette	-11.7672
▁Match	-11.7672
▁Lam	-11.7675
▁elimination	-11.7676
▁extant	-11.7676
rate	-11.7678
▁Hawks	-11.7683
▁chassis	-11.7688
▁Os	-11.7689
▁allies	-11.769
▁voluntary	-11.769
▁brilliant	-11.7691
▁Scots	-11.7692
▁openly	-11.7692
▁Emeritus	-11.7693
▁Self	-11.7697
▁investigating	-11.7697
▁Leningrad	-11.7698
▁miners	-11.7699
▁Mari	-11.7699
▁Schmidt	-11.77
▁duet	-11.77
▁incidents	-11.7701
▁1901.	-11.7703
▁throat	-11.7704
▁1803	-11.7706
▁paths	-11.7708
▁Bart	-11.7709
▁Flag	-11.7711
▁missionaries	-11.7711
sta	-11.7712
▁olive	-11.7712
lie	-11.7712
▁paired	-11.7714
▁2008–09	-11.7716
▁Bra	-11.7719
▁Tucker	-11.7719
▁constituted	-11.7721
▁1904.	-11.7725
▁triangle	-11.7726
▁markings	-11.7726
▁Stern	-11.7727
▁projected	-11.7728
pen	-11.7728
▁Had	-11.7728
▁Lund	-11.7729
▁gospel	-11.773
▁1861,	-11.773
▁sociology	-11.773
▁Word	-11.773
▁Progress	-11.7731
▁Cool	-11.7733
gy	-11.7735
▁pretty	-11.7735
▁Dylan	-11.7739
▁reliable	-11.774
▁spectators	-11.7741
▁Counsel	-11.7742
▁analog	-11.7742
ric	-11.7743
fl	-11.7743
▁advocacy	-11.7748
▁bag	-11.7749
▁Sei	-11.7752
▁combine	-11.7754
▁foster	-11.7756
▁necessarily	-11.7757
▁carriage	-11.7758
▁Christine	-11.776
▁wartime	-11.776
▁yearly	-11.7762
▁thinks	-11.7763
▁pollution	-11.7767
▁5000	-11.7767
▁downstream	-11.7768
▁Drum	-11.7769
▁103	-11.7769
powered	-11.777
▁AB	-11.777
▁eponymous	-11.7771
▁loses	-11.7773
▁supplement	-11.7775
▁imposed	-11.7777
▁1909.	-11.778
▁totally	-11.778
▁cockpit	-11.778
▁barn	-11.778
én	-11.7781
▁rape	-11.7782
▁accuracy	-11.7782
▁2020	-11.7783
▁Eton	-11.7784
▁merge	-11.7784
▁Dudley	-11.7785
▁Tate	-11.7788
▁catches	-11.7788
▁differs	-11.7789
▁Lindsay	-11.7791
▁$5	-11.7791
▁supposedly	-11.7791
▁106	-11.7792
iti	-11.7794
▁Andhra	-11.7795
zel	-11.7795
▁courtyard	-11.7797
▁Baden	-11.7799
▁perennial	-11.7799
▁wished	-11.78
▁podcast	-11.78
▁invaded	-11.78
▁Flora	-11.78
▁highlights	-11.7801
▁Cowboys	-11.7802
▁1817	-11.7802
▁generic	-11.7802
▁Too	-11.7804
▁Barrett	-11.7804
▁reelection	-11.7805
▁Atlas	-11.7805
▁counted	-11.7806
▁pastoral	-11.7806
▁explores	-11.7807
▁Karachi	-11.7807
Pro	-11.7811
songwriter	-11.7812
▁Kol	-11.7812
▁lifted	-11.7813
▁transform	-11.7813
▁spreading	-11.7814
▁apprentice	-11.7815
uta	-11.7817
▁combines	-11.7819
▁detected	-11.782
▁Name	-11.782
▁lectured	-11.7822
▁50,000	-11.7822
▁Publishers	-11.7824
▁Mata	-11.7826
▁differential	-11.7827
▁conspiracy	-11.7828
▁Telugu	-11.7829
▁Tong	-11.783
Spanish	-11.783
▁1839	-11.7832
▁quartet	-11.7833
▁108	-11.7834
▁Standing	-11.7834
▁Georges	-11.7836
operative	-11.7837
▁PBS	-11.7837
▁Ze	-11.7838
▁consolidated	-11.7838
▁104	-11.784
▁1865,	-11.784
pp	-11.784
▁graves	-11.7841
▁Neu	-11.7841
▁attractions	-11.7843
bass	-11.7843
▁Sister	-11.7845
ological	-11.7846
▁Quinn	-11.7847
▁outcome	-11.7848
▁Wy	-11.7849
▁Walton	-11.785
▁Strong	-11.7851
ence	-11.7852
▁Hassan	-11.7852
▁routine	-11.7853
▁Dover	-11.7854
▁Rising	-11.7854
▁gable	-11.7856
▁appealed	-11.7859
ique	-11.7861
▁encounters	-11.7861
▁Rancho	-11.7863
▁Sixth	-11.7863
▁Ethiopian	-11.7864
▁Ce	-11.7864
▁Superintendent	-11.7865
▁questioned	-11.7866
▁Lead	-11.7867
▁1836	-11.7869
▁caves	-11.7869
▁Dana	-11.787
▁residency	-11.7871
▁handful	-11.7875
▁Beatles	-11.7876
▁proven	-11.7879
▁Mag	-11.788
.00	-11.788
▁Dai	-11.7881
▁Caesar	-11.7882
▁Companion	-11.7883
▁sketch	-11.7884
berry	-11.7884
National	-11.7884
▁crystal	-11.7885
▁fossils	-11.7885
▁Religion	-11.7886
▁Sue	-11.7886
▁screenwriter	-11.7888
▁MHz	-11.7889
▁differ	-11.7891
▁anywhere	-11.7897
rio	-11.79
▁Clear	-11.7901
una	-11.7902
▁Madonna	-11.7904
▁Shan	-11.7906
▁displacement	-11.7908
▁Hammer	-11.7914
▁trapped	-11.7914
sometimes	-11.7915
▁auxiliary	-11.7917
▁chocolate	-11.7917
▁analyst	-11.7917
▁addresses	-11.7918
▁upstream	-11.7921
▁Arlington	-11.7922
▁Carlisle	-11.7922
▁Sometimes	-11.7923
▁Beauty	-11.7925
▁fever	-11.7926
▁automated	-11.7926
▁barrier	-11.7927
60	-11.7928
lee	-11.7928
hua	-11.7929
▁publicity	-11.793
▁summers	-11.7933
Na	-11.7934
Connor	-11.7934
▁Bright	-11.7935
State	-11.7937
▁elect	-11.7938
fe	-11.7938
ín	-11.7939
▁Lahore	-11.7942
▁Basque	-11.7943
▁Pool	-11.7944
▁fixture	-11.7946
▁realize	-11.7946
had	-11.7948
▁MacDonald	-11.7949
▁placement	-11.7949
py	-11.795
▁spells	-11.795
Fi	-11.7951
▁Feature	-11.7952
▁soprano	-11.7955
▁laps	-11.7957
▁ancestor	-11.7957
▁shrub	-11.7957
▁unofficial	-11.7959
▁gravel	-11.7959
▁Denis	-11.7959
stage	-11.7959
▁heroes	-11.796
▁220	-11.796
▁plateau	-11.7961
▁Rally	-11.7961
▁Examples	-11.7961
▁Nina	-11.7962
▁destroying	-11.7966
▁electron	-11.7967
since	-11.7967
▁postal	-11.7968
▁Ras	-11.7968
▁Religious	-11.7969
eur	-11.7969
▁specialty	-11.7969
▁Brandon	-11.797
▁Noble	-11.7972
▁Table	-11.7972
▁1835	-11.7972
park	-11.7972
▁Floyd	-11.7973
▁Phase	-11.7974
▁measurement	-11.7975
▁renovations	-11.7976
▁Drug	-11.798
ú	-11.7981
▁recommendations	-11.7981
▁450	-11.7981
▁exceptional	-11.7985
▁Sharp	-11.7987
specific	-11.7988
▁Kashmir	-11.7988
▁whorl	-11.7988
third	-11.7989
▁reward	-11.7991
▁Trek	-11.7993
▁Lau	-11.7993
▁Homer	-11.7995
▁1819	-11.7998
boy	-11.8
▁Wen	-11.8004
▁guitars	-11.8005
ien	-11.8005
▁geology	-11.8006
▁Peterson	-11.8008
▁Others	-11.8009
▁resolved	-11.8009
▁Yankees	-11.801
▁Hansen	-11.8011
▁homeless	-11.8016
▁enzyme	-11.8017
▁Tag	-11.8018
▁contractor	-11.8019
▁forum	-11.8019
▁Duchess	-11.8021
running	-11.8022
▁Edith	-11.8024
▁rivalry	-11.8026
fire	-11.8026
▁doctrine	-11.8027
▁Paradise	-11.803
▁Nixon	-11.803
▁Havana	-11.803
▁Admiralty	-11.803
▁besides	-11.8031
▁rebranded	-11.8031
▁tributaries	-11.8034
▁loaded	-11.8034
▁geographic	-11.8035
▁1832	-11.8037
▁resemble	-11.8039
▁Bas	-11.8039
ão	-11.804
▁Willis	-11.8044
▁Angela	-11.8045
▁Jessica	-11.8046
range	-11.8047
▁discharged	-11.8047
▁gym	-11.8047
1)	-11.8048
▁aperture	-11.8049
▁mechanisms	-11.8049
▁1898.	-11.805
▁enables	-11.8051
▁tag	-11.8054
▁canvas	-11.8056
▁1890,	-11.8056
▁Savage	-11.8056
▁Weather	-11.8057
▁Marines	-11.8057
sel	-11.8058
▁Sch	-11.8058
▁Dartmouth	-11.8059
▁Zürich	-11.8059
▁exploring	-11.8063
▁Chiefs	-11.8064
▁Slovak	-11.8064
ben	-11.8066
▁Casey	-11.8067
rus	-11.8068
▁Battery	-11.8068
▁Wil	-11.8068
country	-11.8074
▁Em	-11.8075
▁jumping	-11.8077
▁u	-11.8077
▁30,000	-11.808
80	-11.8081
▁puts	-11.8081
▁infant	-11.8083
woman	-11.8084
▁Sid	-11.8085
▁Phillip	-11.8086
▁Welfare	-11.8087
lum	-11.8089
▁orchestral	-11.8089
▁eaten	-11.809
▁basal	-11.809
▁rulers	-11.8091
▁neighborhoods	-11.8091
▁Reagan	-11.8092
▁Rapids	-11.8092
▁patch	-11.8093
▁fail	-11.8094
▁abbreviated	-11.8099
▁peaking	-11.8101
▁Blackburn	-11.8102
▁ease	-11.8103
▁beta	-11.8104
▁fires	-11.8104
▁Vera	-11.8105
▁lengths	-11.8106
▁Geo	-11.8106
sz	-11.8107
▁Valentine	-11.8108
brook	-11.8111
▁Stand	-11.8111
▁cottage	-11.8112
▁disciplines	-11.8116
▁remake	-11.8117
city	-11.8119
▁contacted	-11.8119
▁Belt	-11.812
▁vegetables	-11.8121
▁Downs	-11.8123
▁batteries	-11.8125
▁smoke	-11.8128
▁equation	-11.8129
▁wireless	-11.8133
▁securing	-11.8135
▁dust	-11.8136
space	-11.8136
▁bottle	-11.8136
▁Pit	-11.8138
▁Lie	-11.8139
▁theological	-11.8139
ware	-11.814
▁engaging	-11.8142
▁traced	-11.8143
▁Goa	-11.8143
▁branded	-11.815
▁inland	-11.8153
▁Riverside	-11.8153
sley	-11.8153
▁Genoa	-11.8155
▁Plus	-11.8156
▁Similarly	-11.8156
▁acceptance	-11.8159
▁Indigenous	-11.816
great	-11.816
▁Ned	-11.8161
▁fat	-11.8162
▁Chin	-11.8162
▁switching	-11.8164
▁payments	-11.8164
▁Taipei	-11.8165
▁clergy	-11.8166
▁catalog	-11.8166
▁Fun	-11.8167
%	-11.8168
▁notion	-11.8169
▁Myanmar	-11.8171
▁complexity	-11.8172
▁yield	-11.8172
▁Pur	-11.8177
▁Ceylon	-11.8178
▁Sul	-11.818
▁Camden	-11.818
bra	-11.818
▁Zo	-11.8181
▁gifts	-11.8181
▁Meeting	-11.8182
▁Shepherd	-11.8184
▁flora	-11.8184
▁arches	-11.8186
3,	-11.8187
▁façade	-11.8193
aki	-11.8195
▁contacts	-11.8195
▁Title	-11.8197
▁likes	-11.8198
▁adjoining	-11.82
▁ribs	-11.8203
▁guy	-11.8203
▁calculated	-11.8206
▁Guitar	-11.8206
▁continent	-11.8209
▁knife	-11.821
AD	-11.8212
▁feast	-11.8213
5,000	-11.8215
▁im	-11.8217
▁submission	-11.8217
▁Restoration	-11.8218
aj	-11.8219
▁Kit	-11.8221
▁Shell	-11.8221
▁Michelle	-11.8221
▁Companies	-11.8222
▁submit	-11.8222
▁displaced	-11.8222
▁valleys	-11.8228
hard	-11.8229
▁Rep	-11.8229
director	-11.823
▁Flash	-11.8235
▁disability	-11.8236
▁Empress	-11.8238
▁Oz	-11.8241
▁Reformed	-11.8242
ire	-11.8242
mal	-11.8246
▁Irving	-11.8246
▁6-	-11.825
▁Catalan	-11.8252
▁Steam	-11.8255
▁vulnerable	-11.8255
▁freely	-11.8257
▁harbor	-11.8259
▁AAA	-11.826
▁trap	-11.8261
▁botanical	-11.8264
playing	-11.8265
▁Bai	-11.8266
▁birthplace	-11.8267
▁Wide	-11.8272
▁detection	-11.8272
ota	-11.8272
▁Papa	-11.8273
▁strictly	-11.8275
▁tongue	-11.828
▁incorporating	-11.8281
▁consequences	-11.8283
▁Howe	-11.8286
▁1811	-11.8288
▁Mick	-11.8289
▁commit	-11.829
▁presided	-11.8291
court	-11.8292
▁Thirty	-11.8292
▁Livingston	-11.8293
▁Gloria	-11.8293
cio	-11.8293
hole	-11.8293
▁Parsons	-11.8296
▁organs	-11.8302
▁affiliation	-11.8302
▁patents	-11.8302
ole	-11.8302
▁homeland	-11.8303
▁Bronx	-11.8305
▁coral	-11.8306
▁Casino	-11.8306
▁complaints	-11.8306
▁Swift	-11.8308
gon	-11.8308
www	-11.831
▁corners	-11.8312
▁saves	-11.8312
▁vacancy	-11.8314
▁capability	-11.8315
▁Beirut	-11.8315
▁pump	-11.8315
▁regained	-11.8317
▁inch	-11.8319
▁underneath	-11.832
▁suggestion	-11.8321
▁inspector	-11.8323
▁Jubilee	-11.8325
▁dozens	-11.8326
▁1862,	-11.8328
▁170	-11.833
▁councillors	-11.833
▁Antoine	-11.8332
▁1808	-11.8334
▁1895,	-11.8337
▁mis	-11.8338
▁Style	-11.8339
▁Ligue	-11.834
▁1892,	-11.8341
▁Rouge	-11.8341
och	-11.8341
▁Rule	-11.8343
▁voiced	-11.8343
▁skilled	-11.8344
▁Producer	-11.8344
▁bombs	-11.8344
▁Baku	-11.8346
▁unnamed	-11.8351
▁precise	-11.8353
▁tasked	-11.8353
post	-11.8353
▁Cunningham	-11.8354
MS	-11.8354
▁intensity	-11.8356
▁(1.6	-11.8358
▁Stirling	-11.8358
▁accompany	-11.8359
▁Fischer	-11.836
▁propeller	-11.836
▁investor	-11.8361
▁slavery	-11.8363
▁seemingly	-11.8364
▁Have	-11.8367
engine	-11.8367
▁suspect	-11.8368
▁modes	-11.8368
▁outskirts	-11.8368
although	-11.8371
р	-11.8375
▁miss	-11.8375
oid	-11.8375
▁shoes	-11.8375
▁robot	-11.8376
▁Downtown	-11.8376
▁Salzburg	-11.8378
tai	-11.8379
▁armies	-11.8379
modern	-11.8381
▁Bou	-11.8381
▁velocity	-11.8381
▁informal	-11.8382
▁respond	-11.8383
▁undrafted	-11.8383
▁115	-11.8385
▁welcomed	-11.8386
Ka	-11.8387
▁acquiring	-11.8388
▁2007–08	-11.8388
▁auditorium	-11.8388
▁conviction	-11.839
▁Griffith	-11.8392
▁deposit	-11.8392
▁IP	-11.8393
▁Managing	-11.8395
▁Kuwait	-11.8395
▁inspection	-11.8395
▁uprising	-11.8396
▁Benson	-11.8398
▁servants	-11.8402
▁Stevenson	-11.8402
gas	-11.8405
▁chains	-11.8405
▁repaired	-11.8405
▁nationalist	-11.8405
▁Augustine	-11.8407
▁Browne	-11.8408
uma	-11.8408
▁Archdiocese	-11.8408
▁agreements	-11.8411
link	-11.8411
▁mixing	-11.8411
▁Auburn	-11.8413
▁ambitious	-11.8415
▁assisting	-11.8417
▁Gor	-11.8418
▁Wo	-11.842
▁Tibetan	-11.8421
▁Blu	-11.8421
▁Tam	-11.8422
▁unlikely	-11.8422
▁Pioneer	-11.8423
▁Away	-11.8424
▁pet	-11.8435
▁Tea	-11.8436
▁specialised	-11.8436
▁Screen	-11.8436
sic	-11.8438
▁Archive	-11.8442
▁Aid	-11.8443
▁Comic	-11.8444
▁syndicated	-11.8444
▁Payne	-11.8445
▁15-	-11.8445
▁Motion	-11.8446
▁lawyers	-11.8447
▁overlooking	-11.8447
▁proportion	-11.8448
▁Pietro	-11.845
▁Wave	-11.845
▁Herzegovina	-11.8451
ami	-11.8452
▁Organisation	-11.8454
▁Reich	-11.8454
nine	-11.8454
▁AHL	-11.8455
▁astronomer	-11.8455
▁mirror	-11.8456
▁shortened	-11.8456
▁Bulldogs	-11.8456
▁preventing	-11.8459
▁bomber	-11.846
▁conferred	-11.8462
▁Koch	-11.8462
▁dimension	-11.8463
▁López	-11.8463
▁3–2	-11.8467
▁Pay	-11.8468
bro	-11.8469
▁hoping	-11.8469
▁hunt	-11.8469
▁governance	-11.8469
▁20%	-11.8471
▁Burn	-11.8472
▁archbishop	-11.8472
▁voltage	-11.8473
Japanese	-11.8474
▁1896,	-11.8474
▁withdrawal	-11.8474
▁Parkway	-11.8474
▁loans	-11.8476
▁financed	-11.8476
▁spacecraft	-11.8478
▁wounds	-11.8478
▁Jet	-11.8479
▁vault	-11.848
played	-11.8481
▁astronomy	-11.8482
▁Clan	-11.8483
▁Alfonso	-11.8487
▁Lowe	-11.8488
▁Wesley	-11.8488
▁Truth	-11.849
▁1880,	-11.8491
▁barrister	-11.8497
cum	-11.8497
▁priority	-11.8497
▁expense	-11.8501
lot	-11.8501
abad	-11.8503
▁Pasha	-11.8505
▁1.2	-11.8506
list	-11.8506
▁Gro	-11.8506
▁domains	-11.8508
▁sheriff	-11.851
▁Streets	-11.8511
cus	-11.8513
mis	-11.8514
meaning	-11.8514
black	-11.8516
▁heating	-11.8516
name	-11.8517
ée	-11.8519
▁listeners	-11.852
▁costumes	-11.852
▁Rams	-11.852
▁slogan	-11.8521
▁Rowing	-11.8521
▁Bermuda	-11.8522
▁undisclosed	-11.8522
▁Fuller	-11.8523
▁aided	-11.8524
ι	-11.8526
▁requests	-11.8526
▁deployment	-11.8527
▁shells	-11.853
▁Fighting	-11.853
▁showcase	-11.8531
▁diagnosis	-11.8532
▁poetic	-11.8533
▁possess	-11.8533
▁clusters	-11.8533
▁Jackie	-11.8534
▁angry	-11.8535
▁possessed	-11.8542
▁Matthews	-11.8542
▁physicist	-11.8544
▁pocket	-11.8544
▁revealing	-11.8544
▁Kat	-11.8544
▁1600	-11.8545
▁highways	-11.8546
▁flowering	-11.8546
▁chicken	-11.8549
wen	-11.8551
▁Nielsen	-11.8551
▁bells	-11.8552
▁Brigadier	-11.8552
▁destroyer	-11.8552
▁AA	-11.8553
▁evident	-11.8553
▁Seymour	-11.8554
▁Angola	-11.8554
adi	-11.8554
-1980	-11.8555
▁transaction	-11.8555
▁Rules	-11.8556
▁congress	-11.8558
▁Arm	-11.8559
▁globe	-11.856
▁Fritz	-11.856
▁lumber	-11.8561
profile	-11.8564
▁Clayton	-11.8565
▁spy	-11.8567
▁humanity	-11.8569
stock	-11.857
America	-11.8572
▁Chambers	-11.8572
▁Sanders	-11.8572
▁FCC	-11.8574
▁update	-11.8574
▁Rapid	-11.8575
▁Lim	-11.8576
▁Tonight	-11.8577
▁memorable	-11.8579
▁1899,	-11.8583
▁Harriet	-11.8583
▁Tunisia	-11.8583
▁flash	-11.8584
▁Ste	-11.8587
▁assume	-11.8589
▁mandate	-11.859
▁arcade	-11.8592
▁Sophia	-11.8593
▁Hearts	-11.8595
▁Colombo	-11.8595
▁Cer	-11.8597
▁defines	-11.8597
▁Officers	-11.8599
▁1844	-11.8601
▁1897,	-11.8601
▁fails	-11.8603
▁Semi	-11.8603
vel	-11.8604
▁Macedonian	-11.8604
▁wheelchair	-11.8608
▁1893,	-11.8608
▁Clarence	-11.8609
▁mistake	-11.861
▁laude	-11.8611
▁coloured	-11.8611
▁Pitt	-11.8612
▁lengthy	-11.8612
ele	-11.8612
▁Madagascar	-11.8612
▁chartered	-11.8613
▁aluminum	-11.8614
▁documentation	-11.8614
▁Perkins	-11.8617
▁ni	-11.8619
▁courthouse	-11.8619
▁Internal	-11.8621
▁creatures	-11.8621
▁economist	-11.8623
▁occupy	-11.8623
▁Maj	-11.8624
▁Barber	-11.8624
pal	-11.8627
▁Burlington	-11.8628
▁troupe	-11.8628
tt	-11.8629
▁rankings	-11.8631
▁Audio	-11.8632
▁Mun	-11.8633
▁Rican	-11.8637
▁Ran	-11.8638
▁reunion	-11.8638
▁Dynamo	-11.8644
▁capturing	-11.8645
▁Frontier	-11.8645
▁Northampton	-11.8645
▁Weber	-11.8647
▁Almost	-11.8648
▁Arch	-11.8649
▁Jacobs	-11.865
▁Boss	-11.8653
▁Paralympics	-11.8653
▁terrestrial	-11.8654
▁16-	-11.8656
▁concentrate	-11.8656
ux	-11.8658
▁Isabel	-11.866
▁citation	-11.866
▁Cannes	-11.8661
▁Americas	-11.8661
▁Christie	-11.8662
▁Waters	-11.8663
▁gambling	-11.8663
▁pot	-11.8664
▁lion	-11.8665
▁dances	-11.8667
▁batted	-11.8668
▁1888,	-11.8671
▁rope	-11.8672
▁Arc	-11.8673
▁Nursing	-11.8673
▁Zu	-11.8675
▁Aero	-11.8677
▁Blind	-11.868
▁organisms	-11.868
▁standings	-11.868
▁tales	-11.8681
▁Tell	-11.8683
▁reinforced	-11.8683
▁inscribed	-11.8684
▁Flemish	-11.8686
▁Bolivia	-11.8686
▁Wheeler	-11.8687
▁cameo	-11.8689
▁shapes	-11.8689
▁Gore	-11.8689
▁Property	-11.869
▁Pearson	-11.869
hen	-11.8691
▁fake	-11.8691
▁saxophone	-11.8692
▁Randy	-11.8694
▁Frost	-11.8694
▁Emmanuel	-11.8694
mail	-11.8694
▁Idol	-11.8696
▁Commanding	-11.8696
▁Workshop	-11.87
▁Carlton	-11.87
▁González	-11.8704
▁purchasing	-11.8704
▁judgment	-11.8706
▁surgical	-11.8707
jar	-11.8707
▁storyline	-11.8708
▁conventions	-11.871
▁dynamics	-11.871
▁Dayton	-11.8711
yr	-11.8713
▁email	-11.8713
▁Pra	-11.8714
power	-11.8714
▁stopping	-11.8715
▁harsh	-11.8715
48	-11.8715
▁avoided	-11.8717
▁Lincolnshire	-11.8719
▁Midwest	-11.872
▁Evangelical	-11.872
▁measurements	-11.8722
▁Mae	-11.8724
▁providers	-11.8726
ras	-11.8728
Mar	-11.8734
▁Ultimate	-11.8735
▁disputes	-11.8736
▁Vista	-11.8736
▁undefeated	-11.8739
▁Limerick	-11.8739
▁Kyoto	-11.8741
▁specification	-11.8743
▁bold	-11.8744
▁Gates	-11.8745
▁stripes	-11.8749
▁Normandy	-11.8752
▁incorporate	-11.8752
▁Torres	-11.8753
▁humorous	-11.8754
▁MLB	-11.8754
▁Conservatives	-11.8757
▁tumor	-11.8759
▁$	-11.876
▁Trevor	-11.8761
bal	-11.8761
▁generating	-11.8768
▁grandparents	-11.877
▁crest	-11.8771
▁24-	-11.8773
▁Fat	-11.8773
▁Levi	-11.8774
▁anonymous	-11.8774
▁reorganized	-11.8776
▁varsity	-11.8776
▁outlet	-11.8777
▁Nothing	-11.878
▁Rita	-11.8781
kha	-11.8781
▁flour	-11.8782
▁Kerr	-11.8784
▁errors	-11.8785
▁inheritance	-11.8785
tum	-11.8786
▁sizes	-11.8786
▁owing	-11.8786
▁Riding	-11.8787
▁burnt	-11.879
▁Moor	-11.879
13	-11.879
▁Derbyshire	-11.8791
eastern	-11.8792
▁algorithms	-11.8793
▁cement	-11.8797
▁afterward	-11.8797
▁toxic	-11.8798
▁Williamson	-11.8799
▁Gloucestershire	-11.8801
▁fundraising	-11.8801
tone	-11.8801
▁steal	-11.8806
▁Cheng	-11.8806
▁Okinawa	-11.8806
▁Baghdad	-11.8808
▁accepting	-11.8809
▁violation	-11.8809
▁Nintendo	-11.8811
▁button	-11.8812
▁mac	-11.8814
▁Heroes	-11.8814
fin	-11.8818
▁Rex	-11.8818
tail	-11.882
▁embedded	-11.8821
▁entities	-11.8821
▁folklore	-11.8821
▁Doyle	-11.8822
▁wholly	-11.8822
▁Pune	-11.8823
▁Jakarta	-11.8823
▁juvenile	-11.8825
▁Mansfield	-11.8827
▁Judy	-11.883
▁gods	-11.883
▁vein	-11.8831
▁strikes	-11.8832
▁Beer	-11.8833
▁Teaching	-11.884
▁assignments	-11.884
▁photographed	-11.8841
▁choosing	-11.8842
▁Exposition	-11.8842
▁Ada	-11.8843
▁Fly	-11.8844
▁Naga	-11.8844
dio	-11.8846
▁Plateau	-11.8849
▁railways	-11.8852
▁convince	-11.8852
▁fatal	-11.8853
▁beats	-11.8853
▁ethics	-11.8854
▁module	-11.8854
wall	-11.8855
▁hypothesis	-11.8858
▁trick	-11.886
▁cliff	-11.886
▁Ng	-11.886
▁Fitzgerald	-11.8863
▁Permanent	-11.8863
▁promotes	-11.8863
▁reconnaissance	-11.8864
▁pools	-11.8864
▁availability	-11.8869
▁Beaver	-11.8873
▁settler	-11.8875
▁Barrow	-11.8876
▁rushed	-11.8876
▁theatres	-11.8876
▁Rosen	-11.8877
▁motorway	-11.8878
▁sepals	-11.8878
▁Negro	-11.8878
eck	-11.8878
▁kidnapped	-11.8878
▁Xiao	-11.8878
tur	-11.8881
▁Eyes	-11.8883
▁Jerome	-11.8883
▁applying	-11.8884
▁Gap	-11.8886
▁los	-11.8886
▁1891,	-11.889
▁spines	-11.8891
anga	-11.8892
▁similarities	-11.8896
▁Jenny	-11.8897
▁Lock	-11.8899
▁Colombian	-11.89
▁Bryant	-11.89
▁Hawkins	-11.8901
▁Por	-11.8903
▁disorders	-11.8904
▁Mei	-11.8904
▁arguing	-11.8904
▁encouraging	-11.8904
▁erosion	-11.8904
▁phases	-11.8904
ere	-11.8906
itis	-11.8907
▁Weston	-11.8907
mate	-11.8909
▁Ven	-11.8909
▁chord	-11.891
North	-11.891
▁20-	-11.8911
▁Gerard	-11.8911
ches	-11.8913
86	-11.8915
▁priesthood	-11.8915
▁propaganda	-11.8916
▁audition	-11.8916
▁Nagar	-11.8917
▁sa	-11.8917
▁tracking	-11.8917
sberg	-11.8918
▁philanthropist	-11.892
▁Vin	-11.892
aire	-11.8922
▁$10	-11.8927
hat	-11.8928
▁remnants	-11.8929
▁Es	-11.8929
▁cartoons	-11.8929
▁spans	-11.893
▁irrigation	-11.893
▁pinyin	-11.893
▁reversed	-11.8931
▁Given	-11.8933
▁Bow	-11.8935
▁knight	-11.8935
▁peoples	-11.8937
▁accepts	-11.8938
ups	-11.8939
▁Roth	-11.8942
▁Myers	-11.8942
orum	-11.8945
▁Beautiful	-11.8946
▁Johannesburg	-11.8946
▁HBO	-11.8951
▁Sinclair	-11.8952
▁Carey	-11.8952
▁Tank	-11.8953
▁oriented	-11.8953
▁missiles	-11.8957
Up	-11.8957
▁Overall	-11.8959
▁Pak	-11.896
▁regulatory	-11.896
▁Lands	-11.896
▁Venus	-11.8964
ep	-11.8964
▁1886,	-11.8965
▁Campeonato	-11.8967
▁repeat	-11.8969
▁Alps	-11.897
▁fortified	-11.897
▁swept	-11.897
DC	-11.897
▁lodge	-11.8973
than	-11.8973
▁Broncos	-11.8974
▁ladies	-11.8974
▁geological	-11.8975
▁Known	-11.8977
its	-11.8977
▁Teams	-11.8978
▁shadow	-11.8981
▁equations	-11.8984
▁Lea	-11.8984
▁Donna	-11.8985
▁IL	-11.8987
▁Hundred	-11.8988
ase	-11.8989
64	-11.8989
▁chemist	-11.8989
▁volunteered	-11.8989
wald	-11.899
▁Vijay	-11.8992
▁1815	-11.8992
piece	-11.8993
▁HC	-11.8993
▁anthem	-11.8994
▁exiled	-11.8994
▁import	-11.8994
▁corporations	-11.9001
kel	-11.9002
body	-11.9002
▁Lily	-11.9003
▁deity	-11.9004
▁Maya	-11.9005
▁Basic	-11.9006
▁financially	-11.9007
▁expenses	-11.901
▁Galaxy	-11.901
▁tram	-11.9011
▁Noel	-11.9012
▁Sutherland	-11.9013
▁climbed	-11.9013
▁cannon	-11.9013
▁collision	-11.9014
▁Ruby	-11.9014
aux	-11.9015
▁opinions	-11.9018
▁Afghan	-11.9019
▁lacking	-11.9021
▁mandatory	-11.9022
▁blow	-11.9023
▁Mus	-11.9025
▁Aston	-11.9026
▁Amanda	-11.9029
▁softball	-11.903
▁wines	-11.9031
▁installations	-11.9032
▁torture	-11.9033
▁explorer	-11.9033
▁depths	-11.9035
▁Namibia	-11.9036
▁recruit	-11.9037
▁regain	-11.9037
named	-11.9038
.5	-11.904
▁pleasure	-11.9041
▁suffer	-11.9043
▁snout	-11.9043
▁Fortune	-11.9043
▁Patrol	-11.9045
▁testimony	-11.9045
▁evacuated	-11.9046
▁Aurora	-11.9047
▁nerve	-11.9048
▁listen	-11.9049
▁Jules	-11.9049
▁gaming	-11.9049
▁campuses	-11.9051
▁Kali	-11.9051
▁Turks	-11.9053
▁1894,	-11.9054
▁XV	-11.9055
▁30-	-11.9055
▁statewide	-11.9056
▁Monster	-11.9058
▁Andre	-11.906
▁Pleasant	-11.9061
▁Paraguay	-11.9061
▁corridor	-11.9061
▁blend	-11.9062
▁treasure	-11.9063
xi	-11.9064
▁1884,	-11.9064
▁Shannon	-11.9069
hurst	-11.907
▁Visiting	-11.9073
▁Mikhail	-11.9074
Un	-11.9074
▁convex	-11.9074
▁eleventh	-11.9076
▁Hammond	-11.9079
▁Fowler	-11.9079
▁hurt	-11.908
▁spur	-11.9081
▁Geographic	-11.9081
▁Rap	-11.9083
▁Flanders	-11.9084
▁Historically	-11.9086
▁Sharon	-11.9087
▁schemes	-11.9091
▁1780	-11.9091
▁Cooke	-11.9093
▁lightweight	-11.9093
▁RNA	-11.9095
▁daytime	-11.9096
▁MPs	-11.9097
▁Malayalam	-11.9097
▁reflecting	-11.9098
70	-11.9098
▁Search	-11.9099
▁Samoa	-11.9099
▁quarry	-11.9099
▁namesake	-11.9104
▁Zero	-11.9106
▁dishes	-11.9106
▁Mul	-11.9107
▁advertisements	-11.9107
ification	-11.9109
▁1885,	-11.9109
▁bush	-11.911
▁CIA	-11.911
▁Mirror	-11.9112
▁Goodman	-11.9113
▁Dry	-11.9114
▁Carpenter	-11.9115
▁witnesses	-11.9117
▁Len	-11.9117
▁termed	-11.9118
▁Māori	-11.9121
▁Allison	-11.9121
▁Nice	-11.9122
eight	-11.9125
▁forested	-11.9126
▁Je	-11.9129
▁Riga	-11.9129
▁1881,	-11.9132
▁casino	-11.9133
▁Mala	-11.9133
▁Recent	-11.9134
▁steady	-11.9136
▁notorious	-11.914
▁Booth	-11.9141
▁Vanderbilt	-11.9146
▁Analysis	-11.9147
▁synagogue	-11.9147
▁remarried	-11.9152
▁Northumberland	-11.9152
▁Rector	-11.9152
▁USC	-11.9153
dom	-11.9153
▁WA	-11.9153
▁Yet	-11.9154
▁cardinal	-11.9155
▁Boxing	-11.9155
▁scout	-11.9156
▁objectives	-11.9157
▁suite	-11.916
▁hairy	-11.9161
▁Randolph	-11.9163
▁Tha	-11.9164
▁Sy	-11.9164
▁barracks	-11.9165
▁Tribunal	-11.9168
▁printer	-11.9168
▁landowner	-11.917
▁unexpected	-11.917
▁reelected	-11.9172
▁communicate	-11.9172
▁ultimate	-11.9173
▁subdivision	-11.9174
▁Johns	-11.9175
▁ma	-11.9177
▁sailors	-11.9178
▁109	-11.918
▁raids	-11.9181
▁qualities	-11.9183
▁Staffordshire	-11.9183
▁reminiscent	-11.9185
▁liberation	-11.9185
▁Rescue	-11.9185
▁viral	-11.9186
▁cooperative	-11.9187
▁Pac	-11.9188
▁Observer	-11.9189
▁Norse	-11.919
▁keyboards	-11.919
▁declaration	-11.9191
▁Crow	-11.9192
▁threshold	-11.9195
▁Poor	-11.9195
▁harmony	-11.9197
▁1796	-11.9198
stra	-11.9198
▁Ipswich	-11.9199
▁Citation	-11.9199
bad	-11.92
▁innocent	-11.9201
ade	-11.9201
▁Hip	-11.9204
Arabic	-11.9204
▁Journey	-11.9205
▁Judicial	-11.9205
▁tuberculosis	-11.9206
▁lacks	-11.9206
▁Mayo	-11.9207
▁teens	-11.9208
▁composing	-11.921
though	-11.9212
host	-11.9214
▁Edo	-11.9214
▁chancellor	-11.9216
▁Au	-11.9219
▁makers	-11.922
European	-11.9221
▁Bali	-11.9222
Hungarian	-11.9226
▁Château	-11.9228
▁funny	-11.9229
▁AT	-11.923
▁picnic	-11.9231
▁Holiday	-11.9232
▁algebra	-11.9236
▁Core	-11.9237
▁Strasbourg	-11.9237
▁Kang	-11.9238
nal	-11.9239
uka	-11.9241
▁Bremen	-11.9242
▁Lexington	-11.9242
▁hostile	-11.9243
▁Fur	-11.9243
▁intelligent	-11.9244
Sa	-11.9245
▁Image	-11.9245
▁campaigned	-11.9248
▁Ferrari	-11.9249
▁Smithsonian	-11.9249
▁breakfast	-11.9249
▁barely	-11.925
▁interceptions	-11.925
▁Ibn	-11.9251
▁enormous	-11.9252
das	-11.9254
▁Joey	-11.9257
▁Kun	-11.9258
chin	-11.9259
▁undergo	-11.926
▁SV	-11.926
▁Trent	-11.9261
▁imprint	-11.9261
song	-11.9261
▁Abdullah	-11.9262
▁deeper	-11.9265
▁Ai	-11.9266
▁Electoral	-11.9266
▁creature	-11.9266
▁Wake	-11.9268
▁Turn	-11.9268
▁Trio	-11.9268
▁particle	-11.9269
▁bills	-11.9269
▁staircase	-11.9272
▁Pont	-11.9275
▁León	-11.9276
79	-11.9277
▁Ay	-11.9278
▁PR	-11.928
▁substantially	-11.9281
▁carefully	-11.9282
▁Electronics	-11.9284
▁positioned	-11.9285
▁lacked	-11.9287
▁750	-11.9288
▁Mix	-11.9288
shot	-11.9293
▁Bates	-11.9293
▁inquiry	-11.9296
▁$4	-11.9296
▁Monaco	-11.9297
▁papal	-11.9298
▁primitive	-11.9299
],	-11.9301
ö	-11.9302
▁112	-11.9302
▁estimates	-11.9302
▁centimeters	-11.9303
▁refugee	-11.9303
▁Mercedes	-11.9303
dor	-11.9307
▁celebrating	-11.9307
▁Lines	-11.9311
▁underwater	-11.9312
nai	-11.9313
▁Senators	-11.9316
▁Republicans	-11.9318
ija	-11.9318
western	-11.9318
▁Cannon	-11.9319
▁mural	-11.9319
▁meal	-11.9319
▁tiles	-11.9323
▁Paolo	-11.9324
▁Constantine	-11.9324
▁Rainbow	-11.9327
▁dis	-11.9327
▁surprised	-11.9329
▁twelfth	-11.9329
▁Hy	-11.933
iah	-11.933
ID	-11.9331
▁Mah	-11.9332
▁font	-11.9333
▁worse	-11.9335
▁fiber	-11.9335
▁Qi	-11.9336
▁freed	-11.9339
▁complaint	-11.9339
▁Jupiter	-11.9341
▁Polo	-11.9342
▁Strange	-11.9343
San	-11.9347
tte	-11.9347
▁1899.	-11.9348
▁Romans	-11.9348
▁outfit	-11.9351
▁Sterling	-11.9351
▁Ve	-11.9353
▁2006–07	-11.9356
▁Honda	-11.9357
▁Standards	-11.9357
▁Eli	-11.9359
lal	-11.9359
▁Cities	-11.936
▁confined	-11.9362
▁Color	-11.9363
▁escapes	-11.9365
▁Resort	-11.9365
▁profits	-11.9366
▁trout	-11.9367
▁Sta	-11.9367
▁eliminate	-11.9368
▁McGill	-11.9368
▁finalists	-11.9369
▁8-	-11.937
▁penalties	-11.9372
nin	-11.9374
▁electro	-11.9375
▁Scouts	-11.9375
▁guidelines	-11.9377
/10	-11.9377
▁declining	-11.9377
▁modeled	-11.9378
▁Evelyn	-11.9378
▁René	-11.938
▁boxer	-11.9381
▁Sang	-11.9385
▁dock	-11.9386
brother	-11.9387
▁Teen	-11.9387
▁premiership	-11.9388
▁asset	-11.9389
▁rebuilding	-11.9389
▁Bordeaux	-11.939
▁retains	-11.939
▁spanning	-11.9391
▁tin	-11.9399
▁Steele	-11.9399
distance	-11.9399
arm	-11.94
▁Mans	-11.9402
▁1804	-11.9402
▁tends	-11.9403
▁promoter	-11.9404
▁Economy	-11.9405
▁107	-11.9405
▁bitter	-11.9405
▁surveillance	-11.9405
▁offshore	-11.9406
▁Teresa	-11.9406
anna	-11.9406
▁Dramatic	-11.9406
▁Lifetime	-11.9407
Ra	-11.9408
▁trumpet	-11.9409
▁Archaeological	-11.941
▁1893.	-11.941
▁Holly	-11.9411
▁Entry	-11.9413
▁Tracy	-11.9413
▁grape	-11.9414
▁Ultra	-11.9414
▁icon	-11.9414
home	-11.9414
▁gravity	-11.9416
▁crews	-11.9416
▁Close	-11.9417
starred	-11.9417
▁sleeping	-11.9418
ose	-11.9418
▁Regina	-11.9418
▁Flowers	-11.9421
▁scripts	-11.9422
▁wives	-11.9424
▁delivering	-11.9424
▁128	-11.9424
gh	-11.9424
▁occupying	-11.9426
▁damages	-11.9427
▁container	-11.9428
▁holidays	-11.9428
▁blade	-11.9431
▁Alt	-11.9432
▁announcer	-11.9433
▁Vaughan	-11.9433
▁smart	-11.9437
base	-11.9437
▁Ala	-11.9438
▁keeper	-11.9439
▁radius	-11.9439
▁aesthetic	-11.944
▁harm	-11.944
▁feat	-11.944
published	-11.9441
▁Com	-11.9442
▁Clifford	-11.9443
▁rental	-11.9444
▁sp	-11.9445
▁enacted	-11.9446
▁NH	-11.945
▁Kel	-11.945
▁1875,	-11.945
▁Circus	-11.945
▁bull	-11.9451
▁McCarthy	-11.9454
▁Surgery	-11.9454
▁GP	-11.9457
▁Motors	-11.9457
▁rush	-11.9458
▁Reds	-11.9459
▁solicitor	-11.946
▁Talent	-11.9461
▁canceled	-11.9461
▁spire	-11.9463
▁abdomen	-11.9465
▁antenna	-11.9465
▁whatever	-11.9465
▁comfortable	-11.9465
▁Viking	-11.9466
▁demise	-11.9467
▁1896.	-11.9467
▁Spider	-11.9468
ichi	-11.947
▁Lal	-11.9471
▁Category	-11.9472
▁Fest	-11.9474
▁80%	-11.9476
▁speeds	-11.9476
▁quarterfinals	-11.9477
▁Clifton	-11.9481
▁Buddhism	-11.9481
▁tragedy	-11.9481
▁Regular	-11.9482
▁Charity	-11.9482
lyn	-11.9484
▁Than	-11.9487
▁identifying	-11.9487
av	-11.9489
zan	-11.9489
▁XIII	-11.9494
▁Tau	-11.9496
▁Established	-11.9498
▁Kuala	-11.9498
▁Abbott	-11.95
▁1870,	-11.9501
▁pseudo	-11.9502
▁111	-11.9502
▁undergoing	-11.9502
▁Gala	-11.9502
▁nucleus	-11.9503
▁fauna	-11.9505
[...]
