<unk>	0
<s>	0
▁the	-3.07148
,	-3.24723
.	-3.31834
▁of	-3.64763
▁and	-3.78828
▁in	-3.83625
s	-3.872
▁a	-4.12933
▁to	-4.19656
▁was	-4.48087
▁The	-4.84953
-	-4.89826
▁is	-5.00677
▁for	-5.02775
▁on	-5.11128
'	-5.15755
▁with	-5.18886
▁as	-5.18948
▁	-5.22788
▁by	-5.28101
▁at	-5.36879
▁(	-5.37591
▁from	-5.49041
▁his	-5.49382
▁he	-5.54131
▁In	-5.55708
▁that	-5.67491
▁He	-5.68223
)	-5.72348
▁"	-5.79516
▁an	-5.84228
▁were	-6.09785
▁which	-6.11157
▁it	-6.19259
▁are	-6.2006
▁has	-6.20429
▁also	-6.26166
"	-6.31415
▁first	-6.32103
▁had	-6.38356
ing	-6.39165
▁be	-6.41693
▁A	-6.43214
e	-6.46934
ed	-6.4934
▁her	-6.49855
▁or	-6.55479
▁It	-6.5693
a	-6.57007
▁one	-6.61721
▁its	-6.65038
▁who	-6.65177
▁two	-6.66666
▁their	-6.68325
▁but	-6.68927
:	-6.71979
d	-6.7442
th	-6.77355
▁she	-6.80195
▁been	-6.80972
▁this	-6.83062
;	-6.83187
▁after	-6.84303
▁not	-6.84513
er	-6.85142
▁have	-6.86187
y	-6.89396
),	-6.9207
).	-6.95396
t	-6.95765
▁University	-6.977
▁She	-6.99487
▁years	-7.00197
▁New	-7.02741
▁where	-7.04257
▁other	-7.04787
▁On	-7.05059
▁time	-7.05431
▁into	-7.05449
i	-7.08519
ly	-7.11563
n	-7.12342
▁when	-7.12787
▁they	-7.14849
o	-7.15313
▁became	-7.15482
▁over	-7.15503
▁all	-7.2045
▁up	-7.21413
▁made	-7.21538
in	-7.23784
▁during	-7.23852
▁then	-7.25816
▁later	-7.26833
▁I	-7.27362
▁new	-7.28732
▁de	-7.28781
▁three	-7.29878
▁under	-7.30582
S	-7.31319
▁year	-7.31676
▁season	-7.32717
▁part	-7.33145
▁1	-7.33194
▁more	-7.33808
▁After	-7.33884
▁him	-7.34013
▁out	-7.34559
▁2	-7.34994
▁This	-7.35056
▁team	-7.37083
▁between	-7.37982
▁only	-7.38136
▁until	-7.40807
▁used	-7.43247
▁would	-7.43362
es	-7.44158
al	-7.4423
▁school	-7.44373
/	-7.45245
▁about	-7.45657
▁including	-7.47333
▁can	-7.47516
▁United	-7.47573
▁work	-7.48279
▁School	-7.48279
▁His	-7.48509
▁well	-7.48862
▁played	-7.49307
▁there	-7.50093
▁known	-7.51251
▁3	-7.51372
▁before	-7.52978
▁most	-7.5324
▁being	-7.53625
▁second	-7.53667
▁such	-7.53705
▁film	-7.54201
▁U	-7.55753
▁born	-7.56279
▁As	-7.56791
▁name	-7.5681
m	-7.5739
▁through	-7.58378
▁against	-7.58667
▁area	-7.59785
▁won	-7.60928
▁B	-7.61635
▁S	-7.62711
▁many	-7.63657
’	-7.63953
▁American	-7.63957
▁World	-7.6425
▁National	-7.64502
▁May	-7.64874
▁some	-7.64949
▁than	-7.6524
▁served	-7.6585
▁St	-7.66149
▁family	-7.66417
man	-7.67001
".	-7.67362
r	-7.67767
▁age	-7.67848
▁while	-7.70338
▁released	-7.70718
▁member	-7.70944
▁both	-7.71233
A	-7.71864
en	-7.73608
an	-7.74359
▁named	-7.74532
▁4	-7.74763
▁re	-7.74829
▁four	-7.7505
▁died	-7.75358
▁June	-7.75388
▁January	-7.75823
▁began	-7.76006
▁album	-7.76077
▁March	-7.76121
▁York	-7.76156
▁called	-7.76164
▁John	-7.76365
▁C	-7.76378
▁July	-7.76815
▁D	-7.76828
▁September	-7.76982
▁August	-7.77598
▁several	-7.77651
▁no	-7.78911
▁number	-7.79789
▁them	-7.80574
▁States	-7.80744
▁October	-7.80763
▁At	-7.8081
."	-7.8092
▁War	-7.81169
▁people	-7.81912
▁April	-7.83003
▁company	-7.83987
▁early	-7.84545
▁–	-7.84835
▁College	-7.85105
▁series	-7.85173
on	-7.85612
▁music	-7.85936
C	-7.86193
▁same	-7.86226
▁M	-7.86291
▁E	-7.8721
▁They	-7.87582
▁received	-7.87678
▁November	-7.8773
▁December	-7.87838
▁5	-7.88417
k	-7.89015
▁club	-7.89038
▁South	-7.89042
▁group	-7.90353
▁moved	-7.90455
▁city	-7.90579
▁City	-7.91168
▁son	-7.91939
▁P	-7.92954
▁located	-7.93419
▁end	-7.93505
▁will	-7.93522
▁career	-7.93592
▁There	-7.93677
▁15	-7.93717
▁station	-7.94555
g	-7.94839
▁km	-7.9509
▁O	-7.95632
▁State	-7.95645
▁held	-7.95757
▁since	-7.9586
▁T	-7.96162
▁home	-7.96335
▁game	-7.96336
▁took	-7.97019
▁10	-7.97614
▁so	-7.98423
▁married	-7.98448
▁song	-7.98616
▁built	-7.98765
or	-7.98977
▁town	-7.99009
",	-7.99288
▁published	-7.99501
▁February	-7.99744
▁local	-8.00584
▁place	-8.01593
re	-8.01659
▁high	-8.02596
▁League	-8.02655
▁G	-8.03413
▁County	-8.03422
▁joined	-8.03532
u	-8.03596
▁band	-8.03666
▁6	-8.03722
▁state	-8.03803
▁building	-8.03982
▁found	-8.04099
▁worked	-8.04249
▁During	-8.04666
h	-8.04952
c	-8.05938
▁R	-8.06311
▁following	-8.06423
▁back	-8.06476
▁father	-8.06635
▁left	-8.07343
▁-	-8.07439
l	-8.07534
▁each	-8.07784
▁&	-8.07931
st	-8.08425
▁K	-8.0882
▁18	-8.09122
▁F	-8.09125
▁now	-8.0954
▁British	-8.09641
▁former	-8.0976
ers	-8.09817
▁around	-8.0982
us	-8.09821
2	-8.09932
D	-8.10031
▁long	-8.10855
▁London	-8.11281
▁North	-8.11337
▁population	-8.11938
B	-8.12008
▁along	-8.1211
▁children	-8.12194
▁single	-8.12304
▁use	-8.12344
▁death	-8.1237
▁started	-8.13513
▁'	-8.1384
▁side	-8.14941
▁m	-8.15555
▁20	-8.15762
▁For	-8.16192
▁12	-8.16448
▁show	-8.16484
▁7	-8.16889
to	-8.17033
▁book	-8.18314
▁life	-8.18601
▁century	-8.18682
▁village	-8.18736
z	-8.18836
▁However	-8.19235
▁small	-8.19342
the	-8.19734
▁play	-8.19812
▁line	-8.20142
▁8	-8.20292
▁these	-8.20382
▁five	-8.2092
▁co	-8.20932
▁national	-8.21568
▁public	-8.22014
▁9	-8.22721
▁J	-8.23254
▁went	-8.23254
▁own	-8.23273
▁did	-8.23351
▁may	-8.23426
na	-8.23491
▁include	-8.23533
▁included	-8.23553
▁based	-8.24943
▁government	-8.25822
ar	-8.25901
▁16	-8.26333
▁From	-8.2659
le	-8.2684
▁appointed	-8.27085
▁main	-8.27306
▁due	-8.27627
▁San	-8.27757
▁L	-8.27776
▁set	-8.27883
▁signed	-8.28107
▁near	-8.28139
▁large	-8.28312
▁West	-8.28495
▁members	-8.28911
▁Her	-8.28995
▁La	-8.2906
▁returned	-8.29494
▁River	-8.29873
▁established	-8.29955
▁service	-8.30174
▁last	-8.3019
ton	-8.30261
▁English	-8.30281
▁14	-8.30638
▁world	-8.30698
▁debut	-8.30823
▁any	-8.31124
–	-8.31569
▁H	-8.31935
▁day	-8.32071
▁like	-8.32327
▁N	-8.32795
▁final	-8.32957
▁system	-8.33003
▁All	-8.33011
▁house	-8.33618
▁third	-8.33855
▁founded	-8.34009
ia	-8.34013
▁elected	-8.34139
▁Cup	-8.3416
b	-8.34182
de	-8.34194
▁per	-8.34322
▁again	-8.34513
▁II	-8.35058
▁11	-8.35095
▁High	-8.3512
▁13	-8.35295
▁original	-8.35423
▁International	-8.35486
▁off	-8.36061
▁very	-8.36699
▁still	-8.37055
1	-8.3723
▁French	-8.37262
▁role	-8.37337
▁best	-8.37506
▁title	-8.37694
▁major	-8.38032
▁When	-8.38317
▁water	-8.38768
▁because	-8.39072
The	-8.3918
▁An	-8.39307
▁late	-8.39525
▁could	-8.39821
I	-8.39951
▁House	-8.40035
▁north	-8.4014
▁church	-8.40246
▁wife	-8.40582
▁land	-8.41303
▁total	-8.41338
▁another	-8.41539
▁German	-8.41584
▁within	-8.41955
el	-8.42062
▁came	-8.42549
ta	-8.42766
▁England	-8.42791
▁games	-8.4308
▁led	-8.43435
▁No	-8.43696
W	-8.44241
▁daughter	-8.4427
▁announced	-8.44371
▁million	-8.44799
▁said	-8.44805
▁head	-8.45174
▁Park	-8.45476
▁community	-8.4557
▁site	-8.45818
▁W	-8.46115
▁record	-8.46363
▁De	-8.46376
▁created	-8.46814
▁down	-8.46972
▁become	-8.47019
▁six	-8.47041
▁top	-8.47213
E	-8.47238
▁William	-8.47498
▁those	-8.47556
▁history	-8.47573
▁opened	-8.4761
▁Al	-8.47763
ne	-8.47792
▁south	-8.47855
▁square	-8.48093
3	-8.48227
K	-8.48575
ist	-8.48577
▁form	-8.486
▁different	-8.49212
▁election	-8.49337
▁appeared	-8.49394
ley	-8.49899
▁East	-8.49951
p	-8.50131
land	-8.50268
▁various	-8.50336
▁Royal	-8.5042
▁Council	-8.50538
▁wrote	-8.50649
F	-8.50706
▁miles	-8.5074
▁director	-8.50785
▁One	-8.50862
ic	-8.50908
▁species	-8.51243
▁California	-8.5131
▁just	-8.51408
▁V	-8.5149
▁general	-8.51916
▁short	-8.52081
▁19	-8.52211
N	-8.5241
▁works	-8.52828
▁Award	-8.52856
▁war	-8.53032
is	-8.53605
▁do	-8.53637
M	-8.53762
▁playing	-8.53937
▁District	-8.53939
▁Street	-8.54084
son	-8.54474
▁period	-8.54652
▁students	-8.5483
▁working	-8.54874
▁district	-8.55189
▁Association	-8.55247
▁make	-8.55599
▁degree	-8.55956
te	-8.56014
▁business	-8.56086
▁often	-8.56348
▁George	-8.56406
▁old	-8.56465
▁To	-8.56479
ra	-8.56538
▁next	-8.5655
▁position	-8.56556
▁country	-8.56776
▁average	-8.5678
%	-8.56869
▁player	-8.57016
▁30	-8.57557
▁produced	-8.57955
▁Church	-8.58148
▁un	-8.58214
▁President	-8.58477
▁non	-8.58555
▁King	-8.58701
▁together	-8.58723
da	-8.58839
4	-8.58927
ka	-8.58959
year	-8.59171
▁women	-8.59205
▁US	-8.5926
▁research	-8.59388
▁among	-8.59527
▁having	-8.59689
▁25	-8.60457
▁17	-8.60479
▁Party	-8.60498
▁According	-8.60683
▁order	-8.60877
▁law	-8.61158
G	-8.62118
▁attended	-8.6212
▁video	-8.62163
T	-8.62201
▁office	-8.62215
▁living	-8.62377
▁James	-8.62485
f	-8.62491
▁Institute	-8.62495
▁football	-8.62536
▁development	-8.62731
▁much	-8.62837
▁program	-8.62929
▁continued	-8.63256
▁production	-8.633
▁India	-8.63405
▁2010	-8.63443
nd	-8.63446
▁few	-8.63488
▁given	-8.63536
▁present	-8.63684
▁Co	-8.64167
▁brother	-8.64213
la	-8.64251
▁full	-8.64271
▁recorded	-8.64312
▁version	-8.64392
▁international	-8.64429
▁General	-8.64468
▁Australia	-8.64496
at	-8.647
up	-8.64802
▁European	-8.64925
▁France	-8.65274
▁2011	-8.65278
▁By	-8.65507
▁100	-8.65662
▁support	-8.66304
▁studied	-8.66536
▁Society	-8.66555
▁Division	-8.66584
▁what	-8.66584
▁mother	-8.66627
P	-8.66634
▁men	-8.67093
▁(18	-8.67157
▁Hall	-8.67337
▁win	-8.67391
▁formed	-8.67656
▁sold	-8.67688
et	-8.67903
▁if	-8.68184
x	-8.68288
▁way	-8.68532
▁Academy	-8.68747
ch	-8.68822
▁Re	-8.68833
no	-8.6893
▁art	-8.69038
as	-8.69109
▁using	-8.69131
▁awarded	-8.69142
▁take	-8.69175
▁post	-8.69305
ation	-8.69424
▁written	-8.69658
▁round	-8.69969
ian	-8.70053
▁project	-8.70417
▁Road	-8.70888
▁however	-8.71328
▁league	-8.71392
able	-8.71398
▁television	-8.71526
born	-8.71624
um	-8.72048
▁Army	-8.72054
▁2012	-8.72226
▁every	-8.72407
▁Canada	-8.72688
▁Le	-8.72832
▁completed	-8.72928
▁level	-8.73118
▁Company	-8.73261
ma	-8.73334
▁2008	-8.73369
ry	-8.7387
am	-8.73883
▁run	-8.73973
▁lost	-8.7406
5	-8.74492
▁times	-8.74526
▁man	-8.74579
H	-8.74765
▁finished	-8.74966
▁“	-8.74982
ur	-8.75111
▁Art	-8.75118
▁1,	-8.75214
▁professional	-8.75229
▁east	-8.75258
▁performed	-8.76388
▁2009	-8.7643
▁Me	-8.76471
▁(19	-8.765
▁described	-8.76521
▁party	-8.76855
▁America	-8.76995
co	-8.77131
▁match	-8.77162
▁addition	-8.77274
▁Man	-8.77425
▁young	-8.77584
▁2014	-8.77735
▁event	-8.7781
▁education	-8.77909
▁design	-8.77965
▁Club	-8.78164
▁president	-8.78169
▁live	-8.78259
it	-8.78277
▁contract	-8.78514
▁story	-8.78692
▁region	-8.79004
▁field	-8.79051
V	-8.79164
O	-8.79235
ism	-8.79453
▁graduated	-8.79502
▁west	-8.79821
▁release	-8.79862
▁While	-8.80187
▁political	-8.80222
▁With	-8.80278
▁Union	-8.80675
▁These	-8.80927
▁2013	-8.80984
and	-8.8105
▁Music	-8.81441
▁Thomas	-8.81633
▁2007	-8.81746
▁days	-8.81938
▁making	-8.81946
▁power	-8.81966
▁point	-8.82218
6	-8.82359
▁Department	-8.82405
▁even	-8.82529
ity	-8.82541
▁half	-8.82711
▁21	-8.82771
▁himself	-8.83046
▁teams	-8.83049
▁track	-8.83413
▁Since	-8.83533
R	-8.83566
▁24	-8.83874
L	-8.83922
▁Center	-8.84071
▁featured	-8.84193
ro	-8.84206
▁popular	-8.84254
ri	-8.84849
▁remained	-8.85175
ir	-8.85197
▁without	-8.85444
ie	-8.85533
▁road	-8.86064
▁David	-8.86188
▁developed	-8.86262
▁important	-8.86291
▁Court	-8.86483
▁race	-8.86538
se	-8.86573
▁designed	-8.8705
▁construction	-8.87126
▁Group	-8.87135
▁Australian	-8.87193
▁Robert	-8.87365
▁further	-8.87503
▁2015	-8.87616
▁originally	-8.877
▁First	-8.87882
▁2006	-8.87943
▁Germany	-8.87969
il	-8.88328
▁right	-8.88542
▁military	-8.88661
▁services	-8.88715
j	-8.8898
▁considered	-8.88994
▁coach	-8.89002
den	-8.89226
▁Paul	-8.89264
▁training	-8.89319
▁Arts	-8.8978
▁TV	-8.89827
▁Charles	-8.89854
▁current	-8.90096
▁El	-8.90117
▁2016	-8.90346
▁Air	-8.90517
ine	-8.90631
ge	-8.90772
▁months	-8.91197
▁followed	-8.9124
▁currently	-8.9124
▁gave	-8.91336
▁open	-8.91351
▁points	-8.91455
▁Championship	-8.91554
▁Paris	-8.91592
▁Museum	-8.91885
▁22	-8.91999
li	-8.92005
▁Washington	-8.92102
▁car	-8.92144
▁Minister	-8.92148
▁body	-8.92257
▁away	-8.92512
w	-8.92815
▁result	-8.92842
▁term	-8.9299
▁similar	-8.93025
▁Dr	-8.9312
▁across	-8.93158
▁Island	-8.93356
me	-8.93369
é	-8.94049
▁lead	-8.94201
▁size	-8.94529
▁free	-8.94674
▁available	-8.94817
▁Red	-8.94886
▁radio	-8.94892
▁once	-8.94962
–19	-8.95377
▁college	-8.95431
▁Indian	-8.95676
7	-8.96098
▁seven	-8.96353
▁eventually	-8.96484
▁involved	-8.96624
▁UK	-8.96654
by	-8.96686
▁great	-8.9676
▁white	-8.96847
8	-8.96935
▁White	-8.97002
▁songs	-8.97099
▁Central	-8.97142
▁style	-8.97364
▁spent	-8.97414
J	-8.97667
ca	-8.97836
▁features	-8.97953
▁ft	-8.98131
▁scored	-8.98141
▁official	-8.98196
▁leading	-8.98408
▁Europe	-8.98474
▁Lake	-8.98579
▁1990	-8.98722
di	-8.98888
▁study	-8.99026
▁stage	-8.99042
ad	-8.99322
▁Festival	-8.99402
▁private	-8.99447
▁1980	-8.99459
▁help	-8.99462
▁areas	-8.99537
▁23	-8.99644
▁others	-8.99701
▁taken	-8.99843
▁never	-8.99886
▁Mary	-8.99949
▁senior	-9.00137
▁Sir	-9.00265
ke	-9.00307
▁summer	-9.00791
▁female	-9.01039
▁Los	-9.01239
▁social	-9.01258
▁competition	-9.01276
▁eight	-9.01361
▁Japan	-9.01449
▁includes	-9.01507
▁events	-9.01591
▁although	-9.01628
ve	-9.0173
▁Bay	-9.0183
▁replaced	-9.01928
age	-9.02145
go	-9.02192
men	-9.02241
ner	-9.02454
▁Committee	-9.02518
—	-9.02623
]	-9.02676
▁black	-9.02703
▁modern	-9.02749
▁mi	-9.02799
▁active	-9.02808
▁control	-9.02874
time	-9.02956
rd	-9.03215
▁2015,	-9.0337
▁board	-9.0345
▁go	-9.03595
▁return	-9.03925
▁China	-9.04047
▁language	-9.04064
▁2010,	-9.04221
os	-9.04259
▁Henry	-9.04315
▁2014,	-9.04342
▁magazine	-9.04616
▁2016,	-9.04814
ment	-9.04839
▁throughout	-9.04916
▁Some	-9.04973
▁air	-9.05036
▁2017	-9.05076
▁changed	-9.05401
ya	-9.05428
ville	-9.05476
▁books	-9.05513
▁2012,	-9.05566
▁d	-9.05573
▁special	-9.05594
▁range	-9.05595
▁fire	-9.05595
▁center	-9.05686
▁2005	-9.05705
ni	-9.05867
▁2013,	-9.05883
▁seat	-9.0591
▁2000	-9.05942
▁husband	-9.06027
▁professor	-9.06104
▁Western	-9.06149
ti	-9.06166
▁Russian	-9.0625
▁1970	-9.06304
▁mid	-9.06326
▁performance	-9.0634
▁decided	-9.06456
▁2017,	-9.06576
un	-9.0687
▁2011,	-9.06928
▁Hill	-9.06976
▁good	-9.07145
▁close	-9.07287
▁African	-9.0734
▁added	-9.07367
▁common	-9.07473
▁class	-9.07588
(	-9.07652
▁river	-9.0769
▁case	-9.07707
ion	-9.07848
▁lived	-9.0785
▁placed	-9.08011
▁though	-9.08018
▁So	-9.08103
ce	-9.08237
▁Z	-9.08403
▁Peter	-9.08665
▁Board	-9.08679
▁Italian	-9.08835
ba	-9.08903
▁pre	-9.09181
▁example	-9.09488
▁winning	-9.09566
▁you	-9.0966
▁sent	-9.09694
▁collection	-9.09744
▁award	-9.09754
▁26	-9.09949
▁writing	-9.10033
▁28	-9.10092
▁Canadian	-9.10137
▁shows	-9.10268
▁studies	-9.10273
▁Law	-9.10397
▁Black	-9.10571
▁Saint	-9.10719
▁Roman	-9.10721
do	-9.10728
▁earned	-9.10774
▁character	-9.1079
ive	-9.10876
▁goal	-9.11194
▁feet	-9.11216
▁2004	-9.1126
▁largest	-9.1127
▁front	-9.11285
field	-9.11337
▁Born	-9.11379
▁ten	-9.11447
9	-9.11467
▁how	-9.1189
▁older	-9.11904
▁Mar	-9.11953
ling	-9.12094
▁get	-9.12255
▁e	-9.12257
▁Film	-9.123
▁Be	-9.12327
▁schools	-9.12357
▁2018,	-9.12551
▁artist	-9.12725
ty	-9.12746
▁Following	-9.12868
▁directed	-9.1289
▁successful	-9.13076
▁section	-9.13214
▁2018	-9.1332
ha	-9.13329
▁start	-9.13337
▁Great	-9.13356
▁retired	-9.13379
▁Chicago	-9.13435
▁players	-9.13737
▁above	-9.13737
▁2009,	-9.13765
▁Go	-9.13796
▁Michael	-9.13845
▁Africa	-9.13862
▁campaign	-9.13928
▁division	-9.13937
ter	-9.13989
▁Pro	-9.14002
▁seen	-9.14043
0	-9.14164
-19	-9.1424
▁sub	-9.1439
▁27	-9.14519
▁author	-9.14624
▁mm	-9.14633
▁novel	-9.1482
▁Act	-9.14955
▁Although	-9.15025
▁Texas	-9.15031
▁does	-9.15113
▁X	-9.15253
▁50	-9.15357
▁court	-9.1541
one	-9.15838
▁via	-9.15891
▁Bar	-9.16312
▁1960	-9.16316
▁Best	-9.16341
id	-9.16422
▁whom	-9.16428
▁Japanese	-9.16668
▁we	-9.16777
▁park	-9.16782
▁space	-9.17073
▁Angeles	-9.17108
▁organization	-9.1714
be	-9.17293
▁reported	-9.17315
▁Science	-9.17344
▁success	-9.17353
▁Christian	-9.17573
▁owned	-9.17796
▁process	-9.17834
▁Catholic	-9.17966
▁Grand	-9.17972
lin	-9.18006
der	-9.18219
▁2008,	-9.18262
▁sea	-9.18296
▁regular	-9.18309
▁promoted	-9.18491
▁0	-9.18567
va	-9.18666
▁provided	-9.18719
▁Smith	-9.18744
▁income	-9.18767
▁selected	-9.18777
▁ground	-9.18922
▁wide	-9.1899
▁ran	-9.19052
com	-9.19268
▁closed	-9.1933
▁entered	-9.19344
▁manager	-9.19398
▁usually	-9.19603
▁route	-9.19606
▁reached	-9.19685
line	-9.19807
ate	-9.19815
▁Con	-9.19828
▁Director	-9.1983
▁island	-9.19867
▁central	-9.19921
▁railway	-9.20019
▁Spanish	-9.20056
▁40	-9.20129
▁families	-9.20159
▁Ireland	-9.20166
▁Zealand	-9.20204
▁upon	-9.2038
▁Chinese	-9.2045
▁met	-9.20593
▁soon	-9.20654
▁student	-9.20699
ham	-9.2076
▁Two	-9.20848
▁less	-9.20922
▁love	-9.20928
ak	-9.20983
▁ship	-9.20997
▁Richard	-9.21054
▁Its	-9.21101
▁put	-9.21168
▁killed	-9.21229
▁length	-9.21349
ard	-9.2169
▁aircraft	-9.21753
▁represented	-9.22114
▁light	-9.22142
▁able	-9.2218
▁industry	-9.22258
ies	-9.22266
▁serving	-9.2251
▁metres	-9.22539
v	-9.22564
▁becoming	-9.22635
▁Government	-9.22667
▁Later	-9.22685
▁information	-9.22793
▁Green	-9.22902
▁must	-9.22961
▁beginning	-9.23056
▁Other	-9.23077
ov	-9.23221
im	-9.23224
ized	-9.23304
▁practice	-9.23319
▁la	-9.23374
▁2007,	-9.23493
▁writer	-9.23553
▁whose	-9.23615
ja	-9.23619
▁police	-9.23742
▁interest	-9.23764
▁low	-9.23861
▁list	-9.23928
ness	-9.2415
▁base	-9.24166
▁films	-9.24197
▁contains	-9.24314
▁29	-9.24373
▁location	-9.24378
▁Bo	-9.24459
▁Records	-9.24477
▁fourth	-9.24703
▁previous	-9.24746
▁raised	-9.24746
ko	-9.24765
▁human	-9.24951
▁introduced	-9.24983
▁should	-9.25085
”	-9.25164
▁sister	-9.25384
▁numerous	-9.25682
▁Women	-9.25793
▁2001	-9.2586
▁matches	-9.25913
▁brought	-9.26025
ary	-9.2616
▁Italy	-9.26262
▁runs	-9.26315
▁goals	-9.26315
▁hit	-9.26336
▁editor	-9.26342
▁hand	-9.26354
▁saw	-9.26621
▁di	-9.26643
ga	-9.26714
▁defeated	-9.2679
▁child	-9.26952
▁2003	-9.27068
▁65	-9.27107
mo	-9.27152
▁musical	-9.27177
ger	-9.27221
bo	-9.27272
▁launched	-9.27277
▁Year	-9.27359
▁either	-9.27518
▁subsequently	-9.27606
▁c	-9.2765
▁provide	-9.27871
▁acquired	-9.27991
▁Chief	-9.28086
▁rock	-9.28105
▁behind	-9.28289
Y	-9.28311
▁(1	-9.28316
▁almost	-9.28372
▁structure	-9.28456
▁median	-9.28488
▁famous	-9.28514
▁course	-9.28565
▁previously	-9.28604
▁con	-9.28638
▁tour	-9.28654
▁households	-9.28702
ated	-9.28706
▁tournament	-9.28813
▁parents	-9.28845
▁Kingdom	-9.29018
▁Football	-9.29113
▁Championships	-9.29172
▁Wales	-9.29173
▁listed	-9.2922
▁woman	-9.29472
ant	-9.2951
▁Car	-9.29759
▁Second	-9.29822
▁Republic	-9.29827
▁buildings	-9.29882
U	-9.29885
▁taking	-9.29933
▁artists	-9.2996
based	-9.29983
▁assistant	-9.3007
▁media	-9.3012
ul	-9.30158
ki	-9.30197
▁31	-9.30246
▁Radio	-9.30318
2)	-9.30324
ey	-9.30502
ina	-9.30543
▁Ar	-9.3061
▁Theatre	-9.30678
old	-9.30791
▁Research	-9.30855
▁al	-9.30881
▁countries	-9.30951
▁Ha	-9.31025
▁Parliament	-9.31032
▁opening	-9.31182
▁groups	-9.31188
▁2002	-9.31201
▁episode	-9.31243
▁type	-9.31301
wa	-9.31398
sen	-9.31434
▁appearances	-9.31524
▁youth	-9.3158
▁FC	-9.31625
▁night	-9.31747
day	-9.31751
▁females	-9.31754
▁gold	-9.31813
ol	-9.31817
less	-9.31848
za	-9.31869
he	-9.32037
▁Greek	-9.32054
▁primary	-9.32077
▁[	-9.32197
▁leader	-9.32312
▁change	-9.32366
▁Assembly	-9.32436
▁Martin	-9.32658
ck	-9.32701
▁rest	-9.32718
▁property	-9.32958
▁Education	-9.3301
▁Sea	-9.33042
▁studio	-9.33066
▁appearance	-9.33147
▁Most	-9.33188
▁feature	-9.33319
ting	-9.33326
▁independent	-9.33327
con	-9.33342
mi	-9.33437
▁southern	-9.33586
▁Town	-9.33697
io	-9.33703
▁Ka	-9.33739
▁northern	-9.33819
▁ended	-9.33902
▁Virginia	-9.34144
▁p	-9.34594
▁model	-9.34611
▁officer	-9.3474
ana	-9.34769
▁Service	-9.3478
▁2006,	-9.34782
▁Brown	-9.34841
sa	-9.34845
▁But	-9.34926
▁staff	-9.34965
ler	-9.35016
▁Lord	-9.35078
rs	-9.35225
▁market	-9.35309
▁centre	-9.3535
▁Commission	-9.35358
▁Joseph	-9.3539
▁movie	-9.35666
▁units	-9.35675
▁helped	-9.35686
▁health	-9.35735
▁Star	-9.35771
ous	-9.35817
wood	-9.35884
▁ever	-9.35911
▁least	-9.35958
▁championship	-9.35999
▁grew	-9.36046
▁Under	-9.36115
!	-9.36204
▁real	-9.36211
▁past	-9.36286
ber	-9.3629
▁find	-9.3635
▁traditional	-9.36443
▁Professor	-9.36467
▁red	-9.36528
▁Mark	-9.36551
▁Ko	-9.368
▁money	-9.36905
▁transferred	-9.37025
ji	-9.37034
▁week	-9.37096
▁Bank	-9.37141
▁running	-9.37221
▁attack	-9.37278
▁Sa	-9.3731
▁lower	-9.37393
lo	-9.3743
▁My	-9.37509
▁Valley	-9.37548
▁little	-9.37576
▁come	-9.3762
▁1950	-9.37745
▁instead	-9.37776
▁operations	-9.38219
▁annual	-9.38311
▁Ma	-9.38341
▁outside	-9.38363
pa	-9.38374
▁Public	-9.38403
▁medal	-9.38502
mer	-9.38512
▁network	-9.38535
▁Di	-9.38548
▁data	-9.38725
▁Creek	-9.38736
▁itself	-9.38944
▁date	-9.39043
▁county	-9.39197
▁cover	-9.39284
▁Foundation	-9.39377
▁Florida	-9.39386
▁plant	-9.39489
▁me	-9.39523
▁chief	-9.39587
▁Station	-9.39622
▁Day	-9.39753
▁management	-9.39789
▁Their	-9.39854
▁Force	-9.4003
▁approximately	-9.40078
▁deal	-9.40274
▁renamed	-9.40469
▁below	-9.40509
▁parts	-9.40539
ish	-9.40578
ally	-9.40652
▁Times	-9.40709
▁see	-9.40728
▁friend	-9.40804
ford	-9.40813
way	-9.40856
▁commercial	-9.4087
▁Railway	-9.40929
▁science	-9.40931
▁got	-9.40942
▁Irish	-9.40942
▁stated	-9.41064
▁forces	-9.41326
▁1999	-9.41439
▁future	-9.41462
▁companies	-9.41479
▁rather	-9.41483
▁candidate	-9.41739
▁operated	-9.41857
▁rights	-9.41891
▁Mexico	-9.41895
▁capital	-9.42068
side	-9.42354
▁Northern	-9.42404
▁far	-9.42445
est	-9.42511
▁recording	-9.42651
▁master	-9.42743
▁initially	-9.42808
▁Louis	-9.42891
▁Hospital	-9.43136
▁edition	-9.43151
▁participated	-9.43199
▁taught	-9.43264
▁Navy	-9.43302
▁Old	-9.43314
▁Bishop	-9.43337
▁cast	-9.43355
ll	-9.43388
▁university	-9.4348
of	-9.43504
▁buried	-9.43512
▁move	-9.43582
▁Queen	-9.43626
▁census	-9.43756
▁sports	-9.4376
▁firm	-9.43796
▁lives	-9.43851
▁nearby	-9.43879
X	-9.4393
▁remains	-9.43959
▁fellow	-9.44009
▁Y	-9.44116
▁towards	-9.44226
▁movement	-9.4423
▁leaving	-9.44268
ang	-9.44278
20	-9.44302
▁create	-9.44566
▁2,	-9.44725
▁sometimes	-9.44832
▁means	-9.44907
▁especially	-9.45018
▁activities	-9.45063
▁seasons	-9.45224
▁Se	-9.4531
▁nine	-9.45319
▁starting	-9.45493
▁Super	-9.45505
▁highest	-9.45769
▁possible	-9.45797
▁Southern	-9.45823
▁newspaper	-9.45882
out	-9.45959
▁Battle	-9.46003
▁We	-9.46072
▁singer	-9.46323
▁issues	-9.46411
▁food	-9.46425
▁anti	-9.46505
▁person	-9.46507
▁Edward	-9.46636
▁("	-9.4664
▁Pacific	-9.46737
▁Lee	-9.46745
▁You	-9.46784
▁noted	-9.46829
ster	-9.46878
Z	-9.46897
▁pro	-9.46941
▁unit	-9.47003
▁mile	-9.47218
▁Don	-9.47227
▁action	-9.47256
vi	-9.47268
▁male	-9.47324
▁1998	-9.47387
▁Li	-9.47545
ek	-9.47623
▁marriage	-9.47678
▁medical	-9.47717
▁allowed	-9.47722
▁Line	-9.47759
▁Su	-9.47833
▁personal	-9.47851
▁Centre	-9.47975
▁presented	-9.48024
▁Ca	-9.48208
▁earlier	-9.48306
▁going	-9.48416
▁complete	-9.48502
▁native	-9.48543
▁Order	-9.48548
off	-9.48569
well	-9.48623
▁army	-9.48832
▁constructed	-9.48918
▁related	-9.48924
▁purchased	-9.49065
han	-9.49124
▁mostly	-9.4921
▁Governor	-9.49211
▁today	-9.49251
▁council	-9.49273
á	-9.49324
▁trade	-9.49382
▁strong	-9.49392
▁Soviet	-9.49431
▁Sam	-9.49434
▁teacher	-9.49462
▁mainly	-9.49464
▁Te	-9.4959
▁Congress	-9.49597
▁western	-9.49769
per	-9.49969
▁Summer	-9.49974
▁Ni	-9.49995
▁access	-9.50018
▁Love	-9.50064
▁bridge	-9.50087
▁consists	-9.50125
▁entire	-9.50187
▁covered	-9.50197
▁label	-9.50229
▁Mo	-9.50266
▁takes	-9.50315
▁self	-9.50499
▁standard	-9.50519
ze	-9.5056
ah	-9.50742
▁my	-9.50761
▁Mr	-9.50817
▁passed	-9.50847
▁Do	-9.50967
ci	-9.50978
▁plan	-9.51059
▁Boston	-9.51165
dy	-9.51196
▁natural	-9.51248
▁Port	-9.51269
▁Or	-9.51269
▁variety	-9.51298
▁thought	-9.51393
▁department	-9.51459
▁sound	-9.5156
▁turn	-9.51614
▁educated	-9.51627
▁1996	-9.51636
▁room	-9.51934
▁parish	-9.5203
▁associated	-9.52038
▁material	-9.5205
▁Rock	-9.52057
▁already	-9.52219
▁producer	-9.52225
▁engine	-9.52276
▁Scotland	-9.52276
▁surface	-9.52438
▁2005,	-9.5255
▁shot	-9.5269
▁fact	-9.52712
▁Lu	-9.52714
▁hospital	-9.52816
▁victory	-9.52901
▁supported	-9.52908
▁houses	-9.52935
▁That	-9.52956
now	-9.53018
▁competed	-9.53114
berg	-9.5313
ization	-9.53145
▁politician	-9.53151
▁Berlin	-9.53159
▁thus	-9.53168
▁2019,	-9.53205
▁loss	-9.53237
▁Pennsylvania	-9.53273
ted	-9.53369
▁Ben	-9.53735
▁Young	-9.53741
▁Many	-9.53754
▁cost	-9.53961
▁ex	-9.5399
chi	-9.54102
▁dis	-9.54145
▁word	-9.54341
▁programs	-9.54455
▁1997	-9.5448
▁Oxford	-9.54508
ut	-9.5459
▁middle	-9.54707
▁according	-9.54736
&	-9.54745
▁Men	-9.54773
▁Columbia	-9.54825
▁Na	-9.54904
▁Prince	-9.54905
▁45	-9.5492
▁Long	-9.5492
▁Ne	-9.5494
▁train	-9.55007
▁Du	-9.55067
▁significant	-9.55096
house	-9.55208
▁Carolina	-9.55214
▁higher	-9.55315
▁composed	-9.55346
▁minutes	-9.55503
▁Van	-9.55601
▁density	-9.55618
▁museum	-9.55659
▁command	-9.55678
ng	-9.55762
▁star	-9.55803
▁Games	-9.55986
▁estate	-9.56004
▁Spain	-9.56055
▁finally	-9.56157
▁en	-9.56181
bi	-9.56207
▁call	-9.56275
▁races	-9.5646
ent	-9.56549
▁latter	-9.56583
▁battle	-9.56818
▁2019	-9.56823
")	-9.56878
▁offered	-9.56886
▁serve	-9.56891
▁BBC	-9.56957
ier	-9.57042
▁states	-9.57048
ney	-9.57079
▁Francisco	-9.57362
▁Tom	-9.57398
▁generally	-9.57597
▁Jewish	-9.57641
▁complex	-9.57734
▁Secretary	-9.57862
pur	-9.57961
ite	-9.57992
sh	-9.58015
▁dedicated	-9.5807
les	-9.58143
▁give	-9.58144
▁individual	-9.58155
▁join	-9.58306
▁required	-9.58375
▁managed	-9.5838
▁hours	-9.58435
▁separate	-9.58558
▁financial	-9.5862
▁decision	-9.5865
▁Civil	-9.58699
que	-9.58731
▁provides	-9.58754
▁meeting	-9.58762
▁moving	-9.59054
▁here	-9.59198
▁larger	-9.5925
▁systems	-9.59252
tra	-9.59316
▁forced	-9.59407
▁additional	-9.59468
▁month	-9.5948
mar	-9.59758
▁Olympics	-9.59781
lu	-9.59797
▁alongside	-9.59797
▁1995	-9.59848
▁carried	-9.59856
▁Both	-9.59903
2).	-9.5995
▁discovered	-9.60035
▁1994	-9.60046
ship	-9.60048
▁subject	-9.60098
▁too	-9.60135
▁fight	-9.60155
kin	-9.60195
▁Awards	-9.60282
▁prior	-9.60288
▁2011.	-9.60293
▁Ho	-9.60299
▁Per	-9.60412
▁score	-9.60454
▁stone	-9.60478
▁operation	-9.60664
▁executive	-9.60831
▁Latin	-9.60847
km	-9.60881
▁Mac	-9.6089
▁Sydney	-9.60917
▁minor	-9.60927
▁paper	-9.60941
▁Bill	-9.61067
du	-9.61121
▁force	-9.61157
▁Frank	-9.61207
▁majority	-9.61274
▁1992	-9.61284
▁acting	-9.61384
▁better	-9.61468
▁2012.	-9.61478
▁Po	-9.61493
▁academic	-9.61649
▁turned	-9.61663
▁males	-9.61691
▁Ohio	-9.61819
▁issue	-9.61899
▁culture	-9.61929
▁2000,	-9.61933
▁Sun	-9.61948
▁Har	-9.62037
▁teaching	-9.62135
▁legal	-9.62153
au	-9.62159
▁tracks	-9.62252
▁(17	-9.62269
▁remaining	-9.62276
▁Big	-9.62323
▁obtained	-9.62333
▁Fort	-9.62335
▁Dutch	-9.62337
▁Development	-9.62496
▁elections	-9.62545
ron	-9.62569
▁key	-9.62634
▁En	-9.62654
▁succeeded	-9.62734
▁plays	-9.62791
▁responsible	-9.62841
▁Democratic	-9.62845
▁2013.	-9.6285
▁particularly	-9.62903
ex	-9.62907
▁semi	-9.62908
ot	-9.62917
▁Republican	-9.62925
▁Ph	-9.62978
▁experience	-9.63076
don	-9.63091
▁People	-9.63193
▁Life	-9.63257
▁friends	-9.63274
▁king	-9.63364
▁squad	-9.63435
▁historical	-9.6345
▁Middle	-9.6346
▁failed	-9.63518
▁Jones	-9.63568
ny	-9.63581
▁website	-9.63602
▁2014.	-9.6365
▁store	-9.63651
▁2010.	-9.63716
▁Illinois	-9.63745
▁1930	-9.63867
▁eastern	-9.63947
▁individuals	-9.63952
▁III	-9.64041
▁overall	-9.64069
▁Chi	-9.64186
▁Conference	-9.64191
▁Mount	-9.6424
▁housing	-9.64248
▁weeks	-9.64271
▁chairman	-9.64317
▁stories	-9.64361
ini	-9.64417
▁heart	-9.64419
▁limited	-9.64451
▁Team	-9.64452
▁appears	-9.64513
▁prominent	-9.64539
▁shown	-9.64588
▁Da	-9.64594
▁caused	-9.64595
▁status	-9.64638
▁2009.	-9.64764
▁Russia	-9.64827
sk	-9.64834
je	-9.64895
▁Empire	-9.64974
▁owner	-9.64997
▁longer	-9.65019
▁technology	-9.65099
▁Blue	-9.65103
▁couple	-9.65104
▁—	-9.6512
▁Office	-9.65279
ru	-9.65349
em	-9.65359
▁extended	-9.65463
▁bar	-9.65682
▁200	-9.65702
▁Lo	-9.65772
▁3,	-9.65776
▁Land	-9.65779
▁Ministry	-9.65823
▁leaves	-9.65825
▁cross	-9.6585
▁Elizabeth	-9.65861
▁speed	-9.65903
▁/	-9.65928
▁projects	-9.65928
▁household	-9.65973
▁God	-9.65975
▁need	-9.65986
▁meaning	-9.66099
▁Eastern	-9.66228
ac	-9.66392
▁Over	-9.66422
▁solo	-9.66436
▁border	-9.66442
▁particular	-9.6646
▁Alexander	-9.66601
▁recent	-9.66604
▁Master	-9.6661
▁broadcast	-9.66659
▁host	-9.66667
▁job	-9.6669
▁Michigan	-9.66702
▁theatre	-9.66777
pe	-9.668
▁fall	-9.66817
▁build	-9.66914
ts	-9.6693
▁Gold	-9.67015
vo	-9.6706
▁Route	-9.67073
▁History	-9.67102
▁tower	-9.67141
▁Pa	-9.6716
▁Asian	-9.67267
▁painting	-9.67284
▁2015.	-9.67412
▁characters	-9.67421
▁nominated	-9.67444
▁Massachusetts	-9.67476
▁ancient	-9.67506
▁60	-9.67561
▁actor	-9.67617
▁Cambridge	-9.67634
▁cm	-9.67708
ho	-9.67845
▁Senate	-9.68005
ating	-9.68023
▁Scottish	-9.68143
▁Ke	-9.68225
▁bank	-9.68247
▁2004,	-9.68254
▁(2	-9.68417
▁notable	-9.6845
▁floor	-9.68462
▁Britain	-9.68482
▁branch	-9.68494
▁Jan	-9.68567
▁2016.	-9.68572
gen	-9.68724
▁done	-9.68724
▁Health	-9.68775
▁oil	-9.68781
▁relationship	-9.68787
▁products	-9.68894
▁winner	-9.68914
▁Corporation	-9.6896
▁face	-9.69055
▁If	-9.69095
▁coast	-9.69105
▁Top	-9.69171
19	-9.69263
▁Gar	-9.69283
▁source	-9.69298
▁civil	-9.69346
▁multiple	-9.69392
ran	-9.69424
▁Pan	-9.69427
▁format	-9.69446
▁municipality	-9.69585
▁care	-9.69618
ance	-9.69702
▁Prize	-9.69703
▁2008.	-9.69717
▁residents	-9.6984
▁Cross	-9.69872
10	-9.69919
▁uses	-9.7001
▁Am	-9.70019
▁religious	-9.70037
▁Library	-9.70039
ver	-9.70067
▁comes	-9.70086
▁gained	-9.70194
po	-9.70231
▁drama	-9.70251
▁review	-9.70253
▁Jean	-9.70258
▁scoring	-9.7031
▁crew	-9.70337
▁officially	-9.70394
▁claimed	-9.70479
tor	-9.70568
▁Georgia	-9.70584
▁camp	-9.7063
▁regional	-9.70691
▁Rome	-9.70703
▁Jersey	-9.70711
▁CD	-9.70744
▁1993	-9.70782
▁assigned	-9.7082
▁Ba	-9.70835
▁always	-9.70859
▁lines	-9.70864
▁Little	-9.7092
ung	-9.71004
▁mission	-9.71006
▁upper	-9.71027
▁Show	-9.7104
▁society	-9.71059
▁recently	-9.71323
▁referred	-9.71336
▁Book	-9.71343
▁bought	-9.71431
ful	-9.71619
▁Coast	-9.71625
▁terms	-9.71667
▁titled	-9.71705
▁Scott	-9.7174
ik	-9.71787
▁dance	-9.71905
▁defeat	-9.71922
▁Post	-9.71932
▁platform	-9.71991
▁cut	-9.71993
▁du	-9.72003
▁Duke	-9.72084
gar	-9.72088
ten	-9.7209
▁test	-9.72113
▁offers	-9.72118
for	-9.72137
▁Business	-9.72303
▁believed	-9.72309
▁township	-9.72365
▁Tour	-9.72409
▁founder	-9.72427
▁distance	-9.72446
▁Santa	-9.72453
gi	-9.72512
▁economic	-9.72567
op	-9.72639
▁leave	-9.72647
▁Tu	-9.72659
all	-9.72869
▁double	-9.72956
▁act	-9.72974
▁Un	-9.73149
▁1991	-9.73162
we	-9.73256
tz	-9.73287
▁settlement	-9.73314
▁street	-9.7335
▁Victoria	-9.73393
car	-9.73508
like	-9.73513
▁2007.	-9.73524
▁nearly	-9.73614
▁And	-9.7362
▁Census	-9.73682
▁festival	-9.73834
▁library	-9.73929
▁vote	-9.73973
▁news	-9.73987
▁captain	-9.74001
▁plans	-9.7406
▁2017.	-9.74081
▁castle	-9.74116
▁increased	-9.74179
▁arrived	-9.74216
town	-9.74301
▁Technology	-9.74328
mann	-9.74369
▁Johnson	-9.7438
▁Bureau	-9.74382
▁sons	-9.74475
▁continues	-9.74608
▁Ver	-9.74611
▁Toronto	-9.74632
▁changes	-9.74638
▁retirement	-9.74646
▁basketball	-9.74678
▁serves	-9.74682
cha	-9.74863
ig	-9.74865
head	-9.74892
°	-9.74946
▁theory	-9.74978
▁35	-9.75064
▁forms	-9.75075
▁Mi	-9.75166
▁farm	-9.75213
▁records	-9.75236
▁Despite	-9.75307
▁multi	-9.75349
▁Of	-9.75372
▁Press	-9.75428
▁Castle	-9.75444
▁certain	-9.7547
▁inter	-9.75503
▁channel	-9.75518
▁chart	-9.7554
▁promotion	-9.75548
▁problems	-9.7555
▁younger	-9.75576
▁Also	-9.7558
▁guitar	-9.75586
▁Kong	-9.75592
▁Highway	-9.75596
▁whole	-9.75636
▁twice	-9.75677
▁probably	-9.75683
▁silver	-9.75726
▁Avenue	-9.75752
▁Dan	-9.75757
▁online	-9.75768
ski	-9.75786
▁Par	-9.75809
▁cultural	-9.75917
▁conducted	-9.75994
▁1989	-9.75999
▁primarily	-9.76121
▁Williams	-9.76155
▁1920	-9.76192
▁i	-9.76225
hi	-9.76383
▁Each	-9.7645
▁mentioned	-9.7663
▁wing	-9.76642
▁USA	-9.76674
▁Junior	-9.7671
▁makes	-9.76752
ial	-9.76841
▁Justice	-9.76874
–18	-9.77005
▁Home	-9.77125
▁4,	-9.77129
▁Hong	-9.77241
▁fifth	-9.77262
ev	-9.77268
▁capacity	-9.77332
▁newly	-9.77345
▁awards	-9.77517
▁featuring	-9.77631
si	-9.77693
▁rate	-9.77796
In	-9.77868
▁facilities	-9.77917
▁Bridge	-9.77993
▁Pre	-9.78032
▁settled	-9.78052
▁Inc	-9.7808
▁b	-9.7808
▁scene	-9.78088
▁themselves	-9.78192
▁stations	-9.78228
▁produce	-9.7825
▁hard	-9.78287
▁attempt	-9.78381
▁Polish	-9.78501
▁hosted	-9.78505
lan	-9.78514
ker	-9.78579
American	-9.78631
▁computer	-9.78635
▁focus	-9.78771
▁organized	-9.7885
▁Sports	-9.78887
▁divided	-9.78903
▁results	-9.78916
▁proposed	-9.78919
▁green	-9.78971
▁appear	-9.79116
▁Jack	-9.7914
▁direction	-9.79141
▁Province	-9.79163
▁report	-9.79254
▁federal	-9.79411
▁charge	-9.79465
ius	-9.79564
Q	-9.79581
tic	-9.7959
▁destroyed	-9.79651
,000	-9.7977
ola	-9.79988
▁Ta	-9.80002
▁1988	-9.80089
▁continue	-9.8009
▁enough	-9.80115
▁initial	-9.80129
▁1940	-9.80281
ani	-9.8033
▁situated	-9.80508
▁Another	-9.80553
▁expanded	-9.80573
ab	-9.80596
▁province	-9.80612
▁minister	-9.80653
led	-9.80719
▁Open	-9.8073
▁partner	-9.80763
▁24,	-9.80766
▁voice	-9.80943
▁honor	-9.81008
▁issued	-9.8103
▁Before	-9.81079
▁product	-9.81097
▁18,	-9.811
▁specific	-9.81214
▁removed	-9.81236
▁Between	-9.81238
▁Wisconsin	-9.81247
▁Ge	-9.81343
▁wall	-9.81434
▁surrounding	-9.81513
▁Three	-9.81581
▁prison	-9.81642
▁dark	-9.81704
▁Major	-9.81749
▁direct	-9.81892
▁junior	-9.82126
ita	-9.82165
▁evidence	-9.82224
▁Norwegian	-9.82279
▁acres	-9.82287
▁commissioned	-9.82371
▁alone	-9.82422
▁holds	-9.82464
▁architect	-9.82479
jo	-9.82502
2),	-9.82534
▁asked	-9.82544
▁split	-9.82687
▁pay	-9.82773
▁Premier	-9.82798
▁(3	-9.82849
▁nature	-9.82905
▁2003,	-9.82956
▁Jo	-9.83089
▁Asia	-9.83105
▁Maria	-9.83172
▁hall	-9.83173
▁loan	-9.83189
▁Federal	-9.83217
▁Ku	-9.83226
▁coming	-9.83387
);	-9.83455
▁Among	-9.83493
▁campus	-9.83493
▁influence	-9.83498
▁roles	-9.83527
ara	-9.83551
▁aged	-9.83586
▁effect	-9.83653
▁allow	-9.83736
▁founding	-9.83818
▁Member	-9.8388
▁Swedish	-9.8403
▁Israel	-9.84034
ning	-9.8408
▁account	-9.84212
▁Corps	-9.84216
▁committee	-9.8424
▁poor	-9.84276
▁Cha	-9.84339
▁idea	-9.84362
▁Daniel	-9.84434
▁reach	-9.84457
▁attention	-9.8448
▁foreign	-9.84535
class	-9.84606
▁energy	-9.84612
▁policy	-9.84617
▁highly	-9.84635
▁Journal	-9.84639
▁2018.	-9.8467
▁begins	-9.8469
▁smaller	-9.84754
í	-9.84756
▁spread	-9.84865
▁lies	-9.84897
▁guest	-9.85045
▁quickly	-9.85058
▁Medical	-9.85076
▁Head	-9.85086
▁Media	-9.85105
▁wanted	-9.85123
▁granted	-9.85285
▁sign	-9.85314
▁suffered	-9.85344
▁Ontario	-9.85353
▁spring	-9.85387
▁2006.	-9.85421
▁facility	-9.85426
▁von	-9.85485
▁basis	-9.85501
▁despite	-9.85534
▁brothers	-9.85536
▁van	-9.85544
▁Philadelphia	-9.85609
▁1987	-9.85635
▁text	-9.85725
gan	-9.85753
bar	-9.85754
ium	-9.85754
ology	-9.8591
▁graduating	-9.85937
▁kilometres	-9.85955
▁temple	-9.85965
▁inside	-9.85979
▁entitled	-9.85982
▁Jr	-9.8602
▁our	-9.86058
▁draw	-9.86065
▁Series	-9.86142
▁Wood	-9.86162
▁Sciences	-9.86246
▁mountain	-9.86246
▁directly	-9.86249
▁cause	-9.86314
▁Miss	-9.86354
▁Medal	-9.86465
▁response	-9.8647
▁metal	-9.86509
▁finish	-9.86599
▁Band	-9.86639
▁returning	-9.86657
▁contemporary	-9.86661
▁Olympic	-9.86716
▁32	-9.86722
mon	-9.86723
▁accepted	-9.86965
▁meet	-9.87162
▁1984	-9.87195
▁immediately	-9.87282
▁literature	-9.87287
ari	-9.87412
▁travel	-9.87499
fa	-9.87544
▁Studies	-9.87545
▁performing	-9.8762
▁concert	-9.87749
-1	-9.87774
▁Water	-9.8778
▁rank	-9.87809
▁Pe	-9.87997
che	-9.88055
▁1986	-9.88138
ino	-9.88167
▁Social	-9.88225
▁‘	-9.88238
▁performances	-9.88301
?	-9.88309
▁clubs	-9.88311
▁Can	-9.88414
▁injury	-9.88565
▁Lady	-9.88719
▁Ti	-9.88815
▁graduate	-9.88859
▁votes	-9.88879
▁chosen	-9.8911
▁planned	-9.89201
▁operating	-9.89217
▁composer	-9.89247
▁letter	-9.89272
▁color	-9.89337
▁principal	-9.89462
▁forest	-9.89471
har	-9.89501
▁intended	-9.89531
▁Network	-9.89555
▁administration	-9.89557
▁Ya	-9.89582
ku	-9.8961
▁treatment	-9.89681
▁increase	-9.89696
ong	-9.8978
▁twenty	-9.89819
▁reviews	-9.89906
▁entrance	-9.89918
▁era	-9.89972
▁Earl	-9.89981
▁(4	-9.90022
▁80	-9.90044
▁joining	-9.90053
more	-9.90218
▁publication	-9.90349
ward	-9.90356
yn	-9.90357
ez	-9.90391
▁Bi	-9.9045
▁5,	-9.90496
▁del	-9.90544
▁constituency	-9.90698
▁governor	-9.90711
▁Netherlands	-9.90798
let	-9.90937
▁Francis	-9.9094
▁widely	-9.90997
▁Community	-9.90997
▁might	-9.91026
▁creation	-9.91037
ise	-9.91051
▁News	-9.91094
▁Today	-9.91145
▁champion	-9.9126
▁saying	-9.91345
▁girl	-9.9139
yl	-9.91425
▁giving	-9.91427
▁blue	-9.91441
▁1983	-9.91521
▁height	-9.91522
▁birth	-9.91546
min	-9.91551
▁adopted	-9.91619
fi	-9.91683
▁More	-9.91704
▁flight	-9.91704
▁connected	-9.91716
▁cases	-9.91818
▁ha	-9.9188
▁cities	-9.91907
▁Captain	-9.92009
▁trial	-9.92024
▁1985	-9.92061
ven	-9.9208
▁Hu	-9.92206
▁names	-9.92253
▁recognized	-9.92355
▁designated	-9.92422
uk	-9.92469
▁figure	-9.92507
12	-9.92546
▁heavy	-9.92653
▁winter	-9.92669
▁Good	-9.92688
▁2002,	-9.92777
sky	-9.92814
▁Bell	-9.92819
tu	-9.92838
▁Moscow	-9.92862
▁view	-9.92871
▁resigned	-9.92932
▁association	-9.92942
▁goes	-9.92968
▁Power	-9.92976
▁Poland	-9.93013
▁Point	-9.93081
▁merged	-9.93129
ell	-9.93135
▁Fe	-9.93164
▁transfer	-9.93167
-18	-9.93168
▁airport	-9.93174
▁Sweden	-9.93198
▁Free	-9.93229
▁Vi	-9.93359
ence	-9.93509
▁cancer	-9.93565
18	-9.93572
▁Cemetery	-9.93592
▁inspired	-9.93613
▁unique	-9.93649
▁Ten	-9.93702
▁painter	-9.93716
▁software	-9.93716
▁fell	-9.93809
▁troops	-9.93819
hu	-9.93838
▁lack	-9.93889
▁Sha	-9.93936
▁conditions	-9.93953
▁elements	-9.93967
▁Liberal	-9.93974
▁articles	-9.94096
▁respectively	-9.94149
nes	-9.94218
▁Vice	-9.94335
▁classes	-9.9434
▁Mal	-9.94435
▁big	-9.94468
▁covers	-9.94535
▁politics	-9.94558
▁mayor	-9.94587
▁1979	-9.94619
40	-9.94635
▁1982	-9.94707
▁Far	-9.94711
▁Forest	-9.94715
▁conference	-9.94739
▁forward	-9.94742
▁agent	-9.94752
red	-9.94753
▁Tri	-9.94762
▁stop	-9.94762
fer	-9.94763
▁told	-9.94816
res	-9.94861
▁interview	-9.94865
▁2001,	-9.94891
▁Sunday	-9.94939
ow	-9.95041
▁Prime	-9.95055
▁providing	-9.95085
▁article	-9.95087
▁Bob	-9.95095
▁Islands	-9.95139
port	-9.95142
▁tree	-9.95175
▁hotel	-9.9518
ative	-9.95197
ou	-9.95217
ised	-9.95267
▁hold	-9.95425
▁develop	-9.95444
▁lake	-9.95522
▁engineering	-9.95536
▁roof	-9.95544
van	-9.95579
▁yet	-9.95595
▁ships	-9.95602
kar	-9.95662
mp	-9.95665
TV	-9.95674
▁Er	-9.95726
▁Fa	-9.95744
▁Night	-9.95796
▁method	-9.95903
▁secondary	-9.95948
▁press	-9.95965
▁documentary	-9.95981
▁yards	-9.95995
▁fish	-9.96169
▁quality	-9.96239
ring	-9.96241
▁rural	-9.9625
▁secretary	-9.96259
▁equipment	-9.96277
▁growth	-9.96329
ists	-9.9636
▁commander	-9.96363
▁Mountain	-9.96442
vin	-9.96483
▁revealed	-9.96513
▁visit	-9.96636
▁Sal	-9.96694
ano	-9.96743
▁ice	-9.96802
▁vice	-9.96887
sch	-9.96892
▁Pakistan	-9.96951
▁share	-9.96987
▁Edinburgh	-9.97038
▁Joe	-9.97039
▁Pope	-9.97047
▁positive	-9.97089
▁comedy	-9.97094
▁Beach	-9.97098
so	-9.97162
zo	-9.97174
▁exhibition	-9.97218
▁function	-9.9724
▁likely	-9.97274
▁t	-9.97364
▁1949	-9.97367
▁brand	-9.97391
▁finishing	-9.97407
zi	-9.9742
▁arts	-9.97457
ura	-9.97565
ice	-9.97575
▁wood	-9.97623
hr	-9.97692
▁Wilson	-9.97734
▁formation	-9.97746
▁traffic	-9.97818
ett	-9.97818
war	-9.97824
▁value	-9.97824
▁Gi	-9.97828
ure	-9.97883
▁efforts	-9.97884
▁levels	-9.97902
▁Earth	-9.97971
▁contributed	-9.98062
▁Time	-9.9811
▁Ali	-9.98112
▁losing	-9.98185
▁poet	-9.98212
▁Cape	-9.98259
tri	-9.98329
▁security	-9.98385
era	-9.98419
ren	-9.98449
▁Ad	-9.98488
▁Arthur	-9.98494
fe	-9.985
▁keep	-9.98525
tro	-9.98526
▁mixed	-9.98527
▁Taylor	-9.98578
▁growing	-9.98587
▁1974	-9.98596
ud	-9.98605
ju	-9.98611
▁Affairs	-9.98737
▁Si	-9.9877
▁Like	-9.9878
yan	-9.98783
▁Airport	-9.98784
▁Melbourne	-9.98814
▁piece	-9.98828
▁Rose	-9.98828
▁stars	-9.98845
▁Jackson	-9.98864
ap	-9.98915
ft	-9.98991
▁1972	-9.99003
▁leadership	-9.99015
▁Bachelor	-9.99051
▁Four	-9.99095
▁words	-9.99098
bu	-9.99152
▁someone	-9.99163
▁6,	-9.99165
law	-9.99193
▁boat	-9.99245
▁remain	-9.99249
▁activity	-9.99314
▁bus	-9.99315
▁captured	-9.99338
▁judge	-9.99353
▁Col	-9.99359
▁Davis	-9.99475
▁Village	-9.9951
▁Supreme	-9.99557
light	-9.99569
known	-9.99586
▁break	-9.99617
▁Police	-9.99636
▁Special	-9.99641
▁purpose	-9.99654
stone	-9.9968
▁concept	-9.99777
▁Stephen	-9.99843
▁kept	-9.99878
▁Magazine	-9.99884
▁piano	-9.99893
▁Fellow	-9.9993
▁arrested	-9.99962
▁Executive	-10.0005
▁2005.	-10.0006
▁7,	-10.0013
▁confirmed	-10.0017
▁incorporated	-10.0028
▁oldest	-10.003
▁prize	-10.0032
▁amount	-10.0035
▁Country	-10.0042
▁rule	-10.0042
▁titles	-10.0043
century	-10.0046
▁1976	-10.0055
▁trains	-10.0064
▁highway	-10.007
▁Engineering	-10.0074
▁Sch	-10.0079
▁invited	-10.0079
▁stand	-10.0083
▁journalist	-10.0085
▁v	-10.009
with	-10.0098
▁joint	-10.0106
▁pilot	-10.0112
▁portion	-10.0114
▁bronze	-10.0118
▁occurs	-10.0122
▁digital	-10.0126
▁headquarters	-10.013
▁soldiers	-10.0133
▁perform	-10.0134
▁Class	-10.0134
▁trained	-10.0136
back	-10.0136
▁Nations	-10.0137
▁Ja	-10.0141
▁Management	-10.0142
▁Missouri	-10.0147
▁content	-10.0147
▁1981	-10.015
▁becomes	-10.0151
▁foundation	-10.0154
▁declared	-10.0156
▁contest	-10.0158
▁code	-10.0163
▁scientific	-10.0163
▁Mike	-10.0164
▁combined	-10.0172
▁brown	-10.0181
▁shortly	-10.0186
▁Field	-10.0186
▁Township	-10.0187
▁literary	-10.019
▁Camp	-10.0196
▁daily	-10.0202
▁actress	-10.0205
▁EP	-10.0209
▁Due	-10.0211
▁Jim	-10.0212
▁Atlantic	-10.0212
▁1978	-10.0215
▁offer	-10.0217
▁receiving	-10.0217
▁gun	-10.0218
tal	-10.0219
pi	-10.0225
ee	-10.0227
ix	-10.0228
▁plants	-10.0229
▁territory	-10.024
▁converted	-10.024
▁Albert	-10.0243
▁Ken	-10.0246
▁(16	-10.0253
▁Prior	-10.0259
▁languages	-10.0263
▁etc	-10.0264
▁Regiment	-10.0266
▁Project	-10.0266
▁1968	-10.0267
▁gas	-10.0267
▁episodes	-10.0269
▁lot	-10.0281
▁Labour	-10.0291
▁Bal	-10.0296
ray	-10.0297
ns	-10.0298
▁distribution	-10.0307
▁Ra	-10.0309
▁typically	-10.031
▁Military	-10.0313
▁Up	-10.0319
▁70	-10.032
▁Federation	-10.0321
▁Orchestra	-10.0326
▁Khan	-10.0327
▁copies	-10.0333
▁Val	-10.0338
▁deep	-10.0346
▁historic	-10.0348
▁pass	-10.0352
▁visited	-10.0357
▁achieved	-10.0358
qui	-10.0371
▁reserve	-10.038
▁places	-10.0383
▁500	-10.0385
▁grade	-10.0388
▁Lewis	-10.0393
▁Chairman	-10.0394
▁Q	-10.0396
art	-10.0397
▁disease	-10.0399
▁BC	-10.0412
▁Ro	-10.0413
▁Live	-10.0413
▁bi	-10.0413
▁hired	-10.0416
▁architecture	-10.0418
▁compete	-10.0421
▁Pat	-10.0423
▁90	-10.0429
▁dead	-10.0442
▁largely	-10.0446
▁Fox	-10.045
▁Andrew	-10.0451
▁poetry	-10.0452
▁1977	-10.0457
▁Ray	-10.0466
▁Za	-10.047
▁Upon	-10.047
▁1975	-10.0472
▁g	-10.0475
▁Memorial	-10.0476
▁physical	-10.0484
▁Harvard	-10.0486
▁pair	-10.0489
▁Korea	-10.049
▁read	-10.0494
▁Anne	-10.0495
▁gives	-10.05
ram	-10.0511
▁singing	-10.0518
▁Norway	-10.0528
▁murder	-10.0531
ay	-10.0532
▁1969	-10.0536
om	-10.0539
which	-10.0542
▁receive	-10.0551
▁communities	-10.0555
▁Minnesota	-10.0558
▁Stone	-10.0559
▁des	-10.056
▁et	-10.056
▁Inter	-10.0561
▁ordered	-10.0565
-2	-10.0567
▁Christ	-10.0573
▁condition	-10.0577
▁Channel	-10.0579
▁yellow	-10.058
▁transport	-10.059
▁partnership	-10.0596
▁urban	-10.0601
▁administrative	-10.0602
Re	-10.0605
▁identified	-10.0611
▁holding	-10.0617
sha	-10.0623
▁agreement	-10.0623
▁presence	-10.0625
▁Review	-10.0629
▁10,	-10.0632
▁resulted	-10.0634
▁agreed	-10.064
▁Gallery	-10.0646
ena	-10.0648
▁fought	-10.0653
▁passes	-10.0655
▁36	-10.0662
▁stay	-10.0667
▁paid	-10.0668
oc	-10.0669
▁Bre	-10.0675
▁shape	-10.068
▁1936	-10.0682
▁Ban	-10.069
▁Senior	-10.0696
▁inhabitants	-10.0699
▁follows	-10.0699
▁actually	-10.0701
▁stock	-10.0708
pp	-10.0709
▁opera	-10.0709
▁whether	-10.0711
▁exchange	-10.0712
▁Chris	-10.0713
ane	-10.0716
illa	-10.0722
La	-10.0727
▁15,	-10.0727
if	-10.0731
▁Ga	-10.0732
▁Program	-10.0732
▁mass	-10.0735
▁pop	-10.0741
▁starts	-10.0742
▁Dar	-10.0748
low	-10.075
▁paintings	-10.0751
▁analysis	-10.0754
▁girls	-10.0755
▁k	-10.0781
▁MP	-10.0781
▁ranked	-10.0783
cy	-10.0785
ach	-10.0787
▁1945	-10.0804
▁Manchester	-10.0811
▁Brazil	-10.0813
▁kind	-10.0813
▁Because	-10.0814
▁Officer	-10.0815
▁1973	-10.0818
▁Kar	-10.0822
▁workers	-10.0824
▁approach	-10.0827
17	-10.0831
▁Native	-10.0834
▁applied	-10.0836
▁positions	-10.084
▁17,	-10.0841
▁employed	-10.0847
▁8,	-10.0849
▁officers	-10.0851
▁11,	-10.0851
gu	-10.0855
▁Sri	-10.0855
▁1999,	-10.0856
net	-10.0859
▁Light	-10.0862
▁creating	-10.0862
▁unknown	-10.0867
▁Bur	-10.087
▁port	-10.0873
▁trees	-10.0883
▁organizations	-10.0884
▁slightly	-10.0887
▁Billboard	-10.0891
▁union	-10.0908
▁completely	-10.0914
▁Walter	-10.092
her	-10.0922
▁flat	-10.0928
▁represent	-10.093
▁industrial	-10.0934
▁block	-10.0935
▁Real	-10.0936
lon	-10.094
▁cell	-10.094
▁potential	-10.0941
▁know	-10.0942
▁Opera	-10.0943
▁sales	-10.0944
▁therefore	-10.0945
▁Main	-10.0951
▁write	-10.0956
▁mill	-10.096
▁System	-10.0972
▁Area	-10.0973
▁estimated	-10.0976
long	-10.0977
▁1971	-10.0981
▁needed	-10.0983
▁sources	-10.0984
▁permanent	-10.0985
▁Yu	-10.0985
▁clear	-10.0987
▁Deputy	-10.0989
▁simple	-10.0993
▁occupied	-10.0998
▁critical	-10.0998
▁origin	-10.0999
▁allows	-10.1001
▁pressure	-10.1004
▁seats	-10.1007
▁Game	-10.101
▁y	-10.1012
▁impact	-10.1012
▁2004.	-10.1014
▁16,	-10.1017
▁Song	-10.1018
▁1964	-10.1022
ide	-10.1029
ria	-10.1034
▁Final	-10.1034
▁Ki	-10.1039
▁engineer	-10.104
▁Ram	-10.1043
burg	-10.1044
iz	-10.1049
▁Is	-10.105
▁expected	-10.1051
ada	-10.1057
▁bishop	-10.1064
▁Carl	-10.1066
▁knowledge	-10.1067
▁difficult	-10.1071
▁laid	-10.1071
air	-10.1071
16	-10.1073
50	-10.1077
▁Kansas	-10.1077
▁Che	-10.1091
▁Fame	-10.1092
▁Out	-10.1098
▁Mor	-10.1098
▁1967	-10.1102
▁albums	-10.1102
▁factory	-10.1104
ator	-10.1104
▁meters	-10.1106
▁Pra	-10.112
my	-10.1123
▁edge	-10.1124
▁12,	-10.1129
▁Hotel	-10.113
▁qualified	-10.1134
15	-10.1138
▁Sar	-10.1138
▁ability	-10.1143
▁survived	-10.1145
▁Mc	-10.1162
tan	-10.1166
▁baseball	-10.117
▁programme	-10.1171
▁blood	-10.1172
▁problem	-10.1172
▁reference	-10.1173
▁commonly	-10.1175
ella	-10.1179
▁chair	-10.1186
▁interior	-10.1188
▁Tennessee	-10.119
▁frequently	-10.1192
▁resulting	-10.1195
ok	-10.1196
▁formerly	-10.1202
▁screen	-10.1206
▁starred	-10.1207
▁marked	-10.1209
▁producing	-10.1216
▁lyrics	-10.1217
▁tells	-10.1223
ub	-10.1237
▁Temple	-10.1241
▁focused	-10.1248
90	-10.1254
▁audience	-10.126
▁look	-10.126
▁Fire	-10.127
▁consisted	-10.127
▁Mill	-10.1271
▁Dublin	-10.1273
ston	-10.1274
▁Simon	-10.1275
▁collaboration	-10.1276
ped	-10.1278
q	-10.1278
▁Mu	-10.1278
▁weight	-10.1284
▁Ri	-10.1287
dar	-10.1291
▁Hot	-10.1295
▁broke	-10.1296
▁da	-10.1298
▁regularly	-10.1298
▁pieces	-10.1305
▁Pi	-10.1306
▁fully	-10.131
▁horse	-10.1315
▁priest	-10.1319
▁Golden	-10.132
▁9,	-10.1335
▁14,	-10.1339
▁representing	-10.1342
▁About	-10.1344
▁image	-10.1347
▁says	-10.1348
▁daughters	-10.1359
36	-10.1367
▁Mon	-10.1371
▁painted	-10.1372
▁derived	-10.1373
▁finds	-10.1374
▁representative	-10.1376
▁1965	-10.1378
▁Miller	-10.1379
▁boy	-10.1381
mm	-10.1381
▁effort	-10.1389
▁follow	-10.139
▁occurred	-10.1393
ata	-10.1398
▁iron	-10.1399
▁accident	-10.1407
▁classical	-10.1415
▁sides	-10.1422
▁except	-10.1423
ken	-10.1432
▁Vienna	-10.1433
▁valley	-10.1433
▁bring	-10.1443
▁category	-10.1448
▁compared	-10.1449
▁true	-10.1456
▁33	-10.1457
▁machine	-10.1459
▁Stadium	-10.1459
▁fine	-10.1461
▁effects	-10.1462
▁tried	-10.1467
▁percent	-10.1468
▁Ber	-10.1471
▁establishment	-10.1475
▁21,	-10.1476
▁Youth	-10.148
▁1966	-10.1481
▁Foreign	-10.1491
▁extensive	-10.1494
▁makeup	-10.1495
▁search	-10.1503
▁box	-10.1504
ping	-10.1507
▁types	-10.1508
ize	-10.1509
▁maximum	-10.1514
▁morning	-10.1515
▁Anna	-10.1517
ula	-10.1524
▁Pu	-10.1526
▁studying	-10.1526
▁background	-10.1529
▁Bu	-10.1553
▁Trust	-10.1557
▁debuted	-10.1558
ries	-10.1561
▁Will	-10.1562
▁13,	-10.1565
▁Ju	-10.1569
▁tradition	-10.1572
▁deputy	-10.1576
▁showed	-10.1582
wi	-10.1582
ó	-10.1583
▁rail	-10.1588
ding	-10.1592
wan	-10.1596
▁cars	-10.1596
▁secret	-10.1597
▁22,	-10.1602
▁climate	-10.1604
▁racing	-10.1609
end	-10.1611
over	-10.1611
▁Colorado	-10.1613
▁Holy	-10.1614
ep	-10.1619
▁parties	-10.162
cher	-10.162
▁abandoned	-10.1625
▁theme	-10.1634
▁things	-10.164
▁approved	-10.1642
▁Maryland	-10.1643
▁letters	-10.1644
▁dropped	-10.1644
▁application	-10.1649
▁villages	-10.1655
▁Austria	-10.1656
bury	-10.1656
▁End	-10.1658
▁numbers	-10.1661
▁Region	-10.1668
▁Lieutenant	-10.1669
▁offices	-10.1672
▁faculty	-10.1678
▁(5	-10.1682
▁1998,	-10.1682
▁arms	-10.1684
▁ending	-10.1684
▁draft	-10.1685
▁adult	-10.1686
▁Mad	-10.1692
▁advanced	-10.1693
▁existing	-10.1695
38	-10.1696
▁Samuel	-10.1701
▁courses	-10.1702
▁Cal	-10.1703
▁spot	-10.1714
▁authorities	-10.1716
our	-10.1716
▁Steve	-10.1717
▁30,	-10.1718
▁Tar	-10.1719
▁environment	-10.1725
▁Emperor	-10.1728
ica	-10.173
▁Ash	-10.1733
▁Then	-10.1739
▁28,	-10.1743
▁Tre	-10.1744
▁sixth	-10.1747
▁shop	-10.1747
▁Ocean	-10.1748
▁materials	-10.1758
▁funding	-10.1759
water	-10.1763
▁models	-10.1771
▁Ltd	-10.1771
▁23,	-10.1774
▁Design	-10.1774
▁jazz	-10.1778
▁CEO	-10.178
95	-10.1784
▁journal	-10.1786
▁collected	-10.1788
ky	-10.1795
▁educational	-10.1798
▁fields	-10.1799
▁Oregon	-10.18
▁Tim	-10.181
▁Frederick	-10.181
▁expansion	-10.1817
▁beat	-10.1819
ea	-10.182
▁subsequent	-10.1824
king	-10.1832
▁Winter	-10.1832
▁2003.	-10.1832
ff	-10.1833
▁volume	-10.1834
ery	-10.1851
▁extension	-10.1853
ette	-10.1853
▁suggested	-10.1856
iya	-10.1856
▁Wall	-10.1858
▁stands	-10.1861
dale	-10.1862
▁admitted	-10.1868
cho	-10.1868
▁Philip	-10.1868
ye	-10.1869
pt	-10.1886
▁herself	-10.1897
▁26,	-10.1898
▁northeast	-10.1899
▁Hal	-10.19
▁reduced	-10.1904
▁fans	-10.191
▁walls	-10.1911
▁hands	-10.1916
▁Ed	-10.1916
▁plot	-10.1927
ec	-10.1927
▁racial	-10.1929
▁super	-10.1937
▁Naval	-10.1937
▁versions	-10.194
46	-10.194
▁corner	-10.1942
▁launch	-10.1945
▁Bel	-10.1949
▁Bor	-10.1951
▁=	-10.1955
ities	-10.1959
▁Boy	-10.1962
▁onto	-10.1966
▁Margaret	-10.1967
▁engaged	-10.1967
▁selection	-10.1972
▁foot	-10.1973
▁1948	-10.1974
▁figures	-10.1983
11	-10.1984
▁learning	-10.1985
▁installed	-10.1987
▁Human	-10.1987
tin	-10.1989
board	-10.1993
án	-10.2004
▁brick	-10.2008
▁theater	-10.2008
35	-10.2009
▁Vo	-10.2011
▁Gu	-10.2013
▁singles	-10.2022
▁Ross	-10.2023
▁27,	-10.2028
▁20,	-10.2032
▁try	-10.2033
▁l	-10.2039
60	-10.204
▁recognition	-10.204
▁setting	-10.2046
▁19,	-10.2047
▁prevent	-10.2049
00	-10.205
▁Several	-10.2052
shi	-10.2061
14	-10.2064
▁se	-10.2065
▁registered	-10.2075
▁Mexican	-10.2076
▁Switzerland	-10.2077
▁Dean	-10.2084
06	-10.2085
▁tax	-10.2087
▁begin	-10.209
▁Danish	-10.2096
▁SR	-10.2097
▁Kan	-10.2099
nt	-10.2104
▁animals	-10.2105
▁...	-10.2105
▁DVD	-10.2114
▁relatively	-10.2116
▁successfully	-10.2125
85	-10.2126
▁associate	-10.2128
▁Tokyo	-10.2129
65	-10.2133
▁Howard	-10.2133
tha	-10.2139
ai	-10.2146
ā	-10.2146
len	-10.215
▁Indiana	-10.2151
▁technical	-10.2153
▁25,	-10.2153
▁Baron	-10.2153
▁o	-10.2155
▁Ann	-10.2157
▁briefly	-10.2157
▁1963	-10.2167
▁ends	-10.2169
▁promote	-10.2173
š	-10.2174
▁leaders	-10.218
▁developing	-10.2181
ō	-10.2181
▁Building	-10.2184
▁Korean	-10.2186
▁rich	-10.2188
05	-10.22
ag	-10.22
▁medicine	-10.2203
tel	-10.2203
▁flowers	-10.221
▁premiered	-10.221
▁residence	-10.2213
▁neighborhood	-10.2213
▁Hamilton	-10.2215
▁shared	-10.2218
▁sites	-10.2218
▁lawyer	-10.2221
▁Ve	-10.2226
▁straight	-10.2234
▁billion	-10.2238
▁passing	-10.224
▁rear	-10.2246
▁unable	-10.2246
▁twelve	-10.2246
use	-10.2248
▁alternative	-10.2248
dal	-10.225
▁publishing	-10.2251
▁Mayor	-10.2256
▁bass	-10.2257
▁reaching	-10.2259
▁restaurant	-10.226
▁Ex	-10.2263
bra	-10.2265
nie	-10.2284
▁something	-10.2284
▁1997,	-10.2286
▁fashion	-10.2289
▁allowing	-10.2291
▁regiment	-10.2299
▁web	-10.23
▁2019.	-10.2301
yo	-10.2304
▁Services	-10.2304
98	-10.2306
also	-10.2312
▁Rugby	-10.2315
▁Singapore	-10.2315
▁dates	-10.2316
▁municipal	-10.2325
▁Com	-10.2327
election	-10.2328
▁Hockey	-10.233
ip	-10.2332
▁Cor	-10.2332
▁44	-10.2334
▁royal	-10.234
45	-10.234
86	-10.2342
48	-10.2347
▁Doctor	-10.2348
▁Administration	-10.2351
▁aired	-10.2353
▁x	-10.2353
▁starring	-10.2355
▁defense	-10.236
ä	-10.2362
47	-10.2363
▁memory	-10.2366
▁attend	-10.2369
▁Regional	-10.2371
▁Wa	-10.2373
▁Commander	-10.2379
▁34	-10.2382
▁chapel	-10.2382
pro	-10.2382
09	-10.2387
▁protect	-10.2389
su	-10.2394
ala	-10.2395
▁narrow	-10.2409
Le	-10.2412
▁sp	-10.2414
▁claims	-10.2418
▁quarter	-10.242
▁damage	-10.2421
▁participate	-10.2423
▁1996,	-10.2424
▁1962	-10.2424
▁PhD	-10.243
▁(6	-10.2436
▁Tony	-10.2439
▁extra	-10.2441
▁Historic	-10.2443
▁risk	-10.2446
▁doing	-10.2452
▁Ru	-10.2454
▁Harry	-10.2461
▁establish	-10.2464
▁ca	-10.2468
▁ring	-10.2468
▁steel	-10.2469
tter	-10.2469
ick	-10.247
▁glass	-10.2478
▁1944	-10.2482
▁Ci	-10.2485
▁rules	-10.2489
▁29,	-10.2489
▁sale	-10.2494
▁Not	-10.2495
▁elevation	-10.2498
▁claim	-10.2499
▁display	-10.25
▁refers	-10.2503
▁opposition	-10.2505
▁signing	-10.2505
▁Tan	-10.2513
▁opposite	-10.252
▁Saturday	-10.2528
▁stood	-10.2539
▁Allen	-10.2548
▁sport	-10.2549
▁64	-10.2558
▁felt	-10.2561
▁injured	-10.2562
▁purchase	-10.2563
▁containing	-10.2576
▁protection	-10.2578
▁300	-10.2578
▁Reserve	-10.2591
▁Silver	-10.2594
▁genus	-10.2596
▁pick	-10.26
08	-10.26
▁Arizona	-10.2601
▁Independent	-10.2602
▁nation	-10.2605
▁cells	-10.2607
▁Ham	-10.261
▁leg	-10.261
▁broad	-10.2612
▁Ch	-10.263
▁Television	-10.2637
▁entry	-10.2638
▁composition	-10.2643
af	-10.265
▁cousin	-10.2652
▁2001.	-10.266
▁musicians	-10.266
ase	-10.2665
55	-10.2666
ich	-10.2671
gue	-10.2675
▁rare	-10.2683
92	-10.2686
ama	-10.2688
▁Revolution	-10.2688
▁drive	-10.2692
▁restored	-10.2697
▁2002.	-10.2706
▁1947	-10.2716
▁householder	-10.2718
▁Montreal	-10.2719
▁1946	-10.272
▁Diego	-10.272
▁Iowa	-10.2721
▁Juan	-10.2724
21	-10.2725
nan	-10.2732
▁reason	-10.2735
▁commission	-10.2739
▁stadium	-10.2742
▁1956	-10.2743
▁safety	-10.2743
▁refused	-10.2743
▁stayed	-10.2747
▁1959	-10.2748
ero	-10.2753
Ma	-10.2755
75	-10.2756
▁planning	-10.2757
uri	-10.2757
▁global	-10.276
▁peace	-10.2761
▁gets	-10.2764
27	-10.2765
val	-10.2765
▁Sky	-10.2766
▁fan	-10.2769
▁1961	-10.2773
see	-10.2777
▁Mel	-10.2784
′	-10.2788
can	-10.2789
▁historian	-10.2794
66	-10.2795
▁funds	-10.2795
▁Family	-10.2797
▁flag	-10.2798
69	-10.28
iv	-10.2803
▁2000.	-10.283
▁cannot	-10.2831
▁amateur	-10.2834
28	-10.2838
▁philosophy	-10.2838
▁garden	-10.2842
▁Fu	-10.2845
din	-10.2849
▁1957	-10.2849
▁IV	-10.285
▁relations	-10.2851
▁reports	-10.2851
▁scenes	-10.2853
▁translated	-10.2854
▁Children	-10.2858
▁connection	-10.2859
+	-10.2861
▁drug	-10.2864
▁agency	-10.2865
76	-10.2867
▁hill	-10.2873
▁hockey	-10.2874
▁choice	-10.2875
▁Entertainment	-10.2877
▁Spring	-10.2878
▁Arab	-10.2878
▁Clark	-10.2896
▁Sh	-10.2897
13	-10.2904
▁adjacent	-10.2909
▁Judge	-10.2912
▁Fine	-10.2914
▁Fund	-10.2916
▁institutions	-10.2916
▁Han	-10.2918
88	-10.2919
▁influenced	-10.292
▁supporting	-10.2921
▁turns	-10.2921
▁Queensland	-10.2921
▁Sound	-10.2921
▁enter	-10.2922
▁Modern	-10.2924
▁greater	-10.2928
▁northwest	-10.2929
▁FM	-10.2932
▁Square	-10.2933
▁Cu	-10.2934
ington	-10.2935
▁stream	-10.2939
▁brief	-10.2939
▁See	-10.2942
▁Antonio	-10.2949
cal	-10.2956
▁38	-10.2956
▁1958	-10.2959
gon	-10.2961
▁interested	-10.2961
▁locations	-10.2962
▁uncle	-10.2963
work	-10.2964
▁bands	-10.2965
ese	-10.2967
ability	-10.2968
▁tries	-10.2971
▁dam	-10.2978
▁us	-10.2985
▁railroad	-10.2989
▁programming	-10.2989
▁1995,	-10.2992
96	-10.2993
▁ceremony	-10.2994
▁Space	-10.2996
▁your	-10.2998
▁Christmas	-10.2998
▁400	-10.2998
var	-10.3002
▁sex	-10.301
ré	-10.301
▁quite	-10.3013
kan	-10.3015
▁edited	-10.3017
izing	-10.3018
▁Kentucky	-10.3019
▁Hollywood	-10.3024
▁boys	-10.3034
▁phase	-10.3037
▁beyond	-10.3042
▁Cathedral	-10.3044
▁Pen	-10.3046
▁1942	-10.3047
▁Kim	-10.3047
tion	-10.3048
78	-10.3051
▁Adam	-10.3055
80	-10.3058
▁Bad	-10.306
▁Houston	-10.3066
57	-10.3066
▁normal	-10.3067
des	-10.307
▁contained	-10.307
▁sense	-10.3072
▁Bra	-10.3073
mb	-10.3074
▁card	-10.3078
▁Max	-10.3081
25	-10.3081
dra	-10.3082
▁faced	-10.3087
▁basic	-10.309
▁equal	-10.3093
▁(15	-10.3101
▁Os	-10.3105
70	-10.3106
▁Douglas	-10.3111
ida	-10.3116
▁dry	-10.3118
▁150	-10.3122
ens	-10.3122
▁Moore	-10.3124
▁Fair	-10.3124
▁Railroad	-10.3126
▁opposed	-10.3129
▁Kal	-10.313
▁Ly	-10.3134
▁appointment	-10.3137
▁Rev	-10.3138
ible	-10.3143
hill	-10.3147
▁ball	-10.3159
gate	-10.3166
▁rugby	-10.3173
▁situation	-10.3175
▁Sol	-10.3176
▁simply	-10.3176
ris	-10.3178
▁appearing	-10.3179
▁centuries	-10.3183
97	-10.3185
ón	-10.3186
▁residing	-10.3188
▁childhood	-10.3192
▁vocals	-10.3194
▁enemy	-10.3197
▁Denmark	-10.3198
▁f	-10.32
▁Shi	-10.3201
31	-10.3205
▁operate	-10.3206
▁42	-10.3215
▁flows	-10.3229
ric	-10.323
▁Lincoln	-10.3234
▁Ford	-10.3236
▁vehicle	-10.3239
▁want	-10.324
▁window	-10.324
▁stores	-10.3241
▁1952	-10.3243
▁Connecticut	-10.3244
▁bottom	-10.3257
▁°	-10.3259
▁powerful	-10.3259
▁authority	-10.3261
▁shell	-10.3263
▁critics	-10.3264
▁Legislative	-10.3267
▁page	-10.3269
77	-10.3272
▁needs	-10.3274
▁orchestra	-10.3275
▁candidates	-10.3276
▁southeast	-10.3277
79	-10.328
▁trip	-10.3283
39	-10.3284
▁Philippines	-10.3285
▁Kent	-10.3286
▁environmental	-10.3288
▁crime	-10.3292
▁agricultural	-10.3296
▁CDP	-10.3306
▁rating	-10.3307
▁Marine	-10.3308
▁couples	-10.3309
▁electric	-10.3311
ification	-10.3316
▁fighting	-10.3324
▁Turkey	-10.3331
▁describes	-10.3332
68	-10.3338
ves	-10.3346
De	-10.3348
▁1994,	-10.3353
▁scheduled	-10.3354
▁bachelor	-10.3357
▁1939	-10.3365
-3	-10.3369
▁1943	-10.3374
▁ultimately	-10.3378
▁lieutenant	-10.3383
tur	-10.3384
▁1954	-10.3384
▁windows	-10.3388
tre	-10.3391
▁improve	-10.3395
▁failure	-10.3398
▁gain	-10.34
▁Grant	-10.3401
tar	-10.3401
ified	-10.3403
▁opportunity	-10.3403
▁Turkish	-10.3405
▁conflict	-10.3406
64	-10.3409
▁cricket	-10.3416
▁Va	-10.3417
ile	-10.342
▁Patrick	-10.3422
▁1915	-10.3423
▁generation	-10.3428
▁Belgium	-10.3435
44	-10.3435
▁cap	-10.3439
▁Czech	-10.3444
▁substitute	-10.3444
▁heard	-10.3446
26	-10.3448
rat	-10.345
▁NFL	-10.3453
▁price	-10.3456
▁Muslim	-10.3457
▁voted	-10.3458
▁say	-10.3458
▁grow	-10.3459
▁tall	-10.3463
▁consisting	-10.3463
▁contact	-10.3467
▁1955	-10.3478
▁maintained	-10.3478
▁Register	-10.348
▁Infantry	-10.3481
▁contributions	-10.3481
23	-10.3484
▁worldwide	-10.3488
▁defined	-10.3495
▁chain	-10.3497
▁closely	-10.3497
ale	-10.3498
istic	-10.3499
▁decades	-10.3501
▁Way	-10.3501
▁Bowl	-10.3502
▁reading	-10.3504
▁rooms	-10.3506
▁eye	-10.3511
▁scale	-10.3511
▁avoid	-10.3517
▁Assistant	-10.3518
▁Min	-10.3522
▁comic	-10.3524
▁Egypt	-10.3527
▁Brian	-10.353
▁passengers	-10.3532
▁combat	-10.3534
ions	-10.3534
▁publications	-10.3535
▁protein	-10.3536
▁successor	-10.3536
pin	-10.3537
▁Communist	-10.3539
▁supply	-10.3544
▁districts	-10.3546
▁1941	-10.3553
▁Imperial	-10.3562
▁replace	-10.3564
▁Detroit	-10.3564
▁Quebec	-10.3566
▁escape	-10.3568
ins	-10.3576
▁tail	-10.358
▁table	-10.3582
▁Now	-10.3584
▁animal	-10.359
oni	-10.359
▁parallel	-10.3592
49	-10.3593
99	-10.3595
gy	-10.3595
▁passenger	-10.3598
▁musician	-10.3601
▁37	-10.3603
▁31,	-10.3606
lar	-10.3608
▁1870	-10.3612
▁Ab	-10.3613
▁weekly	-10.3619
▁think	-10.3621
▁expedition	-10.3622
▁sets	-10.3624
▁Down	-10.3627
▁Bon	-10.3635
▁Miami	-10.3638
not	-10.3639
▁intersection	-10.364
▁Oklahoma	-10.3649
▁acts	-10.3651
▁Glasgow	-10.3651
▁hundred	-10.3652
med	-10.3653
▁occupation	-10.3654
37	-10.3657
tes	-10.366
▁entirely	-10.3661
▁diameter	-10.3663
▁fiction	-10.3663
▁attempts	-10.3665
ika	-10.3669
▁Matt	-10.3669
01	-10.3669
rin	-10.3672
▁fruit	-10.3673
▁organisation	-10.3675
▁trying	-10.3676
▁Garden	-10.368
▁chance	-10.3681
▁functions	-10.3682
29	-10.3686
▁driver	-10.3692
▁poverty	-10.3692
▁bill	-10.3696
▁Anderson	-10.3696
32	-10.3697
▁properties	-10.3704
▁Medicine	-10.3704
▁provincial	-10.371
▁operates	-10.3712
▁minute	-10.3716
▁employees	-10.372
▁Il	-10.3724
▁Sand	-10.3725
▁attempted	-10.3725
▁1951	-10.3726
are	-10.3729
▁folk	-10.3731
▁getting	-10.3732
▁75	-10.3733
bert	-10.3733
US	-10.3733
▁Play	-10.3735
▁n	-10.3736
71	-10.3737
▁residential	-10.3741
▁southwest	-10.3743
▁wooden	-10.3743
ors	-10.3745
▁sought	-10.3746
▁consecutive	-10.375
▁notes	-10.3751
▁selling	-10.3752
▁1992,	-10.3755
▁proved	-10.3758
▁journey	-10.3759
shaped	-10.376
24	-10.3764
▁crossing	-10.3765
▁Jane	-10.3769
▁Marie	-10.3769
▁disc	-10.377
bel	-10.3771
▁1953	-10.3776
▁standing	-10.3778
▁Swiss	-10.3778
2.	-10.3778
▁critic	-10.378
▁mine	-10.3782
▁resources	-10.3786
▁Dam	-10.379
▁chose	-10.3795
▁reign	-10.3797
▁grand	-10.3798
▁1999.	-10.38
▁Tor	-10.3802
▁1911	-10.3807
▁Nick	-10.381
point	-10.381
93	-10.3811
▁script	-10.3815
59	-10.3818
part	-10.3818
▁toured	-10.382
It	-10.3822
▁offering	-10.3826
▁views	-10.3833
▁necessary	-10.3834
▁Welsh	-10.3848
▁existence	-10.3849
▁donated	-10.3852
▁Nu	-10.3861
▁structures	-10.3863
07	-10.3864
▁Mag	-10.3865
▁path	-10.3869
▁tri	-10.3877
▁heavily	-10.3877
▁arranged	-10.3878
▁methods	-10.3878
▁formal	-10.3881
▁domestic	-10.3885
▁fast	-10.3886
ever	-10.3886
ene	-10.3889
▁Gor	-10.3895
oli	-10.39
▁colour	-10.39
▁Sub	-10.39
▁credited	-10.3902
▁Argentina	-10.3903
▁Gordon	-10.3903
▁determined	-10.3903
▁wind	-10.3909
▁effective	-10.391
▁der	-10.3911
▁duty	-10.3912
▁regions	-10.3915
▁notably	-10.3918
▁Win	-10.3919
▁Mississippi	-10.392
22	-10.392
42	-10.392
uch	-10.3923
▁assumed	-10.3925
▁meant	-10.3925
▁1890	-10.3926
▁serious	-10.393
▁vehicles	-10.3932
▁acted	-10.3933
row	-10.3935
ath	-10.3942
▁sell	-10.3943
We	-10.3953
SA	-10.3954
▁vi	-10.3958
▁Ger	-10.3963
▁attached	-10.3964
▁businesses	-10.3967
▁leads	-10.3968
▁Cat	-10.397
▁eldest	-10.3974
stein	-10.3974
▁meets	-10.3975
▁Hispanic	-10.3976
▁carry	-10.3977
▁institution	-10.3981
▁Greece	-10.3984
▁Theater	-10.3984
▁Heart	-10.3992
▁grandfather	-10.3995
▁Rio	-10.3996
89	-10.3996
▁Lawrence	-10.3998
pan	-10.4
del	-10.4001
▁Conservative	-10.4002
▁officials	-10.4003
▁flow	-10.4004
▁contain	-10.4004
▁owners	-10.4009
mont	-10.401
▁incident	-10.4014
▁youngest	-10.4016
▁skills	-10.4018
▁visual	-10.4022
down	-10.4024
▁$1	-10.4025
▁Shah	-10.403
▁Mat	-10.4031
Al	-10.4032
ros	-10.4034
▁typical	-10.4035
▁engines	-10.4036
▁combination	-10.4037
▁Commonwealth	-10.404
sson	-10.4042
▁users	-10.4046
▁Singh	-10.4051
▁Local	-10.4053
▁didn	-10.4057
▁Palace	-10.4057
▁sector	-10.4058
tt	-10.406
▁Trade	-10.4062
▁separated	-10.4062
▁earning	-10.4069
▁exist	-10.4069
lie	-10.407
MA	-10.4071
star	-10.4073
foot	-10.408
▁towns	-10.4085
▁investment	-10.4088
ona	-10.4089
▁le	-10.4091
▁honorary	-10.4093
▁mathematics	-10.4094
▁degrees	-10.4096
91	-10.4101
▁classic	-10.4104
▁applications	-10.4105
56	-10.4114
▁headed	-10.4117
▁Anthony	-10.4118
▁churches	-10.4121
▁squadron	-10.4121
ks	-10.4121
▁distributed	-10.4125
vis	-10.4127
▁coal	-10.4129
▁Austrian	-10.413
▁Gen	-10.413
▁Iran	-10.4132
▁Karl	-10.4138
▁List	-10.4139
ban	-10.4141
▁scholarship	-10.4144
▁1938	-10.4147
▁Yorkshire	-10.4151
▁Once	-10.4153
▁Brigade	-10.4153
34	-10.4154
az	-10.4156
▁Though	-10.4162
who	-10.4171
▁attacked	-10.4175
02	-10.4182
▁earliest	-10.4188
58	-10.4188
▁Capital	-10.4188
wing	-10.4192
▁Eric	-10.4194
elected	-10.4195
og	-10.42
▁electronic	-10.4206
▁question	-10.4207
▁Security	-10.421
▁1993,	-10.421
dan	-10.4218
▁artistic	-10.4223
lis	-10.4224
▁Dor	-10.4225
▁guitarist	-10.4228
▁fuel	-10.4231
▁Sel	-10.4234
worth	-10.4239
ade	-10.4241
▁signal	-10.4246
▁Gra	-10.4248
▁Part	-10.4254
▁Metropolitan	-10.4255
▁Mid	-10.4257
▁really	-10.4261
▁Tamil	-10.4264
▁48	-10.4265
nce	-10.4276
rie	-10.4278
▁patients	-10.4279
30	-10.4279
▁license	-10.428
▁religion	-10.4284
▁Farm	-10.4286
▁Third	-10.4288
▁accompanied	-10.4289
▁rose	-10.4291
▁reasons	-10.4291
FM	-10.4292
▁Liverpool	-10.4294
▁winners	-10.4295
▁Squadron	-10.4298
▁Sp	-10.4299
▁citizens	-10.4302
94	-10.4303
▁mis	-10.4304
▁memorial	-10.4306
dis	-10.4308
▁poem	-10.4311
▁Representatives	-10.4312
▁session	-10.4315
▁Ward	-10.4325
ati	-10.4329
ova	-10.4329
▁1880	-10.4329
Ro	-10.4332
▁Mer	-10.4335
▁micro	-10.4336
ü	-10.4345
87	-10.4347
▁object	-10.435
62	-10.435
par	-10.4354
č	-10.4356
room	-10.4356
▁peak	-10.4357
▁Atlanta	-10.4362
▁Hi	-10.4363
▁Early	-10.4365
aka	-10.4366
kov	-10.4369
▁sq	-10.4371
▁raise	-10.4371
▁weather	-10.4372
▁independence	-10.4373
aw	-10.4378
▁mouth	-10.4381
▁1991,	-10.439
▁designer	-10.4391
▁driving	-10.4391
▁Only	-10.4393
▁Portuguese	-10.4394
▁matter	-10.4395
▁membership	-10.4399
▁rise	-10.4405
▁Alabama	-10.4406
▁mining	-10.4408
▁seems	-10.4409
▁(7	-10.441
▁retained	-10.4413
och	-10.4414
▁anniversary	-10.4415
▁Alex	-10.4416
▁zone	-10.4423
uff	-10.4427
▁economy	-10.443
▁items	-10.443
▁temperature	-10.4431
▁bit	-10.4435
ú	-10.4436
ae	-10.4441
▁learned	-10.4444
▁Originally	-10.4447
▁Lane	-10.4448
▁request	-10.4451
▁1998.	-10.4453
54	-10.4453
▁Dun	-10.4454
▁Hart	-10.4455
▁Las	-10.4461
▁collections	-10.4462
zy	-10.4464
av	-10.4464
67	-10.4466
▁Broadway	-10.4471
▁decade	-10.4472
▁versus	-10.4482
▁duties	-10.4482
▁core	-10.4486
▁organ	-10.4486
▁killing	-10.4487
▁broken	-10.4487
▁wine	-10.4489
▁Phil	-10.449
▁Age	-10.4492
▁aid	-10.4496
▁kg	-10.4497
▁Trinity	-10.4498
▁Staff	-10.4499
St	-10.4502
▁visiting	-10.4502
▁Males	-10.4502
▁grounds	-10.4504
▁1900	-10.4505
▁helping	-10.4505
mal	-10.4505
▁attacks	-10.4505
▁Del	-10.4505
west	-10.4506
▁Yo	-10.4508
▁Harris	-10.4515
pre	-10.4525
▁Forces	-10.4526
▁flying	-10.4531
bridge	-10.4532
▁falls	-10.4532
-4	-10.4533
▁hot	-10.4536
▁Jacob	-10.4538
▁Seattle	-10.4542
▁Place	-10.4542
▁interests	-10.4545
▁Nova	-10.4545
▁Kin	-10.4546
▁user	-10.4546
▁replacing	-10.455
▁Back	-10.4557
sta	-10.4558
▁mind	-10.456
▁praised	-10.4564
▁Morgan	-10.4564
▁Iron	-10.4569
▁looking	-10.457
▁calls	-10.4574
▁bodies	-10.4577
▁junction	-10.4577
hl	-10.4578
▁41	-10.4581
▁Mountains	-10.4582
▁1906	-10.4583
▁Hor	-10.4583
ious	-10.4585
▁steam	-10.4585
▁Prix	-10.4586
run	-10.4586
▁investigation	-10.4587
▁dated	-10.4588
▁Ol	-10.4597
▁Israeli	-10.46
▁Vietnam	-10.4602
▁Latino	-10.4613
43	-10.4614
▁dating	-10.4615
▁Campbell	-10.4619
▁Pop	-10.4619
▁sexual	-10.4623
▁Hol	-10.4624
oo	-10.4624
.”	-10.4625
").	-10.4625
▁Run	-10.4628
eh	-10.4629
84	-10.4632
▁picture	-10.4635
▁possibly	-10.4635
▁Fi	-10.4636
▁Through	-10.4636
04	-10.4647
▁reduce	-10.4655
▁branches	-10.4655
dom	-10.4655
▁importance	-10.4656
ight	-10.4658
▁1909	-10.4659
nu	-10.4662
ert	-10.4664
▁Mrs	-10.4668
▁roads	-10.4668
AM	-10.4669
▁fleet	-10.467
▁Commissioner	-10.4675
▁Heritage	-10.4679
▁1907	-10.4683
▁sat	-10.4686
bor	-10.4688
▁Norman	-10.4688
▁Boys	-10.4689
▁Dance	-10.469
▁introduction	-10.4691
▁Hy	-10.4693
kh	-10.4695
▁step	-10.4695
▁Birmingham	-10.4701
▁Ball	-10.4704
bre	-10.4706
elle	-10.4708
-17	-10.471
▁door	-10.4711
▁Training	-10.4714
▁celebrated	-10.4716
▁teachers	-10.4716
▁rebuilt	-10.4719
▁marine	-10.4722
▁Hungarian	-10.4723
▁Walker	-10.4726
▁contrast	-10.4728
▁cycle	-10.4728
▁Brooklyn	-10.4729
▁increasing	-10.4736
▁relocated	-10.4739
41	-10.4744
bin	-10.4744
▁Alan	-10.4749
▁Char	-10.475
form	-10.475
▁regarded	-10.4751
▁papers	-10.4755
▁subjects	-10.476
▁Je	-10.4765
▁sc	-10.4766
▁hour	-10.4767
ball	-10.4769
▁novels	-10.4776
▁statue	-10.4778
▁FIFA	-10.4779
▁Guard	-10.478
▁wounded	-10.4788
rich	-10.479
ua	-10.4792
▁Dave	-10.4795
▁Sen	-10.4796
▁attending	-10.4801
▁39	-10.4803
▁doctor	-10.4805
▁Jay	-10.4805
▁Glen	-10.4807
▁device	-10.481
▁Jesus	-10.4811
▁lands	-10.4812
▁Draft	-10.4815
▁soccer	-10.4817
lam	-10.4818
ological	-10.4818
"),	-10.4822
▁Front	-10.4825
sey	-10.4826
▁Puerto	-10.4827
▁wild	-10.4828
ira	-10.4828
▁qualifying	-10.4829
▁occur	-10.483
families	-10.4831
▁sculpture	-10.4834
Ba	-10.4836
▁1860	-10.4838
▁merchant	-10.4838
▁1929	-10.4839
▁chemical	-10.4841
To	-10.4842
▁Your	-10.4842
▁specifically	-10.4843
▁budget	-10.4852
▁Colonel	-10.4854
▁landing	-10.486
▁don	-10.4863
▁identity	-10.4868
ele	-10.4868
▁tenure	-10.4869
▁capture	-10.4871
▁evening	-10.4872
▁honour	-10.4874
▁biggest	-10.4875
ib	-10.4876
▁Bangladesh	-10.4879
▁heat	-10.4881
▁Hills	-10.4884
▁1889	-10.4889
▁Lang	-10.4889
▁Vol	-10.489
▁landscape	-10.4893
▁ways	-10.4893
▁assembly	-10.4894
▁Ur	-10.4898
▁Knight	-10.4904
level	-10.4906
▁fishing	-10.4911
▁ruled	-10.4913
▁sections	-10.4913
72	-10.4914
▁1937	-10.4915
▁drawn	-10.492
▁respect	-10.4921
▁1997.	-10.4922
▁Peace	-10.4924
▁Bus	-10.4925
He	-10.4925
▁NCAA	-10.4926
▁Information	-10.493
ther	-10.4931
mit	-10.4933
ill	-10.4933
▁distinct	-10.4934
▁images	-10.4934
▁$	-10.4935
▁internal	-10.4935
▁Chart	-10.4937
ps	-10.4941
▁1918	-10.4944
▁medieval	-10.4945
ole	-10.4952
▁Brothers	-10.4953
▁Global	-10.4953
▁translation	-10.4953
rid	-10.4958
mark	-10.4958
▁Sarah	-10.4959
▁surrounded	-10.496
▁beautiful	-10.4966
▁AD	-10.4967
▁delivered	-10.4971
od	-10.4974
▁Daily	-10.4976
▁designs	-10.4978
including	-10.4979
▁improved	-10.4983
▁Sim	-10.4987
▁poems	-10.4988
▁caught	-10.4995
▁Louisiana	-10.4999
▁twin	-10.5001
ned	-10.5002
▁venture	-10.5006
▁parliament	-10.5011
ph	-10.5011
▁(8	-10.5013
▁objects	-10.5016
▁save	-10.5016
ska	-10.5017
▁covering	-10.5018
▁Upper	-10.5018
▁Cleveland	-10.5018
▁accused	-10.5021
▁55	-10.5025
MP	-10.5028
▁showing	-10.503
▁grown	-10.503
san	-10.5032
Mo	-10.5035
▁na	-10.5037
▁Mission	-10.5038
▁Les	-10.5046
▁Express	-10.5047
33	-10.5047
elli	-10.5048
▁guard	-10.5048
▁grant	-10.5048
▁replacement	-10.505
▁filmed	-10.5051
▁Cho	-10.5051
▁Hans	-10.5051
▁(9	-10.5054
▁photo	-10.5056
▁fund	-10.5057
▁Hay	-10.506
-20	-10.5061
▁circuit	-10.5061
▁Agency	-10.5062
▁talk	-10.5063
▁recordings	-10.5065
▁Morris	-10.5065
▁wins	-10.5071
tus	-10.5071
▁committed	-10.5072
▁1935	-10.5073
▁friendly	-10.5074
▁Milan	-10.5075
gg	-10.5076
▁let	-10.508
▁standards	-10.5081
isation	-10.5082
▁Command	-10.5085
▁writers	-10.5086
▁guns	-10.5097
ture	-10.5098
▁Gulf	-10.5107
eau	-10.511
ori	-10.5111
▁Girls	-10.5111
nal	-10.5113
▁easily	-10.5113
▁demolished	-10.5114
51	-10.5114
▁distinguished	-10.5115
▁graduation	-10.5117
▁Ren	-10.512
▁conduct	-10.5123
cu	-10.5127
AP	-10.5139
▁damaged	-10.514
▁Var	-10.5142
▁am	-10.5143
ical	-10.5145
03	-10.5146
▁Mont	-10.5147
▁Nelson	-10.5149
▁Thompson	-10.515
▁FA	-10.5153
nik	-10.5157
▁tons	-10.5157
▁print	-10.5159
▁speech	-10.5162
▁Culture	-10.5162
▁Just	-10.5163
▁pursue	-10.5163
▁birds	-10.5172
▁Ottoman	-10.518
▁1928	-10.5189
▁ill	-10.5192
▁architectural	-10.5199
▁Gro	-10.5203
▁Roy	-10.521
▁Baltimore	-10.5213
▁Munich	-10.5214
lic	-10.5216
▁row	-10.5217
▁appeal	-10.5218
ble	-10.522
oon	-10.5222
▁hair	-10.5226
▁Studios	-10.5228
▁map	-10.5229
oma	-10.5231
▁Mass	-10.5231
▁José	-10.5232
▁instrumental	-10.5233
▁Internet	-10.5235
▁exhibited	-10.5235
▁Urban	-10.5238
▁Austin	-10.5238
▁Tournament	-10.524
nia	-10.5247
▁toward	-10.5247
▁1919	-10.5249
81	-10.525
▁1910	-10.525
eng	-10.5253
▁camera	-10.5255
▁Ukraine	-10.5255
▁Athletic	-10.526
enberg	-10.526
▁Rob	-10.5261
hy	-10.5261
▁boundary	-10.5266
▁shooting	-10.5269
▁Sur	-10.5271
▁counter	-10.5271
▁visitors	-10.5272
▁Delhi	-10.5272
▁learn	-10.5275
ob	-10.5275
83	-10.5279
ense	-10.5284
master	-10.5286
52	-10.5286
▁afterwards	-10.5287
▁1996.	-10.5292
▁acid	-10.5294
▁motion	-10.5295
▁criminal	-10.5296
▁survey	-10.5298
▁fair	-10.53
▁reporter	-10.53
▁para	-10.5302
▁hosts	-10.5302
▁Liga	-10.5303
▁Alliance	-10.5303
▁Natural	-10.531
▁Convention	-10.531
▁competitions	-10.531
rum	-10.5311
74	-10.5311
▁gene	-10.5311
bit	-10.5315
▁Portland	-10.5315
▁phone	-10.5316
▁Seven	-10.5317
▁observed	-10.5318
▁medium	-10.532
▁ma	-10.5321
PA	-10.5324
SC	-10.5324
▁abroad	-10.5327
▁cemetery	-10.5331
▁ownership	-10.5331
▁filled	-10.5337
▁1989,	-10.5342
▁stating	-10.5345
▁invasion	-10.5347
▁Son	-10.5349
mes	-10.5359
▁formally	-10.5362
lia	-10.5362
from	-10.5362
▁Grade	-10.5366
▁beach	-10.5366
▁column	-10.5371
▁seventh	-10.5372
▁1987,	-10.5374
AC	-10.5377
fo	-10.5383
▁presidential	-10.5385
▁Tower	-10.5394
▁doctorate	-10.5395
ello	-10.5396
▁monument	-10.5398
▁completing	-10.5399
▁Portugal	-10.5402
▁attorney	-10.5402
▁mph	-10.5403
▁parliamentary	-10.5403
▁publisher	-10.5406
▁eleven	-10.5408
▁1924	-10.5409
▁Count	-10.5413
▁techniques	-10.5413
▁universities	-10.5415
▁1933	-10.5419
▁Test	-10.5419
cre	-10.5422
▁Shin	-10.5423
▁Den	-10.5426
▁Mil	-10.5426
▁Roger	-10.5427
▁coaching	-10.5429
▁strength	-10.5432
Ha	-10.5439
▁kill	-10.5445
▁What	-10.5445
▁Gil	-10.5447
▁Gre	-10.5449
▁advantage	-10.5453
ual	-10.5453
▁entering	-10.5458
▁causes	-10.5469
▁ABC	-10.5472
▁determine	-10.5474
$	-10.5475
eri	-10.5476
▁sang	-10.5478
▁kilometers	-10.5481
bach	-10.5483
▁mark	-10.549
▁Crown	-10.5491
▁traveled	-10.5495
▁1922	-10.5499
▁Mas	-10.5501
▁target	-10.5501
▁Carr	-10.5503
season	-10.5503
▁1990,	-10.5512
▁ahead	-10.5512
▁championships	-10.5514
▁Graham	-10.552
▁arm	-10.5524
▁completion	-10.5527
▁popularity	-10.5528
▁talent	-10.5534
▁ideas	-10.5535
tis	-10.5537
▁Limited	-10.5538
▁Alfred	-10.5542
burn	-10.5543
ić	-10.5549
▁Baptist	-10.5549
▁Ron	-10.5549
▁Ze	-10.5553
▁calling	-10.5554
▁expression	-10.5555
mus	-10.5558
▁Helen	-10.5559
▁Symphony	-10.5559
▁reality	-10.5564
▁Anti	-10.5564
▁concerts	-10.557
▁Stra	-10.5573
chan	-10.5581
▁venue	-10.5582
▁Round	-10.5586
▁Construction	-10.5587
▁solid	-10.5591
▁mobile	-10.5591
ela	-10.5593
▁regarding	-10.5598
▁charged	-10.56
▁skin	-10.5602
▁forming	-10.5602
▁erected	-10.5605
▁contested	-10.5605
▁1934	-10.5608
▁causing	-10.5609
▁Mur	-10.5609
▁Dallas	-10.561
▁Russell	-10.561
▁competing	-10.5614
▁hip	-10.5615
▁bio	-10.5615
▁credit	-10.5618
yard	-10.562
bal	-10.5625
▁Kelly	-10.5627
ore	-10.5632
ew	-10.5633
▁vocal	-10.5635
▁Finland	-10.5638
▁advance	-10.5639
▁address	-10.5644
ima	-10.5646
▁1931	-10.565
▁Charlotte	-10.5655
sur	-10.5662
IC	-10.5663
▁Stewart	-10.5664
▁reputation	-10.5668
ali	-10.5668
▁justice	-10.5669
▁stopped	-10.5671
term	-10.5671
▁believe	-10.5673
▁pattern	-10.5673
▁controlled	-10.5674
▁Vancouver	-10.5674
▁Defense	-10.5674
▁Five	-10.5676
▁poly	-10.5678
style	-10.5678
▁motor	-10.5678
▁monastery	-10.568
▁suit	-10.5681
73	-10.5681
▁1995.	-10.5681
63	-10.5685
▁Week	-10.5686
▁expressed	-10.5696
▁whilst	-10.5696
▁Fri	-10.5696
▁sand	-10.5697
▁relegated	-10.5697
▁Bristol	-10.5698
yer	-10.5702
General	-10.5712
▁Die	-10.5716
▁depth	-10.5718
▁dog	-10.5719
zer	-10.5723
▁defeating	-10.5723
▁heads	-10.573
▁Archbishop	-10.5731
▁1914	-10.5731
▁Faculty	-10.5741
▁armed	-10.5747
▁1927	-10.5755
eg	-10.5757
▁49	-10.5761
▁slow	-10.577
hn	-10.577
▁champions	-10.5774
▁Islamic	-10.5774
aga	-10.5777
ons	-10.5778
▁1932	-10.578
▁Champion	-10.5782
ö	-10.5786
▁premiere	-10.5789
▁Para	-10.5791
bri	-10.5792
▁annually	-10.5794
ava	-10.5796
▁Abbey	-10.5797
ets	-10.58
▁arrival	-10.5802
▁drawing	-10.5807
▁Moon	-10.5808
▁reform	-10.5813
▁Princess	-10.5813
▁downtown	-10.5816
▁nomination	-10.5823
▁inches	-10.5828
▁Madrid	-10.5832
▁Kennedy	-10.5833
▁lay	-10.5838
▁frame	-10.584
▁Hampshire	-10.5848
rk	-10.5848
и	-10.5849
▁pool	-10.585
▁actions	-10.586
▁Villa	-10.5862
▁Energy	-10.5864
▁Pittsburgh	-10.5865
▁walk	-10.5867
▁DC	-10.588
▁fixed	-10.5881
▁1887	-10.5881
▁imp	-10.5884
▁runner	-10.5885
▁adaptation	-10.589
▁thirty	-10.5893
1,	-10.5893
▁Soon	-10.5897
py	-10.59
▁Shortly	-10.5906
▁technique	-10.5909
▁soil	-10.591
▁inaugural	-10.591
▁temporary	-10.5911
▁Fred	-10.5912
▁merger	-10.5914
▁Marshall	-10.5914
▁Robinson	-10.5917
▁UEFA	-10.5918
▁gender	-10.592
▁1923	-10.5921
▁Player	-10.5923
▁actual	-10.5924
,500	-10.5925
▁islands	-10.5926
▁Pierre	-10.5927
53	-10.5929
née	-10.5929
▁kW	-10.593
▁Soccer	-10.5932
gh	-10.5932
▁measure	-10.5936
▁Wright	-10.5937
▁thick	-10.5939
▁belonged	-10.5941
▁satellite	-10.5942
▁Oak	-10.5944
▁protected	-10.5946
▁link	-10.595
▁sequence	-10.5954
▁Cap	-10.5955
gel	-10.5958
▁Richmond	-10.5961
▁Adams	-10.5961
▁entertainment	-10.5963
DA	-10.5964
▁affairs	-10.5973
log	-10.5976
▁1850	-10.5977
▁scheme	-10.5978
▁ordained	-10.5979
▁Mun	-10.5983
▁posted	-10.5985
▁carrying	-10.5986
ato	-10.5991
▁trail	-10.5993
▁missing	-10.5995
▁Yale	-10.5995
▁Six	-10.5996
▁Cook	-10.5997
▁Ak	-10.5998
▁advertising	-10.6003
▁ago	-10.6006
und	-10.6014
▁Rat	-10.602
▁Cro	-10.6029
▁Au	-10.6035
▁Tra	-10.604
▁43	-10.6046
▁cup	-10.6046
vel	-10.605
▁linked	-10.605
▁fill	-10.6057
▁storm	-10.6061
▁1994.	-10.6062
▁Euro	-10.6064
▁electoral	-10.6065
ving	-10.6067
▁MA	-10.6074
▁prepared	-10.6075
▁instruments	-10.6077
▁Authority	-10.6085
▁remainder	-10.6085
wer	-10.6087
▁Sta	-10.6087
▁greatest	-10.6088
ming	-10.6093
▁Work	-10.6093
▁Jazz	-10.6096
shan	-10.6102
▁goods	-10.6104
▁Wal	-10.611
▁qualification	-10.6111
▁Key	-10.6111
▁representation	-10.6115
▁vessel	-10.6124
cur	-10.6125
▁maintain	-10.6126
▁Jordan	-10.6129
▁worth	-10.6129
▁Unit	-10.6131
▁documents	-10.6132
▁negative	-10.6134
▁eyes	-10.6135
▁nuclear	-10.6137
▁Our	-10.6138
gal	-10.6139
els	-10.6139
later	-10.6139
▁Lin	-10.6141
▁responsibility	-10.6142
▁Nor	-10.6142
▁Orleans	-10.6143
▁Op	-10.6145
▁Until	-10.6145
▁Economic	-10.6145
▁DJ	-10.6152
▁till	-10.6155
▁enrolled	-10.6156
tte	-10.6157
▁Kings	-10.6162
▁Ag	-10.6164
▁Lower	-10.6166
▁housed	-10.6166
▁heritage	-10.6166
▁Des	-10.6166
▁collaborated	-10.6166
▁huge	-10.6167
▁Es	-10.6169
story	-10.6171
▁scholar	-10.6171
▁Trans	-10.6172
▁1988,	-10.6172
eb	-10.6172
▁lecturer	-10.6174
▁rival	-10.6175
▁touring	-10.6178
▁restoration	-10.6181
place	-10.6182
▁concrete	-10.6184
▁1882	-10.6189
▁adapted	-10.6191
▁1921	-10.6191
dia	-10.6192
▁details	-10.6193
▁Girl	-10.6194
bro	-10.6196
▁Bush	-10.6202
▁palace	-10.6202
▁Chamber	-10.6206
▁Serie	-10.621
lle	-10.6214
▁Ukrainian	-10.6219
band	-10.6227
ii	-10.6228
▁businessman	-10.6231
ug	-10.6232
▁franchise	-10.6232
▁terminal	-10.6232
▁Additionally	-10.6233
▁Hungary	-10.6235
▁attracted	-10.6237
▁Fall	-10.624
▁resident	-10.6243
▁Murray	-10.6249
▁46	-10.625
▁pen	-10.6252
mel	-10.6255
▁Sport	-10.6256
▁1992.	-10.6256
▁Shu	-10.6256
▁surviving	-10.6257
▁physics	-10.6257
▁somewhat	-10.6258
▁drummer	-10.6262
▁1993.	-10.6262
ret	-10.6263
▁Adelaide	-10.6269
▁occasionally	-10.627
▁cabinet	-10.6279
▁photography	-10.6279
▁Bla	-10.6284
▁Together	-10.6286
wick	-10.6286
▁Organization	-10.6287
*	-10.6289
▁Nigeria	-10.6289
▁recipient	-10.6293
ben	-10.6293
▁elder	-10.6293
▁Bro	-10.6295
▁retiring	-10.6296
▁photographer	-10.6299
AS	-10.63
▁influential	-10.6306
▁defensive	-10.6307
▁severe	-10.6309
▁Ros	-10.631
▁creative	-10.6312
▁Metro	-10.6312
▁1926	-10.6314
▁Chu	-10.6319
▁chamber	-10.632
▁Trail	-10.6321
▁charges	-10.6321
▁Bruce	-10.6322
▁Food	-10.6325
▁marketing	-10.6326
▁drafted	-10.6328
nch	-10.633
▁hits	-10.633
▁Canal	-10.6333
▁roughly	-10.6339
▁sentenced	-10.6341
▁Ce	-10.6343
▁personnel	-10.6344
2,	-10.6348
lock	-10.6349
▁Brazilian	-10.6349
▁weapons	-10.6349
▁Indonesia	-10.6352
▁ceased	-10.6353
set	-10.6355
▁compilation	-10.6355
▁returns	-10.6356
▁manufacturing	-10.6357
OS	-10.6359
▁terminus	-10.6363
ei	-10.6364
61	-10.6369
▁surgery	-10.6371
▁Wild	-10.6372
ved	-10.6374
aj	-10.6374
▁Ryan	-10.6375
▁Nazi	-10.6378
▁52	-10.6378
▁segment	-10.6381
jan	-10.6382
▁Victorian	-10.6385
▁Nan	-10.6385
ably	-10.6388
▁1917	-10.6389
▁prime	-10.6391
▁underground	-10.6391
▁Professional	-10.6392
MS	-10.6394
▁wedding	-10.6394
▁purposes	-10.6396
▁context	-10.6405
▁Here	-10.6407
▁preserved	-10.6411
▁nothing	-10.6413
▁represents	-10.6416
▁1925	-10.6418
▁Franklin	-10.6418
▁printed	-10.6421
▁Ny	-10.6423
▁Nar	-10.6425
▁actors	-10.6426
▁Communications	-10.6428
▁tennis	-10.6428
lot	-10.6429
gra	-10.6431
▁Rad	-10.6433
▁1912	-10.6433
▁Gun	-10.6434
▁arch	-10.6434
ø	-10.6438
▁measures	-10.6439
sburg	-10.644
awa	-10.6443
▁Dis	-10.6446
▁Ye	-10.6448
ora	-10.6453
▁crowd	-10.6454
▁1986,	-10.6455
7%	-10.646
▁YouTube	-10.6467
▁perhaps	-10.6468
▁NHL	-10.6469
▁classified	-10.6469
ties	-10.6469
▁traded	-10.6472
▁plus	-10.6472
▁Works	-10.6477
▁Defence	-10.648
▁why	-10.6483
▁Jimmy	-10.6485
▁Belgian	-10.6486
ral	-10.6486
ration	-10.6486
▁Baker	-10.6488
▁ethnic	-10.649
▁(10	-10.6492
▁Thus	-10.6495
▁stages	-10.6501
mas	-10.6503
▁bad	-10.6504
east	-10.6505
▁Victor	-10.6505
▁parent	-10.6506
far	-10.6515
▁Jeff	-10.6516
▁Labor	-10.6519
▁1991.	-10.652
▁suicide	-10.6522
type	-10.6524
die	-10.6525
▁1883	-10.6527
▁communication	-10.6528
zen	-10.6531
Pa	-10.6532
▁unusual	-10.6533
82	-10.6535
▁ensure	-10.6536
▁Maine	-10.6536
▁literacy	-10.6539
▁Christopher	-10.654
▁Th	-10.6541
▁Malaysia	-10.6542
stra	-10.6542
▁banks	-10.6544
▁Champions	-10.6544
▁widow	-10.6545
▁homes	-10.6547
▁Challenge	-10.6548
▁Kil	-10.6548
▁naval	-10.6557
▁wear	-10.6558
▁Studio	-10.656
▁fly	-10.6561
tern	-10.6562
▁Dal	-10.6563
▁grandson	-10.6567
xi	-10.6567
▁Story	-10.6567
▁rescue	-10.6568
▁coastal	-10.6569
▁brain	-10.6571
▁arrest	-10.6571
▁storage	-10.6572
▁Along	-10.6576
▁involving	-10.6578
▁sponsored	-10.6582
▁soundtrack	-10.6582
5,000	-10.6588
▁£	-10.6589
▁portrait	-10.659
▁illness	-10.659
▁plane	-10.6592
▁shares	-10.6593
▁institute	-10.6598
▁Dur	-10.6598
▁duo	-10.6603
▁AM	-10.6603
▁SC	-10.6605
▁domain	-10.6606
▁Commons	-10.6608
profit	-10.6613
▁(12	-10.6614
▁charts	-10.6616
▁Jon	-10.6617
▁Pass	-10.6618
thi	-10.662
▁cinema	-10.6622
▁experienced	-10.6624
▁agriculture	-10.6629
▁Having	-10.663
founded	-10.663
▁Monte	-10.663
▁charity	-10.6632
▁Jews	-10.6633
.5	-10.6635
▁app	-10.6639
▁freedom	-10.664
gun	-10.6644
Me	-10.6645
non	-10.6646
▁descent	-10.6648
una	-10.6649
▁Iraq	-10.6651
▁BA	-10.6651
▁extremely	-10.6651
▁Battalion	-10.6653
▁mean	-10.6653
chen	-10.6655
nar	-10.6656
▁Ana	-10.6657
▁Stanley	-10.666
▁guide	-10.6665
▁peaked	-10.6671
▁outer	-10.6675
▁Utah	-10.6675
▁affected	-10.6679
▁Model	-10.6679
▁grows	-10.6683
▁equivalent	-10.6684
▁platforms	-10.6685
ef	-10.6686
▁newspapers	-10.669
▁im	-10.669
▁Matthew	-10.6692
▁Who	-10.6693
▁option	-10.6696
▁wings	-10.6699
▁Ste	-10.67
mat	-10.6706
▁occasions	-10.6708
▁mountains	-10.6713
▁Pin	-10.6713
TA	-10.6715
▁NY	-10.6716
▁Gray	-10.672
▁Senator	-10.6721
▁Bri	-10.6721
▁Branch	-10.6723
cc	-10.6725
▁audio	-10.6726
▁Disney	-10.6729
▁fort	-10.6731
▁buy	-10.6732
▁assistance	-10.6733
zu	-10.6736
▁filed	-10.6738
▁Movement	-10.674
▁1985,	-10.674
▁coverage	-10.6742
-12	-10.6744
▁Jerusalem	-10.6748
▁Lan	-10.6752
▁resistance	-10.6754
tta	-10.6756
sville	-10.6758
An	-10.6761
▁habitat	-10.6761
▁Raj	-10.6772
anda	-10.6774
▁testing	-10.6774
▁Market	-10.6775
▁trading	-10.6778
▁Diocese	-10.6779
▁demand	-10.6782
▁Whit	-10.6782
▁mode	-10.6783
sp	-10.6783
▁salt	-10.6784
▁Around	-10.6789
▁cold	-10.6794
ado	-10.6798
Con	-10.6799
ue	-10.6805
Be	-10.6805
▁Attorney	-10.6807
▁continuing	-10.6807
▁forests	-10.6808
Star	-10.6809
▁injuries	-10.681
▁adding	-10.681
▁contribution	-10.6815
▁directors	-10.6815
bus	-10.6815
olo	-10.6816
▁Baseball	-10.6817
▁smooth	-10.682
▁panel	-10.6822
▁equipped	-10.6823
Ra	-10.6828
▁Pur	-10.6831
▁Political	-10.6833
▁conductor	-10.6835
▁finals	-10.6837
▁discovery	-10.6838
▁Carter	-10.6839
▁achieve	-10.6846
▁Finnish	-10.685
▁experiences	-10.6852
!"	-10.6854
▁criticism	-10.6856
▁cited	-10.6862
ila	-10.6863
▁possession	-10.6863
▁orders	-10.6868
▁bo	-10.6869
▁#1	-10.687
▁Plan	-10.687
:00	-10.6875
▁1876	-10.6876
heim	-10.6876
▁Mir	-10.6877
▁Angel	-10.6879
RA	-10.688
▁Fo	-10.6881
▁swimming	-10.6883
IS	-10.6886
ory	-10.6887
inger	-10.6889
▁Fer	-10.6892
▁unsuccessful	-10.6897
▁Even	-10.6899
ple	-10.69
▁Rights	-10.69
hall	-10.6904
▁watch	-10.6907
▁Economics	-10.6908
uck	-10.6909
▁Kevin	-10.6913
▁violence	-10.6914
▁und	-10.6923
▁Sho	-10.6924
No	-10.6925
ct	-10.6926
▁Ser	-10.6929
New	-10.6929
▁manner	-10.693
▁description	-10.6931
▁trans	-10.6932
ux	-10.6932
mu	-10.6933
hand	-10.6937
rt	-10.6939
▁Meanwhile	-10.694
▁spending	-10.6941
▁safe	-10.6941
lay	-10.6941
▁movies	-10.6942
shire	-10.6942
▁Evans	-10.6943
▁How	-10.6952
▁1871	-10.6958
▁Em	-10.696
tch	-10.6961
key	-10.6971
▁Kon	-10.6973
BA	-10.6973
▁Municipal	-10.6975
▁ho	-10.6976
nic	-10.6978
▁visible	-10.6979
▁travelled	-10.6981
▁spend	-10.6986
▁47	-10.6986
▁w	-10.6986
▁Honor	-10.6986
▁Trophy	-10.6987
vers	-10.6991
▁Berkeley	-10.6991
▁inducted	-10.6994
ute	-10.6995
▁Currently	-10.6997
▁document	-10.6998
▁corporate	-10.7
▁Leeds	-10.7
-5	-10.7001
-10	-10.7002
▁streets	-10.7004
▁Amsterdam	-10.7012
▁1878	-10.7013
▁1984,	-10.7013
▁Within	-10.7032
RC	-10.7033
▁1879	-10.7038
tain	-10.7043
▁debate	-10.7046
▁refer	-10.7049
hal	-10.7049
cer	-10.705
▁intention	-10.705
▁Cricket	-10.7051
▁amongst	-10.7057
▁seed	-10.7057
-6	-10.7058
but	-10.7059
▁sa	-10.706
▁Cur	-10.7061
▁relative	-10.7061
▁Tur	-10.7064
rus	-10.7067
▁Language	-10.7073
▁managing	-10.7074
▁decides	-10.7078
▁commanded	-10.7079
▁genre	-10.7081
▁labor	-10.7086
▁Benjamin	-10.7088
▁subsidiary	-10.7088
▁Chair	-10.7089
▁suffering	-10.7096
rate	-10.71
▁nephew	-10.7102
▁competitive	-10.7106
▁Wu	-10.7106
For	-10.7107
month	-10.711
▁rejected	-10.7112
cut	-10.7121
▁1872	-10.7121
▁soft	-10.7125
▁chapter	-10.7126
Co	-10.7129
▁gang	-10.7129
▁crown	-10.713
▁Broadcasting	-10.7134
▁cards	-10.7137
rick	-10.7144
▁mo	-10.7155
▁Hope	-10.7157
▁Ji	-10.7157
▁copy	-10.7157
▁Buck	-10.7158
▁Bru	-10.7159
▁passage	-10.7159
▁solution	-10.716
▁bringing	-10.716
act	-10.7161
▁1945,	-10.7162
▁drop	-10.7163
▁Billy	-10.7163
▁element	-10.7164
▁vision	-10.7164
▁Rico	-10.7168
▁picked	-10.7168
▁Bas	-10.7171
▁academy	-10.7173
qua	-10.7174
▁festivals	-10.7179
cent	-10.719
▁concluded	-10.72
rn	-10.7201
▁+	-10.7201
▁volumes	-10.7205
▁Brook	-10.7209
▁Racing	-10.721
▁fear	-10.7211
▁Orthodox	-10.7212
▁1989.	-10.7214
▁Technical	-10.7215
▁laws	-10.7216
▁Mitchell	-10.7216
▁acquisition	-10.7218
Bo	-10.7218
FA	-10.7219
ened	-10.722
▁1874	-10.7221
ging	-10.7221
ire	-10.7223
▁executed	-10.7223
NA	-10.7224
▁earth	-10.7228
▁existed	-10.7231
▁Father	-10.7235
▁Alice	-10.7235
▁lasted	-10.7239
▁fee	-10.7244
▁transition	-10.7244
▁Falls	-10.7245
▁cable	-10.7247
▁statement	-10.7248
▁funded	-10.7251
▁relief	-10.7255
▁Orange	-10.7256
▁riding	-10.7258
▁videos	-10.7259
=	-10.7263
▁spin	-10.7266
▁feel	-10.7268
ique	-10.7269
▁authors	-10.7271
▁finding	-10.7274
SP	-10.7275
▁Cultural	-10.7275
lands	-10.7277
à	-10.7279
▁strip	-10.728
CC	-10.7284
▁Wi	-10.7285
▁1868	-10.7288
bb	-10.7292
▁bid	-10.7296
▁finance	-10.7296
▁Basketball	-10.7298
▁1908	-10.73
–17	-10.7302
▁fired	-10.7302
▁bird	-10.7304
▁extensively	-10.7306
▁Cooper	-10.7307
▁Chile	-10.7308
▁leaf	-10.731
▁choose	-10.7311
▁Initially	-10.7312
▁considerable	-10.7315
hara	-10.7316
▁Bernard	-10.7318
▁1866	-10.7321
▁limit	-10.7321
▁challenge	-10.7322
▁colonial	-10.7322
▁Dick	-10.7323
▁check	-10.7323
▁turning	-10.7323
vent	-10.7323
▁understanding	-10.7323
▁marry	-10.7327
Man	-10.7328
▁congregation	-10.7328
▁thin	-10.7328
▁golf	-10.7329
▁retail	-10.7329
▁Barbara	-10.7329
zz	-10.7331
▁Students	-10.7332
▁controversial	-10.7334
▁gallery	-10.7334
▁capable	-10.7335
▁physician	-10.7336
▁secure	-10.7338
▁Carlos	-10.7338
ū	-10.7339
▁magazines	-10.734
▁stable	-10.7341
▁devoted	-10.7341
▁Unlike	-10.7341
zar	-10.7346
sia	-10.7348
▁routes	-10.7349
▁progress	-10.7352
▁undergraduate	-10.7358
▁symbol	-10.7358
team	-10.7359
▁Warren	-10.7359
▁benefit	-10.7363
▁Petersburg	-10.7366
▁Beijing	-10.7369
▁Hunt	-10.7369
▁string	-10.7374
▁auto	-10.7374
▁1894	-10.738
called	-10.7392
▁Taiwan	-10.7393
▁Short	-10.7394
▁Raja	-10.7402
▁defence	-10.7402
aba	-10.7403
▁intelligence	-10.7403
▁devices	-10.7404
▁Manhattan	-10.7408
▁medals	-10.7411
ı	-10.7411
▁1913	-10.7413
round	-10.7415
▁reaction	-10.7425
ments	-10.7426
▁Tro	-10.7426
▁Operation	-10.7428
▁values	-10.7428
▁coached	-10.743
▁exhibitions	-10.7436
▁capita	-10.7437
▁outstanding	-10.7438
▁eliminated	-10.7438
win	-10.744
▁wants	-10.744
lla	-10.744
▁Catherine	-10.744
sley	-10.7442
▁affiliated	-10.7443
▁Wolf	-10.7444
▁Donald	-10.7446
ž	-10.7448
▁suspended	-10.7448
▁blocks	-10.745
ians	-10.7451
▁choir	-10.7455
list	-10.7455
▁spoke	-10.7455
▁CA	-10.7457
▁Guy	-10.7458
▁poll	-10.7461
▁Florence	-10.7464
yne	-10.7465
▁clean	-10.7466
▁Transport	-10.7469
aire	-10.7469
yama	-10.747
▁1867	-10.747
▁Tel	-10.747
lip	-10.7471
▁51	-10.7471
▁strike	-10.7473
▁sun	-10.7474
▁nearest	-10.7475
▁(11	-10.7475
▁warm	-10.7479
top	-10.7481
arch	-10.7483
▁declined	-10.7488
▁concentration	-10.7488
nell	-10.7491
▁examples	-10.7491
pping	-10.7494
▁margin	-10.7494
game	-10.7499
▁Ridge	-10.7499
▁Johnny	-10.75
▁tell	-10.75
▁Neu	-10.7501
▁drew	-10.7501
▁speak	-10.7507
▁Der	-10.751
ł	-10.7511
aya	-10.7514
▁aspects	-10.7515
ean	-10.7523
▁otherwise	-10.7523
▁struck	-10.7524
▁Finance	-10.7525
died	-10.7528
CO	-10.7529
hen	-10.7529
▁Wei	-10.7529
▁Nicholas	-10.7531
▁strongly	-10.7538
▁Wo	-10.7539
▁ratio	-10.754
▁dynasty	-10.7547
▁1000	-10.7547
▁Hindu	-10.7548
▁Ice	-10.7549
▁sisters	-10.755
boy	-10.7554
▁Range	-10.7555
▁boats	-10.7556
▁thousands	-10.756
▁PA	-10.756
ui	-10.7561
dor	-10.7564
▁Thailand	-10.7565
▁HMS	-10.7567
itz	-10.7568
▁assist	-10.7569
▁(14	-10.757
book	-10.7572
▁Ter	-10.7573
▁VI	-10.7576
▁tied	-10.7577
▁Tai	-10.7579
▁suggests	-10.7585
fish	-10.7585
▁departure	-10.7586
▁cattle	-10.7592
▁credits	-10.7596
▁Democrat	-10.7596
bed	-10.7597
ami	-10.76
▁120	-10.7608
▁Friday	-10.7608
▁Alberta	-10.7609
▁Call	-10.7612
▁1,000	-10.7613
▁Last	-10.7616
▁Cra	-10.7616
▁Salt	-10.7617
▁assisted	-10.7617
ash	-10.7617
▁Ay	-10.762
▁changing	-10.762
▁Mah	-10.7623
▁enjoyed	-10.7623
▁divisions	-10.7625
▁UN	-10.7628
▁mention	-10.7631
▁1983,	-10.7632
cia	-10.7641
▁Auckland	-10.7642
▁mall	-10.7642
▁Ry	-10.7645
▁Ty	-10.7649
▁exception	-10.7649
▁rounds	-10.7649
▁PC	-10.7649
▁preparation	-10.7649
▁task	-10.765
ations	-10.765
▁Pal	-10.7651
Sa	-10.7652
▁clan	-10.7653
▁1916	-10.7659
mond	-10.7659
▁instrument	-10.766
▁Race	-10.7662
▁par	-10.7663
▁questions	-10.7664
▁die	-10.7664
▁honors	-10.7668
Lo	-10.7669
gin	-10.7671
▁modified	-10.7673
▁count	-10.7675
▁1982,	-10.7676
▁persons	-10.7676
▁tribe	-10.7678
ware	-10.7679
winning	-10.768
▁criticized	-10.7681
▁productions	-10.7681
▁inspiration	-10.7682
▁Base	-10.7685
▁1987.	-10.7686
agh	-10.7689
▁Century	-10.769
▁Literature	-10.7692
▁Computer	-10.7695
.1	-10.7697
▁nor	-10.77
esh	-10.7702
most	-10.7703
▁note	-10.7704
▁sailed	-10.7705
cus	-10.7708
▁fitted	-10.7708
▁Lloyd	-10.7711
▁inner	-10.7712
cker	-10.7712
▁ski	-10.7713
▁inherited	-10.7717
▁assault	-10.7719
wo	-10.772
gram	-10.7722
▁1990.	-10.7724
▁behavior	-10.7724
▁54	-10.7724
▁displayed	-10.7725
▁Hard	-10.7733
▁canal	-10.7735
▁manuscript	-10.7739
▁tools	-10.7741
▁sort	-10.7746
▁require	-10.7748
▁1873	-10.775
▁Barcelona	-10.7752
▁assists	-10.7755
▁Penn	-10.7761
qu	-10.7761
yu	-10.7762
▁Hamburg	-10.7762
▁thereafter	-10.7763
▁photographs	-10.7765
ces	-10.7767
bank	-10.7771
mor	-10.7774
▁po	-10.7774
▁wealthy	-10.7774
▁favor	-10.7776
▁1877	-10.7777
vor	-10.7778
ches	-10.7779
▁Hunter	-10.7784
▁Stock	-10.7785
▁protest	-10.7789
▁suburb	-10.7793
▁Vel	-10.7797
▁Cre	-10.7797
▁SA	-10.7799
uf	-10.7801
▁Dream	-10.7803
▁Bible	-10.7803
▁Serbian	-10.7805
ction	-10.7807
▁Marc	-10.781
▁Constitution	-10.7811
▁Athens	-10.7813
▁spell	-10.7815
▁maintenance	-10.7815
▁Peninsula	-10.7817
▁hometown	-10.7819
▁Cam	-10.7819
ras	-10.7825
▁Kra	-10.7827
▁Charlie	-10.7828
▁1972,	-10.7828
▁lb	-10.7829
▁Wayne	-10.783
hour	-10.7831
▁obtain	-10.7833
▁Pri	-10.7836
▁Hawaii	-10.7838
▁costs	-10.7839
▁mono	-10.784
▁farming	-10.784
▁ward	-10.7843
▁frequent	-10.7844
▁patrol	-10.7844
sel	-10.7845
▁Socialist	-10.7846
▁Bol	-10.785
▁customers	-10.785
▁Stanford	-10.7853
▁mix	-10.7856
▁argued	-10.7857
▁CBS	-10.7858
▁internationally	-10.786
▁Abu	-10.7864
▁message	-10.7865
▁factor	-10.7865
brook	-10.7866
▁56	-10.7868
▁mounted	-10.7868
▁Child	-10.7871
uli	-10.7871
▁everything	-10.7873
▁Venice	-10.7873
▁Small	-10.7874
▁1986.	-10.7879
some	-10.788
▁Bull	-10.7884
▁Eu	-10.7885
▁1988.	-10.7885
▁conservation	-10.7885
▁Sc	-10.7889
▁53	-10.7891
▁Bern	-10.7894
▁apartment	-10.7895
▁produces	-10.7898
▁predecessor	-10.7901
▁easy	-10.7903
▁earn	-10.7908
▁Dead	-10.7912
▁tie	-10.7912
▁Motor	-10.7914
▁difference	-10.7918
▁(13	-10.7919
▁broadcasting	-10.792
▁jump	-10.7922
▁vocalist	-10.7924
▁Newcastle	-10.7931
▁eggs	-10.7935
uma	-10.7936
▁Ac	-10.7937
▁expert	-10.7938
▁vessels	-10.7939
▁qualify	-10.7939
▁sole	-10.7944
▁Vermont	-10.7944
▁requirements	-10.7949
▁Gabriel	-10.795
▁facing	-10.795
_	-10.7951
▁1979,	-10.7952
▁opportunities	-10.7958
▁focuses	-10.7958
gle	-10.7958
pri	-10.7967
▁Kenya	-10.7967
▁gone	-10.7968
▁600	-10.797
▁describe	-10.7971
▁attributed	-10.7972
▁Fleet	-10.7974
▁occasion	-10.7977
▁elementary	-10.7981
▁insurance	-10.7985
▁scholars	-10.7988
▁reaches	-10.7991
▁Arkansas	-10.7992
illo	-10.7994
▁output	-10.7997
aki	-10.7998
▁Historical	-10.8
▁counties	-10.8004
▁mini	-10.8005
▁Luis	-10.801
▁NBA	-10.8012
pic	-10.8013
▁spirit	-10.8013
▁Collection	-10.8018
▁organised	-10.8024
▁Sin	-10.8024
adi	-10.8024
▁1974,	-10.8026
▁Parish	-10.8027
▁Nord	-10.8027
los	-10.8028
▁summit	-10.8029
▁wave	-10.803
▁noble	-10.8031
▁Jose	-10.8032
▁Virgin	-10.8033
ged	-10.8035
▁commune	-10.8038
▁affiliate	-10.804
Do	-10.8041
▁participation	-10.8042
▁Chapel	-10.8046
iti	-10.8048
put	-10.8051
▁earthquake	-10.8052
▁1840	-10.8052
▁concerns	-10.8054
▁pale	-10.8055
▁experimental	-10.8056
▁1981,	-10.8058
е	-10.806
▁significantly	-10.806
▁Jam	-10.8061
▁processes	-10.8065
▁controversy	-10.8065
bat	-10.8072
▁Buffalo	-10.8073
▁Junction	-10.8075
OC	-10.8078
▁Section	-10.8079
▁Warner	-10.8079
▁SS	-10.808
▁moment	-10.808
▁Report	-10.8082
▁rain	-10.8082
▁bay	-10.8088
▁Mus	-10.8092
▁approval	-10.8094
а	-10.8096
▁Primary	-10.8096
▁Blues	-10.8097
▁proper	-10.8102
ridge	-10.8103
SE	-10.8105
eo	-10.8107
▁decorated	-10.8108
ave	-10.811
▁Standard	-10.8111
▁Jar	-10.8114
▁schedule	-10.8117
▁1869	-10.8117
▁mu	-10.8119
aria	-10.8121
mis	-10.8122
ien	-10.8123
–6	-10.8125
▁Kam	-10.8126
▁prisoners	-10.8126
▁Had	-10.8129
▁shore	-10.8131
▁involvement	-10.8132
AF	-10.8146
▁Bengal	-10.8147
▁begun	-10.8148
met	-10.8149
▁Tam	-10.8153
▁victims	-10.8154
▁crosses	-10.8154
▁spots	-10.8157
▁Off	-10.8158
▁consultant	-10.816
▁Turner	-10.8161
▁chemistry	-10.8164
▁Arabic	-10.8164
Mar	-10.8169
▁thousand	-10.8171
▁ticket	-10.8171
▁Zone	-10.8172
▁(20	-10.8174
▁initiative	-10.8174
▁Stan	-10.8178
▁roster	-10.8182
▁72	-10.8183
▁file	-10.8183
▁Auto	-10.8185
▁Hand	-10.819
▁Gal	-10.8191
▁1888	-10.8198
▁1857	-10.8198
▁threatened	-10.82
▁AC	-10.82
▁Stockholm	-10.8204
▁Hugh	-10.8207
▁switched	-10.8207
▁tape	-10.8208
hop	-10.8209
▁1848	-10.8211
osa	-10.8212
▁Cer	-10.8213
▁topics	-10.8213
sol	-10.8213
▁Horn	-10.8214
-8	-10.8214
sis	-10.8214
▁roots	-10.8216
CA	-10.8217
▁Borough	-10.8221
[	-10.8222
▁Gau	-10.8227
▁writes	-10.8228
▁penalty	-10.8229
▁Horse	-10.8232
▁Baronet	-10.8233
▁Guinea	-10.8234
▁rising	-10.8235
▁horses	-10.8236
▁Springs	-10.8238
▁Gary	-10.8239
▁1985.	-10.8242
MC	-10.8243
▁apparently	-10.8243
▁Industrial	-10.8244
▁1891	-10.8247
▁Shanghai	-10.8252
cat	-10.8253
▁happened	-10.8254
▁exists	-10.8256
▁tackles	-10.8256
▁accessible	-10.8258
▁Im	-10.826
▁Norfolk	-10.8261
▁bright	-10.8262
▁feed	-10.8262
▁Romanian	-10.8264
pu	-10.8268
▁crash	-10.8268
▁Tin	-10.8269
ox	-10.827
▁Books	-10.8274
▁altitude	-10.8274
▁soldier	-10.8278
▁secured	-10.828
▁electrical	-10.828
▁rated	-10.8281
▁Caribbean	-10.8281
▁1945.	-10.8283
▁Windows	-10.8283
▁1864	-10.8284
▁coat	-10.8287
cio	-10.8287
fu	-10.8295
▁Ky	-10.8295
▁locally	-10.8295
▁Parker	-10.8303
▁Wing	-10.8306
▁Leon	-10.8308
▁requires	-10.8309
▁legend	-10.831
▁profile	-10.8314
▁Cole	-10.8315
LA	-10.8317
minute	-10.832
▁sum	-10.8321
▁fled	-10.8322
▁1978,	-10.8323
▁components	-10.8326
▁portrayed	-10.8328
▁behalf	-10.8332
cle	-10.8332
▁Barry	-10.8332
avi	-10.8335
feld	-10.8341
tier	-10.8341
▁64,	-10.8341
▁Guide	-10.8341
▁encouraged	-10.8347
▁fresh	-10.8347
▁Rick	-10.8349
▁Mediterranean	-10.8353
lum	-10.8353
▁Sara	-10.8353
▁meetings	-10.8355
▁colony	-10.8357
finals	-10.836
▁1905	-10.8371
▁66	-10.8372
▁proposal	-10.8373
▁Qui	-10.8378
▁Kirk	-10.8384
▁fit	-10.8385
▁Mari	-10.8386
▁si	-10.8386
▁thesis	-10.8389
▁resort	-10.839
sum	-10.8391
PS	-10.8392
▁Rod	-10.8393
founder	-10.8393
▁expand	-10.8393
nis	-10.8398
▁decline	-10.8398
nam	-10.8399
▁ambassador	-10.84
▁250	-10.84
kha	-10.8401
▁Nashville	-10.8402
lau	-10.8403
▁Bat	-10.8407
▁Death	-10.8413
▁exit	-10.8416
▁kingdom	-10.8419
▁tank	-10.842
▁Season	-10.8421
▁Derby	-10.8423
▁Wind	-10.8423
such	-10.8425
▁Ob	-10.8427
è	-10.8428
▁1863	-10.8431
▁planet	-10.8431
▁Islam	-10.8433
rell	-10.8433
ë	-10.8434
sar	-10.8435
read	-10.8437
▁ideal	-10.844
▁NBC	-10.8444
eta	-10.8445
▁Cincinnati	-10.8445
▁Wellington	-10.8447
▁seek	-10.8451
ose	-10.8452
▁beating	-10.8454
▁Track	-10.8457
▁partners	-10.8458
▁Has	-10.8459
▁eighth	-10.8462
▁clerk	-10.8462
▁Ring	-10.847
SS	-10.8471
▁illegal	-10.8473
▁Places	-10.8474
▁1975,	-10.8474
▁convention	-10.8475
▁44,	-10.8479
▁commenced	-10.8481
▁ministry	-10.8488
▁Gas	-10.8494
▁800	-10.8494
▁external	-10.8495
away	-10.8496
▁specialist	-10.8498
▁Andy	-10.8498
▁reportedly	-10.8499
▁Rangers	-10.85
▁1984.	-10.8502
▁outdoor	-10.8502
▁recommended	-10.8505
ography	-10.8508
then	-10.8508
▁accept	-10.8509
▁Ker	-10.8511
▁settlers	-10.8511
▁missed	-10.8512
zh	-10.8516
▁economics	-10.8516
▁activist	-10.852
▁1859	-10.8523
onic	-10.8524
▁Apple	-10.8527
▁powered	-10.8528
▁outbreak	-10.8534
▁stem	-10.855
▁Alaska	-10.855
▁supports	-10.8551
▁tunnel	-10.8554
▁pianist	-10.8556
▁Holland	-10.8556
▁grave	-10.8559
100	-10.8561
▁Mall	-10.8562
las	-10.8565
▁Video	-10.8566
ili	-10.8566
▁1976,	-10.857
▁editorial	-10.8571
▁dream	-10.8572
maker	-10.8576
▁sessions	-10.8578
▁Every	-10.8578
ş	-10.8578
▁gradually	-10.858
▁none	-10.8582
▁tier	-10.8584
▁Craig	-10.8584
▁crisis	-10.8585
▁Systems	-10.8587
▁Exchange	-10.8589
▁bound	-10.859
▁1.5	-10.859
vy	-10.8591
▁loaned	-10.8591
▁legislation	-10.8592
▁snow	-10.8596
int	-10.8598
hol	-10.8598
▁Mul	-10.86
▁Much	-10.8602
▁Costa	-10.8603
EC	-10.8605
▁1980,	-10.8605
▁cash	-10.8608
▁instance	-10.861
iel	-10.8612
▁Drive	-10.8613
▁Egyptian	-10.8617
chu	-10.8618
▁Hebrew	-10.862
▁Persian	-10.8621
▁Common	-10.8623
▁Commerce	-10.8623
▁classification	-10.8623
▁charter	-10.8627
▁longest	-10.8629
iki	-10.8633
▁giant	-10.8635
duc	-10.8637
▁Dark	-10.8638
▁Kir	-10.8638
▁incumbent	-10.864
▁birthday	-10.8641
SL	-10.8643
▁1904	-10.8645
▁ranks	-10.8647
▁operational	-10.8648
eur	-10.8651
▁Pradesh	-10.8651
▁disbanded	-10.8653
▁manage	-10.8653
▁Zi	-10.8659
▁seconds	-10.866
▁clock	-10.8661
ars	-10.8663
view	-10.8668
α	-10.8668
▁Herbert	-10.8669
▁Copenhagen	-10.8672
anga	-10.8672
▁1971,	-10.8672
▁1968,	-10.8674
å	-10.8674
lit	-10.8675
▁Sor	-10.8676
▁weak	-10.8677
▁artwork	-10.8678
▁Vincent	-10.8681
▁massive	-10.8681
▁instructor	-10.8682
▁Por	-10.8682
▁Muhammad	-10.8685
▁Chan	-10.8686
▁perfect	-10.8686
▁constant	-10.8686
▁teach	-10.8686
she	-10.8688
▁resignation	-10.869
▁Gill	-10.8692
final	-10.8695
▁1944,	-10.8695
▁integrated	-10.8696
▁Kas	-10.8696
▁Digital	-10.8702
▁lu	-10.8706
▁Romania	-10.8711
▁mental	-10.8712
▁beam	-10.8716
aro	-10.8716
▁remote	-10.8719
▁doesn	-10.8722
▁li	-10.8723
▁Kor	-10.8724
▁serial	-10.8725
▁DNA	-10.8725
▁Are	-10.8729
▁wheel	-10.8729
▁Pol	-10.873
▁hearing	-10.8731
▁Arena	-10.8732
▁fifteen	-10.8733
RT	-10.8736
BC	-10.874
▁airline	-10.874
▁latest	-10.8741
▁Qu	-10.8743
▁Ivan	-10.8746
▁Mother	-10.8753
▁62	-10.8757
▁characterized	-10.8759
▁Dakota	-10.876
▁powers	-10.8768
▁Rich	-10.8769
▁alleged	-10.877
▁Brisbane	-10.8771
▁Ian	-10.8773
lov	-10.8773
inch	-10.8774
▁1969,	-10.8775
▁Eventually	-10.8776
▁bell	-10.8779
▁repair	-10.8783
▁drums	-10.8783
▁paint	-10.8784
horn	-10.8785
▁sing	-10.8787
▁trust	-10.8792
ans	-10.8793
▁advisor	-10.8798
▁bomb	-10.8804
▁Survey	-10.8805
▁correct	-10.8807
▁carbon	-10.8807
▁Grove	-10.8813
▁fe	-10.8815
▁Harrison	-10.8815
▁producers	-10.8822
▁jobs	-10.8822
▁infrastructure	-10.8823
pen	-10.8827
▁locomotives	-10.8829
▁Cuba	-10.8829
▁1983.	-10.8829
▁send	-10.8832
▁Rai	-10.8832
▁anything	-10.8833
▁1903	-10.8837
HL	-10.8837
▁faith	-10.8838
itt	-10.884
▁Armenian	-10.884
▁Lions	-10.8842
ED	-10.8842
▁Methodist	-10.8842
▁employment	-10.8843
▁Wy	-10.8847
arm	-10.8848
▁minimum	-10.8848
▁markets	-10.885
▁agencies	-10.885
▁emergency	-10.8853
▁Morning	-10.8855
▁Territory	-10.8855
▁Oliver	-10.8855
▁offensive	-10.8856
▁1977,	-10.8864
▁differences	-10.8865
scale	-10.8866
▁Prague	-10.887
ES	-10.8876
▁Minor	-10.8877
▁dual	-10.888
get	-10.8884
member	-10.8887
tsu	-10.8888
▁legs	-10.8888
▁pa	-10.8892
▁Johann	-10.8898
▁funeral	-10.8901
▁Secondary	-10.8902
▁courts	-10.8902
▁Industry	-10.8905
▁Late	-10.8905
ock	-10.8907
▁advice	-10.8908
▁1982.	-10.891
▁opinion	-10.891
TC	-10.891
▁Kha	-10.8911
-16	-10.8913
▁1854	-10.8917
oh	-10.892
▁hundreds	-10.8921
▁walking	-10.8922
▁1979.	-10.8923
matic	-10.8923
made	-10.8928
▁Masters	-10.8928
▁Pla	-10.8929
ا	-10.8929
▁establishing	-10.8933
▁2.5	-10.8935
▁grey	-10.8936
▁add	-10.8937
▁Lanka	-10.8938
▁Wang	-10.8939
▁Instead	-10.894
▁phrase	-10.894
▁RAF	-10.8941
▁manufacturer	-10.8942
▁Luke	-10.8944
▁Ottawa	-10.8948
▁survive	-10.8949
▁spiritual	-10.8953
▁Bulgarian	-10.8958
▁Brand	-10.896
ular	-10.896
3,	-10.896
▁58	-10.8962
▁favour	-10.8963
▁Bath	-10.8965
▁r	-10.897
tle	-10.8972
under	-10.8973
▁1902	-10.8973
▁assets	-10.8977
▁Peru	-10.8978
▁useful	-10.8979
▁Gay	-10.8979
▁prestigious	-10.8981
▁ranking	-10.8981
tti	-10.8983
▁1881	-10.8989
▁el	-10.8991
▁absence	-10.8992
▁transportation	-10.8992
▁Hudson	-10.8994
table	-10.8998
▁ensemble	-10.9001
▁flower	-10.9005
▁Yan	-10.9006
▁Woman	-10.9007
stad	-10.9007
kel	-10.9007
-0	-10.9007
ges	-10.9007
til	-10.9008
▁strategic	-10.901
▁Serbia	-10.9012
▁Jason	-10.9012
▁Collins	-10.9018
▁knee	-10.9018
▁1884	-10.9019
▁Kat	-10.9019
–1	-10.9021
aries	-10.9022
tom	-10.9024
▁1973,	-10.9026
▁Leo	-10.9035
▁editions	-10.9036
▁initiated	-10.9039
▁diocese	-10.904
ister	-10.9042
▁Perth	-10.9042
▁pioneer	-10.9044
▁CE	-10.9044
ax	-10.9049
take	-10.9052
▁Wil	-10.9054
wal	-10.9054
onia	-10.9056
▁Card	-10.9056
ă	-10.9056
▁Tha	-10.9057
▁soul	-10.9058
life	-10.9058
▁aimed	-10.9061
▁originated	-10.9063
▁collect	-10.9063
▁columns	-10.9065
▁ride	-10.9068
Pro	-10.9069
rock	-10.907
▁specialized	-10.907
▁te	-10.9072
▁Ambassador	-10.9073
▁pi	-10.9074
▁57	-10.9075
▁connecting	-10.9076
▁rivers	-10.9076
fin	-10.9077
eva	-10.9077
▁Throughout	-10.908
▁tomb	-10.908
▁1855	-10.908
▁participants	-10.9084
▁prototype	-10.9095
▁notice	-10.9097
▁Guardian	-10.9099
▁regime	-10.9101
▁Low	-10.9103
▁prince	-10.9103
▁pan	-10.9104
▁deck	-10.9109
▁São	-10.9111
IP	-10.9112
▁1830	-10.9112
?"	-10.9117
▁Wilhelm	-10.9118
bie	-10.9118
▁Soul	-10.9121
▁manor	-10.9122
mate	-10.9122
▁Fan	-10.9122
mic	-10.9124
▁elevated	-10.9124
▁ban	-10.9125
▁85	-10.9129
▁Well	-10.913
▁spoken	-10.9135
▁cat	-10.9135
▁Cher	-10.9136
▁participating	-10.9136
▁promoting	-10.914
rang	-10.9143
▁Susan	-10.9143
▁accommodate	-10.9144
ition	-10.9144
▁Action	-10.9146
▁Vas	-10.9147
▁recovered	-10.9147
–5	-10.9153
▁roll	-10.9153
▁partly	-10.9156
▁Dog	-10.9158
▁themes	-10.9159
acre	-10.9159
▁Mumbai	-10.9162
▁Comp	-10.9163
▁tribute	-10.9164
sco	-10.9165
▁Jonathan	-10.9165
▁sha	-10.9166
body	-10.9167
▁depending	-10.9167
▁beauty	-10.9171
▁struggle	-10.9172
BS	-10.9173
ois	-10.9173
owned	-10.9173
▁Med	-10.9176
Po	-10.9176
▁fun	-10.9177
Na	-10.9177
▁Beat	-10.9177
Li	-10.9179
ito	-10.918
▁Phoenix	-10.9182
▁Control	-10.9184
▁resumed	-10.9186
ttle	-10.9186
▁aim	-10.9187
▁thing	-10.9189
▁Tech	-10.9192
▁Protestant	-10.9195
▁submarine	-10.9195
▁Bach	-10.9201
ów	-10.9202
▁rapidly	-10.9204
▁Sk	-10.9205
▁renowned	-10.9207
▁favorite	-10.9209
sion	-10.921
▁layer	-10.921
▁Grey	-10.9211
▁sentence	-10.9212
▁ta	-10.9213
▁tea	-10.9213
▁shopping	-10.9214
length	-10.9214
▁orange	-10.9215
▁Vin	-10.9216
▁Classic	-10.9216
▁Warsaw	-10.9219
▁Mis	-10.9219
via	-10.9221
▁exclusively	-10.9225
▁apart	-10.9229
▁Cla	-10.9236
▁resolution	-10.9236
▁divorced	-10.9237
▁tropical	-10.9241
▁anchor	-10.9245
▁App	-10.9245
cin	-10.9252
▁treated	-10.9255
▁closure	-10.9256
▁partially	-10.9259
▁sitting	-10.9261
▁Leader	-10.927
ović	-10.9275
▁jurisdiction	-10.9284
▁Policy	-10.9285
▁decide	-10.9289
▁baby	-10.9289
▁Shaw	-10.9289
▁policies	-10.929
▁shops	-10.9293
▁Gregory	-10.9293
▁understand	-10.9297
ī	-10.9299
▁romantic	-10.9299
AR	-10.9303
▁pin	-10.9303
cor	-10.9306
▁Non	-10.931
▁1901	-10.9311
bha	-10.9316
▁Robin	-10.9318
FC	-10.9319
▁Sultan	-10.932
▁Kur	-10.932
▁weekend	-10.9327
▁adults	-10.933
▁handle	-10.9331
▁normally	-10.9337
▁Next	-10.9337
AL	-10.9337
ign	-10.9339
gli	-10.9339
▁Stars	-10.9342
▁CF	-10.9344
▁Saints	-10.9346
▁missions	-10.9346
▁99	-10.9347
▁sculptor	-10.9348
▁Manager	-10.9348
PC	-10.9349
▁61	-10.9349
▁1967,	-10.9349
uz	-10.9351
▁appropriate	-10.9351
▁1972.	-10.9352
state	-10.9352
▁Competition	-10.9353
▁Zo	-10.9354
▁Associate	-10.9354
▁Provincial	-10.9356
▁accounts	-10.9359
▁Advisory	-10.936
▁Bag	-10.936
▁interchange	-10.936
had	-10.9363
▁pitch	-10.9365
▁everyone	-10.9368
▁Kay	-10.9369
▁closing	-10.9371
▁Agriculture	-10.9371
▁Institution	-10.9373
▁speaking	-10.9373
▁63	-10.9374
ern	-10.9375
▁emperor	-10.9377
▁Jerry	-10.9377
▁clinical	-10.9378
▁Kol	-10.9381
▁Support	-10.9381
▁speaker	-10.9383
▁Az	-10.9384
▁desire	-10.9386
DC	-10.9386
▁Magic	-10.9387
▁waters	-10.9387
▁Plant	-10.9388
▁frequency	-10.9389
▁Ground	-10.9391
▁Thi	-10.9391
▁strategy	-10.9392
▁Gan	-10.9392
▁Hon	-10.9397
▁categories	-10.9398
▁enlisted	-10.9401
▁Afghanistan	-10.9401
cri	-10.9402
▁detailed	-10.9403
▁mentor	-10.9404
▁doors	-10.9404
▁belongs	-10.9407
▁farmer	-10.9407
▁Coach	-10.9409
▁restaurants	-10.9409
▁exposed	-10.941
▁graph	-10.9411
▁abolished	-10.9413
▁Nation	-10.9413
▁epi	-10.9415
▁denied	-10.9416
▁Fellowship	-10.942
▁farmers	-10.9421
▁Sr	-10.9423
▁Universal	-10.9425
▁trouble	-10.9427
▁sees	-10.943
▁Bird	-10.9431
ij	-10.9432
▁1978.	-10.9434
▁Vegas	-10.9436
cast	-10.9437
▁Sheffield	-10.9438
▁processing	-10.944
▁Drama	-10.9446
▁Palm	-10.9446
▁pe	-10.9447
▁Lor	-10.9456
Vi	-10.9457
igan	-10.9458
▁1981.	-10.946
▁timber	-10.9463
▁Mason	-10.9467
rah	-10.9467
▁1858	-10.9468
▁Oslo	-10.9469
▁Contemporary	-10.9472
▁links	-10.9473
▁10,000	-10.9473
▁worship	-10.9477
▁hat	-10.9479
▁Blood	-10.9483
▁remove	-10.9483
RI	-10.9484
▁conclusion	-10.9484
1.	-10.9484
▁bond	-10.9489
▁enters	-10.9489
cap	-10.9489
▁designation	-10.9493
DP	-10.9493
lat	-10.9498
▁knew	-10.9507
▁connects	-10.9507
▁1974.	-10.9509
▁gate	-10.951
▁blog	-10.9512
▁legislature	-10.9517
▁Freedom	-10.9518
▁Songs	-10.9521
▁ruling	-10.9522
▁diverse	-10.9525
▁Side	-10.9526
▁exhibit	-10.9529
box	-10.9529
о	-10.953
▁hectares	-10.9533
▁borough	-10.9534
▁gay	-10.9536
▁intellectual	-10.9536
▁stint	-10.9536
▁rapid	-10.9538
▁innings	-10.9539
▁export	-10.9544
▁ba	-10.9545
▁Bun	-10.9545
ender	-10.9548
▁Electric	-10.955
▁1977.	-10.9553
▁viewers	-10.9554
▁fur	-10.9557
▁suitable	-10.9561
▁Grace	-10.9563
ín	-10.957
sz	-10.957
▁cargo	-10.9572
▁prove	-10.9573
▁Harbor	-10.9576
ST	-10.9579
▁loop	-10.958
▁conservative	-10.9581
▁sight	-10.9582
mile	-10.9585
▁1976.	-10.9585
▁Butler	-10.9586
▁Campaign	-10.9589
▁Kai	-10.959
▁gl	-10.9591
Da	-10.9591
▁hope	-10.9593
▁Tang	-10.9594
right	-10.9595
▁Financial	-10.9595
▁signature	-10.9597
▁representatives	-10.9599
▁Code	-10.9599
▁patient	-10.9601
▁Gilbert	-10.9602
▁Cruz	-10.9604
▁Nevada	-10.9605
▁Kara	-10.9607
▁Lou	-10.9607
▁bench	-10.9612
▁founders	-10.9612
ctor	-10.9613
▁Roll	-10.9614
▁dissolved	-10.9614
▁keeping	-10.9614
▁rocks	-10.962
pper	-10.9621
▁Years	-10.9621
ald	-10.9621
▁internet	-10.9623
▁Rosa	-10.9625
Ta	-10.9625
lee	-10.9626
▁Nature	-10.9626
▁£1	-10.9632
▁mechanical	-10.9637
▁concerned	-10.9639
▁seeking	-10.964
▁excellent	-10.9641
▁76	-10.9642
▁circle	-10.9642
▁tool	-10.9644
▁log	-10.9646
▁Nam	-10.965
▁increasingly	-10.9652
▁explained	-10.9657
lor	-10.9658
▁1852	-10.9665
▁Beck	-10.9666
3.	-10.9669
ates	-10.9671
▁com	-10.9673
rant	-10.9673
nica	-10.9677
▁Seminary	-10.9679
▁centers	-10.9681
▁shelter	-10.9681
▁ka	-10.9682
▁Anglo	-10.9684
▁ranging	-10.9684
000	-10.9685
▁Perry	-10.9685
ER	-10.9685
▁Schools	-10.9687
▁belonging	-10.9688
IT	-10.969
▁Cass	-10.9691
▁component	-10.9693
Ch	-10.9693
▁Elementary	-10.9694
▁1973.	-10.9695
▁journalism	-10.9696
▁liquid	-10.9696
▁permission	-10.9699
▁reviewed	-10.97
▁1975.	-10.9703
▁greatly	-10.9704
▁execution	-10.9706
▁custom	-10.9707
▁theatrical	-10.9708
ech	-10.9708
▁wa	-10.9709
phon	-10.9711
▁Mills	-10.9712
▁tourist	-10.9713
▁manufactured	-10.9714
▁interviews	-10.9717
▁profession	-10.9719
yr	-10.9719
▁matters	-10.972
▁arrangement	-10.9721
▁ocean	-10.9724
▁Type	-10.9724
▁emigrated	-10.9726
Ka	-10.973
▁indigenous	-10.9733
enburg	-10.9733
wen	-10.9739
▁immigrants	-10.9745
▁sugar	-10.9745
▁Railways	-10.9747
▁Estate	-10.9748
▁Giovanni	-10.9748
▁throne	-10.975
AA	-10.9752
making	-10.9752
▁clothing	-10.9753
▁immediate	-10.9754
>	-10.9755
▁Princeton	-10.9764
▁knots	-10.9771
▁communications	-10.9775
two	-10.9776
▁1971.	-10.9777
▁spaces	-10.9778
▁59	-10.9781
▁plate	-10.9787
▁verse	-10.9791
▁1856	-10.9791
▁lo	-10.9792
dic	-10.9793
vas	-10.9793
ema	-10.9795
▁monthly	-10.9796
▁deliver	-10.9803
▁Mann	-10.9805
▁Tigers	-10.9805
▁Lab	-10.9806
▁falling	-10.9808
▁submitted	-10.9809
▁Joan	-10.9811
Or	-10.9811
hor	-10.9812
▁guilty	-10.9814
▁relation	-10.9815
▁load	-10.9815
▁cave	-10.9815
▁transmission	-10.9816
▁scientist	-10.9817
So	-10.9818
▁operator	-10.9819
▁|	-10.9822
▁Rama	-10.9823
▁Otto	-10.9825
▁abuse	-10.9825
▁1851	-10.9828
amba	-10.9831
▁burned	-10.9833
his	-10.9833
ites	-10.9833
▁unincorporated	-10.9834
▁Finally	-10.9836
You	-10.984
coming	-10.984
boat	-10.984
▁Higher	-10.9841
▁Golf	-10.9847
▁wrong	-10.9851
▁coalition	-10.9851
▁battalion	-10.9855
▁register	-10.9856
ids	-10.9858
uda	-10.9858
▁inscription	-10.9859
▁extends	-10.986
▁ready	-10.9862
▁demo	-10.9863
ters	-10.9863
thy	-10.9864
▁revenue	-10.9865
▁Distinguished	-10.9869
▁tours	-10.987
▁stake	-10.987
▁hp	-10.9871
▁landed	-10.9875
▁shut	-10.9876
▁scientists	-10.9878
▁Bin	-10.9879
▁alliance	-10.988
▁false	-10.9882
rea	-10.9883
▁construct	-10.9885
▁98	-10.9886
tive	-10.9888
▁Lar	-10.9889
▁pictures	-10.9893
▁Pedro	-10.9896
▁conversion	-10.9896
▁Denver	-10.9897
▁Scotia	-10.9904
▁Athletics	-10.9904
▁Berg	-10.9907
▁Manuel	-10.9908
chy	-10.9911
▁cancelled	-10.9912
rel	-10.9912
▁solar	-10.9912
▁Cardinal	-10.9913
–16	-10.9913
▁practices	-10.9915
▁gardens	-10.9915
▁definition	-10.9916
▁colors	-10.9918
▁celebrate	-10.9918
▁Hell	-10.992
▁67	-10.9922
▁net	-10.9924
▁runway	-10.9924
▁Clinton	-10.9926
▁angle	-10.9926
▁travels	-10.9927
–3	-10.9929
▁claiming	-10.9931
▁1965,	-10.9931
▁steep	-10.9937
▁sung	-10.9944
▁runners	-10.9944
▁pages	-10.9945
▁Admiral	-10.9945
▁whereas	-10.9949
▁Philosophy	-10.9949
RS	-10.995
rit	-10.995
▁Jin	-10.995
▁Snow	-10.9956
▁Reg	-10.9956
▁cent	-10.9959
bon	-10.9959
▁humans	-10.9959
▁hunting	-10.9965
card	-10.9968
▁breaking	-10.9974
▁alternate	-10.9975
TS	-10.9977
▁pastor	-10.9977
▁fame	-10.9979
▁Treaty	-10.9981
▁presentation	-10.9981
stan	-10.9981
▁settlements	-10.9981
▁placing	-10.9983
ichi	-10.9984
200	-10.9984
cz	-10.9986
▁crossed	-10.9986
▁threat	-10.9988
▁68	-10.999
▁Was	-10.9992
▁patron	-10.9999
▁steps	-11.0001
▁Friedrich	-11.0002
▁Ruth	-11.0002
Ho	-11.0005
▁1970,	-11.0008
-15	-11.0009
▁voting	-11.0009
▁facade	-11.001
▁supplies	-11.0012
▁consist	-11.0013
▁driven	-11.0015
▁database	-11.0019
▁substantial	-11.002
▁Voice	-11.0023
▁bed	-11.0024
atory	-11.0024
▁bear	-11.0026
ME	-11.0029
▁Bee	-11.0031
▁extreme	-11.0032
▁Set	-11.0036
▁Rogers	-11.0037
▁opponent	-11.0038
▁Chester	-11.0039
▁recognised	-11.0039
▁Ski	-11.004
aq	-11.0044
▁Confederate	-11.0044
”.	-11.0044
ants	-11.0047
▁tip	-11.005
Chinese	-11.005
▁dispute	-11.0051
▁grass	-11.0051
▁dominated	-11.0052
▁Pine	-11.0052
▁boundaries	-11.0054
▁jury	-11.0055
▁Mai	-11.006
▁belt	-11.006
▁indicated	-11.0063
ison	-11.0063
▁Keith	-11.0065
▁fighter	-11.0067
free	-11.0067
▁Conservation	-11.0068
▁sit	-11.0075
▁pub	-11.0075
▁borders	-11.0076
▁Leonard	-11.0078
▁publicly	-11.0081
br	-11.0083
▁Milwaukee	-11.0085
▁1853	-11.0088
signed	-11.0088
▁implementation	-11.0088
ators	-11.0088
▁download	-11.0088
▁Store	-11.0091
▁athletes	-11.0092
▁tele	-11.0097
▁Nepal	-11.0105
▁Further	-11.0108
etti	-11.011
▁shift	-11.0111
▁Microsoft	-11.0112
▁74	-11.0114
▁Clo	-11.0114
▁Westminster	-11.0116
▁Secret	-11.0117
▁vertical	-11.0118
-7	-11.0121
▁parking	-11.0123
▁logo	-11.0124
IA	-11.0124
pha	-11.0129
oy	-11.013
▁Murphy	-11.0134
▁licensed	-11.0134
▁82	-11.0134
▁Essex	-11.0136
▁volunteer	-11.0137
▁78	-11.0137
▁playoffs	-11.0138
its	-11.014
▁Bou	-11.0141
▁Terry	-11.0142
▁select	-11.0142
▁fictional	-11.0142
▁Aviation	-11.0143
▁lists	-11.0146
▁legislative	-11.0148
▁Š	-11.0151
▁Kumar	-11.0151
▁Nine	-11.0152
▁liberal	-11.0154
▁maps	-11.0155
▁tests	-11.0157
▁1980.	-11.0158
▁conventional	-11.0159
▁Fisher	-11.016
ult	-11.0161
iff	-11.0162
▁tournaments	-11.0164
▁Ralph	-11.0164
▁commented	-11.0168
▁Mak	-11.017
▁losses	-11.0171
▁Operations	-11.0174
Car	-11.0177
▁Roberts	-11.0177
etta	-11.0178
tia	-11.0178
▁pairs	-11.0181
▁Pet	-11.0182
▁neck	-11.0182
▁uniform	-11.0183
▁overseas	-11.0184
▁Nebraska	-11.0184
▁flew	-11.0191
▁vast	-11.0193
▁pain	-11.0194
▁op	-11.0196
berry	-11.0197
▁1963,	-11.0198
▁Tele	-11.0198
▁aviation	-11.0198
▁1964,	-11.0199
aud	-11.02
▁observation	-11.0203
SR	-11.0205
▁Greater	-11.0207
▁mansion	-11.0211
▁printing	-11.0214
ement	-11.0214
anti	-11.0216
▁murdered	-11.0217
EL	-11.0218
▁genetic	-11.022
▁Dy	-11.0221
▁auction	-11.0223
▁asks	-11.0224
ening	-11.0224
▁truth	-11.0225
hood	-11.0225
eli	-11.0229
▁1942,	-11.0229
▁milk	-11.0229
▁Chen	-11.0231
▁consider	-11.0235
▁recruited	-11.0235
▁linear	-11.0236
▁Cork	-11.0236
▁Lancashire	-11.0243
▁narrative	-11.0243
▁indicate	-11.0246
▁1968.	-11.0247
▁Stein	-11.0248
mmer	-11.025
▁plain	-11.0252
▁carries	-11.0252
▁Editor	-11.0252
▁USS	-11.0255
▁Madison	-11.0256
▁•	-11.0256
▁distinctive	-11.0257
▁effectively	-11.0258
▁violin	-11.0265
▁Canterbury	-11.0265
▁weapon	-11.0266
IM	-11.027
▁perspective	-11.0275
▁Singles	-11.0277
▁Ap	-11.0278
▁pupils	-11.0278
pass	-11.0279
▁guests	-11.0279
rad	-11.0279
▁stroke	-11.0279
▁emerged	-11.0282
▁craft	-11.0283
▁researchers	-11.0284
▁origins	-11.0285
▁Byzantine	-11.0285
new	-11.0286
tten	-11.0286
▁Aires	-11.0287
▁Mars	-11.029
▁fl	-11.0291
▁Forum	-11.0292
▁arriving	-11.0292
▁seeing	-11.0292
▁bonus	-11.0295
▁withdrew	-11.0298
▁seeds	-11.03
▁stick	-11.0303
▁colonel	-11.0303
▁encourage	-11.0303
▁distinction	-11.0311
▁moves	-11.0311
▁Peak	-11.0314
▁Weekly	-11.0315
▁Stuart	-11.0316
▁ninth	-11.032
▁caps	-11.0321
▁1966,	-11.0322
▁Indians	-11.0325
▁commissioner	-11.0326
▁discontinued	-11.0327
▁convicted	-11.0329
▁LP	-11.0329
▁shoot	-11.033
▁dancing	-11.0331
▁1899	-11.0331
▁Price	-11.0331
▁relegation	-11.0332
▁blind	-11.0332
▁cooperation	-11.0333
▁wrestling	-11.0334
▁1969.	-11.0336
ON	-11.0337
▁municipalities	-11.0337
This	-11.0339
▁Mos	-11.034
▁wearing	-11.034
▁#	-11.0341
▁Chang	-11.0345
▁Monday	-11.0345
▁siblings	-11.0345
kes	-11.0346
▁Rain	-11.0347
logy	-11.0347
▁Train	-11.035
▁Swan	-11.0352
▁Independence	-11.0353
▁journals	-11.0353
▁gift	-11.0355
gro	-11.0358
▁nickname	-11.0358
▁Hai	-11.0358
▁networks	-11.036
▁trials	-11.0362
iga	-11.0364
▁su	-11.0366
mine	-11.0366
ensis	-11.0367
▁permit	-11.0367
▁practiced	-11.0369
▁Care	-11.0369
▁Room	-11.0372
▁1941,	-11.0373
▁Kill	-11.0376
▁burial	-11.0378
▁71	-11.0378
▁Gene	-11.0379
eck	-11.0381
▁1885	-11.0381
▁releases	-11.0382
▁Circuit	-11.0384
▁banned	-11.0384
▁bull	-11.0384
▁package	-11.0386
ico	-11.0389
▁Planet	-11.0389
▁Luc	-11.0391
dorf	-11.0391
▁cu	-11.0393
▁Production	-11.0398
leg	-11.04
rod	-11.0401
▁extend	-11.0403
▁factors	-11.0411
uc	-11.0411
▁dismissed	-11.0412
▁1849	-11.042
▁1875	-11.042
▁veteran	-11.0422
▁MTV	-11.0424
pel	-11.0424
▁1898	-11.043
▁Laboratory	-11.0431
▁hamlet	-11.0435
ET	-11.0445
chief	-11.0446
▁1946,	-11.0449
▁Brad	-11.0449
▁Say	-11.045
▁jail	-11.0451
▁Dennis	-11.0452
▁imprisoned	-11.0453
▁Buenos	-11.0454
▁Henri	-11.0455
▁Page	-11.0457
▁Physics	-11.0461
▁channels	-11.0461
▁relay	-11.0462
SU	-11.0462
▁1967.	-11.0465
German	-11.0466
▁footballer	-11.0468
▁Durham	-11.0468
high	-11.0468
▁Larry	-11.0468
hai	-11.0471
▁superior	-11.0472
▁hills	-11.0473
▁forty	-11.0473
▁NC	-11.0475
▁electricity	-11.0475
▁Anton	-11.0477
▁specimens	-11.0481
▁judges	-11.0482
▁Wells	-11.0484
▁Cinema	-11.0486
▁Arnold	-11.0488
▁Artist	-11.0491
▁Friends	-11.0493
▁describing	-11.0494
hir	-11.0495
▁Abraham	-11.0495
▁Lind	-11.0497
▁96	-11.0497
cott	-11.0498
play	-11.0499
cro	-11.0501
▁Ghana	-11.0502
▁Dev	-11.0505
▁widespread	-11.0506
▁bow	-11.0508
▁Pas	-11.0509
▁Productions	-11.0509
▁Philippine	-11.0511
▁ne	-11.0514
▁citizen	-11.0514
▁Sabha	-11.0515
▁77	-11.0516
▁freight	-11.0516
fire	-11.0516
▁deployed	-11.052
▁reporting	-11.052
▁Bass	-11.0521
▁Hughes	-11.0522
▁1897	-11.0525
▁Bir	-11.0526
▁eighteen	-11.0527
▁Watson	-11.0528
▁División	-11.0529
▁Get	-11.0529
▁raising	-11.053
dam	-11.0531
▁lock	-11.0533
▁1847	-11.0534
▁gr	-11.0534
▁Future	-11.0535
▁installation	-11.0536
▁mail	-11.0536
▁truck	-11.0539
▁destruction	-11.0541
▁Lau	-11.0542
▁Sau	-11.0543
▁concern	-11.0543
▁Harold	-11.0543
ante	-11.0548
▁generated	-11.0551
▁machines	-11.0551
▁drugs	-11.0554
▁supporters	-11.0556
▁Edwards	-11.0556
▁implemented	-11.0558
lea	-11.0559
rina	-11.0561
ground	-11.0561
▁Anglican	-11.0566
▁locomotive	-11.0568
▁buses	-11.0569
▁Lebanon	-11.057
Best	-11.0572
▁administrator	-11.0573
▁climb	-11.0573
▁Joint	-11.0578
▁Colombia	-11.058
▁underwent	-11.0581
▁laboratory	-11.0583
inus	-11.0585
aff	-11.0588
idae	-11.0588
HS	-11.0591
▁identical	-11.0594
▁rebounds	-11.0597
▁Block	-11.0598
▁meat	-11.0598
▁Brunswick	-11.06
▁labour	-11.0601
▁emphasis	-11.0602
▁desert	-11.0603
▁industries	-11.0604
▁ongoing	-11.0605
gie	-11.0607
▁lose	-11.0608
yi	-11.0609
borg	-11.061
–7	-11.0611
ago	-11.0613
▁clients	-11.0614
▁certified	-11.0616
▁interpretation	-11.0616
related	-11.0619
▁Punjab	-11.062
▁73	-11.0621
▁nations	-11.0621
▁flood	-11.0622
▁basin	-11.0622
▁AS	-11.0622
▁Iranian	-11.0623
▁1947,	-11.0623
▁Mind	-11.0624
ering	-11.0625
▁MD	-11.0625
▁Based	-11.0626
▁Uganda	-11.0626
▁cathedral	-11.0627
org	-11.0629
▁compositions	-11.0629
-21	-11.0633
▁Oscar	-11.0635
▁tube	-11.0638
iri	-11.0639
nen	-11.0646
▁pump	-11.0647
▁kick	-11.0648
▁Brussels	-11.065
▁styles	-11.0651
▁hydro	-11.0652
▁gear	-11.0653
jar	-11.0653
DF	-11.0653
city	-11.0656
▁supposed	-11.0656
▁Phillips	-11.0658
▁Nat	-11.0662
mir	-11.0664
▁Georgian	-11.0664
where	-11.0665
▁1800	-11.0666
EA	-11.0666
ota	-11.0668
▁1943,	-11.0669
▁anyone	-11.067
▁preserve	-11.0671
▁Sto	-11.0673
weight	-11.0675
▁marks	-11.0678
lé	-11.0679
▁Rail	-11.0679
gger	-11.0681
▁Players	-11.0682
▁Municipality	-11.0682
▁69	-11.0684
▁orbit	-11.0686
▁rarely	-11.0687
▁3-	-11.069
rai	-11.0692
▁Dame	-11.0695
▁1893	-11.0698
ffer	-11.0698
▁wider	-11.07
▁copper	-11.0703
▁neighboring	-11.0703
▁Pictures	-11.0707
▁Cold	-11.0707
dell	-11.0707
▁involves	-11.0709
▁Prefecture	-11.071
▁renovated	-11.0713
chin	-11.0714
▁answer	-11.0714
▁1895	-11.0723
sse	-11.0724
▁Jefferson	-11.0725
▁escaped	-11.0727
▁convert	-11.0732
▁Representative	-11.0734
▁honored	-11.0735
▁Kre	-11.0735
nor	-11.0738
▁Kerala	-11.0738
▁connect	-11.0739
▁mines	-11.074
pop	-11.0742
▁Advanced	-11.0743
ovich	-11.0743
ising	-11.0743
AT	-11.0743
▁95	-11.0744
▁disaster	-11.0746
–4	-11.075
▁tributary	-11.0752
▁Shakespeare	-11.0752
rian	-11.0752
▁delivery	-11.0755
▁Thor	-11.0757
▁compiled	-11.0758
▁1962,	-11.0764
▁Such	-11.0765
▁breeding	-11.0767
▁departed	-11.077
▁1966.	-11.077
▁cor	-11.077
▁characteristic	-11.0772
nagar	-11.0773
cht	-11.0774
▁animated	-11.0776
▁athletic	-11.0776
▁fortune	-11.0777
4,	-11.0777
▁eligible	-11.0784
SI	-11.0785
▁engagement	-11.0785
▁else	-11.0786
▁thirteen	-11.0788
▁identify	-11.0793
tam	-11.0796
▁Private	-11.0797
CP	-11.0798
▁1948,	-11.0798
pal	-11.08
▁1940,	-11.0802
lane	-11.0802
▁Yugoslavia	-11.0803
mur	-11.0804
▁portraits	-11.0805
–0.	-11.0805
▁drum	-11.0805
▁doubles	-11.0806
pol	-11.0807
▁Rural	-11.0807
▁Americans	-11.0807
▁Principal	-11.0808
▁yard	-11.081
▁lessons	-11.081
▁81	-11.0813
▁1961,	-11.0814
hin	-11.0814
▁1939,	-11.0816
▁Rabbi	-11.0824
▁comprises	-11.0826
▁repeated	-11.0827
lly	-11.0828
idi	-11.0828
▁interface	-11.0833
▁reflect	-11.0834
▁renovation	-11.0838
▁affect	-11.0841
▁traveling	-11.0842
▁percentage	-11.0848
vert	-11.0849
spect	-11.0849
▁Krishna	-11.0849
▁fu	-11.0849
▁Harvey	-11.0849
oid	-11.0853
▁hence	-11.0856
▁fifty	-11.0857
▁civilian	-11.0858
My	-11.0859
▁radical	-11.086
▁continuous	-11.086
▁Sierra	-11.0862
vat	-11.0863
erson	-11.0863
▁connections	-11.0865
▁prepare	-11.0865
▁reduction	-11.0868
▁Qa	-11.0871
▁1892	-11.0871
Russian	-11.0872
▁saved	-11.0872
▁88	-11.0874
ient	-11.0876
▁1965.	-11.0878
▁gauge	-11.0878
▁Cab	-11.0879
▁debt	-11.0888
▁hear	-11.089
ç	-11.0891
▁Steel	-11.0892
▁closer	-11.0893
▁Sheriff	-11.0898
▁Spirit	-11.0899
▁Beginning	-11.0899
▁elsewhere	-11.0903
ía	-11.0903
▁Deep	-11.0906
▁extent	-11.0906
▁rounded	-11.0912
▁Bulgaria	-11.0912
▁traditionally	-11.0916
▁moral	-11.092
▁campaigns	-11.0923
▁McC	-11.0926
▁boss	-11.0926
PL	-11.093
▁plastic	-11.093
▁lectures	-11.0932
try	-11.0933
lag	-11.0933
▁worker	-11.0935
▁Neil	-11.0939
rac	-11.094
▁Student	-11.0942
▁Yang	-11.0944
▁CO	-11.0946
▁Ernest	-11.0946
▁Artists	-11.0951
▁volunteers	-11.0951
▁Artillery	-11.0953
▁Subsequently	-11.0953
▁filming	-11.0954
▁framework	-11.0954
æ	-11.0956
▁fourteen	-11.0961
▁Montgomery	-11.097
▁indoor	-11.0977
ao	-11.0977
▁Bradford	-11.0978
▁exclusive	-11.0978
iva	-11.0978
▁difficulties	-11.0979
▁influences	-11.0981
▁Tree	-11.0981
▁Grammar	-11.0982
▁presenter	-11.0982
▁Storm	-11.0983
fall	-11.0983
▁Bear	-11.0985
▁tribes	-11.0985
CI	-11.0988
▁touchdowns	-11.0988
▁1896	-11.0996
dio	-11.0997
ency	-11.1001
én	-11.1003
formerly	-11.1003
▁viewed	-11.1005
▁Adult	-11.1006
▁programmes	-11.1006
▁coaches	-11.1008
asi	-11.1011
West	-11.1012
▁artillery	-11.1012
▁suggest	-11.1013
▁lowest	-11.1013
▁ruins	-11.1014
▁span	-11.1014
▁mosque	-11.1014
▁Argentine	-11.1017
meter	-11.1017
ssel	-11.102
▁Spa	-11.102
vit	-11.1021
′′	-11.1021
ör	-11.1024
▁ra	-11.1025
▁Besides	-11.1032
▁1964.	-11.1034
▁personality	-11.1035
▁advocate	-11.1037
▁Google	-11.1038
num	-11.1038
▁receives	-11.104
▁Bobby	-11.104
hon	-11.1042
▁illustrated	-11.1042
▁cloud	-11.1043
▁trio	-11.1043
▁approached	-11.1044
▁Thai	-11.1048
▁seem	-11.1049
▁pursued	-11.105
▁dorsal	-11.1051
arra	-11.1052
▁Isaac	-11.1052
▁Newton	-11.1053
▁Zu	-11.1055
▁Steven	-11.1062
▁Columbus	-11.1063
shed	-11.1063
▁proteins	-11.1063
▁shoulder	-11.1066
▁defended	-11.1067
▁Somerset	-11.1069
▁discussed	-11.1069
▁venues	-11.1071
▁affair	-11.1073
▁discussion	-11.1074
shaw	-11.1075
▁dangerous	-11.1078
▁Jamaica	-11.1078
▁Kun	-11.108
▁Pearl	-11.1083
▁1918,	-11.1084
▁movements	-11.1085
range	-11.1085
oka	-11.1088
RO	-11.109
▁gap	-11.109
ode	-11.1092
▁Still	-11.1092
▁1946.	-11.1094
▁Northwest	-11.1098
▁Kh	-11.11
▁workshops	-11.1101
ome	-11.1102
▁Relations	-11.1103
ics	-11.1104
▁releasing	-11.1104
▁Franz	-11.1105
▁Panama	-11.1105
▁usual	-11.1105
▁Ras	-11.1106
▁Workers	-11.1107
▁bin	-11.1109
▁discover	-11.1111
cul	-11.1118
▁ridge	-11.1119
▁agents	-11.1121
▁Cast	-11.1123
track	-11.1123
▁Net	-11.1125
pers	-11.1126
▁Maha	-11.1128
AN	-11.1128
▁Rhode	-11.1128
On	-11.1134
▁sixteen	-11.1136
▁Math	-11.114
▁catch	-11.1141
▁remembered	-11.1142
▁Surrey	-11.1142
▁Take	-11.1143
een	-11.1146
▁experiment	-11.1151
▁balance	-11.1155
NC	-11.1158
wall	-11.116
▁horror	-11.1162
▁Eddie	-11.1163
▁requested	-11.1166
▁Cornwall	-11.1169
▁chorus	-11.1169
power	-11.117
Th	-11.117
eth	-11.1172
▁asteroid	-11.1173
▁relationships	-11.1175
▁1944.	-11.1175
▁Kate	-11.1179
▁exact	-11.1181
▁looks	-11.1182
▁tourism	-11.1183
▁failing	-11.1183
▁taste	-11.1183
kal	-11.1185
▁gaining	-11.1187
▁bore	-11.1187
▁locality	-11.1188
▁reservoir	-11.1188
uro	-11.1192
ched	-11.1193
▁Box	-11.1193
▁1845	-11.1195
▁1846	-11.1199
▁2–1	-11.1202
▁Ang	-11.1202
▁Diamond	-11.1202
▁Gri	-11.1203
▁Sussex	-11.1204
Ar	-11.1204
▁h	-11.1205
May	-11.1206
▁lab	-11.1207
▁alcohol	-11.1207
uru	-11.1209
▁MS	-11.1212
▁Swa	-11.1213
▁Web	-11.1214
▁contributing	-11.1217
▁psychology	-11.1218
▁Raymond	-11.1218
page	-11.122
▁Michel	-11.122
▁supporter	-11.122
▁Eagle	-11.1222
mble	-11.1223
▁commitment	-11.1224
NS	-11.1226
ctic	-11.1226
▁Sad	-11.1227
▁sample	-11.1228
▁throw	-11.1229
▁cur	-11.1231
▁apply	-11.1232
▁awareness	-11.1234
▁manufacture	-11.1236
ste	-11.1237
▁Ant	-11.1238
▁Delaware	-11.124
▁actively	-11.1243
▁Data	-11.1246
ν	-11.1247
▁surgeon	-11.1248
▁Foster	-11.125
▁rice	-11.125
▁Ran	-11.1252
itch	-11.1258
▁Celtic	-11.1259
▁configuration	-11.126
▁Eagles	-11.1264
▁€	-11.1265
▁Fr	-11.1266
▁bordered	-11.1275
▁periods	-11.1277
▁express	-11.1282
▁Laura	-11.1285
▁preferred	-11.1285
▁archaeological	-11.1287
▁certificate	-11.1287
▁92	-11.1289
▁voyage	-11.1289
▁brigade	-11.1289
▁extending	-11.1296
sie	-11.1298
▁texts	-11.1298
pet	-11.1299
▁Writing	-11.1303
itis	-11.1304
writer	-11.1305
▁clearly	-11.1307
▁diesel	-11.1308
▁Musical	-11.1309
hat	-11.1316
▁companion	-11.1319
▁Formula	-11.1321
▁$2	-11.1325
OR	-11.1326
League	-11.1326
▁lift	-11.1327
▁supplied	-11.1328
▁Hull	-11.133
▁triple	-11.133
▁Rovers	-11.133
▁practical	-11.1331
▁Devon	-11.1332
▁Honours	-11.1332
▁Environmental	-11.1333
▁neuro	-11.1334
▁Mol	-11.1334
▁violent	-11.1335
ière	-11.1336
AD	-11.1337
▁holiday	-11.1338
▁84	-11.134
▁mechanism	-11.134
▁sail	-11.134
▁Reading	-11.1343
ere	-11.1345
▁Kingston	-11.1346
▁constitution	-11.1347
LP	-11.1347
language	-11.1349
▁tune	-11.1349
Fi	-11.1352
▁resides	-11.1355
▁god	-11.1356
▁waiting	-11.1357
▁Architecture	-11.1357
kins	-11.1358
▁LA	-11.1358
▁limits	-11.1359
▁circumstances	-11.136
▁consecrated	-11.136
▁Machine	-11.1361
▁revolution	-11.1362
▁signs	-11.1363
tine	-11.1364
IN	-11.1368
▁Boulevard	-11.1368
▁dress	-11.1369
▁Frankfurt	-11.1371
▁starter	-11.1376
▁favourite	-11.1377
▁alien	-11.1378
▁waste	-11.1379
▁visits	-11.138
▁Paulo	-11.1381
asa	-11.1381
uv	-11.1381
▁Tr	-11.1386
▁Gothic	-11.1387
▁biography	-11.1387
night	-11.1388
▁interesting	-11.1388
▁cutting	-11.1389
apa	-11.1389
▁Mathematics	-11.1389
▁lifetime	-11.1389
▁descendants	-11.1393
▁succeed	-11.1394
▁dancer	-11.1394
▁reviewer	-11.1395
▁Antarctic	-11.1398
▁Starting	-11.1399
▁Conservatory	-11.14
▁believes	-11.1404
▁1956,	-11.1406
▁landmark	-11.1407
aku	-11.141
▁pounds	-11.1412
▁Protection	-11.1416
▁Pay	-11.1416
▁Reed	-11.1417
CL	-11.1417
▁isolated	-11.1421
▁Dragon	-11.1423
▁sharp	-11.1424
▁retreat	-11.1429
▁celebration	-11.1433
▁Actor	-11.1434
present	-11.1434
▁formula	-11.1434
gam	-11.1435
▁Delta	-11.1436
▁ferry	-11.1436
▁Edmund	-11.1437
ulation	-11.1439
▁Interstate	-11.1439
▁grades	-11.144
▁Stage	-11.144
▁patent	-11.1441
sti	-11.1442
Go	-11.1442
▁1841	-11.1443
▁Presbyterian	-11.1444
▁wire	-11.1444
▁concerning	-11.1448
▁valuable	-11.145
say	-11.1451
osis	-11.1451
ced	-11.1451
▁Writers	-11.1454
▁Jacques	-11.1454
▁coffee	-11.1455
▁quick	-11.1458
▁Arm	-11.1459
▁Fur	-11.146
▁Vale	-11.146
▁1970.	-11.1461
Se	-11.1463
tial	-11.1464
▁Bond	-11.1464
tation	-11.1465
▁Newport	-11.1468
inter	-11.1469
▁receiver	-11.1472
ici	-11.1472
▁1837	-11.1474
▁administered	-11.1477
ander	-11.1479
▁artificial	-11.148
▁Fish	-11.1481
▁Buddhist	-11.1482
▁Metal	-11.1483
▁Shan	-11.1487
▁eat	-11.1488
▁aims	-11.149
rr	-11.1491
▁Foot	-11.1492
▁neighbouring	-11.1493
vari	-11.1494
-9	-11.1495
▁graphic	-11.1496
▁divorce	-11.1496
▁Shore	-11.1497
▁pet	-11.1497
▁animation	-11.1499
▁tend	-11.1499
▁Let	-11.1499
▁tu	-11.1502
▁sheep	-11.1502
▁vs	-11.1503
▁principles	-11.1503
▁Scho	-11.1507
▁friendship	-11.1507
▁Tal	-11.1507
▁coup	-11.1508
▁Bennett	-11.1508
▁dramatic	-11.151
▁aboard	-11.1511
▁restricted	-11.1512
▁kit	-11.1514
▁bra	-11.1516
bell	-11.1516
▁cream	-11.1516
ides	-11.1517
▁Bul	-11.1521
▁Maurice	-11.1521
▁ERA	-11.1522
▁documented	-11.1529
▁hidden	-11.1531
piece	-11.1531
▁Ted	-11.1534
▁sequel	-11.1535
▁Isle	-11.1536
▁golden	-11.1536
▁readers	-11.1537
lived	-11.1538
CR	-11.1539
ologist	-11.1539
▁79	-11.154
▁thanks	-11.1546
▁happy	-11.1547
▁Davies	-11.1547
▁destroy	-11.1548
▁sounds	-11.1549
▁organisations	-11.1549
▁queen	-11.1549
▁girlfriend	-11.1551
fold	-11.1553
▁exile	-11.1553
▁corresponding	-11.1556
▁Croatian	-11.1556
▁organic	-11.1557
▁Stakes	-11.1557
▁Ei	-11.1558
▁variant	-11.1559
▁characteristics	-11.1561
▁Ballet	-11.1562
four	-11.1564
▁comprehensive	-11.1565
lick	-11.1566
▁Environment	-11.1567
fest	-11.1567
ees	-11.1569
▁Palestine	-11.157
▁Saudi	-11.1571
▁heir	-11.1572
▁0.1	-11.1577
▁stress	-11.1584
Bar	-11.1585
▁bowl	-11.159
▁Palmer	-11.1593
▁muscle	-11.1593
stall	-11.1593
▁acoustic	-11.1595
▁Bio	-11.1596
▁evolved	-11.1598
pra	-11.1599
▁grain	-11.1602
▁departments	-11.1604
▁Clarke	-11.1605
▁Spencer	-11.1606
titled	-11.1608
▁Justin	-11.161
▁victim	-11.1611
▁pulled	-11.1612
▁recalled	-11.1612
▁Transportation	-11.1612
▁Wallace	-11.1612
▁Geneva	-11.1613
▁Mau	-11.1615
▁ties	-11.1615
▁EU	-11.1616
El	-11.1616
▁input	-11.1619
▁coins	-11.162
▁ob	-11.1621
500	-11.1621
▁flights	-11.1625
▁cre	-11.1629
▁:	-11.1635
▁exterior	-11.1637
bur	-11.1645
▁Travel	-11.1647
ym	-11.1647
▁Movie	-11.165
▁travelling	-11.1651
▁Av	-11.1653
▁diplomatic	-11.1654
vil	-11.1657
▁×	-11.1657
nel	-11.166
MG	-11.1664
ão	-11.1665
▁depicted	-11.1666
▁imperial	-11.1667
▁fin	-11.1668
▁Pad	-11.1671
▁Owen	-11.1672
▁Amazon	-11.1673
das	-11.1673
3)	-11.1676
▁1957,	-11.1678
▁respond	-11.1679
▁Outstanding	-11.1682
▁Herald	-11.1687
kai	-11.1688
bul	-11.169
▁Graduate	-11.1691
▁investigate	-11.1694
▁namely	-11.1695
▁sciences	-11.1698
▁86	-11.1698
FL	-11.1698
▁focusing	-11.1701
ée	-11.1702
▁Circle	-11.1703
▁Ara	-11.171
sus	-11.1711
▁atmosphere	-11.1712
▁Gate	-11.1713
▁VII	-11.1714
raj	-11.1714
▁ve	-11.1715
anta	-11.1718
▁2,000	-11.1719
▁studios	-11.1721
rup	-11.1722
▁unlike	-11.1724
fra	-11.1725
written	-11.1732
▁Gang	-11.1735
▁1958,	-11.1737
▁Poly	-11.1738
ink	-11.1742
▁tenth	-11.1744
▁Rush	-11.1745
▁Flying	-11.1747
▁IT	-11.1747
▁carved	-11.1748
▁Pier	-11.1749
SD	-11.1749
▁Legion	-11.1751
▁Inn	-11.1753
▁Comics	-11.1755
▁wealth	-11.1761
▁Naples	-11.1762
▁Blake	-11.1763
▁attendance	-11.1766
▁crystal	-11.1767
▁discovers	-11.1767
▁François	-11.1769
lf	-11.1769
gas	-11.1771
▁drawings	-11.1771
▁Record	-11.1773
▁Allied	-11.1774
▁View	-11.1774
▁biological	-11.1775
press	-11.1776
▁possibility	-11.1776
▁temporarily	-11.1776
▁benefits	-11.1778
ush	-11.1778
cept	-11.1779
▁Broad	-11.178
▁Intelligence	-11.1781
▁arena	-11.1781
nus	-11.1781
▁valid	-11.1785
▁Belle	-11.179
space	-11.1791
▁Tommy	-11.1795
▁Flight	-11.1795
▁fr	-11.1796
▁sleep	-11.1797
▁referee	-11.1799
▁pole	-11.1799
▁Manitoba	-11.18
▁compound	-11.1806
▁ruler	-11.1807
▁SH	-11.1809
▁Greg	-11.1809
▁1962.	-11.181
▁PS	-11.1812
▁exercise	-11.1814
▁inaugurated	-11.1814
▁pointed	-11.1815
LC	-11.1815
vid	-11.1818
PP	-11.1819
loy	-11.182
▁import	-11.182
▁surname	-11.1821
▁teeth	-11.1821
ér	-11.1825
▁mixture	-11.1826
▁defend	-11.1826
▁Sony	-11.1829
▁rocket	-11.183
▁sweet	-11.183
▁1963.	-11.1832
tr	-11.1832
▁1959,	-11.1833
▁traditions	-11.1833
▁Gardens	-11.1833
▁Lutheran	-11.1836
▁inhabited	-11.1837
nk	-11.1839
CS	-11.184
▁playoff	-11.184
▁minority	-11.184
▁$5	-11.1844
▁Ancient	-11.1846
▁Jun	-11.1847
▁colleagues	-11.1848
▁Renaissance	-11.1848
▁Azerbaijan	-11.1848
enko	-11.1849
▁1–0	-11.1852
▁rates	-11.1857
▁bears	-11.1858
name	-11.186
▁Publishing	-11.1864
ural	-11.1865
▁respective	-11.1865
▁$4	-11.1868
iro	-11.1868
pm	-11.187
▁pit	-11.1872
▁battery	-11.1872
tics	-11.1873
▁comparison	-11.1873
shore	-11.1875
▁*	-11.1876
▁impressive	-11.1879
lt	-11.1879
▁banking	-11.1882
hurst	-11.1882
▁Members	-11.1884
eve	-11.1885
ook	-11.1886
▁furniture	-11.1888
▁Cy	-11.1889
ote	-11.1889
▁evil	-11.1889
▁quit	-11.189
▁waived	-11.1892
rio	-11.1893
▁wait	-11.1893
▁André	-11.1894
cock	-11.1895
▁simultaneously	-11.1901
▁Performance	-11.1902
▁collective	-11.1903
wn	-11.1903
▁Fin	-11.1903
lyn	-11.1903
▁collapse	-11.1905
▁Cri	-11.1905
▁significance	-11.1909
▁neither	-11.1912
▁slowly	-11.1912
▁97	-11.1913
▁Lyon	-11.1913
▁Fol	-11.1914
▁manages	-11.1916
▁Andre	-11.1916
▁structural	-11.1919
▁empty	-11.1919
▁lie	-11.192
▁Reform	-11.192
lio	-11.1921
tech	-11.1922
▁essential	-11.1923
▁Sid	-11.1923
hang	-11.1923
▁exposure	-11.1926
▁shallow	-11.1927
▁bombing	-11.1927
▁photos	-11.1927
▁1839	-11.1928
▁extinct	-11.1931
▁1838	-11.1935
▁Days	-11.1937
▁confused	-11.1939
▁Nacional	-11.194
▁nest	-11.1941
▁streams	-11.1941
▁soap	-11.1942
▁Croatia	-11.1944
pat	-11.1946
▁alive	-11.1946
▁expensive	-11.1948
▁Gustav	-11.195
▁dollars	-11.1951
▁Parliamentary	-11.1951
▁authored	-11.1954
▁creek	-11.1956
zan	-11.1957
▁prisoner	-11.1959
▁lease	-11.1963
▁sharing	-11.1967
▁jet	-11.1967
▁touch	-11.1968
▁egg	-11.1969
▁employee	-11.1969
▁fer	-11.197
uka	-11.1971
▁stretch	-11.1973
▁Scientific	-11.1974
▁lawsuit	-11.1975
▁dealing	-11.1976
rot	-11.1977
▁radar	-11.1977
▁Louise	-11.1978
▁1812	-11.1978
oe	-11.1979
▁seal	-11.1979
▁examination	-11.198
▁Nancy	-11.1982
▁Mine	-11.1985
zon	-11.1985
50,000	-11.1986
▁dialogue	-11.1986
eu	-11.1987
fort	-11.1988
▁bout	-11.1988
bol	-11.1989
▁rap	-11.1992
▁petition	-11.1993
abad	-11.1994
▁Bala	-11.1996
–15	-11.2001
▁variable	-11.2001
▁1961.	-11.2002
▁averaged	-11.2003
▁McG	-11.2003
▁territories	-11.2003
▁segments	-11.2005
ered	-11.2005
▁Franco	-11.2009
▁correspondent	-11.2011
▁shrub	-11.2015
bay	-11.2017
▁Clement	-11.2018
▁worn	-11.2018
▁footage	-11.2018
half	-11.2022
tty	-11.2022
tas	-11.2024
▁1836	-11.2026
▁dominant	-11.2027
▁1955,	-11.2029
▁suddenly	-11.203
▁110	-11.2031
▁predominantly	-11.2031
rag	-11.2035
▁Engineers	-11.2035
nder	-11.2038
▁constitute	-11.204
▁SE	-11.204
▁Legislature	-11.2042
▁organize	-11.2043
▁marble	-11.2045
stown	-11.2047
▁Ship	-11.2048
▁Rein	-11.2049
▁Scha	-11.2054
▁Lodge	-11.2054
▁permanently	-11.2054
All	-11.2054
▁shorter	-11.2055
▁Petr	-11.2055
▁4-	-11.2059
▁Chess	-11.2059
▁floors	-11.206
▁interact	-11.2061
▁NA	-11.2061
▁handed	-11.2061
▁Simpson	-11.2062
▁creator	-11.2062
▁Lie	-11.2062
▁1960,	-11.2066
▁Gui	-11.2067
TI	-11.2068
▁Eli	-11.2069
▁Manila	-11.2077
▁revival	-11.2078
▁backing	-11.2078
▁bassist	-11.2081
hausen	-11.2081
▁700	-11.2081
▁root	-11.2083
▁doubt	-11.2084
▁Number	-11.2086
▁referring	-11.2086
▁Montana	-11.2087
DS	-11.2087
▁provinces	-11.2089
▁doctoral	-11.209
ulf	-11.2091
▁acclaimed	-11.2091
▁patterns	-11.2094
▁regulations	-11.2095
▁songwriter	-11.2098
▁telephone	-11.21
▁nave	-11.2102
▁91	-11.2103
är	-11.2103
▁helps	-11.2105
▁Len	-11.2105
▁Maj	-11.211
▁Cameron	-11.2113
▁athlete	-11.2114
▁Abdul	-11.2116
ille	-11.2121
▁curriculum	-11.2122
▁width	-11.2122
▁É	-11.2123
iko	-11.2125
▁Academic	-11.2126
▁elect	-11.2127
▁Carlo	-11.2128
▁Mala	-11.2135
▁Sean	-11.2136
▁server	-11.2137
bot	-11.2138
▁circulation	-11.2139
▁drink	-11.214
▁Queens	-11.2141
▁Julian	-11.2141
▁Andrews	-11.2142
▁Shar	-11.2144
▁Ferdinand	-11.2144
▁researcher	-11.2146
▁Cabinet	-11.2147
▁reception	-11.215
ically	-11.2151
▁autumn	-11.2154
llo	-11.2154
▁1886	-11.2158
▁workshop	-11.2161
▁Pel	-11.2161
▁Cardiff	-11.2162
▁lap	-11.2163
▁clay	-11.2163
▁Ober	-11.2164
▁Carol	-11.2168
▁Hopkins	-11.2169
▁Grande	-11.2171
▁Chronicle	-11.2173
▁faces	-11.2173
▁Knights	-11.2175
▁Br	-11.2176
▁evolution	-11.2176
▁usage	-11.2179
▁conducting	-11.218
▁83	-11.2181
▁writings	-11.2182
▁sword	-11.2184
▁fi	-11.2185
OP	-11.2186
tum	-11.2187
▁Rochester	-11.2187
akh	-11.2187
▁ballet	-11.2187
ssen	-11.219
than	-11.2191
tress	-11.2192
▁scout	-11.2198
▁slot	-11.2199
▁Planning	-11.2199
▁cabin	-11.22
eno	-11.2203
sim	-11.2203
▁emb	-11.2204
▁stationed	-11.2206
▁altar	-11.2206
▁challenges	-11.2206
wai	-11.2207
▁demonstrated	-11.2208
▁Therefore	-11.221
▁Heights	-11.2212
uga	-11.2213
hard	-11.2217
▁recovery	-11.2222
▁magic	-11.2222
▁Double	-11.2223
▁sky	-11.2224
▁1954,	-11.2226
link	-11.2227
▁guidance	-11.2228
▁afternoon	-11.2228
▁Gran	-11.2231
▁infection	-11.2232
borough	-11.2233
uba	-11.2234
▁Study	-11.2234
▁boards	-11.2235
▁push	-11.2236
grave	-11.2236
▁Pot	-11.2236
tone	-11.2237
▁hole	-11.2239
▁Jen	-11.2239
▁hosting	-11.224
▁invented	-11.2241
roy	-11.2242
eer	-11.2244
▁Mei	-11.2246
▁bearing	-11.2248
lling	-11.225
ule	-11.2251
▁1948.	-11.2252
▁scar	-11.2254
▁stones	-11.2255
ente	-11.2255
▁naming	-11.2256
▁1820	-11.2259
▁praise	-11.2262
▁chi	-11.2263
▁announcement	-11.2267
oi	-11.2267
▁87	-11.2267
▁Halifax	-11.2268
▁Near	-11.2268
▁Bang	-11.2269
▁Cornell	-11.2269
▁clinic	-11.2269
▁Stoke	-11.2271
▁dock	-11.2273
bla	-11.2274
ID	-11.2276
cit	-11.2277
▁Ir	-11.2279
▁Xi	-11.2279
▁160	-11.228
iana	-11.2281
ashi	-11.2283
▁Sex	-11.2283
▁publish	-11.2284
▁Course	-11.2287
▁defender	-11.2287
ingham	-11.2287
ith	-11.2288
ough	-11.2288
-11	-11.2289
▁lord	-11.2291
▁cotton	-11.2293
▁reveals	-11.2294
▁Saskatchewan	-11.2295
▁leagues	-11.2299
ake	-11.2302
▁Venezuela	-11.2302
udi	-11.2302
▁UFC	-11.2305
▁singers	-11.2307
bble	-11.231
▁passion	-11.2312
â	-11.2313
ographic	-11.2315
▁faction	-11.2317
▁Sei	-11.2317
▁Pont	-11.2321
▁Bert	-11.2322
▁Albanian	-11.2323
▁specimen	-11.2325
▁fundamental	-11.2325
▁slopes	-11.2325
▁Site	-11.2326
▁apparent	-11.2327
▁citing	-11.2331
▁Dominican	-11.2331
▁Kid	-11.2331
▁educator	-11.2335
▁Album	-11.2337
▁Edmonton	-11.2337
CD	-11.2349
:30	-11.2349
hel	-11.235
▁references	-11.2352
▁client	-11.2353
▁communist	-11.2354
▁Democrats	-11.2354
▁principle	-11.2355
▁bag	-11.2356
unt	-11.2358
▁Syria	-11.2359
sberg	-11.2359
II	-11.2362
▁explains	-11.2367
woman	-11.2367
▁goalkeeper	-11.2369
▁infantry	-11.2369
▁looked	-11.237
▁fortress	-11.2371
▁technologies	-11.2373
▁em	-11.2374
▁beaten	-11.2375
hole	-11.2378
owski	-11.2379
sal	-11.2379
▁mar	-11.2382
▁Form	-11.2384
▁relating	-11.2385
dha	-11.2385
five	-11.2393
▁Zen	-11.2397
lem	-11.2398
▁Das	-11.2399
lation	-11.24
▁escort	-11.24
▁1842	-11.2403
▁gathered	-11.2408
▁drivers	-11.2409
▁conferences	-11.241
▁Tsu	-11.2417
▁hide	-11.2417
Qu	-11.2417
president	-11.242
▁enemies	-11.2423
▁Dol	-11.2425
▁sits	-11.2426
▁index	-11.2427
core	-11.2428
▁1951,	-11.2428
▁Liberty	-11.2431
▁novelist	-11.2431
▁Ble	-11.2431
▁1843	-11.2432
▁Rice	-11.2433
▁Annual	-11.2434
▁Belfast	-11.2436
▁fault	-11.2436
▁1832	-11.2436
ivity	-11.2437
▁woodland	-11.2439
vet	-11.2439
▁Episcopal	-11.2441
EP	-11.2441
▁Gospel	-11.2441
▁Solomon	-11.2441
▁shaft	-11.2441
seat	-11.2443
▁Speaker	-11.2446
▁1953,	-11.2446
▁relevant	-11.2448
nov	-11.2448
rak	-11.2449
sten	-11.245
";	-11.2452
▁delegate	-11.2453
▁directing	-11.2454
ree	-11.2457
▁drinking	-11.2458
▁biology	-11.2458
▁renewed	-11.2458
▁Indies	-11.2461
▁Dia	-11.2462
dle	-11.2463
▁Py	-11.2464
▁diploma	-11.2465
▁1917,	-11.2465
0.0	-11.2466
lines	-11.2466
gio	-11.2469
▁Yi	-11.2469
▁scandal	-11.2471
▁1835	-11.2471
▁Revival	-11.2474
▁fabric	-11.2475
emi	-11.2479
▁Danny	-11.2479
▁Cow	-11.248
▁Bow	-11.248
▁arc	-11.2481
▁Mut	-11.2486
bad	-11.2488
▁Cox	-11.249
rill	-11.2493
week	-11.2497
▁circular	-11.2498
▁admission	-11.2499
▁Fra	-11.2499
▁raid	-11.25
▁ju	-11.25
▁permitted	-11.25
HA	-11.2501
–10	-11.2501
▁bike	-11.2501
▁protagonist	-11.2501
▁revised	-11.2501
aux	-11.2504
ify	-11.2504
▁oak	-11.2504
▁Guild	-11.2507
▁neo	-11.2508
▁mainstream	-11.2511
▁Ellis	-11.2512
real	-11.2512
▁updated	-11.2512
▁Java	-11.2517
▁shipping	-11.252
▁voters	-11.2521
▁Row	-11.2521
▁freshman	-11.2521
white	-11.2522
▁Christianity	-11.2523
▁engage	-11.2525
▁investors	-11.253
▁measuring	-11.2532
Gu	-11.2532
front	-11.2532
Di	-11.2534
bing	-11.2536
stro	-11.2537
▁Wildlife	-11.2537
▁1947.	-11.2538
▁switch	-11.2538
▁Ludwig	-11.254
▁upcoming	-11.2542
▁shall	-11.2543
PO	-11.2543
▁lit	-11.2544
▁Wen	-11.2545
▁Expedition	-11.2547
▁negotiations	-11.2548
▁Santiago	-11.2555
ack	-11.2556
▁destination	-11.2557
▁Giants	-11.2557
SM	-11.256
test	-11.2561
▁hero	-11.2561
▁attempting	-11.2563
▁privately	-11.2563
–20	-11.2563
▁Liu	-11.2564
wald	-11.2565
▁Henderson	-11.2565
▁Gru	-11.2566
▁adventure	-11.2567
▁1844	-11.2567
▁trainer	-11.2568
▁customer	-11.2568
▁Curtis	-11.2571
▁belief	-11.2573
▁conjunction	-11.2573
rey	-11.2574
▁Vladimir	-11.2575
▁Oakland	-11.2582
▁arrives	-11.2583
▁Ever	-11.2583
▁shrine	-11.2586
duction	-11.2586
▁1942.	-11.2586
▁Cru	-11.2587
kill	-11.2588
IR	-11.2592
She	-11.2592
nin	-11.2592
▁Calgary	-11.2593
ffe	-11.2596
▁pot	-11.2596
▁motorcycle	-11.2601
▁pack	-11.2604
▁constitutional	-11.2613
▁pink	-11.2614
stead	-11.2614
▁mature	-11.2617
spor	-11.2618
▁Fat	-11.262
imo	-11.262
mun	-11.262
▁Link	-11.2623
aged	-11.2625
▁assignment	-11.2626
▁theology	-11.2626
▁ghost	-11.2627
▁kitchen	-11.2629
ère	-11.2631
▁XI	-11.2632
keeper	-11.2634
▁reconstruction	-11.2635
odo	-11.2636
▁Wan	-11.2636
▁Facebook	-11.2637
▁colleges	-11.2638
▁Sil	-11.2638
▁substance	-11.264
▁commentary	-11.264
▁objective	-11.2643
▁partial	-11.2646
nai	-11.265
▁Ven	-11.2651
▁Fil	-11.2652
▁Gur	-11.2653
▁neighbourhood	-11.2655
para	-11.2656
▁fallen	-11.2657
cum	-11.2657
▁ro	-11.2658
▁Armed	-11.2664
▁solutions	-11.2664
▁treat	-11.2665
▁1861	-11.2667
▁Right	-11.2669
▁1952,	-11.267
▁Sweet	-11.2672
GA	-11.2673
▁innovation	-11.2673
▁rhythm	-11.2675
dine	-11.2677
works	-11.2677
▁pull	-11.2677
oku	-11.2677
▁hyper	-11.2678
▁bone	-11.2681
▁thinking	-11.2681
▁Triple	-11.2685
▁limestone	-11.2686
▁Marcus	-11.2688
post	-11.2689
▁touchdown	-11.2691
tric	-11.2692
▁pupil	-11.2692
▁indicates	-11.2692
▁Oil	-11.2695
▁brings	-11.2696
rim	-11.2696
ido	-11.2697
Jo	-11.2697
▁missionary	-11.2698
tai	-11.2698
▁tested	-11.27
▁Directors	-11.27
▁diplomat	-11.2702
▁Salvador	-11.2702
▁danger	-11.2703
▁exactly	-11.2703
▁maintains	-11.2708
▁Contest	-11.2708
▁Belgrade	-11.271
▁temperatures	-11.2711
▁trap	-11.2712
iah	-11.2713
WA	-11.2715
▁Note	-11.2719
rated	-11.272
▁Comedy	-11.2721
▁wish	-11.2721
has	-11.2722
▁cult	-11.2723
▁corn	-11.2723
rry	-11.2724
▁functional	-11.2724
▁grants	-11.2726
ault	-11.2727
▁Leipzig	-11.2728
▁suspension	-11.2728
▁Bud	-11.2729
▁fuselage	-11.273
▁1938,	-11.273
▁displays	-11.2731
▁1957.	-11.2734
▁Manor	-11.2735
▁Furthermore	-11.2736
▁moderate	-11.274
▁Richardson	-11.2741
▁generate	-11.2741
▁vegetation	-11.2743
smith	-11.2744
▁occasional	-11.2744
▁treaty	-11.2745
▁Chin	-11.2747
▁Fraser	-11.2749
▁corruption	-11.2751
▁Ellen	-11.2752
▁developer	-11.2754
ego	-11.2754
▁Bis	-11.2756
▁Mail	-11.276
▁Ok	-11.2766
▁calendar	-11.2767
ê	-11.2767
▁onwards	-11.2769
▁Pac	-11.2769
hua	-11.2769
▁bars	-11.2771
▁repeat	-11.2773
▁z	-11.2774
▁estates	-11.2775
▁Nadu	-11.2775
▁sailing	-11.2775
▁Heath	-11.2776
▁premises	-11.2778
wy	-11.2781
ked	-11.2782
▁drove	-11.2784
▁Copa	-11.2785
▁Llan	-11.2786
▁cha	-11.2788
▁algorithm	-11.2789
▁siege	-11.279
elo	-11.2793
▁sponsor	-11.2793
igh	-11.2794
Mu	-11.2796
▁Micro	-11.2797
▁Bha	-11.2797
▁Those	-11.2805
SO	-11.2805
orn	-11.2809
▁succession	-11.281
▁servant	-11.2811
▁instruction	-11.2812
▁Campus	-11.2813
▁Sul	-11.2813
–8	-11.2813
▁1956.	-11.2813
▁options	-11.2814
▁shifted	-11.2815
▁consumer	-11.2816
▁cuts	-11.2816
▁Neo	-11.2817
▁1958.	-11.2818
▁93	-11.2819
vol	-11.282
▁nationally	-11.2821
▁Hat	-11.2825
▁Folk	-11.2826
duct	-11.2827
▁Wrestling	-11.2827
sized	-11.2827
uni	-11.2828
▁lakes	-11.2828
ucci	-11.283
▁Sz	-11.2831
▁ser	-11.2831
▁breast	-11.2832
▁ordinary	-11.2832
▁shield	-11.2832
▁independently	-11.2834
▁Talk	-11.2838
▁collecting	-11.2838
▁Too	-11.284
▁chaired	-11.2841
▁depicting	-11.2842
▁mathematical	-11.2843
▁nominee	-11.2843
PR	-11.2844
oper	-11.2845
▁supervision	-11.2846
Am	-11.2847
▁staged	-11.2851
▁Gul	-11.2852
▁icon	-11.2852
▁Albany	-11.2853
gor	-11.2854
▁profit	-11.2855
tica	-11.2856
▁Alpha	-11.2858
cell	-11.2858
usa	-11.2859
▁Sisters	-11.2861
BL	-11.2861
▁scores	-11.2861
▁feeling	-11.2863
▁rough	-11.2863
▁Julia	-11.2864
▁measured	-11.2865
▁1950,	-11.2869
▁dialect	-11.287
▁heading	-11.2872
▁grid	-11.2874
▁1959.	-11.2874
▁89	-11.2875
▁Alt	-11.2879
▁historically	-11.288
kon	-11.2881
▁fantasy	-11.2882
ott	-11.2883
▁pri	-11.2884
▁Official	-11.2885
▁Agricultural	-11.2885
Sha	-11.2887
▁corporation	-11.2889
tag	-11.2891
hana	-11.2894
▁Eight	-11.2895
▁Sing	-11.2895
▁Sullivan	-11.2897
▁Miguel	-11.2898
▁teaches	-11.29
▁fluid	-11.29
▁Ah	-11.29
▁Poetry	-11.2902
school	-11.2902
▁WA	-11.2902
zhou	-11.2902
sport	-11.2905
▁quarterback	-11.2907
rov	-11.2907
▁wet	-11.2908
▁Cave	-11.2911
▁bath	-11.2912
▁attraction	-11.2912
▁tension	-11.2913
▁Moor	-11.2913
▁hull	-11.2914
mini	-11.2914
ios	-11.2916
▁plaque	-11.2917
▁grandmother	-11.2917
▁Merit	-11.2918
▁fellowship	-11.2918
▁Paper	-11.2919
▁deemed	-11.2919
▁1943.	-11.2922
▁Marathon	-11.2925
▁Come	-11.2925
Ne	-11.2925
▁nurse	-11.2925
▁panels	-11.2925
300	-11.2926
dimensional	-11.2929
▁Chancellor	-11.2931
▁decree	-11.2932
▁invitation	-11.2935
▁Bai	-11.2937
cas	-11.2939
▁sure	-11.294
hold	-11.2941
late	-11.2943
▁Armstrong	-11.2943
bound	-11.2945
▁gathering	-11.2945
▁Gibson	-11.2946
▁Kom	-11.2947
▁1919,	-11.2951
▁transformed	-11.2952
▁indicating	-11.2955
▁legendary	-11.2955
▁portfolio	-11.2956
▁Word	-11.2956
▁Left	-11.2957
▁electro	-11.2959
▁Apart	-11.296
umi	-11.2963
▁nautical	-11.2964
▁ballot	-11.2964
sty	-11.2964
▁eventual	-11.2967
▁retain	-11.2968
▁FK	-11.297
▁talks	-11.2973
▁Marcel	-11.2974
▁philosopher	-11.2975
▁mainland	-11.2975
sworth	-11.2976
▁stops	-11.2976
▁plates	-11.2977
▁Muslims	-11.2978
▁vary	-11.2981
gent	-11.2981
haus	-11.2982
▁familiar	-11.2983
issa	-11.2983
▁payment	-11.2986
▁IF	-11.2987
phy	-11.2987
▁Female	-11.2988
▁blend	-11.2988
quin	-11.2989
▁manuscripts	-11.2996
▁Eve	-11.2996
▁improvements	-11.2996
▁theorem	-11.2998
▁Que	-11.2999
▁supplement	-11.3
▁scorer	-11.3001
▁Pitt	-11.3004
▁breed	-11.3004
▁Pakistani	-11.3005
▁Animal	-11.3006
lli	-11.3007
▁1955.	-11.3008
trans	-11.3012
sted	-11.3013
▁reopened	-11.3014
▁Cel	-11.302
▁impressed	-11.3021
▁wake	-11.3025
▁detail	-11.3031
▁1941.	-11.3036
▁teammate	-11.3036
▁intermediate	-11.3037
▁depot	-11.3038
▁Than	-11.304
▁yield	-11.304
▁convoy	-11.3042
▁Cyprus	-11.3044
▁Pete	-11.3046
▁Bab	-11.3046
▁sur	-11.3048
roll	-11.3049
▁meta	-11.305
▁Working	-11.3051
▁camps	-11.3051
▁difficulty	-11.3053
▁cluster	-11.3055
▁Kru	-11.3056
▁Honorary	-11.3057
▁Od	-11.3058
▁proof	-11.3059
▁Pir	-11.306
cing	-11.3061
cid	-11.3061
tie	-11.3062
anna	-11.3063
▁Brighton	-11.3066
▁automobile	-11.3066
bourne	-11.3066
▁Din	-11.3067
was	-11.3067
▁achievement	-11.3067
▁Revolutionary	-11.3069
▁shaped	-11.3069
▁Martha	-11.307
▁volleyball	-11.3071
March	-11.3072
dre	-11.3073
une	-11.3073
▁Airlines	-11.3073
▁NASA	-11.3075
▁seriously	-11.3075
▁Caroline	-11.3076
▁Mobile	-11.308
▁dean	-11.308
▁blow	-11.3081
▁Stevens	-11.3081
CE	-11.3081
▁Hurricane	-11.3082
▁Indonesian	-11.3083
▁hardware	-11.3088
produced	-11.3092
ace	-11.3092
▁edges	-11.3093
▁Portsmouth	-11.3093
▁Universe	-11.3095
▁interred	-11.3095
▁conversation	-11.3096
▁mysterious	-11.3096
▁removal	-11.3096
▁intense	-11.3097
gui	-11.3098
▁3,000	-11.31
▁Nas	-11.31
ional	-11.3101
▁Ul	-11.3101
▁Harper	-11.3102
atic	-11.3104
▁Tea	-11.3105
▁depression	-11.3109
▁bases	-11.3113
▁1953.	-11.3114
▁resource	-11.3114
с	-11.3116
jun	-11.3118
▁carrier	-11.3119
▁Eye	-11.3119
▁surprise	-11.3119
▁Baby	-11.3121
▁performer	-11.3121
▁Georg	-11.3122
▁1862	-11.3123
▁Ronald	-11.3124
▁Plymouth	-11.3125
▁victories	-11.3125
▁disappeared	-11.3127
gri	-11.3127
▁Fre	-11.3128
▁12-	-11.3128
▁Path	-11.3132
▁Dale	-11.3134
▁slave	-11.3135
▁Bil	-11.3136
craft	-11.3137
▁diseases	-11.3138
▁Resources	-11.3139
▁Malta	-11.3139
▁Desert	-11.314
▁statistics	-11.3142
ancy	-11.3143
eman	-11.3145
▁Memphis	-11.3147
▁Prof	-11.3147
ugh	-11.3151
▁ga	-11.3151
▁Kel	-11.3153
▁Progressive	-11.3153
▁shock	-11.3154
▁Shadow	-11.3156
▁commemorate	-11.3157
▁Rag	-11.3157
ija	-11.3161
rine	-11.3163
▁Corn	-11.3164
▁pure	-11.3167
▁Todd	-11.317
▁recover	-11.317
▁reverse	-11.3172
wed	-11.3174
wyn	-11.3174
▁comprising	-11.3174
▁Porter	-11.3176
shin	-11.3177
▁Vic	-11.3177
oz	-11.3177
▁surrender	-11.3178
pus	-11.3179
▁Emma	-11.318
▁diamond	-11.318
▁files	-11.318
court	-11.3181
kawa	-11.3184
▁Walk	-11.3185
holm	-11.3186
▁Roth	-11.3186
stock	-11.3187
pla	-11.3188
vey	-11.3191
bia	-11.3191
▁1865	-11.3193
▁sculptures	-11.3194
▁Emmy	-11.3197
▁Cad	-11.3197
▁variation	-11.3198
built	-11.3198
▁topped	-11.3198
▁Yellow	-11.32
▁lighting	-11.32
▁translator	-11.3201
▁trustees	-11.3202
ching	-11.3203
▁chess	-11.3204
▁Got	-11.3205
lim	-11.3206
0°	-11.3209
▁Ahmed	-11.321
▁Mé	-11.3211
▁virtual	-11.3212
▁Edition	-11.3213
▁130	-11.3214
TE	-11.3218
▁ver	-11.3221
▁dynamic	-11.3222
▁Rosen	-11.3223
wide	-11.3225
▁Glass	-11.3225
▁1937,	-11.3227
order	-11.323
▁Tampa	-11.323
CM	-11.3232
wrote	-11.3233
▁arrive	-11.3234
▁stepped	-11.3234
▁punk	-11.3238
chel	-11.3239
▁Mam	-11.3239
▁acquire	-11.3239
▁millimetres	-11.324
stage	-11.324
▁1914,	-11.3242
LE	-11.3242
ude	-11.3243
▁Programme	-11.3245
▁adapt	-11.3245
▁silent	-11.3245
▁Grammy	-11.3251
▁screenplay	-11.3251
▁habit	-11.3252
▁fastest	-11.3253
▁SP	-11.3254
uring	-11.3257
▁dome	-11.3257
▁1939.	-11.3261
▁stolen	-11.3261
▁rat	-11.3262
▁crops	-11.3263
Su	-11.3263
EM	-11.3264
xa	-11.3264
▁Films	-11.3265
▁warning	-11.3265
▁automatic	-11.3265
▁abstract	-11.3266
▁Lim	-11.3266
▁Aero	-11.3266
▁improvement	-11.3268
▁canon	-11.3268
▁dies	-11.3273
▁reserves	-11.3278
▁Albums	-11.3278
▁Chase	-11.3279
▁zero	-11.3279
▁broadcasts	-11.3279
▁torpedo	-11.328
▁Pic	-11.328
▁random	-11.3281
dian	-11.3281
▁Windsor	-11.3281
té	-11.3282
▁approaches	-11.3283
dd	-11.3283
▁opponents	-11.3284
rain	-11.3285
pot	-11.3286
▁hybrid	-11.3289
▁wildlife	-11.3289
▁experiments	-11.329
MI	-11.3299
▁restore	-11.3301
▁Break	-11.3302
▁Istanbul	-11.3304
ι	-11.3305
eff	-11.3306
▁Lucas	-11.3306
▁Ai	-11.3307
fan	-11.3309
▁unsuccessfully	-11.331
▁upgraded	-11.331
▁molecular	-11.3312
▁1954.	-11.3313
▁severely	-11.3313
▁Indianapolis	-11.3314
▁tight	-11.3315
▁101	-11.3315
▁Sat	-11.3316
▁Know	-11.3318
▁Fernando	-11.3319
▁Gy	-11.3323
hart	-11.3324
▁Lok	-11.3324
▁Iceland	-11.3324
▁Shield	-11.3325
▁Creative	-11.3326
▁IBM	-11.3326
▁str	-11.3326
▁hu	-11.3327
▁Est	-11.3327
▁dissertation	-11.3328
▁Bug	-11.3329
▁1920,	-11.3331
▁Allan	-11.3332
lets	-11.3333
▁Bailey	-11.3335
▁interviewed	-11.3337
▁Tab	-11.3338
▁Aberdeen	-11.3341
▁exploration	-11.3341
▁basement	-11.3342
▁explosion	-11.3344
▁Investment	-11.3347
▁senator	-11.335
▁Exhibition	-11.335
comb	-11.3351
▁universal	-11.3351
▁Bod	-11.3355
▁essays	-11.3355
oke	-11.3355
▁Rao	-11.3357
▁helicopter	-11.3361
tun	-11.3362
bet	-11.3365
▁Lynn	-11.3365
▁boxing	-11.3365
uta	-11.3366
▁rectangular	-11.3369
▁Lip	-11.337
▁putting	-11.3371
▁Case	-11.3372
▁Wol	-11.3374
▁tale	-11.3375
▁comedian	-11.3378
speed	-11.3379
▁Congo	-11.3379
▁lip	-11.338
▁pitched	-11.338
▁Kap	-11.3384
asse	-11.3386
▁Adrian	-11.3387
▁Amy	-11.3387
▁sufficient	-11.3389
▁Abd	-11.339
▁Notre	-11.339
▁Haven	-11.3393
▁accomplished	-11.3393
▁pursuit	-11.3394
▁Living	-11.3396
▁boarding	-11.3396
att	-11.3398
▁Carnegie	-11.34
lai	-11.3401
▁rector	-11.3405
▁tutor	-11.3405
▁Crow	-11.3406
stadt	-11.3407
▁Border	-11.3408
quet	-11.3408
▁Southeast	-11.341
speaking	-11.341
▁Scholar	-11.341
▁retire	-11.3412
ame	-11.3413
▁assessment	-11.3418
▁prospect	-11.3419
person	-11.342
▁cool	-11.3422
▁3.5	-11.3422
▁Jer	-11.3423
Don	-11.3425
▁Zhang	-11.3426
nz	-11.3428
▁Preston	-11.3429
▁realized	-11.343
▁Cle	-11.343
▁kids	-11.3433
▁Clay	-11.3433
▁Pink	-11.3434
nier	-11.3435
▁contribute	-11.3438
▁dense	-11.3438
▁Chemistry	-11.3439
▁bicycle	-11.3439
▁Deutsche	-11.344
▁innovative	-11.3441
▁gra	-11.3445
▁Bart	-11.3446
▁fairly	-11.3448
▁airfield	-11.345
▁dealer	-11.345
▁thereby	-11.3455
▁error	-11.3457
▁absorbed	-11.3458
▁2.0	-11.3459
▁geo	-11.3464
▁performers	-11.3465
▁towers	-11.3465
▁diagnosed	-11.3465
▁Philharmonic	-11.3469
Fa	-11.3471
▁granite	-11.3473
▁promotional	-11.3474
ο	-11.3477
▁Amateur	-11.3478
RE	-11.3478
▁Powell	-11.348
▁pine	-11.348
hoe	-11.348
▁2-	-11.348
▁Male	-11.3481
▁essentially	-11.3482
park	-11.3482
▁ch	-11.3482
dai	-11.3484
▁Fighter	-11.3484
▁AP	-11.3485
▁rent	-11.3486
▁explore	-11.3488
▁94	-11.3492
▁Ek	-11.3493
▁Brun	-11.3493
▁peninsula	-11.3495
–2	-11.3495
▁delayed	-11.3497
lig	-11.3499
pul	-11.35
▁posts	-11.35
beck	-11.3501
▁convinced	-11.3502
▁generations	-11.3502
▁battles	-11.3506
▁libraries	-11.3509
▁Ahmad	-11.3509
▁tonnes	-11.3512
▁Nigerian	-11.3514
▁lifestyle	-11.3515
▁rookie	-11.352
▁Rom	-11.3521
▁contributor	-11.3524
assi	-11.3524
▁transform	-11.3524
▁Pole	-11.3524
▁crimes	-11.3528
after	-11.3529
▁honours	-11.353
grad	-11.3531
sham	-11.3532
▁beneath	-11.3534
▁terrorist	-11.3534
▁Winnipeg	-11.3537
▁licence	-11.3537
▁Trump	-11.3537
▁(30	-11.3537
▁performs	-11.3538
▁Bed	-11.3539
▁magnitude	-11.354
▁Monument	-11.354
▁encounter	-11.354
▁140	-11.354
▁responded	-11.3541
▁blues	-11.3541
▁1815	-11.3541
▁Mario	-11.3546
▁dogs	-11.3546
llen	-11.3549
▁lateral	-11.355
▁Emily	-11.355
named	-11.3552
bee	-11.3552
FI	-11.3553
▁defending	-11.3554
▁attitude	-11.3555
▁architects	-11.3559
▁ru	-11.3559
▁cylinder	-11.3565
▁1918.	-11.3565
▁governed	-11.3565
▁premier	-11.3566
▁Wool	-11.3566
▁Lancaster	-11.3568
only	-11.3568
nny	-11.3569
▁1935,	-11.3569
▁stored	-11.357
▁Harbour	-11.3573
▁Jesuit	-11.3574
imi	-11.3575
▁j	-11.3577
▁challenged	-11.3578
▁(21	-11.3578
ivo	-11.3582
lik	-11.3587
▁Til	-11.3588
Ja	-11.3592
world	-11.3593
▁enabled	-11.3598
ML	-11.3599
▁Aaron	-11.36
▁Barr	-11.36
▁closest	-11.3603
▁Morocco	-11.3605
tting	-11.3605
▁settle	-11.3608
▁decisions	-11.3609
▁1960.	-11.361
▁Chapter	-11.3611
▁Francesco	-11.3613
▁array	-11.3614
▁sustained	-11.3615
▁Change	-11.3615
▁1929,	-11.3616
▁accommodation	-11.3616
▁Madras	-11.362
▁achievements	-11.362
▁proceeded	-11.3621
▁joins	-11.3621
RP	-11.3622
▁allegedly	-11.3623
▁mirror	-11.3627
▁rifle	-11.3629
▁noise	-11.3629
▁1834	-11.3629
tru	-11.3633
▁Duncan	-11.3637
▁Sy	-11.3638
▁ceiling	-11.3639
▁tourists	-11.3641
▁Julius	-11.3642
spir	-11.3642
▁2–0	-11.3644
ρ	-11.3645
▁Plaza	-11.3646
gna	-11.3648
ject	-11.365
▁fiscal	-11.3653
▁layout	-11.3655
▁telling	-11.3655
ear	-11.3656
hawk	-11.3656
fl	-11.3656
▁Edge	-11.3656
▁lover	-11.3658
▁Past	-11.3659
released	-11.3659
▁Cuban	-11.3661
▁resided	-11.3664
▁parks	-11.3664
mani	-11.3665
sko	-11.3666
▁Diploma	-11.3666
unda	-11.3666
▁commentator	-11.3669
▁bridges	-11.3671
eld	-11.3671
τ	-11.3672
rous	-11.3672
▁(24	-11.3675
▁5,000	-11.3677
▁registration	-11.3679
▁mineral	-11.368
▁Reid	-11.3687
▁consul	-11.369
▁trips	-11.3691
▁militia	-11.3693
▁1952.	-11.3694
▁1831	-11.3697
▁vicinity	-11.3699
▁Lisa	-11.3699
▁Geo	-11.3704
▁gu	-11.3705
▁Luxembourg	-11.3707
▁rebellion	-11.3707
▁pushed	-11.3708
tham	-11.371
▁Budapest	-11.3719
▁Lost	-11.3719
▁textile	-11.372
▁<	-11.3724
▁divide	-11.3725
▁intervention	-11.3725
▁Beau	-11.3729
▁observations	-11.3729
▁elite	-11.3731
▁playwright	-11.3737
▁speakers	-11.3737
Brien	-11.3738
▁listing	-11.3738
▁Woods	-11.3739
▁Excellence	-11.3739
▁emerging	-11.3739
ische	-11.3743
▁Globe	-11.3744
sher	-11.3744
▁Holmes	-11.3746
▁sporting	-11.3747
▁1949.	-11.3749
▁den	-11.3751
rite	-11.3752
hit	-11.3752
▁Present	-11.3754
dem	-11.3754
▁Kos	-11.3757
▁progressive	-11.3762
pon	-11.3764
vik	-11.3765
▁Pick	-11.3767
▁Burn	-11.377
▁Interior	-11.3771
▁Sab	-11.3771
burgh	-11.3772
▁submerged	-11.3774
▁enjoy	-11.3777
▁Colin	-11.3778
screen	-11.3779
▁Formation	-11.3779
▁brands	-11.378
▁Sher	-11.3781
▁varies	-11.3783
▁Bog	-11.3787
hem	-11.3788
▁1500	-11.3789
▁mac	-11.379
▁Vit	-11.3791
▁Lac	-11.3797
▁Counsel	-11.3797
▁ibn	-11.3797
second	-11.3797
▁exhibits	-11.3798
ario	-11.3798
▁rivals	-11.3799
ways	-11.3799
MT	-11.3799
▁experts	-11.38
TM	-11.3804
▁Mou	-11.3807
▁Shiva	-11.3808
▁vault	-11.3809
hman	-11.3809
▁Watch	-11.381
▁Observatory	-11.3814
yang	-11.3817
▁saint	-11.3818
▁adopt	-11.3821
▁Moh	-11.3821
▁Islander	-11.3822
▁1933,	-11.3824
▁Lucy	-11.3825
▁informed	-11.3826
▁Superior	-11.3826
▁qua	-11.3827
mma	-11.3827
▁belong	-11.3827
▁Leicester	-11.3828
▁hook	-11.3831
▁Denis	-11.3834
▁Brooks	-11.3834
▁skill	-11.3834
▁discuss	-11.3835
▁metric	-11.3836
that	-11.3836
▁depicts	-11.3836
▁nineteenth	-11.3838
▁chapters	-11.384
▁martial	-11.3843
▁minimal	-11.3844
three	-11.3848
▁1940.	-11.3849
▁Rifle	-11.3849
ort	-11.385
▁Dom	-11.385
▁preservation	-11.3852
▁governing	-11.3853
Har	-11.3854
▁dozen	-11.3855
sai	-11.3855
▁farms	-11.3855
mara	-11.3857
nom	-11.3859
IL	-11.3859
Si	-11.3863
▁terrain	-11.3863
▁Wednesday	-11.3863
▁procedure	-11.3865
▁Pon	-11.3869
▁elaborate	-11.3869
▁improving	-11.3869
▁Nottingham	-11.3872
▁Milton	-11.3873
Ex	-11.3874
▁collector	-11.3874
cot	-11.3875
▁lighthouse	-11.3875
▁ratings	-11.3876
▁tackle	-11.3877
▁Insurance	-11.3878
▁Tiger	-11.3878
Ga	-11.3879
▁Meyer	-11.3879
quest	-11.388
▁Forbes	-11.3881
▁porch	-11.3882
▁syndrome	-11.3884
▁protocol	-11.3884
group	-11.3885
▁Barn	-11.3885
SF	-11.3886
▁1951.	-11.3889
▁undertook	-11.389
▁rotation	-11.3892
nn	-11.3893
▁beer	-11.3893
nick	-11.3894
▁1833	-11.3895
▁Mand	-11.3895
▁pregnant	-11.3895
▁reducing	-11.3895
▁nationwide	-11.3899
▁hop	-11.3899
▁mat	-11.39
▁Canyon	-11.3902
▁Arabia	-11.3902
▁fate	-11.3902
▁protests	-11.3904
▁maintaining	-11.3905
▁asking	-11.3907
▁rises	-11.3907
▁tender	-11.3909
▁Poli	-11.391
ider	-11.3913
rou	-11.3914
PM	-11.3914
rav	-11.3915
ester	-11.3916
▁Pala	-11.3916
▁flee	-11.3916
▁insects	-11.3925
▁maternal	-11.3925
▁125	-11.3928
▁expelled	-11.3928
▁Lion	-11.3929
▁march	-11.3929
▁recurring	-11.3931
▁tissue	-11.3931
,200	-11.3933
OL	-11.3933
EN	-11.3939
inda	-11.3939
▁survivors	-11.394
▁automatically	-11.3943
▁vo	-11.3944
▁Sant	-11.3944
▁firing	-11.3946
▁Idaho	-11.3946
▁Chemical	-11.3946
mid	-11.3949
▁Chelsea	-11.3954
▁Bryan	-11.3955
▁sophomore	-11.3957
▁Heinrich	-11.3957
▁abbey	-11.3957
▁Wel	-11.3958
▁colours	-11.3961
▁Inside	-11.3963
isch	-11.3965
Un	-11.3965
▁Twenty	-11.3966
ines	-11.3966
▁Fourth	-11.3969
▁bankruptcy	-11.3969
”,	-11.3971
▁illustrations	-11.3971
▁Zimbabwe	-11.3972
▁aspect	-11.3974
▁USSR	-11.3974
▁(0.2	-11.3975
▁Being	-11.398
▁Miles	-11.398
ür	-11.3981
▁Robertson	-11.3984
▁handling	-11.3984
▁bush	-11.3985
moto	-11.3985
oda	-11.3986
▁Inspector	-11.3986
▁nose	-11.3987
▁romance	-11.3987
tens	-11.3987
▁Burton	-11.3988
▁Flag	-11.3989
English	-11.3989
cken	-11.3991
▁Dec	-11.3993
▁facilitate	-11.3996
▁Marion	-11.3997
metre	-11.4
ect	-11.4004
oro	-11.4005
▁Half	-11.4006
▁portions	-11.4006
Pre	-11.4006
▁Colonial	-11.4007
▁Qua	-11.401
base	-11.4011
cious	-11.4013
▁deeply	-11.4015
script	-11.4016
▁Step	-11.4017
▁1934,	-11.4018
▁acclaim	-11.4019
▁imprisonment	-11.4019
first	-11.4021
▁athletics	-11.4021
▁Marco	-11.4022
▁Eugene	-11.4023
▁jointly	-11.4025
action	-11.4025
▁Factory	-11.4026
▁Taka	-11.4027
▁Communication	-11.4027
eira	-11.403
▁Partners	-11.403
▁Cas	-11.4031
▁Obama	-11.4031
enter	-11.4034
▁Erik	-11.4037
▁commanding	-11.4038
▁Jag	-11.4039
▁vacant	-11.4043
tree	-11.4043
▁Yoshi	-11.4044
▁expanding	-11.4045
▁IP	-11.405
zel	-11.405
▁filter	-11.4052
▁Napoleon	-11.4052
▁transit	-11.4055
3.3	-11.4056
Bu	-11.4056
rom	-11.4057
▁worst	-11.4057
▁Cohen	-11.4058
▁Bosnia	-11.4058
▁behaviour	-11.406
▁argument	-11.4064
▁Emp	-11.4065
▁interim	-11.4066
▁altered	-11.4066
,600	-11.4066
▁50%	-11.4067
▁barrier	-11.4067
stre	-11.4068
▁dinner	-11.407
▁compact	-11.4071
▁folded	-11.4073
▁therapy	-11.4076
▁terminated	-11.4076
▁Ari	-11.4077
bling	-11.4077
▁Arc	-11.4078
▁Theological	-11.4079
▁VIII	-11.4079
▁1919.	-11.408
▁diet	-11.4084
▁Mit	-11.4085
gia	-11.4085
▁comp	-11.4086
Hu	-11.4087
zzo	-11.4088
▁Tat	-11.4089
pit	-11.409
▁Met	-11.409
▁Ages	-11.4091
Mi	-11.4091
▁Hugo	-11.4092
gre	-11.4092
▁descendant	-11.4094
▁comics	-11.4095
▁Lithuania	-11.4096
▁ESPN	-11.4096
▁Literary	-11.4096
▁Reynolds	-11.4099
izer	-11.4101
VA	-11.4101
▁Commercial	-11.4102
vision	-11.4107
▁slaves	-11.4107
▁Merc	-11.4108
char	-11.4109
▁Roosevelt	-11.4111
/20	-11.4111
▁Hus	-11.4112
▁Syrian	-11.4113
▁deals	-11.4113
sbury	-11.4114
serv	-11.4114
▁mutual	-11.4115
▁peer	-11.4118
▁suffer	-11.4119
sam	-11.412
▁AFC	-11.4121
▁faster	-11.4121
▁crack	-11.4123
▁palm	-11.4128
▁withdrawn	-11.4131
▁Palestinian	-11.4133
col	-11.4133
▁OS	-11.4134
▁Af	-11.4136
hm	-11.4136
▁Joy	-11.4137
2.5	-11.4139
UN	-11.4141
▁Mod	-11.4142
▁cruise	-11.4144
-14	-11.4145
yev	-11.4145
▁missile	-11.4146
▁recruit	-11.4147
▁mentions	-11.4148
▁deposits	-11.4149
ike	-11.4149
▁Josh	-11.4149
▁Enterprise	-11.4149
▁audiences	-11.4151
▁manufacturers	-11.4151
▁Faith	-11.4152
▁sheet	-11.4154
▁Mara	-11.4154
▁Strait	-11.416
One	-11.4163
arian	-11.4163
▁quoted	-11.4167
▁refugees	-11.4168
both	-11.417
bid	-11.417
▁comments	-11.4171
▁obtaining	-11.4172
▁recreational	-11.4173
▁computers	-11.4173
▁partnered	-11.4174
▁neutral	-11.4177
hof	-11.4179
▁transformation	-11.4184
▁sandstone	-11.4184
▁remix	-11.4184
▁Esp	-11.4186
▁Legal	-11.4187
▁arrangements	-11.4188
▁creates	-11.4188
▁composers	-11.4189
August	-11.419
▁mathematician	-11.4192
▁wage	-11.4193
▁Sai	-11.4193
▁harm	-11.4193
▁Boat	-11.4194
▁dubbed	-11.4195
omi	-11.4197
rem	-11.4198
ull	-11.42
▁swing	-11.4201
▁integration	-11.4201
writing	-11.4201
▁Ou	-11.4202
▁prices	-11.4204
▁varied	-11.4204
▁theoretical	-11.4204
▁Bedford	-11.4205
mad	-11.4207
tail	-11.4208
MO	-11.4209
ller	-11.4209
▁Finn	-11.421
▁consumption	-11.421
▁Rep	-11.421
▁Pit	-11.421
▁Springfield	-11.421
▁Doug	-11.4212
▁witness	-11.4214
▁catalogue	-11.4217
▁graphics	-11.4218
DR	-11.4219
▁flash	-11.4219
▁Kit	-11.4222
▁Annie	-11.4222
▁Leslie	-11.4223
▁remember	-11.4224
▁Chandra	-11.4226
▁Hin	-11.4227
▁consideration	-11.4229
fur	-11.4231
dé	-11.4232
▁revived	-11.4235
▁vicar	-11.4236
▁Spe	-11.4236
▁Cancer	-11.4238
acy	-11.4238
▁interaction	-11.4241
mie	-11.4242
▁prevented	-11.4242
▁lineup	-11.4245
▁Concert	-11.4246
▁zoo	-11.4246
▁pipe	-11.4247
–9	-11.4247
uld	-11.4249
▁Achievement	-11.4249
▁Fran	-11.4251
▁mask	-11.4252
▁derives	-11.4253
sure	-11.4253
face	-11.4255
▁tag	-11.4258
▁developers	-11.426
▁tin	-11.4265
▁Xu	-11.4266
glo	-11.4267
▁UC	-11.4268
▁spiral	-11.4271
▁bat	-11.4273
▁cottage	-11.4274
▁Spin	-11.4276
fully	-11.4276
▁Cairo	-11.4276
Sc	-11.4282
▁Gr	-11.4283
▁gig	-11.4285
▁Mile	-11.4287
▁lying	-11.4287
▁herb	-11.4288
▁Edgar	-11.4292
oto	-11.4292
▁membrane	-11.4292
cke	-11.4295
▁Mini	-11.4297
▁impossible	-11.4298
▁pageant	-11.4301
-13	-11.4301
▁upgrade	-11.4303
▁samples	-11.4303
him	-11.4304
qi	-11.4304
▁emotional	-11.4305
▁revenge	-11.4307
▁enable	-11.4308
lies	-11.431
▁streak	-11.431
cis	-11.4311
IF	-11.4312
corn	-11.4313
▁Maz	-11.4313
phi	-11.4314
–12	-11.4316
▁Ox	-11.4318
SB	-11.4323
sdale	-11.4323
▁Tau	-11.4324
▁ranges	-11.4324
LL	-11.4325
▁literally	-11.4327
▁Founded	-11.4333
▁dying	-11.4333
▁Hindi	-11.4334
tron	-11.4334
otic	-11.4336
▁Any	-11.4336
▁crowned	-11.4338
▁planted	-11.4338
▁SM	-11.4338
▁Sm	-11.434
▁increases	-11.4342
▁Rou	-11.4345
wear	-11.4348
▁Potter	-11.4348
▁Clear	-11.4349
▁authorized	-11.435
third	-11.4351
▁Southampton	-11.4353
▁Seoul	-11.4353
any	-11.4354
▁broadcaster	-11.4355
▁Sofia	-11.4356
▁teenager	-11.4357
▁1938.	-11.4358
▁prolific	-11.4359
▁Bak	-11.4366
kara	-11.4366
▁Rolling	-11.4368
▁Aviv	-11.437
▁implement	-11.437
▁transported	-11.4372
▁ja	-11.4373
mé	-11.4375
beat	-11.4376
▁Claude	-11.4376
▁Monroe	-11.4377
▁Pod	-11.4378
▁regulation	-11.4378
▁professionals	-11.4379
▁Fun	-11.4379
lift	-11.438
▁Wagner	-11.4381
▁Rachel	-11.4382
▁Bau	-11.4384
▁Ghost	-11.4387
▁Kho	-11.4387
▁demonstrate	-11.4387
▁Ave	-11.4387
▁watching	-11.4388
▁Klein	-11.4389
▁impression	-11.4392
organ	-11.4392
site	-11.4393
media	-11.4394
▁moon	-11.4395
rm	-11.4397
▁topic	-11.44
▁Basin	-11.4403
▁Guards	-11.4407
▁1950.	-11.4407
▁Primera	-11.4408
▁Marsh	-11.4409
yam	-11.4409
▁#2	-11.441
▁Orlando	-11.4411
cen	-11.4412
En	-11.4413
▁tanks	-11.4414
▁lodge	-11.4415
▁Casa	-11.4421
▁Sugar	-11.4422
,800	-11.4422
▁corps	-11.4423
ann	-11.4427
▁Rap	-11.4429
▁electron	-11.4429
▁Bombay	-11.443
▁Mani	-11.4431
tant	-11.4432
▁reflected	-11.4432
▁Nathan	-11.4433
▁vol	-11.4434
▁Bros	-11.4435
▁reader	-11.4435
▁1928,	-11.4438
▁Kla	-11.4441
load	-11.4443
▁semifinals	-11.4444
▁(25	-11.4446
▁parade	-11.4447
vu	-11.4449
▁concentrated	-11.445
▁Dynasty	-11.4451
▁adviser	-11.4454
▁Chal	-11.4454
▁breaks	-11.4455
▁varieties	-11.4457
John	-11.4463
▁delegation	-11.4464
▁vinyl	-11.4464
▁Full	-11.4465
mount	-11.4467
▁Face	-11.4467
▁Gla	-11.4468
nate	-11.4468
▁relatives	-11.4469
▁Crawford	-11.447
▁Pil	-11.447
▁Via	-11.4472
▁meter	-11.4473
▁Ama	-11.4473
▁agree	-11.4473
▁1937.	-11.4476
▁finalist	-11.4478
▁stri	-11.4481
▁repeatedly	-11.4481
▁magnetic	-11.4482
▁Bears	-11.4482
bian	-11.4482
▁McDonald	-11.4482
ske	-11.4484
▁dish	-11.4485
▁Safety	-11.4486
ket	-11.4486
▁sin	-11.4487
If	-11.4487
▁Fel	-11.4487
jer	-11.4488
▁prop	-11.4488
▁Industries	-11.4489
▁Lam	-11.4489
▁cow	-11.4491
▁Fiji	-11.4493
▁Sons	-11.4494
▁Ernst	-11.4495
▁Aboriginal	-11.4495
▁Viscount	-11.4495
▁Oh	-11.4495
sser	-11.4495
▁GT	-11.4497
PD	-11.4498
▁learns	-11.4501
▁photograph	-11.4501
▁feelings	-11.4501
▁Flu	-11.4502
▁harbour	-11.4507
▁endemic	-11.4507
▁Exeter	-11.4507
▁Albania	-11.4509
▁carriage	-11.4512
standing	-11.4513
ils	-11.4515
▁HD	-11.4516
▁1916,	-11.4517
▁strain	-11.4517
▁Mega	-11.4517
ume	-11.4519
polis	-11.4519
▁Fiction	-11.452
▁Using	-11.4523
▁builder	-11.4529
▁Lis	-11.453
▁consistent	-11.453
▁Glenn	-11.4532
▁Syn	-11.4532
▁1814	-11.4534
tina	-11.4534
▁amounts	-11.4535
▁shed	-11.4537
oa	-11.4541
▁Dai	-11.4542
▁lung	-11.4544
▁absent	-11.4547
▁Iraqi	-11.4548
jin	-11.4548
▁Wor	-11.4549
▁reward	-11.4549
▁trails	-11.4552
▁Louisville	-11.4553
▁Located	-11.4554
▁Andrea	-11.4554
tto	-11.4554
▁Clara	-11.456
▁strange	-11.4561
▁lady	-11.4564
▁batting	-11.4564
▁1–1	-11.4565
▁1922,	-11.4566
And	-11.4567
▁collapsed	-11.4569
▁Access	-11.457
▁Leg	-11.4574
▁targets	-11.4576
▁oxygen	-11.4579
walk	-11.4579
▁trunk	-11.4582
▁Sudan	-11.4582
▁demands	-11.4584
▁curator	-11.4585
▁Testament	-11.4585
▁distant	-11.4586
▁historians	-11.4586
▁Gerald	-11.4588
▁followers	-11.4589
▁1825	-11.459
wel	-11.4591
▁flank	-11.4592
▁monks	-11.4594
▁Slovakia	-11.4597
▁Former	-11.4597
atus	-11.4597
▁Headquarters	-11.4597
President	-11.4598
▁stamp	-11.4598
▁grammar	-11.4598
▁(22	-11.4601
enne	-11.4603
▁monitor	-11.4604
▁1829	-11.4604
mos	-11.4605
▁diversity	-11.461
▁pitcher	-11.461
▁tra	-11.4612
tim	-11.4615
▁tro	-11.4615
▁Capitol	-11.4616
▁Cumberland	-11.4616
▁freelance	-11.4617
▁1923,	-11.4617
wheel	-11.4619
▁Santo	-11.4619
▁cavalry	-11.4619
▁robot	-11.462
▁Twitter	-11.4623
yon	-11.4624
▁Pul	-11.4624
▁ko	-11.4625
itu	-11.4626
oso	-11.4626
▁Raw	-11.4626
▁clothes	-11.4631
▁fossil	-11.4631
▁Ala	-11.4634
▁María	-11.4634
▁ballad	-11.4635
▁preliminary	-11.4635
▁--	-11.4636
▁Witt	-11.4636
tral	-11.4638
Neill	-11.4638
▁decrease	-11.4639
general	-11.464
▁mild	-11.4641
▁LLC	-11.4642
▁enforcement	-11.4645
▁citizenship	-11.4646
▁manual	-11.4647
▁2:	-11.4647
▁sixty	-11.4647
▁Kenneth	-11.4648
▁prayer	-11.4648
▁Dub	-11.4648
▁editing	-11.4649
▁Uni	-11.4649
▁purple	-11.4651
▁detective	-11.4652
▁Bran	-11.4652
▁contracted	-11.4654
▁1927,	-11.4655
▁Bonn	-11.4655
▁Normal	-11.4659
▁efficient	-11.4659
▁Crystal	-11.466
▁complement	-11.4663
▁suspected	-11.4664
fen	-11.4665
.00	-11.4665
▁pseudonym	-11.4667
▁Carroll	-11.4668
▁fa	-11.4668
omo	-11.4668
▁provision	-11.4669
▁regard	-11.467
▁1921,	-11.4671
lk	-11.4671
▁lecture	-11.4671
▁conceived	-11.4674
▁Bronze	-11.4674
▁fighters	-11.4675
▁Prison	-11.4676
▁Him	-11.4677
tical	-11.4678
▁winds	-11.468
▁Canon	-11.4681
▁tract	-11.4683
▁Letters	-11.4683
hari	-11.4684
▁enlarged	-11.4686
etic	-11.4686
scribe	-11.4686
▁1917.	-11.4687
▁1930,	-11.4688
▁Lamb	-11.4689
▁explain	-11.4693
▁Vir	-11.4693
▁AFL	-11.4694
▁sending	-11.4694
pho	-11.4696
▁pace	-11.4696
aver	-11.47
▁180	-11.47
▁Mack	-11.47
/10	-11.47
▁invested	-11.47
▁ST	-11.4702
French	-11.4702
▁feels	-11.4702
▁Alexandria	-11.4702
▁Corner	-11.4702
▁judicial	-11.4704
eni	-11.4709
▁Christians	-11.4712
iba	-11.4713
▁killer	-11.4715
▁preparing	-11.4717
▁entity	-11.4717
▁odd	-11.4723
even	-11.4725
▁leased	-11.4726
▁contractor	-11.4727
▁Lil	-11.4727
▁Cort	-11.4729
▁Barnes	-11.473
▁backed	-11.4733
▁$3	-11.4739
▁trophy	-11.474
▁allocated	-11.4741
▁hymn	-11.4743
rik	-11.4743
▁Valencia	-11.4743
▁Charleston	-11.4744
▁wards	-11.4746
▁committees	-11.4748
▁Sox	-11.4748
▁loved	-11.4749
▁addressed	-11.4751
▁Walt	-11.4752
▁Hop	-11.4752
▁disk	-11.4753
▁Previously	-11.4755
▁handled	-11.4755
▁Dorothy	-11.4755
may	-11.4756
▁Again	-11.4757
Ca	-11.4758
▁surfaces	-11.4758
▁Glacier	-11.4759
▁seized	-11.4759
lev	-11.476
ncing	-11.4761
▁Cologne	-11.4762
▁Hayes	-11.4765
▁Mart	-11.4766
▁rocky	-11.4768
mme	-11.4769
▁ni	-11.4769
▁controls	-11.477
▁investigated	-11.4771
400	-11.4771
▁Nevertheless	-11.4771
▁Fuji	-11.4772
ulu	-11.4773
▁Hel	-11.4775
mbo	-11.4776
▁ranch	-11.4776
▁metropolitan	-11.478
▁colleague	-11.478
ingen	-11.4784
▁1912,	-11.4785
▁hub	-11.4786
▁bounded	-11.4786
▁Troy	-11.4787
▁Wer	-11.4789
uter	-11.4789
▁Continental	-11.4792
uca	-11.4793
▁trailer	-11.4793
▁archive	-11.4794
▁Sala	-11.4797
▁CR	-11.4798
▁sacred	-11.48
nath	-11.4803
▁Suffolk	-11.4803
▁Cavalry	-11.4806
▁irregular	-11.4809
What	-11.481
▁refuge	-11.4812
▁Complex	-11.4813
mag	-11.4815
lang	-11.4816
▁enterprise	-11.4816
mpl	-11.4817
▁oval	-11.4817
▁Linda	-11.4818
dr	-11.4819
lac	-11.4819
▁disorder	-11.482
▁Singer	-11.4824
offs	-11.4825
▁audition	-11.4826
▁owns	-11.4826
brown	-11.4827
▁Lea	-11.4828
▁essay	-11.4834
▁Bradley	-11.4835
▁Rot	-11.4836
▁wound	-11.4837
▁Maritime	-11.4838
▁longtime	-11.4838
▁smoke	-11.4842
▁encountered	-11.4843
vir	-11.4843
▁Herman	-11.4844
▁nursing	-11.4848
▁Apollo	-11.485
CB	-11.4852
▁Burns	-11.4853
▁Software	-11.4858
▁identification	-11.4861
▁Heaven	-11.4861
▁hospitals	-11.4862
▁Moss	-11.4862
▁accurate	-11.4863
▁trend	-11.4864
sby	-11.4864
▁blade	-11.4867
▁Tanzania	-11.4867
▁Body	-11.4869
▁Wars	-11.4869
▁solve	-11.487
liga	-11.487
▁Warriors	-11.4872
▁Sebastian	-11.4874
▁cleared	-11.4879
verse	-11.488
▁Ng	-11.4882
▁coin	-11.4884
▁1925,	-11.4884
▁trace	-11.4884
▁Physical	-11.4886
nne	-11.4887
Art	-11.4887
▁Ulster	-11.4888
▁bulk	-11.489
▁seemed	-11.4892
leigh	-11.4896
sq	-11.4898
▁Learning	-11.4898
▁mud	-11.4899
▁Level	-11.49
▁lights	-11.49
▁UCLA	-11.49
▁Hero	-11.49
▁presenting	-11.4902
ost	-11.4904
▁ages	-11.4905
▁reveal	-11.4906
Cha	-11.4906
▁bypass	-11.4906
▁scattered	-11.4906
owner	-11.4906
▁discipline	-11.4907
▁horizontal	-11.4908
▁Webb	-11.4909
▁succeeding	-11.491
▁Wai	-11.4911
▁chancel	-11.4913
▁foster	-11.4913
▁tone	-11.4914
▁Janeiro	-11.4914
about	-11.4915
logical	-11.4916
▁separation	-11.4916
TH	-11.4917
last	-11.4917
▁Mess	-11.4919
▁Fal	-11.4919
grade	-11.492
▁bread	-11.492
▁numbered	-11.4921
▁priests	-11.4921
▁Johan	-11.4922
ending	-11.4924
TP	-11.4925
▁1932,	-11.4927
▁Tru	-11.4928
▁École	-11.4929
▁coordinator	-11.4929
▁1931,	-11.493
▁undertaken	-11.493
▁Color	-11.4931
▁Tara	-11.4933
▁aggregate	-11.4935
▁0.2	-11.4936
▁1810	-11.4937
cra	-11.4938
▁garrison	-11.4939
▁Multi	-11.4941
author	-11.4945
▁Griffith	-11.4945
bird	-11.4946
▁Sang	-11.4946
established	-11.4949
rist	-11.495
▁Charter	-11.495
▁thread	-11.4952
ár	-11.4953
▁Original	-11.4953
▁trademark	-11.4954
▁personally	-11.4954
▁CB	-11.4954
▁loose	-11.4954
▁Loch	-11.4955
▁Kurt	-11.4958
▁0.5	-11.4958
▁Morrison	-11.496
▁refuses	-11.4961
▁Northwestern	-11.4964
▁accredited	-11.4964
wl	-11.4965
gno	-11.4965
▁Bergen	-11.4967
▁Ada	-11.4967
▁Hun	-11.4967
▁striking	-11.4968
▁Drum	-11.4972
▁kills	-11.4972
▁NSW	-11.4973
▁Statistics	-11.4974
▁Providence	-11.4974
phone	-11.4976
▁parishes	-11.4976
amo	-11.4979
▁Dunn	-11.4979
▁Fen	-11.498
▁societies	-11.4981
▁twentieth	-11.4981
vie	-11.4984
▁1924,	-11.4987
▁convince	-11.4989
▁Chennai	-11.4991
▁Presidential	-11.4991
▁entries	-11.4994
▁climbing	-11.4997
▁pilots	-11.4997
kers	-11.4999
▁associations	-11.5002
lant	-11.5002
▁artifacts	-11.5006
▁infant	-11.5006
▁Antarctica	-11.5007
▁wheels	-11.5009
▁Source	-11.5012
▁Thunder	-11.5012
self	-11.5014
▁Elm	-11.5016
▁consulting	-11.5017
▁Actress	-11.5017
▁horn	-11.5017
▁Indoor	-11.5018
lice	-11.5019
ilo	-11.502
▁Ton	-11.5021
▁rainfall	-11.5027
▁tribal	-11.5031
▁burn	-11.5032
ango	-11.5032
▁Fle	-11.5033
ying	-11.5034
▁Liberation	-11.5035
wind	-11.5036
▁Housing	-11.5037
▁Tax	-11.5041
▁strict	-11.5041
ς	-11.5044
▁struggled	-11.5044
▁Santos	-11.5045
▁secular	-11.5046
▁Gross	-11.5048
▁mistake	-11.5048
▁Gol	-11.5049
▁convent	-11.505
▁Lock	-11.5051
iger	-11.5052
ñ	-11.5052
▁ramp	-11.5053
▁Rus	-11.5053
oga	-11.5056
▁1910,	-11.5056
▁Sham	-11.5057
alo	-11.5058
handed	-11.506
▁landscapes	-11.506
▁Pr	-11.5061
▁tables	-11.5064
June	-11.5068
▁Popular	-11.507
▁boom	-11.507
▁taxi	-11.507
dit	-11.5071
▁quantum	-11.5073
▁u	-11.5079
lton	-11.5081
▁MC	-11.5081
course	-11.5082
▁fiber	-11.5083
▁continent	-11.5086
hur	-11.5086
▁Shri	-11.5087
▁duration	-11.509
▁Edwin	-11.509
▁tan	-11.5092
kun	-11.5092
enstein	-11.5095
main	-11.5095
▁headquartered	-11.5095
▁Ard	-11.51
kra	-11.5103
▁holder	-11.5104
▁centered	-11.5104
▁Criminal	-11.5112
▁unless	-11.5113
▁Map	-11.5113
▁politicians	-11.5114
▁1821	-11.5117
▁backup	-11.5118
▁(26	-11.5118
▁Helsinki	-11.5118
▁consent	-11.5119
▁invention	-11.5121
▁True	-11.5121
▁unveiled	-11.5122
▁Guitar	-11.5124
pil	-11.5125
▁AG	-11.5126
▁unclear	-11.5131
▁Ot	-11.5134
▁northeastern	-11.5134
▁Yama	-11.5134
▁Rand	-11.5136
operative	-11.5137
south	-11.5138
▁Calcutta	-11.5138
ckle	-11.5139
nova	-11.514
▁citation	-11.5142
▁Beth	-11.5144
makers	-11.5144
▁sick	-11.5148
▁Worcester	-11.5151
etz	-11.5155
▁shirt	-11.5157
▁Johannes	-11.5157
▁Sche	-11.5158
▁anthology	-11.5158
▁Bavaria	-11.5159
▁counsel	-11.5161
hap	-11.5162
▁scales	-11.5162
moor	-11.5162
▁abilities	-11.5163
▁thrown	-11.5163
erie	-11.5164
▁axis	-11.5164
▁cannon	-11.5166
▁spa	-11.5167
host	-11.5167
▁metre	-11.517
▁Afterwards	-11.5172
▁Cut	-11.5173
Pe	-11.5173
▁gal	-11.5175
escu	-11.5175
▁remarkable	-11.5175
▁Worth	-11.5177
kie	-11.5179
▁situations	-11.5179
▁variations	-11.5182
▁350	-11.5182
mia	-11.5183
▁Ling	-11.5183
▁journalists	-11.5191
pid	-11.5192
▁pension	-11.5192
3.7	-11.5193
▁advisory	-11.5194
anza	-11.5194
▁symptoms	-11.5197
▁southeastern	-11.5197
▁Kad	-11.5197
▁layers	-11.5199
zia	-11.5199
▁embarked	-11.5199
shu	-11.52
▁centres	-11.52
▁attract	-11.5202
turn	-11.5204
▁similarly	-11.5206
▁Eva	-11.5207
▁reads	-11.5208
▁Syracuse	-11.5208
PI	-11.5209
▁Kids	-11.521
▁badly	-11.5211
▁Baroque	-11.5211
▁donations	-11.5213
▁electorate	-11.5215
▁proximity	-11.5215
▁pur	-11.5218
▁Solar	-11.522
▁inclusion	-11.522
▁taxes	-11.5221
▁Zoo	-11.5222
▁Without	-11.5223
▁celebrity	-11.5225
▁1926,	-11.5227
▁screening	-11.5229
▁Jesse	-11.5231
▁knockout	-11.5232
NR	-11.5232
▁sw	-11.5233
▁centimetres	-11.5235
▁Ethiopia	-11.5235
▁Sco	-11.5236
enti	-11.5238
exp	-11.5238
▁Adolf	-11.5238
▁Southwest	-11.5239
▁competitors	-11.5242
▁hitting	-11.5243
▁suggestion	-11.5244
▁Marvel	-11.5248
cross	-11.5249
▁1935.	-11.5249
▁Salem	-11.5249
▁Pack	-11.525
▁Sum	-11.5251
pie	-11.5252
▁Uruguay	-11.5252
bil	-11.5254
▁curve	-11.5254
▁Want	-11.5254
▁engineers	-11.5257
▁proportion	-11.5258
DM	-11.526
▁disabled	-11.5262
TF	-11.5264
▁Marg	-11.5266
▁1826	-11.5266
▁recognize	-11.5266
▁100,000	-11.5267
▁Plain	-11.5271
▁Guru	-11.5274
▁1818	-11.5275
▁1824	-11.5276
▁"...	-11.5278
▁presents	-11.5279
▁larvae	-11.5279
isse	-11.5281
mobil	-11.5282
▁Turn	-11.5285
▁requirement	-11.5287
pple	-11.5287
force	-11.5287
▁Fashion	-11.5288
://	-11.5289
▁Tennis	-11.5289
▁Hum	-11.5292
▁predict	-11.5294
▁crypt	-11.5294
▁constituencies	-11.5295
▁explosive	-11.5295
▁skull	-11.5295
▁Gram	-11.5296
▁narrowly	-11.5297
,700	-11.5298
print	-11.5298
Br	-11.5299
▁Tyler	-11.53
▁fence	-11.5301
▁Quarter	-11.5301
logist	-11.5302
▁revolutionary	-11.5303
▁Tourism	-11.5304
▁tent	-11.5305
▁sketch	-11.5306
▁pad	-11.5307
▁1828	-11.5307
▁populated	-11.5307
▁hopes	-11.531
eto	-11.5311
▁Wick	-11.5311
▁statistical	-11.5312
position	-11.5312
dh	-11.5314
▁navigation	-11.5315
▁colonies	-11.5316
got	-11.5316
▁Karen	-11.5319
▁empire	-11.5325
▁Arsenal	-11.5325
app	-11.5325
▁certification	-11.5329
▁Scout	-11.5333
▁fruits	-11.5335
▁que	-11.5338
vic	-11.5339
▁Cash	-11.5339
▁optical	-11.534
▁1929.	-11.5342
dog	-11.5345
,300	-11.5345
▁distinguish	-11.5346
lab	-11.5346
AB	-11.5347
▁seating	-11.5348
▁wore	-11.5348
rail	-11.5349
▁Rica	-11.535
▁habitats	-11.5351
RL	-11.5351
▁1936.	-11.5353
▁counterpart	-11.5353
▁dia	-11.5354
mina	-11.5357
▁threats	-11.5358
▁Phi	-11.5359
mouth	-11.536
▁doctors	-11.5361
▁Estonia	-11.5364
uel	-11.5368
bass	-11.5368
TU	-11.5368
▁Table	-11.5369
▁assembled	-11.537
▁suburban	-11.537
▁indeed	-11.537
▁Thursday	-11.5373
▁Theodore	-11.5373
TO	-11.5375
▁Eg	-11.5376
▁binding	-11.5376
mato	-11.5377
▁garage	-11.538
▁Legend	-11.5381
▁stems	-11.5382
▁warehouse	-11.5386
▁chef	-11.5388
▁paying	-11.539
wise	-11.5392
CT	-11.5395
▁Chand	-11.5396
▁upset	-11.5396
▁Amar	-11.5396
▁Single	-11.54
▁Made	-11.5401
look	-11.5401
▁pm	-11.5405
▁separately	-11.5406
▁populations	-11.5406
plane	-11.5406
▁migration	-11.5407
ete	-11.5407
▁1914.	-11.5409
▁Julie	-11.5409
▁Frances	-11.541
▁Arch	-11.5411
▁lion	-11.5413
zio	-11.5413
There	-11.5414
▁crop	-11.5416
▁requiring	-11.5417
▁publishes	-11.5418
▁welfare	-11.542
▁Prussian	-11.5421
▁joke	-11.5422
▁button	-11.5425
▁Clare	-11.5427
▁Hampton	-11.5428
code	-11.5428
▁Crime	-11.5428
Love	-11.5432
ça	-11.5432
▁aesthetic	-11.5435
▁"[	-11.5435
▁pond	-11.5437
▁Gin	-11.544
▁Trinidad	-11.5441
raw	-11.5442
▁Credit	-11.5445
▁efficiency	-11.5448
▁dependent	-11.5448
▁Oriental	-11.5448
▁Lem	-11.5449
cate	-11.545
▁fraud	-11.5452
▁slope	-11.5452
▁rapper	-11.5454
oul	-11.5457
▁Baltic	-11.5459
▁tram	-11.546
▁Johnston	-11.5463
▁barn	-11.5464
▁Classical	-11.5465
▁1934.	-11.5469
▁5-	-11.5469
▁gray	-11.5469
▁cooking	-11.5472
Wa	-11.5473
frame	-11.5477
▁Article	-11.5479
▁Hale	-11.5481
▁Jennifer	-11.5482
▁referendum	-11.5482
reg	-11.5482
show	-11.5482
▁mate	-11.5482
▁Duck	-11.5483
▁Lithuanian	-11.5483
▁Educational	-11.549
fit	-11.549
▁Hur	-11.5491
iser	-11.5492
▁solely	-11.5492
▁10-	-11.5493
▁aware	-11.5496
▁compounds	-11.5497
▁Need	-11.5499
▁Berry	-11.5499
▁Norwich	-11.5499
▁cheese	-11.5499
▁copyright	-11.5499
▁promised	-11.5499
▁prizes	-11.5499
▁Greene	-11.55
kur	-11.5502
▁universe	-11.5502
н	-11.5502
alla	-11.5505
▁£2	-11.5505
onne	-11.5512
▁Om	-11.5512
amp	-11.5514
▁Estonian	-11.5515
▁(2005)	-11.5515
▁mystery	-11.5516
▁Rie	-11.5517
▁Visual	-11.5519
▁Hag	-11.5521
LS	-11.5521
Com	-11.5523
stand	-11.5524
▁Coal	-11.5525
▁massacre	-11.5527
▁conquest	-11.5527
clo	-11.5528
▁drag	-11.5528
▁constantly	-11.5528
▁cum	-11.5529
▁Ley	-11.553
isi	-11.553
phe	-11.5533
▁prominence	-11.5533
▁Psychology	-11.5533
▁homo	-11.5539
selling	-11.5541
tler	-11.5541
ô	-11.5543
▁Adel	-11.5543
▁virus	-11.5544
▁WC	-11.5544
▁talking	-11.5546
▁Blo	-11.5546
▁Fab	-11.5546
▁Baldwin	-11.5547
Te	-11.5549
▁radiation	-11.555
▁900	-11.5551
▁(23	-11.5551
▁Yard	-11.5552
▁anterior	-11.5554
▁Sak	-11.5554
oko	-11.5555
unk	-11.5557
▁Minneapolis	-11.5557
hab	-11.5558
▁arise	-11.5559
▁Kot	-11.5559
▁Nad	-11.556
▁Kiev	-11.5564
tract	-11.5564
▁legacy	-11.5565
bou	-11.5565
▁Dry	-11.5565
▁Kala	-11.5565
dler	-11.5567
▁inception	-11.5568
care	-11.5568
▁Cai	-11.5569
▁tasks	-11.557
▁Dundee	-11.5571
▁Feature	-11.5572
▁Summit	-11.5572
▁theories	-11.5572
Pri	-11.5574
▁entrepreneur	-11.5575
▁Appeals	-11.5575
т	-11.5576
▁vital	-11.5577
pole	-11.5577
▁aerial	-11.558
April	-11.558
▁Speed	-11.558
▁stamps	-11.5581
DE	-11.5581
▁Lisbon	-11.5582
▁oversaw	-11.5582
good	-11.5582
dhi	-11.5584
▁Newfoundland	-11.5588
▁Astro	-11.5589
inder	-11.5589
▁Colony	-11.5589
▁immigrant	-11.5591
lett	-11.5595
▁explanation	-11.5595
▁catalog	-11.5598
NE	-11.5598
▁aunt	-11.56
▁allegations	-11.5601
▁thriller	-11.5601
▁humor	-11.5601
odi	-11.5602
rib	-11.5603
▁Oblast	-11.5604
▁Semi	-11.5604
cie	-11.5605
ific	-11.5608
▁bottle	-11.5609
authored	-11.561
▁reunited	-11.5613
▁Armenia	-11.5614
▁revolt	-11.5618
▁HIV	-11.5621
▁Large	-11.5621
▁Wald	-11.5621
▁Elliott	-11.5622
▁Where	-11.5623
posit	-11.5623
▁Wyoming	-11.5623
▁manga	-11.5624
▁laser	-11.5624
▁Biology	-11.5626
▁Jamie	-11.5626
▁Epi	-11.5627
oj	-11.5629
MU	-11.5629
▁container	-11.5635
▁synthesis	-11.5637
▁Segunda	-11.5637
come	-11.5639
▁gather	-11.5641
▁screened	-11.5641
▁Rotten	-11.5643
▁Tuesday	-11.5644
▁Benedict	-11.5644
▁contestant	-11.5645
▁Rum	-11.5646
sub	-11.5646
▁accidentally	-11.5647
▁Stefan	-11.5647
▁Gandhi	-11.5648
ope	-11.5649
▁col	-11.565
▁knows	-11.5651
▁analyst	-11.5651
▁Tol	-11.5651
▁CP	-11.5652
▁Duchy	-11.5652
DI	-11.5652
▁che	-11.5657
▁Silva	-11.5658
▁villa	-11.5659
▁$7	-11.566
▁Liber	-11.5662
▁AB	-11.5662
CH	-11.5662
▁tear	-11.5664
▁Lt	-11.5666
▁pier	-11.5667
▁holes	-11.5667
September	-11.5667
▁hatch	-11.567
▁1816	-11.567
▁Germans	-11.5671
▁Wave	-11.5673
hui	-11.5674
▁dressed	-11.5674
EX	-11.5674
▁Notable	-11.5675
▁powder	-11.5679
▁endangered	-11.5679
▁boyfriend	-11.5679
▁Mata	-11.5679
▁Vietnamese	-11.568
▁showcase	-11.568
7°	-11.568
South	-11.5682
▁landowner	-11.5682
▁feeding	-11.5683
▁Dubai	-11.5683
▁phenomenon	-11.5686
uous	-11.5686
July	-11.5687
▁curved	-11.5688
stic	-11.5688
Big	-11.5688
endra	-11.5691
Gra	-11.5691
▁confusion	-11.5694
mere	-11.5695
▁gross	-11.5697
▁introduce	-11.5697
Fe	-11.5698
▁variants	-11.5698
▁Vision	-11.57
shot	-11.5701
▁Banks	-11.5701
▁attacking	-11.5702
▁subdivision	-11.5704
lid	-11.5704
▁Um	-11.5708
▁Mae	-11.571
▁propeller	-11.5711
▁Never	-11.5712
▁flagship	-11.5716
▁chord	-11.5717
▁Giuseppe	-11.5717
alis	-11.572
▁Eurovision	-11.5721
▁outfit	-11.5721
▁settling	-11.5722
dding	-11.5724
▁temples	-11.5724
shing	-11.5724
▁varying	-11.5725
▁intent	-11.5725
▁Shop	-11.5726
▁advised	-11.5727
▁Betty	-11.5727
▁Lynch	-11.5728
▁Burke	-11.5728
bes	-11.5728
▁traces	-11.573
▁silk	-11.5731
▁collegiate	-11.5731
▁Yar	-11.5732
▁Telegraph	-11.5732
gene	-11.5733
▁Engineer	-11.5734
▁Cop	-11.5734
▁forcing	-11.5734
▁Thames	-11.5734
▁logic	-11.5735
▁Rei	-11.5735
▁portal	-11.5735
▁wickets	-11.5737
▁tumor	-11.5739
▁boost	-11.574
▁reserved	-11.5741
▁chest	-11.5742
▁Nag	-11.5742
▁rope	-11.5742
▁Blair	-11.5746
lian	-11.575
NG	-11.5751
▁Norton	-11.5752
▁Mode	-11.5752
▁draws	-11.5755
▁vector	-11.5756
ache	-11.5757
USA	-11.5757
▁beds	-11.5758
▁Papa	-11.5759
▁villagers	-11.576
▁forum	-11.576
▁1933.	-11.5763
word	-11.5766
▁enclosed	-11.5767
will	-11.5767
▁poets	-11.5767
ature	-11.5767
▁Flat	-11.577
▁Prussia	-11.5771
tang	-11.5773
▁sh	-11.5773
▁Antwerp	-11.5773
▁listen	-11.5774
▁signals	-11.5774
▁concepts	-11.5776
ania	-11.5776
responsibilities	-11.5777
▁Malcolm	-11.5777
mission	-11.5778
▁withdraw	-11.5778
▁Midland	-11.578
▁merely	-11.5782
graph	-11.5783
▁Chad	-11.5784
engine	-11.5784
▁sustainable	-11.5785
rug	-11.5785
▁easier	-11.5788
rig	-11.579
▁sometime	-11.579
▁hi	-11.5791
▁freestyle	-11.5791
▁fewer	-11.5793
▁oral	-11.5795
▁interrupted	-11.5795
▁PR	-11.5799
▁Transit	-11.58
▁Logan	-11.5802
▁1913,	-11.5802
▁mount	-11.5804
▁southwestern	-11.5804
▁Nicola	-11.5805
−	-11.5805
▁Qatar	-11.5807
▁1865.	-11.5809
▁rescued	-11.5809
▁1927.	-11.5811
▁Money	-11.5811
Greek	-11.5812
▁Guatemala	-11.5812
▁emerge	-11.5813
▁Ferry	-11.5815
▁decommissioned	-11.5822
▁hotels	-11.5823
▁Nash	-11.5824
▁firms	-11.5825
October	-11.5826
▁Mik	-11.5826
ß	-11.5826
LO	-11.5829
▁shots	-11.5829
▁Monster	-11.583
▁Naga	-11.5831
▁Lords	-11.5833
▁Hood	-11.5833
▁airing	-11.5835
▁Ace	-11.5836
▁spotted	-11.584
▁boot	-11.5841
▁Sou	-11.5843
2,000	-11.5843
▁Dou	-11.5843
▁migrated	-11.5844
▁dealt	-11.5845
▁grandchildren	-11.5848
▁congress	-11.5849
franc	-11.5851
▁talented	-11.5854
▁Coalition	-11.5855
tian	-11.5857
▁Diana	-11.5858
▁fountain	-11.5858
isa	-11.5861
▁$6	-11.5862
▁CH	-11.5865
▁Producer	-11.5866
erman	-11.5866
▁bays	-11.5866
▁Ladies	-11.5867
▁Ming	-11.5867
hee	-11.5869
▁explored	-11.5869
▁Cord	-11.5872
▁charitable	-11.5873
▁mythology	-11.5873
▁Make	-11.5875
▁Winchester	-11.588
▁SK	-11.5881
▁proceeds	-11.5882
▁comprised	-11.5883
▁raw	-11.5885
▁Choice	-11.5885
yō	-11.5886
▁Et	-11.5887
▁Roma	-11.5887
▁Ranch	-11.5889
▁Picture	-11.5889
▁Agreement	-11.589
▁equity	-11.5891
▁Devil	-11.5893
▁threw	-11.5894
▁fat	-11.5895
▁ear	-11.5896
▁ITV	-11.5896
▁Lakes	-11.5897
▁sal	-11.5897
▁Zagreb	-11.5898
▁Angels	-11.5898
▁trick	-11.5898
combe	-11.59
▁Arms	-11.59
▁columnist	-11.5901
▁knocked	-11.5903
▁Tasmania	-11.5904
▁reforms	-11.5904
▁sacrifice	-11.5905
▁cartoon	-11.5905
▁Volunteer	-11.5907
green	-11.5909
▁specializing	-11.5909
▁Match	-11.5912
▁survival	-11.5912
▁Felix	-11.5913
▁IC	-11.5913
Ab	-11.5914
▁hydrogen	-11.5914
▁happen	-11.5914
berger	-11.5915
▁1813	-11.5915
▁correspondence	-11.5916
▁tough	-11.5916
▁Arn	-11.5918
▁Wine	-11.5918
▁congressional	-11.5919
▁Walsh	-11.5923
ously	-11.5925
▁accompanying	-11.5928
thal	-11.5928
▁verses	-11.593
▁Schi	-11.5931
▁classrooms	-11.5931
▁waves	-11.5931
▁prey	-11.5932
▁demon	-11.5932
▁banner	-11.5936
evo	-11.5936
▁reddish	-11.5937
▁considering	-11.5938
▁Res	-11.5938
▁Filipino	-11.5938
▁Aircraft	-11.5939
active	-11.5939
▁Wheel	-11.594
▁conviction	-11.594
▁Organ	-11.594
▁Lyn	-11.5941
dri	-11.5942
▁attractive	-11.5942
▁eating	-11.5942
▁Discovery	-11.5947
storey	-11.5948
▁Cloud	-11.5949
▁ke	-11.595
▁Archives	-11.5951
▁Outside	-11.5953
▁Dong	-11.5953
lap	-11.5954
▁prompted	-11.5955
▁operators	-11.5955
mul	-11.5956
▁Hermann	-11.5957
▁1806	-11.5958
▁Hyderabad	-11.5958
▁achieving	-11.5958
▁civic	-11.5959
▁Against	-11.5959
▁councillor	-11.596
pes	-11.596
rap	-11.596
▁Kali	-11.5961
▁fed	-11.5961
film	-11.5962
▁aggressive	-11.5962
▁wi	-11.5964
▁Current	-11.5965
▁equally	-11.5966
▁Chapman	-11.5968
▁marathon	-11.5969
ifying	-11.597
▁contestants	-11.597
▁paved	-11.5973
▁soloist	-11.5973
▁repairs	-11.5976
▁outlets	-11.5976
▁(2007)	-11.5977
pl	-11.5978
▁1931.	-11.5979
oph	-11.598
▁Dresden	-11.598
▁Mud	-11.5981
ega	-11.5982
▁1920.	-11.5982
▁reside	-11.5984
▁Sacred	-11.5984
November	-11.5984
▁Dow	-11.5986
iu	-11.599
.25	-11.599
▁guided	-11.5991
rier	-11.5992
▁1827	-11.5993
▁Lund	-11.5993
cultural	-11.5995
▁Naka	-11.5999
pell	-11.6
ej	-11.6
cular	-11.6001
▁contracts	-11.6001
▁astronomer	-11.6002
wang	-11.6002
▁watched	-11.6003
six	-11.6005
▁Bologna	-11.6005
▁(0.1	-11.6008
gren	-11.6011
▁nicknamed	-11.6011
▁anime	-11.6016
▁Index	-11.6017
▁IN	-11.6017
▁ministers	-11.6018
▁noticed	-11.6018
▁Polytechnic	-11.6019
▁1900,	-11.6021
▁1923.	-11.6022
▁Fifth	-11.6023
▁realizes	-11.6024
▁absolute	-11.6024
▁speaks	-11.6026
isha	-11.6026
fect	-11.6026
▁Canberra	-11.6031
▁Rocky	-11.6031
▁cord	-11.6033
▁1924.	-11.6035
▁iTunes	-11.6038
▁volcanic	-11.6038
TR	-11.6042
▁knight	-11.6042
▁barrel	-11.6042
▁detect	-11.6042
▁Leadership	-11.6043
DB	-11.6043
▁enhance	-11.6047
▁Tribune	-11.6049
▁informal	-11.6049
NO	-11.6049
▁Nik	-11.605
▁geometry	-11.6052
▁Generation	-11.6053
comp	-11.6053
▁demanded	-11.6054
▁marking	-11.6054
▁accordance	-11.6056
▁IS	-11.6057
▁epic	-11.6057
▁MIT	-11.6058
▁targeted	-11.6063
▁Applied	-11.6063
mper	-11.6063
▁shadow	-11.6064
▁1928.	-11.6064
▁decorative	-11.6067
▁assassination	-11.6068
▁slide	-11.6068
▁ur	-11.6068
mil	-11.607
▁Sporting	-11.6071
▁Drug	-11.6071
▁canvas	-11.6072
▁convey	-11.6072
arrow	-11.6072
▁posterior	-11.6074
▁afford	-11.6076
▁supervised	-11.6077
▁Griffin	-11.6079
▁fold	-11.6079
gged	-11.6081
▁Unfortunately	-11.6081
▁feminist	-11.6081
▁bark	-11.6083
–14	-11.6084
tend	-11.6085
▁Hawk	-11.6086
▁2012–13	-11.6086
▁erect	-11.6087
▁Clyde	-11.6089
ais	-11.6089
▁Neg	-11.6089
ovsky	-11.609
large	-11.609
hun	-11.6091
▁hang	-11.6091
lier	-11.6091
▁professionally	-11.6092
▁Rhine	-11.6097
▁Chau	-11.6097
▁criticised	-11.6098
▁Eng	-11.6098
▁genes	-11.6099
▁autobiography	-11.61
▁continental	-11.61
▁modest	-11.6101
fusion	-11.6104
▁Hitler	-11.6104
▁inventor	-11.6105
▁Tag	-11.6105
▁Cecil	-11.6105
▁Quint	-11.6106
▁integral	-11.6107
rri	-11.6107
tell	-11.6109
▁item	-11.611
▁miss	-11.6111
▁burning	-11.6111
▁1823	-11.6112
▁Beer	-11.6112
▁AT	-11.6114
▁Agnes	-11.6116
▁fragments	-11.6116
▁20,000	-11.6118
▁punishment	-11.6119
▁Elder	-11.6119
▁105	-11.612
▁keen	-11.6121
▁Reverend	-11.6121
▁Bet	-11.6122
▁Total	-11.6122
▁granddaughter	-11.6123
camp	-11.6124
zin	-11.6124
▁matrix	-11.6125
MB	-11.6126
▁1932.	-11.6129
▁quarters	-11.6132
▁Easter	-11.6132
▁sanctuary	-11.6132
▁messages	-11.6133
▁Jake	-11.6134
▁Pond	-11.6136
▁Caesar	-11.6137
▁submission	-11.6137
fiction	-11.6137
▁tap	-11.6138
loch	-11.6139
▁routine	-11.6139
Bi	-11.6139
▁Morton	-11.6139
sex	-11.614
▁marker	-11.6142
▁bullet	-11.6144
▁Close	-11.6145
▁commercials	-11.6145
sche	-11.6146
▁posthumously	-11.6146
▁Aid	-11.6146
):	-11.6149
garh	-11.6149
ppe	-11.6149
▁illustrator	-11.6151
▁psychological	-11.6151
CU	-11.6151
▁Lav	-11.6151
national	-11.6152
▁crashed	-11.6154
▁confluence	-11.6154
▁Arctic	-11.6154
FF	-11.6155
▁Middlesex	-11.6155
▁Bundesliga	-11.6158
market	-11.6165
▁analog	-11.6165
▁promise	-11.6165
▁für	-11.6166
▁SD	-11.6166
bey	-11.617
▁Deb	-11.6173
▁mills	-11.6174
▁recreation	-11.6174
▁Cli	-11.6174
▁BCE	-11.6177
▁spare	-11.6177
nge	-11.6181
▁Nun	-11.6184
▁suggesting	-11.6186
▁1817	-11.6188
▁Fork	-11.6188
▁fights	-11.6189
▁Tell	-11.619
▁Newman	-11.619
NP	-11.6191
▁Roland	-11.6191
▁hoped	-11.6193
▁flooding	-11.6194
flow	-11.6194
▁Zhu	-11.6195
other	-11.6196
-23	-11.6196
▁Sign	-11.6196
▁collaborator	-11.6198
lich	-11.6199
▁consequence	-11.62
▁keyboard	-11.62
▁compensation	-11.6202
▁circles	-11.6203
▁rubber	-11.6203
wei	-11.6205
wara	-11.6206
▁NO	-11.6206
abi	-11.6207
▁Bruno	-11.6208
LD	-11.6209
..."	-11.6211
▁fulfill	-11.6211
lake	-11.6212
▁MW	-11.6214
orum	-11.6214
▁monitoring	-11.6214
▁Boris	-11.6215
▁agrees	-11.6215
▁unanimous	-11.6216
ista	-11.6217
▁Jorge	-11.6218
ord	-11.6219
▁Sem	-11.622
kle	-11.6222
▁Tribe	-11.6222
insky	-11.6223
▁Cell	-11.6225
▁(2006)	-11.6225
▁filmmaker	-11.6226
▁Alma	-11.6226
▁Choir	-11.6227
lash	-11.6227
▁mast	-11.6228
▁melody	-11.6228
▁Kolkata	-11.6228
▁Expo	-11.623
▁1803	-11.6232
▁Strong	-11.6235
▁presidency	-11.6235
ime	-11.6236
▁labels	-11.624
▁commit	-11.6241
▁1922.	-11.6244
▁suburbs	-11.6246
dict	-11.6246
iano	-11.6248
в	-11.6249
eti	-11.6254
▁Lance	-11.6254
oriented	-11.6256
chal	-11.6256
▁activists	-11.6257
▁slip	-11.6257
▁finite	-11.626
rama	-11.626
▁archives	-11.6264
▁confidence	-11.6264
▁narrator	-11.6265
▁NE	-11.6265
league	-11.6265
▁Jenkins	-11.6265
DO	-11.6267
▁Kemp	-11.6273
▁Thomson	-11.6273
acle	-11.6275
▁polar	-11.6276
▁Kenny	-11.628
▁modeling	-11.6281
▁governments	-11.6282
▁Imp	-11.6285
▁Stuttgart	-11.6287
▁leather	-11.6287
▁sponsorship	-11.6288
▁Vil	-11.6289
▁Chuck	-11.6289
▁raced	-11.629
▁foundations	-11.6291
▁riders	-11.6292
▁fatal	-11.6293
▁dreams	-11.6293
ono	-11.6293
lou	-11.6294
▁min	-11.6295
▁rolling	-11.6295
hot	-11.6297
▁opens	-11.6298
▁immigration	-11.6298
▁2017–18	-11.6298
▁transmitter	-11.6299
▁1916.	-11.6303
▁Leone	-11.6303
▁Ske	-11.6303
▁Corp	-11.6304
▁Victory	-11.6306
▁treasure	-11.6308
▁luxury	-11.6309
▁1912.	-11.6315
▁respected	-11.6315
▁commercially	-11.6317
▁galleries	-11.6317
rator	-11.6317
fel	-11.6317
▁united	-11.6317
▁Moreover	-11.6319
р	-11.632
pack	-11.632
▁Recreation	-11.632
▁merge	-11.6323
▁brake	-11.6323
▁Tun	-11.6323
▁designing	-11.6323
▁critically	-11.6324
▁WS	-11.6324
▁1790	-11.6324
liv	-11.6325
▁Cran	-11.6325
▁Churchill	-11.6326
▁petals	-11.6328
▁1925.	-11.6329
▁gable	-11.6329
▁costume	-11.6331
▁rally	-11.6334
3.9	-11.6335
▁Sandy	-11.6335
▁charted	-11.6336
▁Def	-11.6337
▁Reich	-11.6339
▁cloth	-11.6339
▁Pioneer	-11.6339
anger	-11.6339
▁Mira	-11.634
ako	-11.6343
dock	-11.6343
December	-11.6345
▁2016–17	-11.6346
roid	-11.6346
▁laude	-11.6346
▁FIBA	-11.6348
▁Kle	-11.6348
▁sudden	-11.635
mill	-11.635
▁activated	-11.6353
tero	-11.6354
▁Leopold	-11.6354
▁Cedar	-11.6356
▁Lal	-11.6358
▁Critics	-11.6358
▁Theory	-11.6359
▁criteria	-11.6362
bara	-11.6363
▁Vernon	-11.6363
▁lamp	-11.6364
▁je	-11.6364
▁Own	-11.6364
▁Devi	-11.6365
▁decoration	-11.6366
▁salary	-11.6366
▁pottery	-11.6368
▁excess	-11.6368
▁repertoire	-11.6369
▁flavor	-11.6371
▁customs	-11.6371
▁1910.	-11.6371
▁Kul	-11.6371
tner	-11.6371
▁continuously	-11.6372
mol	-11.6372
▁ammunition	-11.6373
GS	-11.6373
▁occurring	-11.6374
▁Evening	-11.6375
▁2013–14	-11.6378
▁uncertain	-11.638
▁bones	-11.6384
GC	-11.6386
,”	-11.6387
▁defect	-11.6387
▁Rey	-11.6388
▁Canton	-11.6389
tem	-11.639
▁wheat	-11.6392
won	-11.6392
▁northwestern	-11.6394
▁ease	-11.6395
▁1:	-11.6395
▁Thu	-11.6396
▁Mach	-11.6398
Ireland	-11.6398
▁Lambert	-11.6398
▁Treasury	-11.6399
▁specified	-11.6399
▁explorer	-11.64
▁interactive	-11.6401
▁dancers	-11.6402
▁stability	-11.6403
BE	-11.641
▁Brother	-11.6411
mund	-11.6411
Ru	-11.6415
▁Journalism	-11.6416
▁Piano	-11.6418
▁Rec	-11.6419
▁rejoined	-11.642
HC	-11.642
▁examined	-11.6421
January	-11.6421
▁coral	-11.6422
▁Cardinals	-11.6423
▁Highland	-11.6423
▁Twin	-11.6423
▁Hammer	-11.6425
▁provisions	-11.6425
▁Ravi	-11.6426
▁Fear	-11.6428
▁acknowledged	-11.6429
▁plantation	-11.6429
▁understood	-11.6429
▁Mozart	-11.6429
mura	-11.643
▁Whitney	-11.6431
uto	-11.6431
▁rendered	-11.6433
▁doctrine	-11.6433
▁glacier	-11.6433
▁chaplain	-11.6433
▁delay	-11.6433
▁Meadow	-11.6433
▁oversee	-11.6434
disc	-11.6437
▁Tong	-11.6437
▁Borg	-11.6441
lect	-11.6443
▁abandon	-11.6443
▁lots	-11.6444
▁Nav	-11.6444
▁EC	-11.6447
▁Mt	-11.6449
▁2015–16	-11.6451
▁Degree	-11.6453
▁swamp	-11.6453
▁Willie	-11.6453
hra	-11.6456
▁memoir	-11.6458
▁fees	-11.6458
▁(28	-11.6458
shima	-11.6459
MD	-11.6461
▁cricketer	-11.6461
▁Mali	-11.6462
▁Constantinople	-11.6463
▁democratic	-11.6464
bahn	-11.6465
▁Bac	-11.6468
teen	-11.6468
▁Bangalore	-11.6471
▁Joel	-11.6471
bl	-11.6472
▁1902,	-11.6472
▁Fly	-11.6472
▁myth	-11.6472
▁embassy	-11.6474
▁Fight	-11.6474
▁Bend	-11.6475
3.5	-11.6475
along	-11.6477
▁Kiss	-11.6481
▁Ark	-11.6482
▁digit	-11.6484
dice	-11.6484
xton	-11.6485
▁psycho	-11.6485
▁juvenile	-11.6486
к	-11.6486
▁Cove	-11.6487
▁Nobel	-11.6488
▁Poll	-11.6488
▁Architects	-11.6488
▁puzzle	-11.6489
▁triangle	-11.649
▁Performing	-11.649
▁villain	-11.649
▁Dock	-11.6492
▁1819	-11.6492
▁scope	-11.6492
▁Gon	-11.6493
▁imported	-11.6494
▁Bour	-11.6496
augh	-11.6496
▁communicate	-11.6497
▁staying	-11.6498
▁dimensions	-11.6498
–0	-11.6499
▁3.0	-11.6503
tour	-11.6504
▁Roo	-11.6506
▁Put	-11.6506
▁shade	-11.6508
▁1822	-11.6511
▁loyal	-11.6512
▁whorls	-11.6515
mand	-11.6518
ige	-11.6519
rog	-11.6519
rew	-11.6519
▁Drake	-11.652
▁3–1	-11.652
kom	-11.6522
Fo	-11.6522
▁Lev	-11.6523
▁1801	-11.6525
amine	-11.6525
▁Scots	-11.6529
▁pathway	-11.653
road	-11.653
▁wool	-11.653
▁spur	-11.653
▁Brock	-11.653
▁posting	-11.653
▁Bolton	-11.6531
▁banker	-11.6532
▁rabbi	-11.6533
▁Lei	-11.6533
▁blast	-11.6534
▁alignment	-11.6536
aceae	-11.6536
▁procedures	-11.6537
▁blocked	-11.6538
specific	-11.6539
sell	-11.654
cop	-11.6541
▁CC	-11.6542
▁Have	-11.6543
▁Rab	-11.6545
▁botanist	-11.6546
▁Flo	-11.6547
▁ritual	-11.6547
▁Macedonia	-11.6548
▁Lud	-11.6548
▁1930.	-11.6548
ulate	-11.655
▁Mora	-11.6551
▁Sanskrit	-11.6553
throp	-11.6553
▁finger	-11.6553
▁insight	-11.6557
▁3000	-11.6557
best	-11.6558
▁considerably	-11.6558
▁Ful	-11.6559
▁sitcom	-11.656
▁1905,	-11.6561
ught	-11.6562
rab	-11.6565
onian	-11.6566
▁Kashmir	-11.6569
iq	-11.657
▁drainage	-11.657
▁1921.	-11.657
▁Gall	-11.6571
ifer	-11.6573
gus	-11.6573
▁socialist	-11.6573
▁capabilities	-11.6573
▁Toledo	-11.6573
path	-11.6574
gol	-11.6575
hom	-11.6575
8°	-11.6576
▁Claire	-11.6577
▁Winston	-11.6578
▁−	-11.6578
▁seventeen	-11.6578
▁Cliff	-11.6578
ppa	-11.6579
/1	-11.658
▁autonomous	-11.6581
▁expertise	-11.6582
▁spelling	-11.6582
▁provider	-11.6584
eiro	-11.6585
▁resign	-11.6586
▁Rem	-11.6587
▁reef	-11.6589
▁Hou	-11.6591
egan	-11.6591
▁pocket	-11.6592
▁hypo	-11.6593
л	-11.6593
▁slight	-11.6594
rud	-11.6594
▁Helena	-11.6595
▁Stern	-11.6596
▁discharge	-11.6597
▁complications	-11.66
▁Cara	-11.6601
▁Rud	-11.6601
▁clip	-11.6604
▁Turin	-11.6606
▁niece	-11.6608
▁Lum	-11.6608
▁condemned	-11.6611
kot	-11.6611
lecommunications	-11.6612
▁(27	-11.6612
▁Lima	-11.6612
NI	-11.6614
▁notion	-11.6614
▁Slovenia	-11.6614
chrom	-11.6614
lah	-11.6616
▁Georgetown	-11.6617
▁Wings	-11.6618
▁1,500	-11.6618
▁Freeman	-11.6618
▁geographical	-11.662
▁ports	-11.662
▁mod	-11.6621
this	-11.6622
sea	-11.6623
▁tar	-11.6623
▁2020	-11.6623
▁Depression	-11.6624
▁Mina	-11.6624
▁tobacco	-11.6627
▁trustee	-11.6627
▁Belt	-11.6627
▁Grim	-11.6627
assa	-11.6628
ès	-11.6629
▁Castro	-11.663
▁Dee	-11.6633
buck	-11.6635
▁Stre	-11.6637
▁Population	-11.6639
eon	-11.6639
▁1908,	-11.6639
▁2014–15	-11.6641
ony	-11.6641
▁Constitutional	-11.6641
▁Additional	-11.6642
▁Slo	-11.6642
▁Tak	-11.6642
around	-11.6644
▁sunk	-11.6645
▁counts	-11.6645
▁Jung	-11.6645
▁duet	-11.6646
▁seeks	-11.6649
▁Petro	-11.665
▁observer	-11.665
▁busy	-11.665
▁attained	-11.665
clusive	-11.6653
▁superintendent	-11.6654
tile	-11.6654
▁Cock	-11.6654
modern	-11.6654
▁beside	-11.6655
▁preceded	-11.6656
▁chase	-11.6656
▁fo	-11.6658
▁AA	-11.6658
▁suite	-11.6659
▁seminary	-11.666
▁Title	-11.666
▁descended	-11.6661
▁preceding	-11.6661
AG	-11.6663
▁mon	-11.6663
▁Josef	-11.6664
▁sequences	-11.6665
▁Livingston	-11.6668
▁mascot	-11.6669
▁brass	-11.667
gni	-11.667
▁mandate	-11.6671
toria	-11.6673
▁restrictions	-11.6675
▁properly	-11.6677
▁casting	-11.6677
ily	-11.6679
▁environments	-11.668
▁Hit	-11.6682
gard	-11.6682
▁fix	-11.6682
▁Maxwell	-11.6684
RM	-11.6684
tori	-11.6686
iner	-11.6687
▁tubes	-11.6687
▁Screen	-11.6688
dos	-11.6689
▁quiet	-11.6689
$1	-11.669
▁struggling	-11.6692
▁supervisor	-11.6692
▁goddess	-11.6692
▁Pirates	-11.6693
igo	-11.6693
▁genres	-11.6694
lob	-11.6695
▁Hanover	-11.6698
▁2011–12	-11.6698
▁Porto	-11.67
▁navy	-11.6701
▁Speedway	-11.6701
▁wishes	-11.6701
▁Siege	-11.6701
sign	-11.6702
▁Hartford	-11.6703
▁Led	-11.6703
▁Holt	-11.6704
▁discussions	-11.6704
▁Dra	-11.6705
GP	-11.6706
▁occupies	-11.6708
ended	-11.6713
▁storyline	-11.6713
▁Ple	-11.6714
ality	-11.6715
Ph	-11.6716
▁Atlético	-11.6719
▁tips	-11.672
mala	-11.6722
▁Latvia	-11.6722
▁Bit	-11.6723
▁evident	-11.6723
achi	-11.6724
cylinder	-11.6724
▁Pos	-11.6726
▁1926.	-11.6729
▁dining	-11.673
▁virtually	-11.6731
▁Gardner	-11.6731
▁angel	-11.6731
▁Sud	-11.6732
skaya	-11.6733
▁Czechoslovakia	-11.6735
gging	-11.6735
▁celebrities	-11.6739
▁ti	-11.6739
▁Oct	-11.674
▁Fast	-11.674
▁Beaver	-11.674
▁strings	-11.6742
▁introducing	-11.6743
▁Image	-11.6745
lough	-11.6745
ht	-11.6746
▁involve	-11.675
▁museums	-11.6751
▁spite	-11.6752
▁à	-11.6756
lain	-11.6757
▁laugh	-11.6758
enna	-11.6759
▁unofficial	-11.6759
▁conflicts	-11.6764
▁Parks	-11.6764
▁MI	-11.6764
Old	-11.6767
▁rider	-11.6768
▁genera	-11.6769
▁organist	-11.6769
▁Wonder	-11.6771
▁Albion	-11.6771
bir	-11.6773
▁happens	-11.6776
GR	-11.6776
▁ion	-11.6777
aging	-11.6777
oxy	-11.6777
▁designers	-11.6778
▁hind	-11.6778
▁(2008)	-11.6779
▁Fry	-11.678
▁rode	-11.678
▁Zan	-11.6782
dig	-11.6782
▁elderly	-11.6785
▁poorly	-11.6785
powered	-11.6787
▁Hau	-11.6788
eus	-11.6789
▁Qing	-11.679
khan	-11.6791
▁NATO	-11.6793
▁sprint	-11.6795
▁Patricia	-11.6796
▁podcast	-11.6798
▁ask	-11.6801
▁ا	-11.6801
▁Augustus	-11.6803
▁Glo	-11.6807
ña	-11.6809
▁chicken	-11.6809
▁considers	-11.681
▁Salon	-11.681
▁finishes	-11.6811
▁gates	-11.6812
▁Beyond	-11.6813
▁Pale	-11.6815
▁particles	-11.6815
▁Volume	-11.6817
SV	-11.6817
▁monuments	-11.6819
▁Cou	-11.6821
▁saving	-11.6821
▁enrollment	-11.6822
▁Dixon	-11.6822
gic	-11.6822
▁Cotton	-11.6822
▁Novel	-11.6823
▁Wide	-11.6825
▁Marshal	-11.6827
▁Cay	-11.6832
▁potentially	-11.6833
▁hunter	-11.6835
▁Lay	-11.6835
ih	-11.6838
EF	-11.6842
formed	-11.6843
▁Cool	-11.6844
▁ISO	-11.6844
▁fragment	-11.6844
ffin	-11.6846
EG	-11.6846
▁Names	-11.6846
▁Kab	-11.6847
▁sensitive	-11.6847
▁Jeremy	-11.6848
▁territorial	-11.6848
▁1864.	-11.6848
▁stained	-11.685
▁Stories	-11.685
▁polymer	-11.685
▁reformed	-11.6851
▁printer	-11.6852
▁olive	-11.6853
lene	-11.6855
alia	-11.686
▁Linux	-11.6861
▁trim	-11.6862
▁Certificate	-11.6864
1.2	-11.6864
▁cook	-11.6865
▁currency	-11.6868
▁anonymous	-11.6868
▁SO	-11.6868
▁subspecies	-11.6868
▁tickets	-11.6868
▁Rams	-11.687
building	-11.6871
–13	-11.6872
▁diver	-11.6875
▁Tomatoes	-11.6876
▁KC	-11.6878
▁Ele	-11.6881
▁flown	-11.6882
▁Rhodes	-11.6882
▁ste	-11.6883
▁Schedule	-11.6884
enbach	-11.6884
▁sends	-11.6885
▁Bron	-11.6887
▁1811	-11.6887
▁paternal	-11.6887
▁sued	-11.6889
mod	-11.6889
▁Geological	-11.6889
series	-11.689
▁Brain	-11.689
▁stronger	-11.6891
▁Meeting	-11.6893
atta	-11.6894
▁midfielder	-11.6895
▁elephant	-11.6895
▁Appeal	-11.6895
▁Scholarship	-11.6896
▁nationalist	-11.6897
phil	-11.6899
lica	-11.6901
▁Wie	-11.6902
▁comment	-11.6902
hou	-11.6905
▁Teachers	-11.6905
▁prose	-11.6905
▁alter	-11.6906
▁pastoral	-11.6907
▁processor	-11.6908
▁moments	-11.6909
pod	-11.6909
▁RBI	-11.691
▁AU	-11.6911
▁immigrated	-11.6911
▁rod	-11.6912
ân	-11.6913
▁fitness	-11.6913
▁Stu	-11.6914
▁monk	-11.6915
▁laps	-11.6915
▁curves	-11.6917
▁inhabit	-11.6917
When	-11.6918
▁Use	-11.6918
▁Maple	-11.692
▁Joshua	-11.692
▁perceived	-11.6922
▁della	-11.6922
▁sad	-11.6924
iness	-11.6924
▁lens	-11.6926
▁Hardy	-11.6927
▁sto	-11.6928
▁Thorn	-11.6929
▁skating	-11.6931
▁nerve	-11.6931
▁Sig	-11.6932
▁Embassy	-11.6935
▁Monica	-11.6935
▁extract	-11.6935
chet	-11.6936
rium	-11.6939
▁Kosovo	-11.6939
▁wagon	-11.6939
▁Saxon	-11.6941
▁accounting	-11.6941
.50	-11.6941
otti	-11.6941
▁Salisbury	-11.6943
▁Built	-11.6943
▁Stro	-11.6943
▁teenage	-11.6943
BB	-11.6944
▁evaluation	-11.6945
▁Á	-11.6946
▁née	-11.6946
hil	-11.6946
▁spectrum	-11.6947
struct	-11.6949
▁Clan	-11.695
formation	-11.6952
Du	-11.6952
▁MBA	-11.6954
▁(2009)	-11.6955
bour	-11.6955
▁factories	-11.6957
uan	-11.6959
date	-11.696
▁Vatican	-11.6963
▁cement	-11.6965
▁CI	-11.6966
▁scholarly	-11.6966
▁Algeria	-11.6969
▁Conrad	-11.6969
tana	-11.697
dder	-11.697
▁elevator	-11.697
▁Indo	-11.6971
tsch	-11.6971
▁1809	-11.6972
▁Kro	-11.6972
▁voices	-11.6974
lings	-11.6974
▁derivative	-11.6974
Ad	-11.6975
yat	-11.6976
▁bitter	-11.6976
lop	-11.6977
▁Mohammad	-11.6978
▁gen	-11.6984
pati	-11.6986
thon	-11.6986
agi	-11.6986
▁depend	-11.6987
▁Hyde	-11.6991
▁generator	-11.6991
▁Mick	-11.6993
▁Rafael	-11.6994
▁cultures	-11.6995
scape	-11.6995
▁Davidson	-11.6997
▁cardinal	-11.6999
▁patch	-11.6999
nish	-11.6999
3°	-11.7002
stin	-11.7002
▁Kazakhstan	-11.7002
▁flu	-11.7003
▁garnered	-11.7004
▁PM	-11.7006
▁marketed	-11.7007
▁flowing	-11.7007
▁organizing	-11.7007
ident	-11.7008
▁(2004)	-11.701
▁Constituency	-11.701
tak	-11.7011
▁torn	-11.7012
▁walks	-11.7012
▁knowing	-11.7013
,400	-11.7015
▁preference	-11.7015
▁AR	-11.7016
▁Scar	-11.7018
▁maker	-11.7019
▁ph	-11.7019
▁Sherman	-11.702
UK	-11.702
omb	-11.7021
▁Election	-11.7021
▁dissolution	-11.7022
girl	-11.7025
▁promising	-11.7026
▁Ped	-11.7028
▁rings	-11.703
▁Wigan	-11.7037
▁Confederation	-11.7038
▁affiliation	-11.7038
▁Holdings	-11.7041
▁Hir	-11.7041
▁maiden	-11.7042
lom	-11.7042
▁sworn	-11.7042
▁favorable	-11.7042
▁promoter	-11.7043
▁casualties	-11.7046
dur	-11.7046
MR	-11.7049
▁Sheikh	-11.705
▁advancing	-11.705
▁def	-11.705
▁Gel	-11.7053
CF	-11.7054
▁Smart	-11.7054
▁Emil	-11.7054
▁Initiative	-11.7054
▁yacht	-11.7054
▁1808	-11.7056
ounce	-11.7059
▁dropping	-11.7059
▁crest	-11.706
▁teamed	-11.706
▁define	-11.706
▁Yuan	-11.7061
ło	-11.7062
▁Ecuador	-11.7064
▁Innovation	-11.7066
▁opposing	-11.7066
▁interpreted	-11.7067
2011	-11.7068
▁Jacksonville	-11.7069
▁statues	-11.707
▁Hague	-11.7071
▁Mori	-11.7073
World	-11.7073
▁findings	-11.7073
▁princess	-11.7073
▁Dragons	-11.7074
▁harsh	-11.7075
▁rebel	-11.7076
,900	-11.7077
▁brilliant	-11.7078
▁quartet	-11.7078
blo	-11.7079
pine	-11.708
▁Galway	-11.708
▁Darwin	-11.7083
▁1913.	-11.7084
▁economist	-11.7086
▁pursuing	-11.7086
▁Coventry	-11.7087
eria	-11.7088
nat	-11.7089
▁democracy	-11.709
▁concession	-11.7091
0.0%	-11.7092
▁Kei	-11.7094
▁custody	-11.7094
▁Resort	-11.7095
▁naturally	-11.7095
station	-11.7095
6°	-11.7095
fil	-11.7097
▁Gir	-11.7097
qa	-11.7097
HR	-11.7098
▁Lagos	-11.7099
▁pig	-11.7102
ulator	-11.7102
▁vacated	-11.7102
▁punch	-11.7105
▁Valle	-11.7105
▁Sus	-11.7105
case	-11.7106
▁overcome	-11.7108
1°	-11.7108
▁dragon	-11.7111
▁Eleanor	-11.7111
▁Combat	-11.7112
cial	-11.7113
▁flute	-11.7114
▁Gala	-11.7115
4.3	-11.7115
aut	-11.7116
▁deceased	-11.7117
▁Task	-11.7118
▁Hil	-11.7119
▁flame	-11.712
▁Angola	-11.7121
▁Shak	-11.7122
▁gymnasium	-11.7123
urge	-11.7123
▁Webster	-11.7124
ove	-11.7126
▁rape	-11.7127
▁zones	-11.7129
▁Sacramento	-11.7129
▁Koch	-11.7129
▁violinist	-11.7132
chang	-11.7133
ovo	-11.7134
▁3–0	-11.7135
ffi	-11.7135
▁1915.	-11.7137
▁CS	-11.7139
▁float	-11.714
▁(31	-11.7141
cl	-11.7142
▁Berkshire	-11.7143
▁4,000	-11.7144
▁desired	-11.7144
tique	-11.7147
▁Wait	-11.7147
▁Weather	-11.7148
▁Grass	-11.7149
culture	-11.7149
Per	-11.7151
[...]
