<unk>	0
<s>	0
▁the	-3.04361
,	-3.22207
.	-3.29709
▁of	-3.61883
▁and	-3.75932
▁in	-3.81325
s	-4.05303
▁a	-4.11184
▁to	-4.16889
▁was	-4.45202
▁The	-4.82171
-	-4.88613
▁is	-4.97846
▁for	-5.00171
▁on	-5.08438
'	-5.12915
▁as	-5.15274
▁with	-5.16057
▁by	-5.25225
▁	-5.33249
▁at	-5.34126
▁(	-5.36712
▁from	-5.46152
▁his	-5.4649
▁he	-5.51733
▁In	-5.54524
▁that	-5.64601
▁He	-5.66347
)	-5.73948
▁"	-5.76582
▁an	-5.82061
▁were	-6.06896
▁which	-6.08266
▁it	-6.16784
▁are	-6.17134
▁has	-6.17637
▁also	-6.23276
"	-6.29053
▁first	-6.29417
▁had	-6.35463
▁be	-6.40251
▁her	-6.47502
▁A	-6.50421
▁or	-6.53642
▁It	-6.54323
▁one	-6.58625
▁its	-6.61625
▁who	-6.62308
▁two	-6.63776
▁their	-6.65251
▁but	-6.66047
:	-6.70303
a	-6.7412
ing	-6.75022
e	-6.76171
▁she	-6.77978
▁been	-6.78069
▁this	-6.80172
;	-6.80632
▁after	-6.81414
▁not	-6.82336
th	-6.82819
▁have	-6.8357
),	-6.90647
).	-6.93948
▁University	-6.94811
ed	-6.95684
▁years	-6.97065
▁She	-6.98466
▁New	-7.00674
▁where	-7.02037
▁other	-7.02214
▁into	-7.02442
▁On	-7.02446
▁time	-7.03061
▁when	-7.09899
▁they	-7.10432
▁became	-7.12594
▁over	-7.14989
er	-7.1586
t	-7.17519
▁all	-7.18439
▁made	-7.18643
▁up	-7.2056
d	-7.20879
▁during	-7.20964
y	-7.21283
▁then	-7.21823
▁later	-7.24226
▁new	-7.26552
▁three	-7.26988
▁under	-7.28773
▁year	-7.29126
i	-7.29258
▁season	-7.30159
▁more	-7.30904
▁him	-7.3112
▁part	-7.31233
▁After	-7.31325
▁This	-7.32143
▁I	-7.34369
▁team	-7.34566
▁out	-7.34594
▁only	-7.35041
▁between	-7.35093
n	-7.35502
▁de	-7.37569
▁1	-7.37641
▁until	-7.37917
S	-7.38917
o	-7.39775
▁used	-7.40332
▁would	-7.41195
ly	-7.41981
▁about	-7.42766
▁school	-7.43013
in	-7.44307
▁including	-7.44441
▁United	-7.44681
▁can	-7.45505
▁School	-7.45668
▁His	-7.45889
▁well	-7.45952
▁work	-7.4609
▁played	-7.46389
▁there	-7.46941
/	-7.47315
▁known	-7.48355
▁before	-7.50088
▁most	-7.50363
▁being	-7.50579
▁such	-7.50813
▁second	-7.5165
▁film	-7.51739
▁2	-7.52371
▁born	-7.54197
▁name	-7.54291
▁through	-7.55488
▁against	-7.55775
▁area	-7.57114
▁As	-7.57802
▁won	-7.58039
▁many	-7.60758
’	-7.61064
▁3	-7.61113
▁American	-7.61332
▁World	-7.6136
▁U	-7.61526
▁National	-7.61621
▁some	-7.62534
▁served	-7.62952
▁than	-7.62979
▁family	-7.63526
▁May	-7.64067
".	-7.64701
▁age	-7.65077
▁while	-7.67447
▁released	-7.67813
▁both	-7.68339
▁member	-7.68384
▁St	-7.7039
▁named	-7.71587
▁four	-7.72165
▁died	-7.72447
▁June	-7.72494
▁January	-7.72933
▁began	-7.73112
▁March	-7.73223
▁called	-7.73263
▁album	-7.73499
▁John	-7.73809
▁July	-7.73922
▁September	-7.74091
▁York	-7.74358
▁August	-7.74738
▁several	-7.74761
m	-7.76158
▁them	-7.76785
▁States	-7.77556
▁October	-7.77873
▁B	-7.77924
▁number	-7.78262
."	-7.78326
▁no	-7.78682
▁people	-7.79023
▁S	-7.79058
▁At	-7.7968
▁April	-7.80113
▁company	-7.81097
A	-7.81257
▁early	-7.81655
▁–	-7.81829
▁4	-7.81988
▁War	-7.82079
▁College	-7.82218
▁series	-7.82283
es	-7.83022
▁music	-7.83239
▁same	-7.83338
▁They	-7.84147
al	-7.84779
▁received	-7.84784
▁November	-7.8484
▁December	-7.84948
▁club	-7.86466
▁South	-7.86726
▁moved	-7.87557
▁city	-7.87678
▁City	-7.88271
man	-7.88588
▁son	-7.89269
▁group	-7.90263
▁located	-7.90528
▁career	-7.90697
▁There	-7.9077
▁will	-7.91316
▁station	-7.92038
▁km	-7.92186
▁held	-7.92871
▁5	-7.93011
▁since	-7.93233
▁C	-7.9372
▁game	-7.93763
▁State	-7.94012
▁took	-7.94084
C	-7.942
▁end	-7.94287
an	-7.94304
▁home	-7.94521
en	-7.94907
▁married	-7.95558
▁M	-7.95606
▁built	-7.95874
▁song	-7.9604
▁D	-7.96253
r	-7.96307
▁published	-7.96608
▁town	-7.96639
",	-7.96844
▁February	-7.96854
▁10	-7.96978
▁local	-7.98966
▁place	-7.99231
▁so	-7.99578
▁League	-7.99764
▁high	-8.00461
▁County	-8.00533
▁joined	-8.00631
▁worked	-8.01264
▁building	-8.01404
▁band	-8.01589
▁During	-8.01769
▁state	-8.01867
▁found	-8.02244
▁re	-8.03205
▁following	-8.0353
▁father	-8.03744
▁-	-8.04553
▁each	-8.04892
▁&	-8.0503
▁left	-8.05278
▁back	-8.06238
▁now	-8.06633
▁British	-8.06751
▁former	-8.0682
▁around	-8.06925
▁E	-8.0837
▁London	-8.08391
▁long	-8.08533
▁North	-8.08643
▁along	-8.09209
▁children	-8.09302
▁population	-8.09328
▁single	-8.09734
▁6	-8.10443
▁use	-8.10542
▁started	-8.10603
▁'	-8.11671
on	-8.11961
▁death	-8.12221
▁O	-8.1383
▁side	-8.14867
▁18	-8.15138
▁life	-8.15702
▁century	-8.15785
▁show	-8.16129
▁village	-8.16166
▁However	-8.16346
▁small	-8.16482
▁these	-8.16588
▁12	-8.17304
▁five	-8.18027
▁play	-8.18107
▁book	-8.18153
▁For	-8.18163
▁line	-8.18504
k	-8.1864
▁m	-8.18742
▁public	-8.19897
▁T	-8.20236
▁went	-8.20364
▁may	-8.20533
▁national	-8.20605
▁included	-8.20622
▁did	-8.20824
▁include	-8.21014
▁20	-8.21454
▁F	-8.21845
▁own	-8.21917
▁based	-8.22018
▁7	-8.22909
the	-8.22995
▁government	-8.23233
▁From	-8.23679
2	-8.23771
g	-8.23799
st	-8.23895
D	-8.23902
or	-8.23915
▁appointed	-8.24193
▁P	-8.24211
▁due	-8.24747
▁signed	-8.25198
▁near	-8.25274
▁set	-8.25283
▁members	-8.25437
▁large	-8.25453
re	-8.25548
▁G	-8.25602
h	-8.25808
▁main	-8.26012
▁returned	-8.26579
▁established	-8.27052
▁last	-8.27388
▁English	-8.2739
▁8	-8.27449
▁co	-8.27479
▁world	-8.27804
▁debut	-8.27988
▁West	-8.28632
▁any	-8.28633
▁San	-8.28801
▁R	-8.28955
▁day	-8.29471
▁River	-8.2958
▁service	-8.29704
▁9	-8.29883
▁third	-8.3096
▁founded	-8.3104
▁elected	-8.31235
▁Cup	-8.31236
▁system	-8.31263
▁final	-8.31557
▁All	-8.31599
▁again	-8.31652
▁house	-8.31695
▁II	-8.32163
▁High	-8.32726
▁like	-8.33327
▁original	-8.33378
▁Her	-8.33438
▁J	-8.33604
▁15	-8.33762
▁very	-8.33803
▁International	-8.33967
to	-8.33993
▁still	-8.34164
▁French	-8.3437
▁role	-8.34771
▁14	-8.34961
▁per	-8.35058
▁title	-8.35168
▁best	-8.35265
▁When	-8.35425
B	-8.36045
▁because	-8.36184
▁11	-8.36553
▁off	-8.36764
us	-8.36792
▁could	-8.36951
▁late	-8.36959
▁House	-8.3714
The	-8.3721
▁north	-8.37242
▁church	-8.37375
▁wife	-8.37686
u	-8.3773
▁13	-8.38136
▁water	-8.38194
l	-8.38343
▁major	-8.38419
▁another	-8.38645
▁within	-8.38736
▁K	-8.38891
▁German	-8.39005
▁land	-8.3916
c	-8.39409
ers	-8.39517
▁games	-8.3968
▁came	-8.39747
▁L	-8.39788
▁England	-8.39901
▁led	-8.40442
▁announced	-8.4148
▁daughter	-8.41699
▁total	-8.41768
▁million	-8.41905
▁said	-8.41915
▁La	-8.42324
▁community	-8.4268
▁Park	-8.42891
▁site	-8.43227
▁H	-8.43831
▁created	-8.43907
▁become	-8.44449
▁top	-8.44575
▁those	-8.4467
▁history	-8.44679
▁opened	-8.44683
▁south	-8.4496
▁six	-8.45012
▁square	-8.45201
▁William	-8.45214
I	-8.45611
▁An	-8.45696
▁record	-8.45708
▁down	-8.45823
▁appeared	-8.4649
▁form	-8.46675
▁election	-8.46763
▁head	-8.47411
▁various	-8.47468
▁No	-8.47572
▁Council	-8.47649
▁miles	-8.47724
▁wrote	-8.47757
▁different	-8.48109
▁species	-8.48354
▁California	-8.48421
▁One	-8.48441
▁Royal	-8.48958
▁works	-8.48973
▁just	-8.4956
▁general	-8.50196
▁Award	-8.50277
▁short	-8.50496
▁director	-8.50714
▁playing	-8.50974
▁District	-8.5105
▁students	-8.51767
▁working	-8.51837
▁period	-8.52078
z	-8.52083
▁East	-8.52246
▁Association	-8.52358
▁district	-8.52614
▁often	-8.5334
▁degree	-8.53384
▁next	-8.53661
▁country	-8.53886
▁business	-8.53917
▁make	-8.5392
▁average	-8.53936
▁position	-8.54037
▁Street	-8.54135
▁player	-8.54415
▁old	-8.54803
▁produced	-8.5505
▁Church	-8.55276
▁President	-8.55586
▁16	-8.55772
b	-8.55814
▁together	-8.5583
▁non	-8.55883
▁19	-8.56286
▁women	-8.56315
year	-8.56326
▁among	-8.56642
▁King	-8.56729
▁George	-8.56771
▁having	-8.56799
▁US	-8.57542
▁Party	-8.57605
na	-8.5765
le	-8.5819
ton	-8.58277
▁attended	-8.5922
▁law	-8.59229
▁According	-8.59234
▁war	-8.59379
▁living	-8.59494
▁Institute	-8.59604
▁office	-8.59659
▁football	-8.59885
▁much	-8.59951
▁N	-8.6012
▁development	-8.6015
▁research	-8.60218
▁order	-8.60272
▁continued	-8.60354
▁video	-8.60501
▁India	-8.60524
▁given	-8.60639
▁do	-8.60692
▁production	-8.60722
▁program	-8.60819
▁James	-8.60831
▁30	-8.60975
▁recorded	-8.61353
▁few	-8.61397
▁full	-8.61406
▁present	-8.61496
▁international	-8.61565
▁General	-8.61592
▁Australia	-8.61625
▁25	-8.61812
▁version	-8.6182
▁European	-8.62028
–	-8.62256
▁brother	-8.62517
▁To	-8.62541
▁W	-8.62545
▁2010	-8.62753
▁France	-8.62774
▁V	-8.63228
▁studied	-8.63647
▁Society	-8.63666
▁what	-8.63693
▁Division	-8.63694
▁mother	-8.63731
N	-8.63732
de	-8.6379
▁support	-8.63868
▁By	-8.64138
▁2011	-8.64456
▁formed	-8.64649
▁sold	-8.648
ia	-8.65184
▁if	-8.65232
▁win	-8.65399
ar	-8.65524
▁100	-8.65807
▁Academy	-8.6586
▁way	-8.6587
▁men	-8.66062
▁awarded	-8.66214
▁using	-8.66228
W	-8.66292
▁De	-8.66342
E	-8.66445
▁17	-8.66587
▁written	-8.66757
▁art	-8.67056
▁round	-8.67443
M	-8.67474
▁take	-8.67823
ta	-8.6817
▁however	-8.68438
▁television	-8.68636
▁Hall	-8.68684
▁league	-8.68805
▁Army	-8.69159
▁every	-8.69512
▁Canada	-8.69797
3	-8.69948
▁completed	-8.70024
▁post	-8.70033
▁Company	-8.70372
1	-8.70494
▁level	-8.70546
▁project	-8.70635
▁times	-8.71133
▁lost	-8.71168
▁Road	-8.71279
▁2012	-8.7181
▁1,	-8.71976
▁finished	-8.72057
▁“	-8.72088
▁run	-8.7245
▁professional	-8.72665
▁2008	-8.72789
born	-8.73094
▁east	-8.73224
▁performed	-8.73487
▁described	-8.73626
▁party	-8.73849
p	-8.74172
▁Art	-8.74203
▁young	-8.74711
▁education	-8.7504
▁event	-8.75237
up	-8.75268
▁president	-8.75278
▁Club	-8.75315
▁match	-8.75402
▁Al	-8.75419
▁design	-8.75556
▁story	-8.75797
▁man	-8.75881
▁2009	-8.76043
▁region	-8.76464
▁graduated	-8.76599
is	-8.76667
▁2014	-8.76814
▁west	-8.7691
▁While	-8.77297
▁addition	-8.77302
▁release	-8.77327
▁political	-8.77352
ne	-8.77393
▁contract	-8.77398
nd	-8.77402
▁These	-8.77757
▁Union	-8.77792
▁live	-8.77896
▁America	-8.77912
▁With	-8.77968
ist	-8.78039
el	-8.78327
▁days	-8.78511
▁Music	-8.78582
▁Thomas	-8.78743
▁teams	-8.78791
▁making	-8.79047
▁Department	-8.79515
▁point	-8.79731
▁himself	-8.80155
▁2013	-8.80169
▁Since	-8.80647
T	-8.80787
P	-8.80917
F	-8.81062
▁even	-8.8118
▁Center	-8.81185
▁featured	-8.81279
▁field	-8.81334
▁popular	-8.81399
son	-8.81417
▁2007	-8.8159
▁half	-8.82193
▁remained	-8.82268
▁without	-8.82486
▁power	-8.82613
▁track	-8.83219
▁David	-8.83302
▁developed	-8.83352
ley	-8.8339
▁road	-8.83469
▁24	-8.838
▁designed	-8.84097
▁Court	-8.84186
ic	-8.84204
▁construction	-8.84236
▁Group	-8.84244
▁Australian	-8.8428
▁originally	-8.84772
▁Robert	-8.84812
4	-8.84919
▁First	-8.8499
▁Germany	-8.85037
▁important	-8.85141
▁services	-8.85176
▁un	-8.85376
▁2015	-8.85422
▁further	-8.85741
▁military	-8.85771
as	-8.86043
▁considered	-8.86098
K	-8.86175
▁coach	-8.86227
▁Paul	-8.86366
▁training	-8.86404
▁race	-8.86414
▁Arts	-8.86486
▁2006	-8.86752
▁TV	-8.86853
▁Charles	-8.8697
▁right	-8.8706
land	-8.87113
▁current	-8.8722
▁Co	-8.87246
▁Air	-8.87552
▁months	-8.8814
▁points	-8.88202
▁currently	-8.88324
▁followed	-8.88334
▁gave	-8.88451
▁21	-8.88568
▁open	-8.88911
la	-8.8895
▁Championship	-8.88995
▁Museum	-8.89001
▁Washington	-8.89212
▁away	-8.89366
and	-8.89383
▁Paris	-8.89427
▁2016	-8.89584
G	-8.89686
▁similar	-8.9016
▁body	-8.90199
▁Minister	-8.90269
▁across	-8.90271
▁term	-8.90473
at	-8.90718
ra	-8.90723
te	-8.90966
▁Island	-8.91295
▁lead	-8.91716
▁result	-8.91739
▁once	-8.91889
▁available	-8.91931
▁radio	-8.91998
▁college	-8.9285
▁Dr	-8.92918
f	-8.92945
▁Indian	-8.93089
▁free	-8.9333
▁songs	-8.93343
▁eventually	-8.93593
▁involved	-8.93732
▁UK	-8.93737
▁great	-8.9392
▁Central	-8.94253
▁white	-8.94428
▁spent	-8.94523
et	-8.94592
▁others	-8.94609
▁seven	-8.94736
▁style	-8.9481
▁features	-8.94832
able	-8.94842
▁ft	-8.95138
▁scored	-8.95228
▁areas	-8.95294
▁leading	-8.95465
▁Europe	-8.95592
▁official	-8.95646
▁1990	-8.95653
R	-8.96134
▁study	-8.96179
▁1980	-8.96397
▁Festival	-8.96516
▁White	-8.96537
▁taken	-8.96929
▁help	-8.96986
▁never	-8.97003
▁Le	-8.97231
▁senior	-8.97248
▁Mary	-8.97279
da	-8.973
▁Sir	-8.97305
ch	-8.97638
▁stage	-8.97742
▁Los	-8.97821
▁22	-8.97898
▁includes	-8.97904
▁size	-8.97962
no	-8.98039
▁events	-8.98281
▁Man	-8.98305
▁female	-8.9848
▁Japan	-8.9856
ry	-8.98587
▁competition	-8.9871
▁although	-8.98736
ka	-8.98814
▁private	-8.99013
▁replaced	-8.99027
▁Red	-8.99332
▁Committee	-8.99629
▁black	-8.99814
▁Lake	-8.99825
▁eight	-8.99879
▁active	-8.99924
▁control	-9.00284
▁2015,	-9.0056
▁go	-9.01002
um	-9.01086
▁China	-9.01118
▁car	-9.01179
▁2010,	-9.01358
▁Henry	-9.01425
▁return	-9.01467
▁2014,	-9.01481
▁language	-9.01496
O	-9.0154
L	-9.01597
▁social	-9.01909
▁2016,	-9.01949
▁throughout	-9.02019
▁magazine	-9.02047
—	-9.02285
▁changed	-9.0248
▁23	-9.02508
▁2012,	-9.02688
▁2000	-9.02855
ism	-9.02917
▁2013,	-9.03014
▁El	-9.0308
▁husband	-9.03137
▁books	-9.03177
▁Western	-9.03255
▁summer	-9.03278
▁Some	-9.03298
▁Russian	-9.03344
x	-9.03367
▁seat	-9.03489
▁decided	-9.03563
▁2017,	-9.03688
am	-9.03745
▁performance	-9.03777
ie	-9.04034
▁2011,	-9.04071
▁modern	-9.04099
▁board	-9.04115
▁1970	-9.04262
▁African	-9.04433
▁close	-9.0447
▁added	-9.04476
▁center	-9.04545
▁2005	-9.04651
ma	-9.04723
▁2017	-9.04872
▁lived	-9.04896
▁placed	-9.04998
▁mi	-9.05047
▁river	-9.05094
▁case	-9.05132
▁though	-9.05155
▁Bay	-9.05221
▁Re	-9.05343
▁special	-9.05463
▁good	-9.05648
▁Board	-9.05786
▁common	-9.0587
▁Italian	-9.05943
▁shows	-9.06454
▁winning	-9.06665
▁26	-9.06721
▁you	-9.06789
▁mid	-9.06791
▁sent	-9.068
▁example	-9.0692
▁professor	-9.0714
▁collection	-9.07178
▁Hill	-9.07244
▁Canadian	-9.07246
▁studies	-9.07384
▁Me	-9.0742
▁writing	-9.07441
▁schools	-9.07667
▁range	-9.07749
time	-9.07795
▁earned	-9.07875
rd	-9.07932
▁class	-9.08082
▁Saint	-9.08211
▁feet	-9.08327
▁largest	-9.08367
▁character	-9.08368
▁Born	-9.08468
▁older	-9.08965
▁how	-9.08985
ian	-9.09324
▁ten	-9.09594
▁28	-9.09599
▁get	-9.09652
▁2018,	-9.0967
▁2004	-9.09795
▁award	-9.09841
▁goal	-9.09869
▁fire	-9.09928
▁directed	-9.0997
▁Following	-9.09982
▁successful	-9.10205
▁artist	-9.10221
▁players	-9.10247
▁retired	-9.10489
▁Great	-9.10492
▁Chicago	-9.10545
▁section	-9.10642
▁air	-9.10689
it	-9.10813
▁above	-9.10852
▁2009,	-9.10886
▁start	-9.10889
▁Michael	-9.10955
▁Africa	-9.10993
▁Film	-9.11058
▁seen	-9.11134
co	-9.11156
▁Peter	-9.11354
▁mm	-9.11655
▁27	-9.11936
▁Texas	-9.12141
▁Although	-9.12141
▁does	-9.12206
ity	-9.1225
▁novel	-9.12263
▁2018	-9.12734
▁via	-9.12891
▁front	-9.13129
▁Black	-9.13173
▁Best	-9.13412
▁whom	-9.13431
▁Law	-9.13431
6	-9.13699
▁division	-9.13722
▁Japanese	-9.13774
(	-9.13882
▁d	-9.13896
▁Its	-9.14043
▁Angeles	-9.14213
▁reported	-9.14423
▁success	-9.14509
▁organization	-9.14607
▁owned	-9.14747
▁Science	-9.14783
ville	-9.15009
▁process	-9.15152
men	-9.15333
▁court	-9.15335
H	-9.15383
▁2008,	-9.15384
]	-9.15414
▁regular	-9.1544
▁promoted	-9.15587
▁author	-9.15722
▁income	-9.15771
▁provided	-9.15791
▁selected	-9.15878
▁Act	-9.15928
▁park	-9.16124
▁closed	-9.16394
▁entered	-9.16448
▁ran	-9.16698
▁usually	-9.16701
▁Christian	-9.16734
▁reached	-9.16767
▁Grand	-9.16892
▁island	-9.16913
▁1960	-9.17131
▁campaign	-9.17151
ge	-9.17154
▁Spanish	-9.17163
▁families	-9.17256
▁Ireland	-9.17272
▁Smith	-9.17278
▁Zealand	-9.17315
▁upon	-9.17423
▁50	-9.17457
J	-9.17546
▁Chinese	-9.17553
▁soon	-9.1773
▁less	-9.17853
▁Two	-9.17953
▁student	-9.18148
▁Roman	-9.18307
▁killed	-9.18325
▁Richard	-9.18474
▁aircraft	-9.1886
▁able	-9.18921
ve	-9.19008
▁space	-9.19094
▁represented	-9.192
▁industry	-9.19372
▁ship	-9.19384
▁films	-9.19565
5	-9.196
▁metres	-9.19614
▁serving	-9.19618
▁becoming	-9.19728
▁met	-9.19752
▁Government	-9.19777
▁Later	-9.19778
▁route	-9.19786
▁information	-9.19791
▁Director	-9.19798
ation	-9.19874
▁wide	-9.2007
▁beginning	-9.20166
by	-9.20593
▁2007,	-9.20593
▁whose	-9.20653
▁love	-9.20729
▁practice	-9.20794
ri	-9.20835
▁low	-9.20913
▁writer	-9.20955
▁ground	-9.21074
▁interest	-9.21298
▁contains	-9.21315
8	-9.21378
▁central	-9.2139
ner	-9.21391
▁29	-9.21415
▁we	-9.21488
▁Records	-9.2154
▁list	-9.21772
▁fourth	-9.21784
▁Catholic	-9.21803
▁location	-9.21809
▁raised	-9.21841
▁previous	-9.21878
”	-9.21892
▁must	-9.21968
▁introduced	-9.22084
▁should	-9.22523
▁light	-9.22703
▁numerous	-9.22793
▁2001	-9.22796
▁sister	-9.22836
▁runs	-9.22843
▁Women	-9.22901
j	-9.22963
▁matches	-9.22992
▁goals	-9.23021
▁brought	-9.23136
▁railway	-9.23156
▁police	-9.23158
▁40	-9.23173
ni	-9.23239
▁manager	-9.23354
▁Italy	-9.23371
▁hit	-9.23736
▁saw	-9.23749
se	-9.23799
▁defeated	-9.23862
ur	-9.24008
▁child	-9.2406
7	-9.2417
▁launched	-9.24377
one	-9.24538
▁either	-9.24627
▁subsequently	-9.24708
ine	-9.24759
▁put	-9.24867
▁2003	-9.24961
▁la	-9.24979
▁acquired	-9.25095
▁tour	-9.25272
▁provide	-9.25368
▁behind	-9.254
▁almost	-9.25492
▁median	-9.25576
▁households	-9.25584
▁famous	-9.25645
▁editor	-9.25667
▁previously	-9.25691
▁Championships	-9.25804
▁65	-9.25806
▁parents	-9.25813
▁buildings	-9.25855
▁musical	-9.25893
▁structure	-9.25927
▁human	-9.25927
▁base	-9.26012
▁sea	-9.26034
▁pre	-9.26067
▁Year	-9.26113
▁Kingdom	-9.26128
▁Football	-9.26224
▁tournament	-9.26249
▁listed	-9.2626
▁Wales	-9.26274
▁rock	-9.26366
▁woman	-9.2655
▁artists	-9.26676
▁length	-9.26719
▁groups	-9.26831
▁X	-9.26932
▁Second	-9.26936
▁Republic	-9.26958
▁So	-9.27024
▁Other	-9.27036
▁taking	-9.27036
based	-9.27137
▁assistant	-9.27184
▁Radio	-9.27397
▁course	-9.27553
▁Theatre	-9.27788
li	-9.28004
▁countries	-9.28061
▁Green	-9.28102
▁appearances	-9.2831
▁females	-9.28418
▁FC	-9.28621
▁episode	-9.28681
▁2002	-9.29062
▁Greek	-9.29158
▁primary	-9.29187
▁Assembly	-9.29549
▁Sea	-9.2966
▁leader	-9.29706
os	-9.29715
▁Martin	-9.29744
▁Parliament	-9.29819
▁change	-9.29846
▁property	-9.30068
▁rest	-9.30088
▁Education	-9.30146
▁Research	-9.30164
▁Most	-9.30224
den	-9.30348
▁independent	-9.30431
▁studio	-9.30494
▁appearance	-9.30588
▁gold	-9.3069
▁southern	-9.307
▁ended	-9.30754
▁Town	-9.30803
▁feature	-9.30812
▁night	-9.3088
▁youth	-9.30902
▁northern	-9.30933
▁Virginia	-9.31246
ir	-9.3125
▁(1	-9.31388
▁2006,	-9.31941
w	-9.32042
▁staff	-9.32121
▁model	-9.32139
▁Service	-9.32218
▁type	-9.32241
ya	-9.32305
▁Chief	-9.32384
old	-9.32401
▁units	-9.32445
▁Joseph	-9.32504
▁Bar	-9.32538
com	-9.326
▁opening	-9.32624
▁Commission	-9.32714
▁helped	-9.32717
▁centre	-9.32812
▁market	-9.32828
▁health	-9.32865
ca	-9.32896
▁ever	-9.32991
▁31	-9.33046
▁least	-9.33069
▁movie	-9.331
▁[	-9.33107
▁grew	-9.33157
▁Go	-9.33217
▁media	-9.33219
▁championship	-9.33434
▁traditional	-9.33564
▁find	-9.33885
▁officer	-9.33927
▁money	-9.34024
ter	-9.34124
▁transferred	-9.34135
▁running	-9.34325
ko	-9.34387
▁Lord	-9.34418
field	-9.3445
▁lower	-9.34522
▁week	-9.34539
▁Bank	-9.34577
▁Valley	-9.34656
▁little	-9.3468
ro	-9.34773
▁instead	-9.34836
▁Star	-9.34887
▁red	-9.34896
▁operations	-9.35065
▁parts	-9.35092
2)	-9.352
▁real	-9.35303
▁sub	-9.35353
▁annual	-9.35435
▁outside	-9.35506
▁Creek	-9.35844
▁medal	-9.35949
▁Professor	-9.35958
▁network	-9.36017
▁itself	-9.36048
▁county	-9.36298
▁Foundation	-9.36488
▁Their	-9.36493
▁date	-9.36495
▁Florida	-9.36497
▁e	-9.365
▁Station	-9.36682
▁chief	-9.36705
ling	-9.36802
▁management	-9.36906
▁approximately	-9.37186
▁Force	-9.37484
▁Under	-9.37548
▁data	-9.37557
di	-9.37587
▁renamed	-9.37588
▁below	-9.37591
▁Times	-9.37665
ness	-9.37706
day	-9.37717
▁Public	-9.3773
▁hand	-9.37969
▁come	-9.38
▁got	-9.38002
▁stated	-9.38018
▁deal	-9.3804
▁Irish	-9.38047
▁forces	-9.38087
▁see	-9.38107
un	-9.38223
▁friend	-9.38252
▁commercial	-9.38314
▁1950	-9.38357
▁science	-9.3836
▁Railway	-9.38362
▁rights	-9.38412
▁future	-9.38571
▁companies	-9.3859
▁rather	-9.38592
▁2,	-9.38599
▁operated	-9.38945
▁Day	-9.39005
▁Mexico	-9.39005
▁candidate	-9.39181
▁plant	-9.39204
▁Northern	-9.39511
V	-9.39582
▁seasons	-9.39729
il	-9.39862
▁initially	-9.3991
▁recording	-9.39965
▁cover	-9.40052
▁Louis	-9.40062
▁lives	-9.40267
▁participated	-9.40287
ov	-9.40304
▁taught	-9.40373
▁attack	-9.4039
▁Navy	-9.40406
▁Pro	-9.40433
!	-9.40518
me	-9.4058
▁university	-9.40589
▁edition	-9.40598
▁buried	-9.40622
▁sports	-9.40743
▁But	-9.40747
▁past	-9.40811
▁census	-9.40867
▁remains	-9.40879
▁cast	-9.40883
▁nearby	-9.40982
ion	-9.40982
▁move	-9.41065
▁fellow	-9.41121
▁Z	-9.41306
▁towards	-9.41321
▁leaving	-9.41378
▁al	-9.41496
▁movement	-9.41665
ti	-9.41822
▁sometimes	-9.41898
▁Queen	-9.41909
▁means	-9.41918
▁create	-9.42042
▁especially	-9.42126
▁activities	-9.42174
▁Hospital	-9.42403
▁starting	-9.42532
▁far	-9.42809
▁firm	-9.4283
▁highest	-9.42867
▁possible	-9.42912
▁Southern	-9.42929
go	-9.43115
▁noted	-9.43159
▁issues	-9.43238
▁newspaper	-9.43318
lin	-9.4333
9	-9.43433
▁("	-9.43769
▁singer	-9.4377
▁You	-9.43833
▁Pacific	-9.43843
▁nine	-9.44308
▁1999	-9.44392
▁capital	-9.44406
▁action	-9.44437
▁0	-9.44475
▁mile	-9.44641
▁allowed	-9.44794
▁medical	-9.44837
▁Battle	-9.44921
▁presented	-9.45007
▁Centre	-9.45088
sen	-9.45205
▁earlier	-9.45416
▁going	-9.45445
ina	-9.4554
▁male	-9.45541
▁Order	-9.45648
▁complete	-9.45663
ke	-9.45837
▁Brown	-9.45927
▁army	-9.45933
▁Edward	-9.45975
▁constructed	-9.46014
▁related	-9.46021
▁purchased	-9.46155
▁mostly	-9.46169
ment	-9.4621
▁today	-9.4624
▁Mar	-9.46356
▁mainly	-9.46498
▁trade	-9.46528
▁Soviet	-9.46539
▁strong	-9.46551
▁takes	-9.46645
▁personal	-9.46658
▁Congress	-9.46736
▁teacher	-9.46891
▁Summer	-9.47082
▁consists	-9.47132
▁access	-9.47188
ba	-9.47215
▁covered	-9.47239
ad	-9.47281
▁master	-9.4729
▁entire	-9.47322
▁Old	-9.47392
▁bridge	-9.47428
▁Lee	-9.47521
▁unit	-9.47524
▁person	-9.47546
▁label	-9.47707
▁passed	-9.47925
▁Mr	-9.48056
line	-9.4806
▁Bishop	-9.48159
▁Boston	-9.48283
▁natural	-9.48323
▁variety	-9.48409
▁Mark	-9.48629
ate	-9.48685
▁me	-9.48717
▁educated	-9.48734
▁department	-9.489
▁houses	-9.48972
▁1998	-9.48998
less	-9.49056
▁associated	-9.4912
▁parish	-9.4916
▁western	-9.49206
▁room	-9.49306
▁already	-9.4933
▁Scotland	-9.49386
ty	-9.49386
v	-9.49427
▁material	-9.4949
ham	-9.49503
▁self	-9.49535
▁producer	-9.49648
do	-9.49654
▁2005,	-9.49695
▁standard	-9.49702
▁My	-9.49721
▁marriage	-9.49729
▁engine	-9.4977
▁anti	-9.49798
▁supported	-9.49902
▁surface	-9.49906
▁victory	-9.50012
▁That	-9.50018
▁shot	-9.50097
now	-9.5017
▁competed	-9.50194
▁hospital	-9.50252
▁thus	-9.50262
▁2019,	-9.50264
▁loss	-9.50371
▁Pennsylvania	-9.50383
▁my	-9.50535
▁politician	-9.50579
▁di	-9.50643
der	-9.50674
▁programs	-9.50733
▁Many	-9.50763
va	-9.51164
▁Governor	-9.51523
▁food	-9.51543
▁native	-9.51566
▁Oxford	-9.51617
▁word	-9.51766
▁middle	-9.51816
▁according	-9.51861
&	-9.51908
▁Prince	-9.52032
▁significant	-9.52226
▁(18	-9.52245
▁higher	-9.52297
▁Carolina	-9.52324
▁composed	-9.52464
▁minutes	-9.52467
▁Line	-9.52508
▁train	-9.52598
▁Super	-9.52599
▁density	-9.52737
é	-9.52824
▁races	-9.52835
▁Ma	-9.52849
▁Games	-9.52888
▁turn	-9.53076
▁museum	-9.53079
▁Spain	-9.53176
▁Young	-9.53186
U	-9.53189
▁finally	-9.53193
ler	-9.53206
▁Berlin	-9.53317
ja	-9.53334
▁estate	-9.53435
▁c	-9.53641
")	-9.53669
▁latter	-9.53689
ha	-9.53771
▁too	-9.53792
▁offered	-9.53959
▁council	-9.54031
▁BBC	-9.54082
▁Francisco	-9.5447
▁1996	-9.54482
▁serve	-9.54488
▁Columbia	-9.54642
▁generally	-9.54643
▁Jewish	-9.54749
▁complex	-9.54877
▁45	-9.54879
▁Secretary	-9.5497
▁Love	-9.54996
ki	-9.55165
▁systems	-9.55173
▁dedicated	-9.55178
▁hours	-9.55409
▁provides	-9.55416
▁required	-9.55473
▁managed	-9.55479
▁Don	-9.55496
▁give	-9.55615
ce	-9.55736
mo	-9.55752
▁financial	-9.55756
▁join	-9.55865
▁individual	-9.56021
▁decision	-9.56079
▁call	-9.56108
mi	-9.56154
▁meeting	-9.56161
▁moving	-9.56163
▁Long	-9.56257
▁larger	-9.56317
sa	-9.56341
▁states	-9.56377
▁forced	-9.56419
–19	-9.56444
▁Awards	-9.56453
▁additional	-9.56554
▁Olympics	-9.56639
▁here	-9.56687
▁sound	-9.56756
wood	-9.56836
0	-9.56838
▁Con	-9.56861
▁Both	-9.56875
▁alongside	-9.56903
▁month	-9.5692
▁carried	-9.56966
▁discovered	-9.57129
▁thought	-9.57142
of	-9.57166
▁1997	-9.57253
▁plan	-9.57288
▁2011.	-9.57422
ul	-9.57625
▁battle	-9.57642
▁fight	-9.57666
side	-9.57704
▁Sydney	-9.58027
▁minor	-9.58041
▁operation	-9.58136
▁Tom	-9.58172
▁2019	-9.58201
id	-9.58208
▁force	-9.58237
▁paper	-9.58364
▁majority	-9.5837
▁males	-9.584
be	-9.5841
▁acting	-9.58441
▁plays	-9.58512
▁tracks	-9.58535
▁better	-9.5857
▁2012.	-9.58572
▁Van	-9.5862
▁elections	-9.58649
▁prior	-9.58705
▁turned	-9.58705
he	-9.5873
ard	-9.58927
▁Ohio	-9.58938
2).	-9.59006
za	-9.59145
ies	-9.59172
▁2000,	-9.59223
▁legal	-9.5927
km	-9.59306
▁Ko	-9.59312
▁culture	-9.59324
▁remaining	-9.59352
▁issue	-9.5939
▁obtained	-9.59427
▁Dutch	-9.59445
▁stone	-9.59497
▁Development	-9.59607
age	-9.59639
▁succeeded	-9.59829
▁responsible	-9.59947
▁Democratic	-9.59954
▁Fort	-9.59955
▁2013.	-9.59961
▁friends	-9.59972
▁particularly	-9.59992
wa	-9.60047
▁fact	-9.6011
▁Rock	-9.60473
ak	-9.60488
▁squad	-9.60548
▁experience	-9.60555
▁We	-9.60565
▁historical	-9.60583
▁subject	-9.60597
▁failed	-9.60623
▁Jones	-9.60665
▁individuals	-9.60706
▁2014.	-9.60777
▁1930	-9.608
▁2010.	-9.60836
▁Illinois	-9.6086
▁weeks	-9.60948
▁3,	-9.60958
▁Latin	-9.60973
▁website	-9.61026
▁Bill	-9.61045
▁III	-9.6113
▁overall	-9.61162
▁Sun	-9.61178
▁separate	-9.61287
▁Conference	-9.613
▁appears	-9.61337
▁housing	-9.61359
Y	-9.6138
▁stories	-9.61471
▁Big	-9.61527
▁limited	-9.61556
▁shown	-9.61617
▁caused	-9.6167
▁prominent	-9.61671
▁Team	-9.61674
▁status	-9.61748
off	-9.61773
▁1995	-9.61817
▁Sa	-9.61836
▁2009.	-9.61858
▁Russia	-9.61953
▁1994	-9.61995
▁longer	-9.62029
▁projects	-9.62083
▁Empire	-9.62084
▁—	-9.62112
berg	-9.6212
▁king	-9.62162
▁Life	-9.62189
▁technology	-9.62203
▁owner	-9.62315
▁cost	-9.62347
im	-9.62366
▁Office	-9.62414
▁Civil	-9.62454
▁semi	-9.62541
▁extended	-9.62565
▁score	-9.62571
▁couple	-9.62603
▁leaves	-9.62626
▁Y	-9.62653
▁Ha	-9.62849
▁Ben	-9.62897
▁Ministry	-9.62934
▁1992	-9.63018
▁cross	-9.63076
▁meaning	-9.6319
▁Frank	-9.63208
▁200	-9.63254
ji	-9.63288
▁Eastern	-9.63331
ana	-9.63371
▁household	-9.63443
▁command	-9.6348
▁eastern	-9.63495
▁solo	-9.6354
▁particular	-9.63591
lo	-9.63689
▁Alexander	-9.63711
▁recent	-9.63729
▁Ar	-9.63739
▁Be	-9.63792
▁store	-9.63803
▁Michigan	-9.63813
▁chairman	-9.6395
▁characters	-9.63951
▁job	-9.64118
▁Route	-9.64187
▁broadcast	-9.6419
▁History	-9.64209
▁fall	-9.6425
▁Asian	-9.64326
▁star	-9.64384
▁tower	-9.64418
▁nominated	-9.64552
▁Massachusetts	-9.64586
▁ancient	-9.6461
▁2015.	-9.64628
▁Port	-9.64682
▁painting	-9.64721
▁Cambridge	-9.64754
▁cm	-9.64807
▁actor	-9.64811
▁Master	-9.64824
▁60	-9.64869
ive	-9.6504
▁heart	-9.65091
▁Senate	-9.65114
▁Scottish	-9.6525
▁2004,	-9.65432
▁notable	-9.65497
▁uses	-9.65499
▁Britain	-9.65592
▁2016.	-9.65696
▁Gold	-9.65699
▁products	-9.65711
▁bank	-9.65769
▁teaching	-9.65769
▁executive	-9.65771
▁done	-9.65808
▁Li	-9.65844
▁oil	-9.65878
▁Health	-9.65883
▁floor	-9.65892
▁Men	-9.66001
▁If	-9.66034
▁Elizabeth	-9.66041
▁Corporation	-9.66071
▁People	-9.66167
▁relationship	-9.66225
ting	-9.66273
▁coast	-9.6629
▁winner	-9.66345
▁lines	-9.66425
▁civil	-9.66475
▁comes	-9.66658
▁municipality	-9.66693
▁source	-9.66775
▁2008.	-9.66806
▁Prize	-9.66813
▁residents	-9.6682
ga	-9.66875
▁host	-9.66964
▁p	-9.66965
▁Bo	-9.66979
▁Mount	-9.67007
▁Cross	-9.67018
▁/	-9.67041
▁religious	-9.67145
▁Library	-9.6715
▁God	-9.6724
▁gained	-9.67268
▁scoring	-9.67418
▁officially	-9.6747
▁claimed	-9.67548
▁Top	-9.67617
▁regional	-9.67733
▁Rome	-9.67739
▁Georgia	-9.67751
way	-9.6778
▁Jersey	-9.67822
▁Car	-9.67874
▁assigned	-9.67909
▁always	-9.6797
▁Little	-9.68025
▁terms	-9.68059
▁need	-9.68086
▁camp	-9.68124
▁Show	-9.6815
▁review	-9.6816
▁society	-9.6817
ish	-9.68193
▁format	-9.68272
▁pro	-9.68351
▁recently	-9.68412
▁mission	-9.68428
▁referred	-9.68444
▁bought	-9.68541
▁titled	-9.68628
well	-9.68724
▁Coast	-9.68779
▁Middle	-9.6891
▁offers	-9.68935
▁care	-9.69043
▁Blue	-9.69149
▁Jean	-9.69152
▁Duke	-9.69192
▁Republican	-9.69237
▁cut	-9.69256
-19	-9.69292
▁dance	-9.69367
▁believed	-9.69402
▁Business	-9.69413
▁platform	-9.69428
▁township	-9.6946
▁Santa	-9.69476
▁multiple	-9.69511
▁(17	-9.69577
▁sons	-9.69599
▁test	-9.69611
▁border	-9.697
▁founder	-9.697
Z	-9.69761
▁leave	-9.70154
▁Over	-9.70341
▁academic	-9.7053
▁Sam	-9.70533
▁Victoria	-9.70537
▁plans	-9.70579
▁2007.	-9.70586
▁news	-9.70624
▁nearly	-9.70635
▁build	-9.70635
▁bar	-9.70665
▁settlement	-9.70756
▁street	-9.70783
▁Census	-9.70793
▁forms	-9.70971
▁library	-9.71044
▁Scott	-9.71062
▁records	-9.71072
▁key	-9.71164
▁2017.	-9.71169
▁castle	-9.7121
▁changes	-9.71246
▁increased	-9.71255
▁festival	-9.71282
▁face	-9.71296
▁arrived	-9.71319
▁serves	-9.71394
▁continues	-9.71406
▁Technology	-9.71443
▁Johnson	-9.71464
▁vote	-9.71484
▁Bureau	-9.71493
▁double	-9.71538
▁Ka	-9.71551
▁theory	-9.71627
ford	-9.71687
▁Toronto	-9.71751
▁retirement	-9.71762
▁basketball	-9.71789
out	-9.71925
▁Land	-9.72009
▁branch	-9.72137
▁Post	-9.7231
▁Despite	-9.72424
▁problems	-9.7243
▁whole	-9.72594
▁younger	-9.72613
▁online	-9.72619
▁4,	-9.72656
▁Also	-9.72669
▁upper	-9.7267
▁Highway	-9.72698
▁makes	-9.72733
▁probably	-9.72792
▁twice	-9.72799
▁Avenue	-9.72863
▁1993	-9.72868
▁Mo	-9.72923
▁channel	-9.72939
▁guitar	-9.73002
▁conducted	-9.73068
▁chart	-9.73122
▁1920	-9.73127
bo	-9.73133
▁primarily	-9.73231
ek	-9.73293
▁stations	-9.73354
▁Williams	-9.73429
▁Kong	-9.73534
▁Each	-9.73551
▁i	-9.73701
▁mentioned	-9.73715
ah	-9.73742
X	-9.7379
▁Junior	-9.7382
▁Di	-9.73906
▁act	-9.73912
▁theatre	-9.73977
▁Justice	-9.73984
▁awards	-9.74036
▁Inc	-9.74102
▁newly	-9.74199
▁captain	-9.74302
▁Hong	-9.74347
▁fifth	-9.7437
▁Castle	-9.74398
▁capacity	-9.74441
▁Ph	-9.74444
▁Mac	-9.74547
▁Press	-9.7471
▁economic	-9.74719
▁featuring	-9.7474
▁silver	-9.74771
▁Tour	-9.74803
con	-9.74948
▁facilities	-9.75028
em	-9.751
▁defeat	-9.75111
▁rate	-9.75145
▁settled	-9.75154
▁results	-9.75199
pur	-9.75297
▁themselves	-9.75303
▁scene	-9.75523
ant	-9.75538
▁hosted	-9.75548
▁Book	-9.75599
mer	-9.75604
▁Polish	-9.75607
▁Do	-9.75696
rs	-9.75702
▁produce	-9.75753
American	-9.75791
▁certain	-9.75795
▁Sports	-9.7587
▁speed	-9.75899
▁attempt	-9.75928
▁organized	-9.75929
▁divided	-9.76007
▁proposed	-9.76024
▁green	-9.76076
ck	-9.76157
▁Home	-9.76173
▁Jack	-9.76228
▁35	-9.76237
▁Province	-9.76274
▁Of	-9.7632
ey	-9.76417
don	-9.7657
▁1991	-9.76576
▁appear	-9.76664
▁cultural	-9.76702
▁destroyed	-9.76748
ization	-9.76847
▁charge	-9.76898
ally	-9.76986
▁report	-9.77035
▁USA	-9.77128
▁enough	-9.77225
▁drama	-9.77225
▁initial	-9.7726
▁crew	-9.7728
▁18,	-9.77332
▁CD	-9.77545
▁continue	-9.77574
▁situated	-9.77619
for	-9.77642
▁expanded	-9.77664
▁Another	-9.77675
▁24,	-9.77749
ous	-9.77946
▁province	-9.78046
▁minister	-9.78079
▁issued	-9.78088
▁Before	-9.7819
like	-9.78203
▁computer	-9.78231
▁specific	-9.78317
▁removed	-9.78334
▁Between	-9.78348
▁Wisconsin	-9.78358
▁voice	-9.784
▁Per	-9.78494
▁product	-9.78546
▁Three	-9.78689
▁direction	-9.78694
▁prison	-9.78785
▁And	-9.78834
▁Major	-9.78858
▁dark	-9.78866
▁direct	-9.7919
▁focus	-9.7919
▁junior	-9.79245
▁roles	-9.79253
▁holds	-9.79283
▁acres	-9.79321
▁Norwegian	-9.79388
▁commissioned	-9.79428
▁distance	-9.79471
▁alone	-9.79515
▁asked	-9.79622
▁Maria	-9.79761
▁split	-9.79808
▁ex	-9.79884
▁architect	-9.79913
▁Premier	-9.7992
▁farm	-9.79923
▁aged	-9.80006
▁nature	-9.80015
▁promotion	-9.80058
▁Asia	-9.80117
ized	-9.80125
▁2003,	-9.80173
est	-9.80289
▁coming	-9.80351
▁Bridge	-9.80377
);	-9.80394
▁loan	-9.80495
ll	-9.80555
▁federal	-9.80569
▁Among	-9.80601
▁campus	-9.80612
▁founding	-9.80639
kin	-9.80667
ze	-9.80676
▁Su	-9.8085
▁influence	-9.80976
▁Israel	-9.81089
▁effect	-9.81097
▁Swedish	-9.81137
house	-9.81141
▁allow	-9.81252
▁Corps	-9.81269
ol	-9.8128
▁Member	-9.8132
▁begins	-9.81508
▁brothers	-9.81513
pa	-9.81519
▁1989	-9.81532
ger	-9.81536
▁attention	-9.81587
▁highly	-9.81613
▁reach	-9.81651
▁foreign	-9.81662
▁committee	-9.81679
▁energy	-9.8172
▁smaller	-9.81721
▁policy	-9.81728
▁idea	-9.8176
▁2018.	-9.81766
ny	-9.81789
ite	-9.81835
▁lies	-9.81839
▁Ho	-9.81898
▁Media	-9.81901
▁spread	-9.82039
▁quickly	-9.82162
▁Medical	-9.82187
▁wanted	-9.822
▁1940	-9.82328
▁granted	-9.82366
▁Open	-9.82385
▁wing	-9.82406
▁suffered	-9.82436
▁inside	-9.82455
▁Ontario	-9.82463
▁guest	-9.82481
▁facility	-9.82537
▁von	-9.8255
2),	-9.8256
▁1988	-9.82567
▁2006.	-9.82575
▁basis	-9.82611
▁despite	-9.82644
▁Sciences	-9.82705
▁Philadelphia	-9.8272
▁spring	-9.82814
▁our	-9.82972
▁Jr	-9.83031
▁kilometres	-9.83042
▁graduating	-9.83048
▁entitled	-9.83088
▁Series	-9.83111
▁clubs	-9.83127
▁text	-9.83133
▁Na	-9.83133
▁Dan	-9.83139
▁partner	-9.83309
▁directly	-9.83338
▁temple	-9.83396
▁Medal	-9.83557
▁mountain	-9.83646
▁returning	-9.83655
▁contemporary	-9.83772
▁poor	-9.83908
▁evidence	-9.84043
▁accepted	-9.84056
▁Olympic	-9.84158
chi	-9.84238
ber	-9.84257
▁Federal	-9.84279
▁immediately	-9.84386
▁literature	-9.84398
▁meet	-9.84658
▁performances	-9.8467
▁performing	-9.847
▁Studies	-9.84707
▁News	-9.84742
▁Po	-9.84873
▁travel	-9.85076
▁concert	-9.85225
▁rank	-9.85314
▁‘	-9.85344
vi	-9.85353
ten	-9.85387
han	-9.85485
▁votes	-9.85606
gen	-9.85612
▁injury	-9.85676
▁Lady	-9.85825
▁5,	-9.86098
▁draw	-9.86103
▁Head	-9.86109
▁names	-9.86143
▁multi	-9.86183
per	-9.86209
▁chosen	-9.8621
▁graduate	-9.86311
▁planned	-9.86323
▁operating	-9.86326
io	-9.86433
▁van	-9.86481
▁Te	-9.86518
▁Se	-9.86521
▁principal	-9.86597
▁reviews	-9.86606
▁wall	-9.86635
–18	-9.86643
▁intended	-9.86646
▁administration	-9.86667
▁composer	-9.86678
class	-9.86687
▁letter	-9.867
▁forest	-9.86713
▁twenty	-9.86936
▁joining	-9.87096
▁Jan	-9.87116
▁increase	-9.87171
In	-9.87207
▁cause	-9.87278
▁finish	-9.87421
▁surrounding	-9.8745
▁publication	-9.87754
▁constituency	-9.87809
ney	-9.87817
Q	-9.879
▁Netherlands	-9.87955
▁Francis	-9.88049
▁widely	-9.88059
▁Community	-9.88114
▁creation	-9.88156
les	-9.8817
▁cases	-9.88171
ary	-9.88183
▁Today	-9.88263
ut	-9.88326
▁Social	-9.88371
▁saying	-9.88423
▁giving	-9.88535
▁1987	-9.88604
ang	-9.88636
▁birth	-9.88642
▁hall	-9.88694
▁adopted	-9.88714
▁connected	-9.88789
▁girl	-9.88793
car	-9.89001
▁du	-9.89013
▁cities	-9.89014
si	-9.8908
▁Captain	-9.89118
▁flight	-9.89137
▁Or	-9.89157
▁en	-9.89223
▁80	-9.89249
▁pay	-9.89307
▁del	-9.89378
tra	-9.89408
▁Miss	-9.89412
%	-9.89422
▁trial	-9.89425
▁recognized	-9.89456
▁designated	-9.89513
▁Ni	-9.89718
▁heavy	-9.89761
au	-9.89892
▁figure	-9.89946
▁Moscow	-9.89972
▁2002,	-9.90008
▁resigned	-9.90028
▁goes	-9.90031
mar	-9.90068
▁Poland	-9.9011
▁merged	-9.90231
ster	-9.90299
▁1984	-9.9031
▁Sweden	-9.90318
▁Band	-9.90353
▁association	-9.90381
▁view	-9.90434
▁conditions	-9.90553
▁hard	-9.90603
▁cancer	-9.90676
?	-9.9069
▁Cemetery	-9.90703
▁inspired	-9.90716
▁Un	-9.90763
▁software	-9.90827
▁troops	-9.9085
▁Pan	-9.90873
▁articles	-9.9088
▁Da	-9.90898
▁fell	-9.90914
▁elements	-9.90925
▁covers	-9.90986
▁1986	-9.91085
▁painter	-9.91144
▁respectively	-9.91254
▁Islands	-9.91321
▁big	-9.91362
▁lack	-9.91387
▁classes	-9.91401
▁Vice	-9.91459
▁blue	-9.91465
▁politics	-9.9166
▁honor	-9.91669
▁mayor	-9.91693
▁might	-9.91732
ini	-9.91795
▁Du	-9.91826
▁forward	-9.91861
▁Forest	-9.91877
▁era	-9.91959
▁ships	-9.9199
▁told	-9.92095
▁agent	-9.92112
▁stop	-9.92171
▁conference	-9.92172
▁providing	-9.92196
▁2001,	-9.92203
▁interview	-9.92365
ci	-9.92488
▁article	-9.92518
▁color	-9.92534
▁tree	-9.92583
▁hotel	-9.92607
▁engineering	-9.92617
▁yet	-9.92725
▁sign	-9.92834
▁lake	-9.92878
▁hold	-9.92887
▁Night	-9.92894
▁Lu	-9.92907
ng	-9.92913
▁Journal	-9.92944
▁yards	-9.92999
▁develop	-9.93007
▁secondary	-9.93009
▁documentary	-9.93089
▁Earl	-9.93323
▁quality	-9.93345
▁secretary	-9.93353
▁rural	-9.93361
que	-9.93376
▁equipment	-9.93389
▁arts	-9.934
▁growth	-9.93427
▁champion	-9.93495
ho	-9.93535
ung	-9.9354
▁revealed	-9.93612
▁ice	-9.93641
▁Joe	-9.93817
▁Bob	-9.93869
▁levels	-9.93886
ex	-9.9391
▁vice	-9.93962
▁Pakistan	-9.94078
▁Edinburgh	-9.94154
▁Pope	-9.94158
▁comedy	-9.94212
▁Beach	-9.94212
▁positive	-9.94219
▁likely	-9.94263
▁finishing	-9.94458
▁response	-9.94459
▁6,	-9.94543
▁exhibition	-9.94657
▁Cape	-9.94675
▁efforts	-9.94713
▁1983	-9.94757
▁function	-9.94818
▁Wilson	-9.94843
▁brand	-9.9492
▁traffic	-9.94929
▁account	-9.94934
▁Daniel	-9.94956
▁(2	-9.95035
ot	-9.95063
▁Earth	-9.95076
▁contributed	-9.95162
▁con	-9.95179
▁stars	-9.95191
▁value	-9.95284
▁losing	-9.95288
▁Time	-9.95293
▁entrance	-9.95352
▁Rose	-9.95354
▁1985	-9.95493
▁security	-9.95493
▁mixed	-9.95606
▁Arthur	-9.95613
▁growing	-9.95656
▁poet	-9.95668
▁Prime	-9.95669
▁Taylor	-9.95688
▁words	-9.95695
ated	-9.95736
▁15,	-9.95753
▁Mountain	-9.95765
ted	-9.95809
▁Affairs	-9.95819
▁More	-9.9585
▁Like	-9.95876
▁Airport	-9.95891
▁titles	-9.95919
▁Melbourne	-9.95925
▁unique	-9.95934
▁Jackson	-9.95981
▁7,	-9.9603
▁keep	-9.96063
▁Chi	-9.96076
▁method	-9.96091
▁leadership	-9.9612
mann	-9.96146
▁Bachelor	-9.9617
▁piece	-9.96231
▁someone	-9.96263
▁bus	-9.96273
▁treatment	-9.9632
▁captured	-9.96418
▁activity	-9.96421
▁Network	-9.96502
▁Village	-9.96659
▁Supreme	-9.96668
▁Police	-9.96744
▁Special	-9.96759
▁remain	-9.96798
▁judge	-9.96861
▁kept	-9.96988
▁Magazine	-9.96995
▁piano	-9.96999
jo	-9.97036
▁arrested	-9.97038
▁break	-9.97066
▁purpose	-9.97069
▁becomes	-9.97124
▁visit	-9.97133
▁Executive	-9.9716
lan	-9.97162
▁2005.	-9.97189
▁concept	-9.97234
▁trains	-9.97243
▁confirmed	-9.97272
▁metal	-9.9732
▁incorporated	-9.97383
▁oldest	-9.97404
▁Country	-9.97524
century	-9.97622
▁Bell	-9.97729
▁prize	-9.97771
▁transfer	-9.97809
▁Engineering	-9.97837
▁invited	-9.97907
▁rule	-9.97933
▁32	-9.97978
▁highway	-9.98115
▁occurs	-9.98127
▁joint	-9.9814
▁journalist	-9.9828
▁bronze	-9.98291
bar	-9.98293
▁soldiers	-9.983
ent	-9.98309
▁Nations	-9.98347
▁trained	-9.98358
▁fish	-9.98396
▁digital	-9.98397
▁headquarters	-9.98453
tz	-9.98508
▁Management	-9.98534
▁Due	-9.98535
▁places	-9.98555
▁portion	-9.9857
▁stand	-9.98573
▁Missouri	-9.98579
▁share	-9.98584
▁Mike	-9.98651
▁declared	-9.98668
▁plants	-9.98711
▁airport	-9.9872
▁combined	-9.98827
▁languages	-9.9887
▁shortly	-9.98871
▁brown	-9.98906
▁perform	-9.98912
▁foundation	-9.98921
▁Township	-9.98971
▁1982	-9.99
▁offer	-9.99005
▁literary	-9.99016
▁governor	-9.99044
▁episodes	-9.99132
▁daily	-9.99135
▁actress	-9.99192
▁Atlantic	-9.9923
▁receiving	-9.99283
▁Pre	-9.99317
▁height	-9.99337
▁converted	-9.99481
▁territory	-9.99506
-18	-9.9953
ier	-9.99553
je	-9.99574
▁Albert	-9.99576
▁code	-9.99751
▁Regiment	-9.99768
▁etc	-9.99775
town	-9.99853
known	-9.99886
▁press	-9.99892
▁En	-9.99944
▁Labour	-10.0003
▁Ba	-10.0017
▁distribution	-10.0018
led	-10.0022
▁typically	-10.0022
▁Military	-10.0024
▁Khan	-10.0026
▁90	-10.0026
▁Federation	-10.0032
▁Har	-10.0033
▁Orchestra	-10.0037
▁Power	-10.004
TV	-10.004
▁copies	-10.0044
▁amount	-10.0051
▁historic	-10.0058
▁deep	-10.0059
▁visited	-10.0062
▁pass	-10.0064
▁achieved	-10.0067
▁Davis	-10.0092
▁Prior	-10.0093
▁Ke	-10.0094
head	-10.0095
▁500	-10.0096
▁Liberal	-10.0098
ski	-10.0105
▁Chairman	-10.0105
▁Lewis	-10.0106
▁1979	-10.0117
▁BC	-10.0119
▁hired	-10.0125
▁reserve	-10.0129
▁architecture	-10.0129
▁winter	-10.0132
▁disease	-10.0143
▁largely	-10.0145
▁dead	-10.0146
▁70	-10.0156
▁gives	-10.0159
▁ha	-10.0159
▁Fox	-10.016
▁poetry	-10.0163
-1	-10.0169
▁Mi	-10.0169
with	-10.0171
▁36	-10.0173
all	-10.0176
▁Upon	-10.018
▁roof	-10.0182
▁Memorial	-10.0187
▁physical	-10.0192
▁Andrew	-10.0196
▁Harvard	-10.0197
▁scientific	-10.0202
▁Korea	-10.0203
▁commander	-10.0205
▁Ali	-10.0207
▁EP	-10.0215
▁Four	-10.0221
po	-10.0222
▁singing	-10.0227
▁content	-10.0231
▁read	-10.0236
▁Norway	-10.0239
▁Good	-10.0244
▁Wood	-10.0253
▁ordered	-10.0254
law	-10.0254
which	-10.0258
▁communities	-10.0266
▁Minnesota	-10.0269
▁16,	-10.0279
▁Channel	-10.029
▁yellow	-10.0291
▁receive	-10.031
▁urban	-10.0311
▁transport	-10.0314
▁Sunday	-10.0319
▁identified	-10.0324
▁resulted	-10.0328
▁boat	-10.033
▁presence	-10.0336
▁des	-10.0338
▁Ray	-10.0346
▁agreed	-10.035
▁1972	-10.0351
▁10,	-10.0353
▁Gallery	-10.0357
▁lot	-10.0363
▁pilot	-10.0364
▁fought	-10.0364
▁passes	-10.0364
▁1949	-10.0366
▁agreement	-10.0366
▁starts	-10.0369
▁Field	-10.0371
▁paid	-10.0379
▁follows	-10.038
▁Point	-10.0396
▁positions	-10.0404
▁gas	-10.0406
sk	-10.0406
▁Senior	-10.0407
▁actually	-10.0411
▁paintings	-10.0413
▁inhabitants	-10.0414
▁whether	-10.0423
▁shape	-10.0427
▁girls	-10.0431
▁pop	-10.0439
▁8,	-10.044
yl	-10.0443
▁opera	-10.0444
20	-10.0449
▁Fellow	-10.0453
▁Class	-10.0462
▁analysis	-10.0463
▁(3	-10.0466
▁1976	-10.0471
▁Chris	-10.0471
▁Jim	-10.0478
▁ranked	-10.0487
▁Tu	-10.0488
▁17,	-10.0488
á	-10.0492
▁Ku	-10.0492
▁albums	-10.0493
pe	-10.05
▁officers	-10.0504
▁workers	-10.0511
▁organizations	-10.0514
▁11,	-10.0515
ised	-10.0521
▁Manchester	-10.0522
▁Brazil	-10.0525
▁Because	-10.0526
▁b	-10.0528
▁Gar	-10.0532
war	-10.0538
▁gun	-10.0538
▁Free	-10.0544
▁Native	-10.0544
▁1999,	-10.0546
ver	-10.0547
▁administrative	-10.0548
▁applied	-10.0548
▁approach	-10.0551
cha	-10.0555
▁trees	-10.0555
▁Officer	-10.0556
▁employed	-10.0559
▁Anne	-10.0566
▁creating	-10.0573
▁unknown	-10.0578
ino	-10.0589
▁port	-10.0592
▁Ten	-10.0594
▁slightly	-10.0597
▁1981	-10.0601
▁Billboard	-10.0602
ani	-10.061
▁completely	-10.0621
▁seats	-10.0624
▁sales	-10.0626
ola	-10.0627
▁Walter	-10.0629
▁1974	-10.0629
▁formation	-10.0636
▁sources	-10.0645
▁union	-10.0652
▁potential	-10.0654
▁industrial	-10.0655
▁Camp	-10.0656
▁therefore	-10.0656
▁allows	-10.0669
▁1978	-10.0671
▁Area	-10.0679
▁cell	-10.0685
▁estimated	-10.0686
▁needed	-10.0686
▁represent	-10.0686
▁know	-10.0687
▁Opera	-10.0688
▁block	-10.0689
▁(16	-10.0695
▁permanent	-10.0698
▁write	-10.0698
▁Deputy	-10.0701
▁occupied	-10.0707
▁critical	-10.0709
▁clear	-10.071
ron	-10.0716
ab	-10.0725
▁2004.	-10.0731
ating	-10.0735
op	-10.0744
▁Project	-10.0749
▁Water	-10.0749
▁wood	-10.075
dy	-10.0752
ius	-10.0756
▁expected	-10.0761
ell	-10.0761
lu	-10.0765
▁MP	-10.0768
sh	-10.0775
▁knowledge	-10.0778
▁laid	-10.0781
▁inter	-10.0784
ance	-10.0785
▁difficult	-10.0785
í	-10.0787
▁engineer	-10.0789
▁Kansas	-10.0789
ts	-10.0791
gar	-10.0794
▁12,	-10.0801
▁meters	-10.0806
▁bishop	-10.0807
▁factory	-10.0815
▁Far	-10.0824
▁theme	-10.0832
▁ability	-10.0843
▁qualified	-10.0846
▁murder	-10.0847
ita	-10.0847
▁survived	-10.0855
▁Sri	-10.0856
▁Up	-10.088
▁baseball	-10.0881
▁commonly	-10.0882
nes	-10.0884
▁v	-10.0885
▁sides	-10.0887
▁9,	-10.0888
▁resulting	-10.0889
▁Can	-10.0891
▁formerly	-10.0896
▁daughters	-10.0897
▁Tennessee	-10.0902
▁frequently	-10.0902
▁tells	-10.0916
▁starred	-10.0917
▁problem	-10.0917
▁1977	-10.0917
▁marked	-10.0919
▁reference	-10.0921
▁programme	-10.0921
▁lyrics	-10.0922
▁1936	-10.0926
▁producing	-10.0926
▁14,	-10.093
ning	-10.0943
▁focused	-10.0951
▁1975	-10.0973
▁kind	-10.0976
▁pieces	-10.0978
▁consisted	-10.0979
▁pair	-10.0982
hi	-10.0982
▁Dublin	-10.0984
ker	-10.0985
▁Simon	-10.0988
▁Hot	-10.0991
▁Stephen	-10.0994
▁audience	-10.1003
▁regularly	-10.1004
▁fully	-10.1004
▁broke	-10.1008
▁finds	-10.1014
▁1968	-10.1014
▁Christ	-10.1019
▁Golden	-10.1027
▁numbers	-10.1032
▁says	-10.1032
▁System	-10.1044
▁representing	-10.1049
▁Game	-10.1053
▁About	-10.1055
▁horse	-10.1057
▁et	-10.1062
▁priest	-10.1064
ara	-10.1077
▁painted	-10.1079
▁derived	-10.1084
▁Miller	-10.1085
▁image	-10.1093
▁origin	-10.1101
▁occurred	-10.1104
bi	-10.1109
▁21,	-10.111
ran	-10.111
▁Fame	-10.111
▁classical	-10.1119
▁representative	-10.112
▁weight	-10.1121
▁effects	-10.1128
▁types	-10.1132
▁effort	-10.1133
▁cars	-10.1134
▁except	-10.1135
▁grade	-10.1136
▁villages	-10.114
▁Then	-10.114
▁Final	-10.1143
▁Vienna	-10.1144
▁follow	-10.115
▁fine	-10.1158
▁category	-10.1159
▁compared	-10.116
we	-10.1167
▁true	-10.117
▁Stadium	-10.1171
▁tried	-10.1172
ru	-10.1172
▁Q	-10.1172
▁valley	-10.1176
▁percent	-10.1179
▁Song	-10.1181
▁Youth	-10.119
vo	-10.1192
▁bring	-10.1193
▁Foreign	-10.1202
▁machine	-10.1203
▁simple	-10.1205
▁makeup	-10.1205
▁extensive	-10.1207
▁Main	-10.1208
▁13,	-10.1217
▁studying	-10.1221
▁box	-10.1223
ez	-10.1224
▁maximum	-10.1226
▁morning	-10.1226
▁Tri	-10.1227
▁search	-10.1228
ac	-10.1228
▁offices	-10.1233
▁debuted	-10.1234
▁mass	-10.1247
yan	-10.1248
era	-10.1248
▁22,	-10.125
▁showed	-10.1251
ial	-10.1261
▁Ken	-10.1264
gi	-10.1267
▁Trust	-10.1269
▁deputy	-10.1287
▁Am	-10.1288
▁exchange	-10.1288
▁da	-10.1292
ship	-10.1302
▁letters	-10.1312
▁climate	-10.1314
▁tradition	-10.1318
▁racing	-10.1322
▁Colorado	-10.1324
▁parties	-10.1325
long	-10.1326
▁courses	-10.1328
▁abandoned	-10.1334
▁1973	-10.1335
▁things	-10.1336
▁ending	-10.1342
▁fields	-10.1346
▁Maryland	-10.1352
▁approved	-10.1353
10	-10.1354
▁dropped	-10.1355
▁compete	-10.1358
▁30,	-10.136
▁Austria	-10.1368
▁Temple	-10.1369
▁arms	-10.1371
▁Jo	-10.1378
▁Lieutenant	-10.138
▁Region	-10.1381
▁1998,	-10.1382
▁Program	-10.1384
▁faculty	-10.1389
▁1945	-10.1393
▁application	-10.1393
fa	-10.1399
▁advanced	-10.1401
▁existing	-10.1401
▁Fire	-10.1404
▁materials	-10.1406
▁models	-10.1407
▁Samuel	-10.1412
ium	-10.1415
▁1969	-10.1418
▁Real	-10.1419
sky	-10.1424
▁authorities	-10.1426
▁boy	-10.1427
▁Steve	-10.1428
▁Out	-10.1431
▁23,	-10.1439
▁Emperor	-10.144
▁Is	-10.1444
▁28,	-10.1449
zi	-10.1451
more	-10.1452
▁mill	-10.1456
▁sixth	-10.1457
▁funding	-10.1466
▁Ltd	-10.1481
▁singles	-10.1484
▁impact	-10.1484
▁CEO	-10.1491
▁jazz	-10.1491
▁collected	-10.1495
▁look	-10.1496
▁stands	-10.1498
▁hands	-10.1498
▁Pa	-10.1498
▁educational	-10.1499
▁versions	-10.15
▁Er	-10.1503
▁Oregon	-10.1511
fer	-10.1521
▁ends	-10.1526
▁expansion	-10.1528
▁edge	-10.1528
▁environment	-10.1532
▁journal	-10.1532
▁subsequent	-10.1537
▁2003.	-10.1554
▁walls	-10.1557
▁Anna	-10.156
du	-10.1561
▁fans	-10.1562
▁suggested	-10.1565
▁Lo	-10.1575
▁volume	-10.1578
▁33	-10.1578
▁admitted	-10.1579
▁stay	-10.158
▁1971	-10.159
▁(4	-10.1592
▁pressure	-10.1594
▁20,	-10.1601
▁Philip	-10.1602
▁Par	-10.1607
▁herself	-10.1607
▁northeast	-10.161
ig	-10.161
▁reduced	-10.1611
▁onto	-10.1615
▁blood	-10.1625
▁26,	-10.1628
▁Ross	-10.1635
▁partnership	-10.1637
▁rail	-10.1639
gan	-10.1639
▁racial	-10.1639
▁Naval	-10.1647
▁figures	-10.1651
▁Mal	-10.1652
▁Design	-10.1666
▁Si	-10.1667
▁=	-10.1673
▁19,	-10.1673
▁engaged	-10.1676
▁Margaret	-10.1678
▁launch	-10.1679
▁corner	-10.1683
▁Holy	-10.1689
▁holding	-10.1689
▁learning	-10.1692
▁installed	-10.1697
▁Live	-10.17
▁Ram	-10.1709
▁SR	-10.1715
▁sites	-10.1742
▁theater	-10.1746
▁recognition	-10.1751
▁interior	-10.1753
▁27,	-10.1754
▁spot	-10.1762
▁Several	-10.1763
▁l	-10.1769
▁contest	-10.1776
▁registered	-10.1782
▁shop	-10.1785
▁Hotel	-10.1787
▁animals	-10.1787
▁Switzerland	-10.1788
▁setting	-10.1788
▁Mexican	-10.1789
let	-10.179
▁adult	-10.1795
▁34	-10.1796
▁Ver	-10.1801
▁Danish	-10.1806
▁leaders	-10.1808
▁stock	-10.1809
▁25,	-10.1812
ev	-10.1813
▁Val	-10.1816
▁Ocean	-10.1818
▁Winter	-10.1818
▁Carl	-10.1821
▁DVD	-10.1824
▁relatively	-10.1826
▁try	-10.1828
▁successfully	-10.183
▁...	-10.1831
ura	-10.1836
▁Tokyo	-10.1841
▁Howard	-10.1844
▁Indiana	-10.1851
▁Baron	-10.1854
▁technical	-10.1865
▁briefly	-10.1867
che	-10.1877
▁1964	-10.1878
19	-10.1881
▁End	-10.1885
▁developing	-10.1885
▁1967	-10.1893
▁Korean	-10.1894
kar	-10.1896
▁Bal	-10.1901
▁flowers	-10.1903
▁Will	-10.1912
▁medicine	-10.1915
▁premiered	-10.1916
▁condition	-10.1921
▁shared	-10.1923
▁promote	-10.1924
▁beat	-10.1932
▁Services	-10.1936
▁iron	-10.1941
▁passing	-10.1945
▁straight	-10.1947
▁billion	-10.1949
▁unable	-10.1953
▁dates	-10.1953
▁Inter	-10.1955
▁residence	-10.1955
▁neighborhood	-10.1956
▁bass	-10.1957
▁twelve	-10.1957
▁publishing	-10.1961
▁lawyer	-10.1964
▁rear	-10.1964
▁reaching	-10.1964
▁Mayor	-10.1974
▁1997,	-10.1977
▁t	-10.1978
Re	-10.1986
▁Frederick	-10.199
▁allowing	-10.1994
▁something	-10.1995
▁2019.	-10.2
▁restaurant	-10.2005
▁Stone	-10.2011
also	-10.2016
ful	-10.2025
▁Rugby	-10.2026
▁municipal	-10.2037
▁Hockey	-10.2041
▁aired	-10.2043
▁Administration	-10.2062
▁Yu	-10.2063
▁starring	-10.2065
▁memory	-10.2078
▁Regional	-10.2079
▁attend	-10.2085
mon	-10.2086
▁Commander	-10.2088
▁Light	-10.2093
▁chapel	-10.2093
van	-10.2096
▁claims	-10.2096
▁establishment	-10.2102
ik	-10.2105
▁Mill	-10.211
,000	-10.2112
▁1996,	-10.2114
▁fashion	-10.2115
▁narrow	-10.2125
▁doing	-10.213
▁Ann	-10.2138
▁PhD	-10.2142
▁Tony	-10.2149
▁Human	-10.2151
so	-10.2152
▁Historic	-10.2156
▁rules	-10.2158
18	-10.2166
▁damage	-10.2168
ano	-10.217
▁Harry	-10.2172
▁Ge	-10.2174
uk	-10.2175
▁steel	-10.2182
▁refers	-10.2186
▁glass	-10.2189
▁ring	-10.2195
▁y	-10.2202
▁signing	-10.2207
▁opposition	-10.2216
▁29,	-10.2219
▁Ti	-10.222
▁opposite	-10.2231
▁sale	-10.2236
▁flat	-10.2237
▁1965	-10.2246
▁stood	-10.225
▁display	-10.2254
▁claim	-10.2254
▁accident	-10.2256
election	-10.2262
▁felt	-10.2271
▁injured	-10.2273
▁Bi	-10.2278
▁cells	-10.2279
▁containing	-10.2282
▁Cha	-10.2282
▁protection	-10.2288
▁sport	-10.2291
▁Bel	-10.2294
▁Reserve	-10.2301
▁genus	-10.2306
▁38	-10.2311
▁Arizona	-10.2312
▁Independent	-10.2313
▁300	-10.232
over	-10.2324
ring	-10.2333
▁musicians	-10.2338
▁nation	-10.2347
▁entry	-10.2347
▁Ca	-10.2348
▁Television	-10.2349
▁Hamilton	-10.235
▁Dean	-10.2358
▁Ed	-10.2361
▁gets	-10.2372
▁collaboration	-10.2374
▁begin	-10.238
tu	-10.2386
▁bands	-10.2387
▁composition	-10.2388
▁2001.	-10.2393
▁rare	-10.2395
net	-10.2397
▁Revolution	-10.24
▁1966	-10.2406
▁restored	-10.2407
▁foot	-10.2414
▁Juan	-10.2421
▁householder	-10.2424
▁chair	-10.2427
▁2002.	-10.2429
▁Montreal	-10.243
▁Diego	-10.2431
▁Iowa	-10.2431
ray	-10.2434
back	-10.2434
▁drive	-10.2438
▁Col	-10.2446
▁stayed	-10.245
▁stadium	-10.2453
▁refused	-10.2454
▁safety	-10.2454
▁planning	-10.2468
▁Ber	-10.2469
▁44	-10.2474
▁quarter	-10.2475
ella	-10.2478
▁funds	-10.248
▁reason	-10.2487
▁reports	-10.2508
▁Family	-10.2509
▁scenes	-10.2511
▁commission	-10.2527
▁historian	-10.2538
▁royal	-10.2538
▁cannot	-10.2542
▁amateur	-10.2545
▁relations	-10.2545
▁turns	-10.2546
▁philosophy	-10.255
burg	-10.2551
+	-10.2551
ise	-10.2553
▁background	-10.2557
▁x	-10.2562
▁translated	-10.2564
▁2000.	-10.2568
▁Children	-10.2569
▁IV	-10.2571
▁agency	-10.2572
ology	-10.258
▁locations	-10.258
▁FM	-10.2585
▁hockey	-10.2585
▁Entertainment	-10.2588
▁selection	-10.2595
dale	-10.2595
▁drug	-10.2597
▁institutions	-10.2598
▁connection	-10.2603
▁Fine	-10.2606
▁supporting	-10.2606
▁hill	-10.2608
sch	-10.2615
▁tax	-10.2616
▁Singapore	-10.2617
ence	-10.2617
▁adjacent	-10.262
▁Judge	-10.2623
ou	-10.2625
▁influenced	-10.2626
yn	-10.2628
▁greater	-10.2629
▁draft	-10.2631
▁Queensland	-10.2632
har	-10.2635
▁Modern	-10.2636
▁Silver	-10.2642
▁northwest	-10.2643
▁Square	-10.2645
▁64	-10.265
▁brief	-10.2653
▁interested	-10.2656
▁150	-10.2657
▁Antonio	-10.266
La	-10.266
▁enter	-10.2667
▁uncle	-10.2675
▁Allen	-10.2677
▁tries	-10.2679
▁1948	-10.2683
▁alternative	-10.2684
▁1995,	-10.2688
▁web	-10.2691
▁Review	-10.2698
▁programming	-10.27
▁your	-10.2704
▁ceremony	-10.2706
▁Space	-10.2706
▁boys	-10.2706
ven	-10.2706
▁Mor	-10.2707
▁400	-10.2707
▁Christmas	-10.2711
q	-10.2716
▁quite	-10.2721
ram	-10.2722
ach	-10.2726
▁edited	-10.2726
▁Ne	-10.273
▁Kentucky	-10.273
▁purchase	-10.2735
▁Hollywood	-10.2737
▁dis	-10.2742
▁prevent	-10.2746
▁beyond	-10.2753
▁Cathedral	-10.2756
ari	-10.2767
▁contained	-10.2776
▁Houston	-10.2778
▁normal	-10.2778
▁Max	-10.2781
▁card	-10.2782
▁sense	-10.2783
▁Pat	-10.2783
red	-10.2787
ow	-10.2788
▁faced	-10.2789
▁basic	-10.2802
▁Ya	-10.2809
tic	-10.282
▁Douglas	-10.2822
▁Moore	-10.283
▁Railroad	-10.2837
▁opposed	-10.2839
▁extension	-10.2839
ett	-10.2848
▁Ford	-10.285
▁global	-10.2855
▁(5	-10.2855
▁screen	-10.2856
▁Mu	-10.2862
ap	-10.287
▁establish	-10.287
▁Tim	-10.2872
min	-10.2875
zo	-10.2876
▁stores	-10.2878
▁vocals	-10.2879
▁appointment	-10.2881
▁appearing	-10.2882
▁rugby	-10.2884
▁simply	-10.2887
▁peace	-10.2893
▁centuries	-10.2894
▁flows	-10.2898
▁residing	-10.2899
▁childhood	-10.2903
▁needs	-10.2906
▁candidates	-10.2907
▁enemy	-10.2908
▁Denmark	-10.2909
▁Not	-10.2909
▁°	-10.2915
▁rich	-10.2915
port	-10.2916
▁situation	-10.2918
▁Clark	-10.2938
▁critics	-10.2938
▁37	-10.2939
▁Lincoln	-10.2945
▁Fe	-10.2948
▁Ki	-10.2948
▁Building	-10.2954
▁operate	-10.2954
▁couples	-10.2955
▁Connecticut	-10.2955
stone	-10.2959
▁Sky	-10.296
▁bottom	-10.2967
▁Kent	-10.2969
▁powerful	-10.2971
▁authority	-10.2971
▁Adam	-10.2971
▁Legislative	-10.2979
▁Philippines	-10.298
▁window	-10.2984
▁vehicle	-10.2984
▁Doctor	-10.2985
▁Sha	-10.2985
▁southeast	-10.2987
▁extra	-10.2988
▁want	-10.2997
▁page	-10.3005
▁agricultural	-10.3007
▁Vi	-10.3009
ena	-10.301
▁CDP	-10.3015
▁describes	-10.3022
▁fighting	-10.3024
mm	-10.3029
▁crime	-10.3036
▁rating	-10.304
▁Turkey	-10.3044
▁Hu	-10.3047
▁1994,	-10.305
▁defense	-10.3058
▁Marine	-10.3062
hu	-10.3063
▁scheduled	-10.3063
▁districts	-10.3065
▁windows	-10.3066
▁bachelor	-10.3069
ich	-10.3074
▁leg	-10.3075
▁1962	-10.3077
▁sets	-10.3084
▁ultimately	-10.3089
▁lieutenant	-10.3094
▁failure	-10.311
▁opportunity	-10.3115
ula	-10.3115
▁Turkish	-10.3115
▁heard	-10.3116
▁improve	-10.3116
▁Bur	-10.3117
tor	-10.312
pi	-10.3122
▁1915	-10.3126
▁cricket	-10.3132
▁Patrick	-10.3135
▁Wall	-10.3139
▁rooms	-10.3142
▁Belgium	-10.3146
see	-10.3148
▁1963	-10.315
▁Czech	-10.3154
▁chain	-10.3155
▁substitute	-10.3159
▁voted	-10.3161
▁NFL	-10.3162
▁contributions	-10.3168
▁generation	-10.3171
▁consisting	-10.3172
▁decades	-10.3182
▁maintained	-10.3185
▁Register	-10.3191
▁say	-10.3192
▁Infantry	-10.3192
art	-10.3194
▁publications	-10.3194
▁1944	-10.3198
▁worldwide	-10.3199
▁Way	-10.32
▁closely	-10.3201
▁Muslim	-10.3201
▁defined	-10.3204
▁passengers	-10.321
▁contact	-10.3217
▁Assistant	-10.3229
ju	-10.323
▁Brian	-10.3232
▁protect	-10.3232
▁Egypt	-10.3239
▁successor	-10.3244
▁Communist	-10.325
▁Matt	-10.3251
ria	-10.3256
ns	-10.3259
▁supply	-10.3261
ken	-10.3262
▁Kar	-10.3265
▁31,	-10.3267
▁Kim	-10.3272
▁Imperial	-10.3275
▁sex	-10.3275
▁Detroit	-10.3276
▁protein	-10.3278
▁Quebec	-10.3278
▁replace	-10.3278
▁Sar	-10.3282
▁(15	-10.3286
▁acts	-10.3286
▁Dar	-10.3288
▁Now	-10.3292
ku	-10.3302
▁Fair	-10.3309
▁shell	-10.3309
▁table	-10.3312
▁escape	-10.3315
▁Saturday	-10.3316
▁attempts	-10.3317
▁weekly	-10.3328
▁animal	-10.3334
vin	-10.3336
▁associate	-10.3337
▁musician	-10.3341
▁passenger	-10.3342
ists	-10.3342
▁Boy	-10.3343
▁k	-10.3344
▁functions	-10.3344
▁Tar	-10.3345
dar	-10.3349
▁Miami	-10.335
▁intersection	-10.3351
-2	-10.3354
▁stream	-10.3356
her	-10.336
▁Oklahoma	-10.3361
▁Glasgow	-10.3363
▁Fu	-10.3364
▁trip	-10.3365
▁entirely	-10.3367
▁Sound	-10.3368
▁fiction	-10.3373
▁diameter	-10.3374
▁Pi	-10.3374
▁ball	-10.3374
▁notes	-10.3375
▁trying	-10.3381
▁Rev	-10.3382
▁operates	-10.3388
▁Han	-10.339
▁hundred	-10.3396
▁poverty	-10.3403
▁Anderson	-10.3407
fi	-10.3408
▁Bad	-10.3414
▁properties	-10.3415
▁Medicine	-10.3415
▁employees	-10.3416
▁organisation	-10.342
▁provincial	-10.3421
▁1946	-10.3423
▁Garden	-10.3426
▁attempted	-10.3426
▁Marie	-10.3437
▁driver	-10.3438
▁getting	-10.3442
▁Jane	-10.3449
▁1992,	-10.3452
▁residential	-10.3452
▁wooden	-10.3452
▁equal	-10.3453
▁selling	-10.3454
▁southwest	-10.3456
▁sought	-10.3457
▁minute	-10.3457
▁consecutive	-10.3461
▁proved	-10.3466
▁crossing	-10.3466
▁regions	-10.3468
▁42	-10.3469
▁journey	-10.347
shaped	-10.3476
▁structures	-10.3477
▁garden	-10.3478
▁tail	-10.3479
▁1999.	-10.3482
▁resources	-10.3484
▁Swiss	-10.3489
▁secret	-10.349
▁views	-10.3492
▁electric	-10.3495
▁der	-10.3499
It	-10.3501
▁standing	-10.3506
▁chose	-10.3507
▁1911	-10.3509
▁Ta	-10.3509
▁toured	-10.3514
▁methods	-10.3532
▁participate	-10.3541
▁Fund	-10.3542
▁leads	-10.3543
▁cousin	-10.3543
▁necessary	-10.3545
▁brick	-10.3549
▁risk	-10.3555
▁Sal	-10.3558
▁Welsh	-10.3558
▁eye	-10.3559
ee	-10.356
▁existence	-10.356
iya	-10.3562
▁donated	-10.3563
▁us	-10.3565
▁o	-10.3569
▁mine	-10.3569
ston	-10.3569
ize	-10.3576
▁officials	-10.3581
▁dry	-10.3583
▁arranged	-10.3587
▁heavily	-10.3588
▁Hal	-10.3591
▁environmental	-10.3594
▁fast	-10.3595
▁domestic	-10.3596
▁degrees	-10.3606
▁vehicles	-10.3607
▁determined	-10.3608
▁credited	-10.3609
▁combat	-10.3611
▁Ad	-10.3613
▁Argentina	-10.3614
▁Gordon	-10.3615
▁effective	-10.3618
▁duty	-10.3625
▁towns	-10.3625
▁notably	-10.3628
▁meets	-10.363
▁Mississippi	-10.3631
▁acted	-10.3633
▁meant	-10.3634
▁folk	-10.3635
▁assumed	-10.3635
▁Grant	-10.3639
▁owners	-10.3644
▁serious	-10.3646
▁elevation	-10.3648
▁broad	-10.3655
air	-10.366
ong	-10.3661
▁avoid	-10.3662
▁businesses	-10.3665
▁engines	-10.3668
▁g	-10.3674
▁attached	-10.3675
▁bi	-10.3677
ā	-10.3679
▁phase	-10.3683
▁Rio	-10.3684
▁eldest	-10.3685
▁Hispanic	-10.3687
▁carry	-10.369
▁sell	-10.3693
▁Theater	-10.3695
▁Greece	-10.3696
▁plot	-10.3696
▁Ja	-10.3698
▁75	-10.3699
▁grow	-10.3703
▁grandfather	-10.3705
▁Lawrence	-10.371
▁Arab	-10.3715
▁1961	-10.3716
▁skills	-10.3717
▁1956	-10.3718
▁users	-10.3721
light	-10.3722
▁youngest	-10.3726
▁institution	-10.3728
▁typical	-10.3744
▁Conservative	-10.3745
▁Commonwealth	-10.3751
▁didn	-10.3753
▁Singh	-10.3758
▁separated	-10.3763
▁1959	-10.3765
ica	-10.3767
▁Local	-10.3767
▁Palace	-10.3768
▁applications	-10.3774
▁Za	-10.3774
▁39	-10.3776
if	-10.3778
▁Ra	-10.3781
▁headed	-10.3782
▁1942	-10.3787
ane	-10.3794
▁railroad	-10.3799
▁honorary	-10.3804
▁sector	-10.3804
▁comic	-10.3805
▁mathematics	-10.3805
▁contain	-10.3814
▁churches	-10.3817
▁1947	-10.3823
▁exist	-10.3827
▁Anthony	-10.383
▁investment	-10.3832
▁Bowl	-10.3832
▁Spring	-10.3834
▁distributed	-10.3836
▁41	-10.3836
▁flag	-10.3838
▁Austrian	-10.3839
end	-10.3839
▁Iran	-10.3842
▁classic	-10.3848
▁1957	-10.385
▁n	-10.3851
▁Once	-10.3852
▁Yorkshire	-10.3861
▁Brigade	-10.3864
▁Pe	-10.3865
▁attacked	-10.3869
who	-10.3869
▁conflict	-10.3873
ward	-10.3877
▁Though	-10.3877
▁critic	-10.3881
▁scholarship	-10.3887
▁think	-10.3896
▁earliest	-10.3899
▁Capital	-10.39
ata	-10.3902
ens	-10.3903
▁1993,	-10.3906
▁artistic	-10.3915
▁Security	-10.3921
▁price	-10.3926
bu	-10.3926
▁winners	-10.3937
▁1952	-10.3938
▁guitarist	-10.394
▁fuel	-10.394
▁really	-10.3959
▁reasons	-10.3964
▁Metropolitan	-10.3966
▁patients	-10.397
▁1939	-10.3974
▁Tamil	-10.3976
▁Ga	-10.3982
▁1958	-10.3985
▁rose	-10.3989
▁signal	-10.399
▁citizens	-10.3995
▁accompanied	-10.4
▁Third	-10.4
▁Representatives	-10.4005
▁Liverpool	-10.4005
▁Squadron	-10.4009
▁memorial	-10.4017
▁coal	-10.4028
▁grand	-10.4028
ó	-10.4031
▁Bu	-10.4037
water	-10.4042
▁Only	-10.4045
▁collections	-10.4049
▁poem	-10.4055
▁session	-10.4058
FM	-10.4059
▁colour	-10.4061
▁Las	-10.4062
▁Early	-10.407
cho	-10.4071
▁Atlanta	-10.4073
▁grounds	-10.4076
ai	-10.4076
▁1991,	-10.4076
▁weather	-10.4083
▁independence	-10.4084
▁(6	-10.4086
▁mouth	-10.409
▁bill	-10.4091
▁attacks	-10.4094
ay	-10.4094
▁driving	-10.4102
ren	-10.4102
▁seems	-10.4103
▁Portuguese	-10.4104
▁membership	-10.4105
▁peak	-10.4109
▁formal	-10.4112
▁Alabama	-10.4117
▁designer	-10.412
▁mining	-10.412
▁retained	-10.4121
gu	-10.4123
▁anniversary	-10.4126
▁items	-10.413
▁1943	-10.4134
▁Lane	-10.4135
▁See	-10.4136
▁aid	-10.4138
▁choice	-10.414
▁economy	-10.4141
▁matter	-10.4141
▁Forces	-10.4143
▁Mad	-10.4145
▁1998.	-10.4147
▁interests	-10.4147
▁learned	-10.415
▁rise	-10.415
▁Originally	-10.4158
▁occupation	-10.4163
▁scale	-10.4166
▁falls	-10.4171
ok	-10.4172
▁temperature	-10.4175
▁Mc	-10.4178
▁Broadway	-10.4181
▁core	-10.4187
▁broken	-10.4191
▁versus	-10.4193
▁duties	-10.4193
▁Cal	-10.4193
▁killing	-10.4193
▁helping	-10.4195
▁calls	-10.4195
▁1900	-10.4196
▁Males	-10.4197
▁wind	-10.4198
▁Tan	-10.42
▁visiting	-10.4204
We	-10.4207
▁Trinity	-10.4209
hill	-10.421
▁Staff	-10.4211
foot	-10.4211
▁kg	-10.4211
▁decade	-10.4217
▁regiment	-10.4219
▁Harris	-10.4223
▁organ	-10.4226
▁reign	-10.4227
▁roads	-10.4232
▁Heart	-10.4234
▁Mountains	-10.4235
▁Ro	-10.4237
▁flying	-10.4239
▁1941	-10.424
gate	-10.4241
▁sq	-10.425
▁Seattle	-10.4253
▁Ward	-10.4253
▁replacing	-10.4261
lon	-10.4261
▁Back	-10.4262
▁praised	-10.4273
▁looking	-10.4273
▁Place	-10.4275
▁Morgan	-10.4275
▁user	-10.4279
▁mind	-10.4286
▁1906	-10.4286
▁Mrs	-10.4289
▁junction	-10.4289
▁dated	-10.429
▁bodies	-10.429
ud	-10.4294
▁Prix	-10.4297
▁Karl	-10.43
17	-10.4302
▁Vietnam	-10.4314
▁Latino	-10.4319
▁Boys	-10.4321
▁Israeli	-10.4321
▁parallel	-10.4321
▁dating	-10.4328
▁lands	-10.4329
▁Campbell	-10.433
▁investigation	-10.433
▁sexual	-10.4336
▁teachers	-10.434
▁possibly	-10.4346
▁Through	-10.4349
▁visual	-10.4349
tel	-10.435
▁Del	-10.4352
▁branches	-10.4361
▁1909	-10.4361
").	-10.4362
▁novels	-10.4365
▁importance	-10.4367
.”	-10.4372
2.	-10.4376
▁fleet	-10.4377
▁picture	-10.4382
▁subjects	-10.4382
▁1907	-10.4383
cy	-10.4384
▁papers	-10.4388
▁Heritage	-10.439
▁reading	-10.4393
▁incident	-10.4395
▁Alan	-10.4397
▁Play	-10.44
▁introduction	-10.4403
▁Dance	-10.4403
▁Norman	-10.4404
▁ways	-10.4407
▁Birmingham	-10.4412
▁flow	-10.4412
bert	-10.4413
elected	-10.4414
▁Training	-10.442
▁fruit	-10.4421
▁celebrated	-10.4423
▁Ban	-10.4425
▁Eric	-10.4425
cher	-10.4428
▁rebuilt	-10.443
▁marine	-10.4431
istic	-10.4432
▁Hungarian	-10.4433
▁Walker	-10.4435
▁Brooklyn	-10.444
ative	-10.4445
▁door	-10.4446
▁increasing	-10.4449
▁relocated	-10.445
▁1954	-10.445
▁regarded	-10.4461
rie	-10.4465
can	-10.4468
▁sat	-10.447
tan	-10.4473
▁electronic	-10.4478
▁FIFA	-10.449
wi	-10.4491
▁wounded	-10.4497
▁sections	-10.4498
west	-10.4506
▁attending	-10.4506
▁hour	-10.4507
tri	-10.4509
▁designs	-10.4511
tro	-10.4517
▁Mel	-10.4517
▁Guard	-10.4524
▁Draft	-10.4526
▁f	-10.4528
▁soccer	-10.453
▁Jesus	-10.453
ery	-10.4535
▁qualifying	-10.4536
▁Puerto	-10.4539
US	-10.4539
▁1929	-10.4539
families	-10.4547
▁doctor	-10.455
▁1955	-10.4552
▁device	-10.4553
▁tall	-10.4556
▁specifically	-10.4556
▁Ci	-10.4559
▁budget	-10.4562
"),	-10.4563
▁pick	-10.4564
▁Colonel	-10.4564
▁occur	-10.4575
board	-10.4577
▁sculpture	-10.4578
▁identity	-10.4579
▁tenure	-10.4579
▁Il	-10.458
▁wins	-10.458
▁merchant	-10.4582
▁Ham	-10.4582
▁path	-10.4584
▁biggest	-10.4586
▁Nova	-10.4589
▁images	-10.4599
▁Farm	-10.4601
▁assembly	-10.4605
▁1997.	-10.4605
▁fishing	-10.4613
▁1953	-10.4613
▁Hills	-10.4617
▁ruled	-10.4617
▁honour	-10.4624
level	-10.4625
▁fan	-10.4626
▁drawn	-10.4627
▁Information	-10.4633
▁1918	-10.4634
▁Sch	-10.4634
▁Peace	-10.4637
▁NCAA	-10.4637
▁internal	-10.4649
▁Knight	-10.465
▁Brothers	-10.4654
▁medieval	-10.4657
▁filmed	-10.4657
▁Dam	-10.4662
▁objects	-10.4663
▁poems	-10.4664
▁Global	-10.4664
len	-10.4667
▁surrounded	-10.4668
▁Sarah	-10.4669
▁delivered	-10.4677
▁recordings	-10.4679
▁writers	-10.4681
▁Daily	-10.4686
▁showing	-10.4688
▁improved	-10.469
▁standards	-10.4695
including	-10.4695
▁hot	-10.4697
▁translation	-10.4699
▁Ball	-10.4703
▁caught	-10.4706
▁Louisiana	-10.471
▁covering	-10.4713
▁Iron	-10.4719
▁parliament	-10.4722
yo	-10.4723
▁48	-10.4727
wan	-10.4729
▁Cleveland	-10.4729
▁Upper	-10.4729
▁Nu	-10.473
▁accused	-10.4731
▁grown	-10.4736
▁orchestra	-10.4737
▁gain	-10.4748
▁guns	-10.4749
▁Express	-10.4758
▁save	-10.4759
▁replacement	-10.4761
▁tons	-10.4771
▁Agency	-10.4773
Le	-10.4775
▁friendly	-10.4778
▁Gu	-10.4779
▁Milan	-10.478
pro	-10.4781
▁committed	-10.4783
▁Girls	-10.4787
▁Age	-10.479
▁grant	-10.4791
▁Cor	-10.4798
▁fund	-10.4801
ada	-10.4806
▁Command	-10.4806
▁talk	-10.4813
▁Gulf	-10.4817
▁Bor	-10.4821
▁distinguished	-10.4823
▁easily	-10.4825
▁demolished	-10.4825
ida	-10.4826
▁graduation	-10.4828
▁(19	-10.4829
oni	-10.4835
shi	-10.4837
▁1951	-10.484
▁micro	-10.4841
▁damaged	-10.4845
ping	-10.4845
án	-10.4846
▁chance	-10.4846
▁Glen	-10.4854
▁birds	-10.4857
▁Nelson	-10.486
▁Thompson	-10.4861
▁zone	-10.4866
tal	-10.487
▁Culture	-10.4874
▁speech	-10.4875
▁competitions	-10.4875
my	-10.4877
▁Front	-10.4877
▁pursue	-10.4878
▁1928	-10.488
▁AD	-10.4888
▁dam	-10.4889
▁toward	-10.4894
▁Studios	-10.491
▁architectural	-10.491
▁Les	-10.4912
▁combination	-10.4914
▁Hi	-10.4915
ye	-10.4925
▁Munich	-10.4925
▁Baltimore	-10.4925
▁hosts	-10.4925
var	-10.4931
ix	-10.4937
▁1910	-10.4943
▁1919	-10.4943
▁exhibited	-10.4943
▁Internet	-10.4946
▁Austin	-10.4949
▁wine	-10.4949
▁Tournament	-10.4951
▁instrumental	-10.4954
▁Phil	-10.4955
▁map	-10.4965
▁Ukraine	-10.4968
▁Pen	-10.497
▁statue	-10.497
▁visitors	-10.4973
▁1996.	-10.4974
▁Che	-10.4977
▁boundary	-10.4977
▁shooting	-10.4977
▁Delhi	-10.4983
▁step	-10.4986
▁Roy	-10.4988
▁afterwards	-10.4992
wing	-10.4992
▁Hans	-10.4993
not	-10.4994
▁motion	-10.4999
▁acid	-10.5002
▁Athletic	-10.5004
▁Shah	-10.5012
▁1989,	-10.5013
▁Liga	-10.5013
▁Alliance	-10.5014
▁Alex	-10.502
▁Convention	-10.502
▁Portland	-10.5024
▁observed	-10.5028
▁medium	-10.5033
▁question	-10.5034
-4	-10.5036
▁abroad	-10.5038
▁criminal	-10.5039
▁ownership	-10.5041
▁filled	-10.5041
▁cemetery	-10.5042
▁respect	-10.5044
▁stating	-10.5055
▁invasion	-10.5058
▁Grade	-10.5058
▁1987,	-10.5065
▁script	-10.5066
▁formally	-10.507
▁super	-10.5073
mp	-10.5073
from	-10.5073
▁beach	-10.5074
res	-10.5079
▁seventh	-10.5083
▁techniques	-10.5093
▁presidential	-10.5095
°	-10.5097
▁1924	-10.5101
▁causes	-10.5104
▁doctorate	-10.5105
▁mph	-10.5108
ea	-10.511
▁completing	-10.511
ska	-10.5111
▁attorney	-10.5113
▁parliamentary	-10.5113
▁Portugal	-10.5114
▁coaching	-10.5115
sson	-10.5115
▁Your	-10.5118
▁column	-10.5118
▁Mission	-10.5118
▁championships	-10.5118
▁eleven	-10.5119
▁1938	-10.5126
▁universities	-10.5126
▁Count	-10.5127
▁José	-10.5132
▁expedition	-10.5134
▁earning	-10.5139
ile	-10.5141
▁ahead	-10.5141
▁Run	-10.5142
▁strength	-10.5143
▁monument	-10.5145
▁publisher	-10.5149
▁Down	-10.5152
tin	-10.5153
▁entering	-10.5163
low	-10.5164
star	-10.5165
▁Shi	-10.5165
▁Sub	-10.5165
-3	-10.5169
▁Roger	-10.5172
▁offering	-10.5174
▁ABC	-10.5178
▁ideas	-10.518
▁kill	-10.5188
▁kilometers	-10.5188
tes	-10.519
▁1922	-10.5194
▁traveled	-10.5195
▁Crown	-10.5198
▁Ju	-10.5206
40	-10.521
16	-10.5212
▁concerts	-10.5217
ette	-10.522
down	-10.5223
▁Graham	-10.523
▁popularity	-10.5237
▁don	-10.5238
▁completion	-10.5238
izing	-10.5243
▁Limited	-10.5249
▁calling	-10.525
-17	-10.5252
▁forming	-10.5254
▁Alfred	-10.5254
ero	-10.5257
▁target	-10.5257
▁request	-10.526
▁Dave	-10.5261
▁1990,	-10.527
▁Symphony	-10.527
▁license	-10.5272
▁reality	-10.5273
▁landscape	-10.5278
king	-10.5282
▁talent	-10.5283
▁mark	-10.5285
▁heads	-10.5287
▁Baptist	-10.5289
▁Jay	-10.5293
50	-10.5296
▁Construction	-10.5298
▁mobile	-10.5302
▁contested	-10.5304
▁charged	-10.5305
▁skin	-10.5305
▁regarding	-10.5307
▁erected	-10.5314
▁sang	-10.5318
▁causing	-10.532
▁am	-10.5321
▁Russell	-10.5323
▁competing	-10.5325
▁gene	-10.5326
▁venue	-10.5326
▁FA	-10.5332
▁Dallas	-10.5333
▁Kelly	-10.5338
▁(8	-10.5346
▁1931	-10.5348
▁Finland	-10.5348
▁ill	-10.5356
▁Trade	-10.5357
MP	-10.5363
▁credit	-10.5364
▁cap	-10.5366
▁address	-10.537
om	-10.5371
▁1995.	-10.5371
▁Stewart	-10.5376
▁justice	-10.5378
▁reputation	-10.5379
▁stopped	-10.5382
▁controlled	-10.5383
▁Five	-10.5383
▁55	-10.5384
▁vocal	-10.5385
▁Vancouver	-10.5386
▁Defense	-10.5387
▁advance	-10.5387
▁monastery	-10.5391
▁expressed	-10.5403
▁Week	-10.5405
▁champions	-10.5406
▁whilst	-10.5407
▁Jacob	-10.5408
▁relegated	-10.5408
▁Bristol	-10.5409
part	-10.541
▁squadron	-10.5411
▁Hart	-10.5419
del	-10.5419
▁49	-10.542
▁defeating	-10.5421
▁arm	-10.5423
bit	-10.5424
▁1914	-10.5424
▁believe	-10.5427
General	-10.5428
▁Pu	-10.5428
nik	-10.544
ft	-10.5441
▁Archbishop	-10.5442
▁1927	-10.5445
▁dog	-10.5447
val	-10.5449
▁Faculty	-10.5452
▁Ron	-10.5456
▁armed	-10.5456
▁Pra	-10.546
▁depth	-10.5461
▁ago	-10.5461
▁raise	-10.5462
▁actions	-10.5471
48	-10.5471
▁Va	-10.5478
▁inches	-10.5482
hr	-10.5486
21	-10.5487
▁Islamic	-10.5488
▁Natural	-10.5492
▁islands	-10.5492
▁annually	-10.5498
▁premiere	-10.5501
aka	-10.5504
▁Abbey	-10.5508
▁arrival	-10.5513
ú	-10.5513
▁Bangladesh	-10.5514
▁religion	-10.5516
▁Princess	-10.5521
ky	-10.5522
▁hair	-10.5523
nan	-10.5525
▁downtown	-10.5526
stein	-10.5526
▁Pop	-10.5529
▁1937	-10.553
▁DC	-10.5532
ff	-10.5539
▁drawing	-10.5541
▁Madrid	-10.5543
▁Kennedy	-10.5544
▁lay	-10.5547
ding	-10.5551
▁beautiful	-10.5552
ure	-10.5557
▁Hampshire	-10.5559
▁Cat	-10.5564
▁nomination	-10.5566
▁Son	-10.5574
▁Pittsburgh	-10.5576
▁frame	-10.5576
▁Energy	-10.5576
▁sand	-10.5578
ever	-10.558
▁Soon	-10.5584
▁pool	-10.559
▁fixed	-10.559
pin	-10.5595
▁1935	-10.5602
née	-10.5604
▁thirty	-10.5604
▁Fred	-10.5611
▁1923	-10.5613
▁Shortly	-10.5615
san	-10.5617
ball	-10.5621
▁inaugural	-10.5622
▁temporary	-10.5622
▁runner	-10.5624
▁merger	-10.5624
▁Marshall	-10.5625
▁Robinson	-10.5628
▁UEFA	-10.5629
▁gender	-10.5631
▁actual	-10.5637
▁distinct	-10.5638
▁Pierre	-10.5638
▁kW	-10.564
▁Nick	-10.5641
▁Soccer	-10.5643
illa	-10.5645
▁soil	-10.5646
▁Wright	-10.5648
▁protected	-10.5648
▁Ch	-10.5648
▁belonged	-10.565
ase	-10.565
▁technique	-10.5653
ities	-10.5656
▁posted	-10.5658
▁goods	-10.5658
▁affairs	-10.5664
▁Player	-10.5665
▁camera	-10.5665
▁Richmond	-10.5672
▁entertainment	-10.5674
use	-10.5677
ice	-10.5678
▁Round	-10.5683
▁measure	-10.5685
▁1850	-10.5685
dis	-10.5688
▁ordained	-10.569
▁carrying	-10.5693
▁sequence	-10.5695
ric	-10.5699
▁missing	-10.5703
▁Yale	-10.5705
▁What	-10.571
▁advertising	-10.5714
▁Kan	-10.5718
▁scheme	-10.5721
▁solid	-10.5731
▁Ex	-10.5736
▁learn	-10.5737
▁1890	-10.5737
▁cup	-10.5741
ii	-10.5746
▁1994.	-10.5752
▁linked	-10.5759
▁$1	-10.576
▁instruments	-10.576
▁Mon	-10.5774
▁List	-10.5776
▁electoral	-10.5777
▁prepared	-10.5783
▁capture	-10.5788
▁Bra	-10.5789
kan	-10.5791
▁remainder	-10.5795
▁Authority	-10.5796
▁Gen	-10.5796
▁greatest	-10.5798
▁Jazz	-10.5808
▁homes	-10.5809
▁documents	-10.5813
nt	-10.5819
ks	-10.5821
▁Our	-10.5826
▁housed	-10.5836
▁Mid	-10.5837
later	-10.5838
▁Morris	-10.5839
▁se	-10.584
▁Jordan	-10.5841
▁nuclear	-10.5847
▁negative	-10.5847
▁touring	-10.5851
▁Unit	-10.5851
▁responsibility	-10.5853
▁Orleans	-10.5854
▁Until	-10.5856
▁fair	-10.5858
story	-10.5861
▁1988,	-10.5864
Al	-10.5865
▁enrolled	-10.5865
▁vessel	-10.5868
▁till	-10.5869
▁Lower	-10.5873
ick	-10.5874
▁collaborated	-10.5876
▁heritage	-10.5877
▁maintain	-10.588
▁1921	-10.5884
▁lecturer	-10.5885
▁Just	-10.5886
▁details	-10.5887
▁Economic	-10.5892
▁restoration	-10.5892
▁Kal	-10.5893
▁DJ	-10.5893
▁concrete	-10.5896
▁adapted	-10.5899
▁heat	-10.5899
12	-10.5901
▁object	-10.5902
▁Bush	-10.5908
▁returns	-10.5909
work	-10.5912
▁palace	-10.5913
▁scholar	-10.5917
▁hits	-10.5918
▁photo	-10.592
▁Sol	-10.5922
′	-10.5923
▁Ukrainian	-10.5929
▁Test	-10.593
▁businessman	-10.5935
ala	-10.5936
ova	-10.594
▁franchise	-10.5941
▁terminal	-10.5942
▁Additionally	-10.5943
▁Hungary	-10.5945
▁attracted	-10.5946
▁1992.	-10.5946
▁Chamber	-10.5952
▁1993.	-10.5952
▁Serie	-10.5954
▁steam	-10.5955
▁landing	-10.5956
▁charges	-10.5957
▁Murray	-10.5962
su	-10.5962
▁physics	-10.5963
▁surviving	-10.5968
▁Kin	-10.5969
▁somewhat	-10.5969
ō	-10.597
▁evening	-10.5972
▁drummer	-10.5973
▁1933	-10.5977
rat	-10.5978
▁Adams	-10.5979
▁Adelaide	-10.598
▁occasionally	-10.5981
▁43	-10.5986
▁resident	-10.5988
▁photography	-10.5989
▁cabinet	-10.5989
▁let	-10.599
▁Together	-10.5998
▁Organization	-10.5998
▁Nigeria	-10.6002
*	-10.6006
▁1926	-10.6006
▁retiring	-10.6008
▁Sport	-10.6009
▁elder	-10.601
▁Fa	-10.6014
▁print	-10.6015
▁influential	-10.6017
▁defensive	-10.6019
▁marketing	-10.6019
14	-10.602
nie	-10.6021
▁Urban	-10.6022
▁creative	-10.6023
▁Metro	-10.6023
▁1880	-10.6024
▁Trail	-10.6026
He	-10.6026
▁weapons	-10.6027
▁drafted	-10.6029
▁Anti	-10.6031
▁Canal	-10.6034
▁stages	-10.6034
▁Bruce	-10.6036
▁Seven	-10.6036
dal	-10.6042
rin	-10.6043
▁purposes	-10.6045
▁wild	-10.6048
▁sentenced	-10.6049
▁actors	-10.605
▁roughly	-10.6052
▁personnel	-10.6055
tha	-10.6059
-20	-10.6061
▁Brazilian	-10.6062
▁Commissioner	-10.6063
▁ceased	-10.6063
▁Indonesia	-10.6066
▁compilation	-10.6067
▁manufacturing	-10.6069
▁represents	-10.607
uri	-10.6073
▁Moon	-10.6075
▁terminus	-10.6076
season	-10.6079
▁1917	-10.6079
▁surgery	-10.6082
▁Ryan	-10.6083
▁survey	-10.6083
point	-10.6088
▁Victorian	-10.6089
iz	-10.6091
▁underground	-10.6101
▁reduce	-10.6102
▁Professional	-10.6103
▁Nazi	-10.6104
ić	-10.6105
▁1925	-10.6109
▁Ottoman	-10.611
▁Six	-10.6114
▁measures	-10.6115
▁preserved	-10.6119
▁52	-10.6121
23	-10.6122
▁Communications	-10.6123
▁Para	-10.6125
▁Champion	-10.6125
▁nothing	-10.6126
▁segment	-10.6126
79	-10.6127
▁Franklin	-10.6129
▁printed	-10.6129
ator	-10.6131
▁1912	-10.6133
▁Works	-10.6137
▁tennis	-10.6139
▁counter	-10.6142
▁1986,	-10.6144
▁Mas	-10.6145
▁cycle	-10.6146
▁Var	-10.6161
▁banks	-10.6166
▁(9	-10.6166
▁Thus	-10.6169
▁traded	-10.617
▁Sand	-10.6171
bach	-10.6177
▁bad	-10.6177
▁NHL	-10.6178
▁perhaps	-10.6178
▁YouTube	-10.6178
▁classified	-10.6183
▁plus	-10.6184
ert	-10.6186
▁1934	-10.6186
▁Defence	-10.6191
▁why	-10.6194
lia	-10.6195
▁Baker	-10.6196
▁Jimmy	-10.6198
▁Belgian	-10.6198
▁1991.	-10.62
▁Den	-10.6205
▁finals	-10.6207
ama	-10.6207
▁Champions	-10.6209
term	-10.6212
▁Kings	-10.6222
▁Victor	-10.6222
▁shares	-10.6225
11	-10.6228
▁Labor	-10.6228
▁directors	-10.6232
▁suicide	-10.6233
▁pattern	-10.6233
▁Villa	-10.6236
ris	-10.6237
▁Maine	-10.6237
east	-10.6241
▁trail	-10.6244
▁charts	-10.6246
ela	-10.6246
▁unusual	-10.6246
▁Die	-10.6247
ington	-10.6248
▁literacy	-10.625
▁ensure	-10.6251
▁Christopher	-10.6251
▁Hay	-10.6253
▁Malaysia	-10.6254
ep	-10.6256
ika	-10.6257
▁Challenge	-10.6262
▁Here	-10.6266
▁Min	-10.6268
▁naval	-10.6268
▁Charlotte	-10.6269
▁communication	-10.6272
▁Story	-10.6275
▁coastal	-10.6275
▁grandson	-10.6276
▁worth	-10.6281
▁Along	-10.6281
▁storage	-10.6283
tus	-10.6283
▁rescue	-10.6284
ries	-10.6286
▁sponsored	-10.6288
▁Girl	-10.6291
▁Commons	-10.6292
▁newspapers	-10.6292
ros	-10.6293
▁soundtrack	-10.6293
▁Bus	-10.6295
▁involving	-10.6297
▁Chart	-10.6298
▁contrast	-10.6298
▁wings	-10.6299
▁duo	-10.6304
▁outer	-10.6304
▁Studio	-10.6306
▁orders	-10.6308
99	-10.6312
▁platforms	-10.6312
▁1932	-10.6312
▁plane	-10.6317
▁experienced	-10.6323
▁chemical	-10.6327
▁rival	-10.6331
▁Jews	-10.6333
▁grows	-10.6337
ona	-10.6337
▁Having	-10.6339
▁agriculture	-10.634
▁charity	-10.6343
founded	-10.6344
▁freedom	-10.6351
▁Gor	-10.6351
▁domain	-10.6352
▁descent	-10.6359
▁mountains	-10.636
▁extremely	-10.6361
ped	-10.6363
▁Iraq	-10.6363
▁Battalion	-10.6364
oma	-10.6367
▁Sh	-10.6368
AM	-10.6368
run	-10.637
▁Stanley	-10.6371
tre	-10.6374
▁peaked	-10.6376
▁Bon	-10.6381
▁affected	-10.6381
▁Utah	-10.6386
▁occasions	-10.639
▁Cook	-10.6394
▁equivalent	-10.6394
▁Who	-10.6398
▁Euro	-10.6399
▁Ger	-10.64
▁mean	-10.6402
▁46	-10.6403
din	-10.6405
69	-10.6405
▁Part	-10.6414
yard	-10.6415
ide	-10.6419
▁1985,	-10.6427
▁Branch	-10.6432
▁Matthew	-10.6436
▁reform	-10.6438
kov	-10.6442
▁assistance	-10.6444
▁forests	-10.6446
▁filed	-10.6447
▁Movement	-10.6451
▁coverage	-10.6451
▁Jerusalem	-10.646
▁resistance	-10.6466
▁experiences	-10.6469
ene	-10.6471
▁testing	-10.6472
▁eyes	-10.6474
▁salt	-10.648
▁(10	-10.6485
▁trading	-10.6489
▁Diocese	-10.6491
▁Cu	-10.6495
▁chamber	-10.6497
▁Around	-10.6498
▁determine	-10.6499
▁Wild	-10.6499
▁SC	-10.6501
24	-10.6503
▁adding	-10.6503
▁Dor	-10.6505
▁link	-10.6511
▁Attorney	-10.6518
▁continuing	-10.6518
▁Rob	-10.6519
▁injuries	-10.6521
▁circuit	-10.6522
sta	-10.6522
▁buy	-10.6526
▁Baseball	-10.6528
▁movies	-10.653
▁equipped	-10.6533
▁demand	-10.6535
ag	-10.6545
▁Carter	-10.6546
▁Political	-10.6546
▁discovery	-10.6549
▁bit	-10.6553
burn	-10.6553
▁Tower	-10.6553
!"	-10.6557
▁contribution	-10.6559
▁walk	-10.656
▁Finnish	-10.6561
▁achieve	-10.6562
▁criticism	-10.6567
▁panel	-10.6569
lock	-10.6576
▁cited	-10.6576
▁Economics	-10.6584
▁Ri	-10.6587
isation	-10.6588
▁Rights	-10.6592
▁context	-10.6593
ban	-10.6595
▁swimming	-10.6595
▁reporter	-10.6597
▁Mer	-10.6601
š	-10.6607
▁Even	-10.6608
iv	-10.6609
▁unsuccessful	-10.661
kh	-10.6613
▁Vol	-10.662
style	-10.6621
▁Kevin	-10.6624
▁violence	-10.6624
profit	-10.6625
▁streets	-10.663
New	-10.6632
▁Senator	-10.6634
bury	-10.6637
▁manner	-10.6639
▁(7	-10.6642
▁slow	-10.6642
▁spending	-10.6644
▁Meanwhile	-10.6651
▁Yo	-10.6658
▁laws	-10.666
bel	-10.6666
▁huge	-10.6666
▁description	-10.6674
▁Tor	-10.6675
▁Wa	-10.6679
▁visible	-10.6679
▁AM	-10.6689
▁travelled	-10.6691
worth	-10.6695
▁Trophy	-10.6698
▁1984,	-10.67
▁Berkeley	-10.6702
▁inducted	-10.6705
▁videos	-10.6706
▁Currently	-10.6707
▁Leeds	-10.6709
▁corporate	-10.6712
dan	-10.6717
▁Amsterdam	-10.6724
▁brain	-10.6725
▁Within	-10.6734
▁Hy	-10.6738
room	-10.6738
$	-10.674
2,	-10.6747
▁prime	-10.6748
▁decides	-10.675
▁document	-10.6752
▁tri	-10.676
▁Cricket	-10.6763
▁amongst	-10.6763
▁expression	-10.6763
▁motor	-10.6767
▁commanded	-10.677
▁na	-10.6772
▁Fi	-10.6776
▁ethnic	-10.6777
▁Ol	-10.6779
98	-10.678
▁seed	-10.6781
▁managing	-10.6785
fe	-10.6787
▁Gi	-10.6799
▁Benjamin	-10.6799
▁subsidiary	-10.6799
▁authors	-10.68
▁cards	-10.68
▁Chair	-10.6801
▁suffering	-10.6803
▁festivals	-10.6803
▁relative	-10.6807
mont	-10.6811
▁nephew	-10.6813
▁competitive	-10.6816
▁rejected	-10.682
06	-10.6823
▁genre	-10.6825
qui	-10.6833
▁1945,	-10.6835
▁gang	-10.6837
▁Lang	-10.684
▁Broadcasting	-10.6843
Ha	-10.6844
▁crown	-10.6849
▁Trans	-10.6851
▁portrait	-10.6856
▁guard	-10.6859
▁volumes	-10.686
▁bringing	-10.6863
oli	-10.6863
▁Billy	-10.6866
▁picked	-10.6868
▁chapter	-10.687
▁Falls	-10.6873
▁Mur	-10.6874
▁BA	-10.6877
▁1989.	-10.6877
▁Rico	-10.6879
▁magazines	-10.6879
sha	-10.688
nu	-10.6881
▁academy	-10.6884
▁lasted	-10.6889
▁1889	-10.6889
▁+	-10.689
▁Work	-10.6891
▁routes	-10.6893
▁drop	-10.6897
▁solution	-10.6904
elli	-10.691
▁concluded	-10.691
▁element	-10.6911
▁fill	-10.6913
▁Racing	-10.6919
▁Dun	-10.6922
▁Orthodox	-10.6924
▁Technical	-10.6926
▁Market	-10.6927
▁Mitchell	-10.6927
St	-10.6932
▁le	-10.6934
▁executed	-10.6934
▁existed	-10.6934
▁Shin	-10.6937
▁47	-10.6938
▁row	-10.694
▁Alice	-10.6941
▁Father	-10.6948
▁funded	-10.6954
▁Cho	-10.6962
ves	-10.6963
▁transition	-10.6964
▁relief	-10.6966
▁riding	-10.6966
▁Orange	-10.6966
▁Oak	-10.6968
tt	-10.697
▁habitat	-10.6971
13	-10.6977
▁adaptation	-10.6983
▁fee	-10.6984
▁statement	-10.6986
▁Tel	-10.6987
▁cold	-10.6987
▁Mat	-10.6987
hand	-10.6989
▁Cultural	-10.699
▁fired	-10.6994
▁medals	-10.6997
ati	-10.6999
▁finding	-10.7001
▁Sen	-10.7002
lar	-10.7005
▁Basketball	-10.7009
▁Chile	-10.7009
▁extensively	-10.7013
▁phone	-10.7015
▁turning	-10.7016
eh	-10.7017
▁leaf	-10.7018
▁watch	-10.7018
▁feel	-10.7019
▁Cooper	-10.7021
▁Students	-10.7022
▁Initially	-10.7023
▁Carlos	-10.7024
▁considerable	-10.7026
▁understanding	-10.7029
▁Bernard	-10.7031
▁colonial	-10.7032
▁examples	-10.7035
▁Barbara	-10.704
▁marry	-10.7043
▁retail	-10.7043
▁capable	-10.7045
▁gallery	-10.7045
▁controversial	-10.7046
▁golf	-10.7048
▁Des	-10.705
▁devoted	-10.7051
▁Nar	-10.7052
▁Unlike	-10.7052
▁secure	-10.7053
–17	-10.7053
ors	-10.7054
oc	-10.706
bra	-10.7065
▁Warren	-10.7067
▁values	-10.7068
team	-10.7068
▁undergraduate	-10.7069
▁devices	-10.7072
▁Ash	-10.7074
▁challenge	-10.7075
▁exhibitions	-10.7077
▁Petersburg	-10.7077
▁physician	-10.7079
00	-10.708
▁Beijing	-10.7081
▁(12	-10.7087
▁thick	-10.7088
▁blocks	-10.7098
▁Kon	-10.71
▁wants	-10.7101
▁Taiwan	-10.7106
▁1913	-10.7106
▁coached	-10.7106
▁Short	-10.7107
called	-10.7108
ps	-10.7108
▁benefit	-10.7113
▁defence	-10.7113
39	-10.7114
▁rounds	-10.7114
▁intelligence	-10.7114
enberg	-10.7116
▁sisters	-10.7117
▁Manhattan	-10.7121
lam	-10.7122
lis	-10.7124
97	-10.7125
▁productions	-10.7129
▁MA	-10.713
tur	-10.7135
▁eliminated	-10.7148
▁affiliated	-10.7149
▁outstanding	-10.7151
▁Catherine	-10.7153
▁divisions	-10.7157
▁Donald	-10.7157
▁Ly	-10.7157
▁suspended	-10.7159
ä	-10.7161
▁choir	-10.7166
▁widow	-10.7166
▁Guy	-10.7167
▁ratio	-10.7168
▁reaction	-10.7168
▁Nan	-10.7169
▁capita	-10.7171
▁mode	-10.7171
▁severe	-10.7172
▁twin	-10.7174
▁Operation	-10.7174
▁Florence	-10.7175
month	-10.7177
ability	-10.7179
▁Transport	-10.718
▁boats	-10.7182
▁nearest	-10.7183
ale	-10.7187
▁illness	-10.719
▁Municipal	-10.7194
▁Helen	-10.7195
▁declined	-10.7195
ole	-10.7201
▁aspects	-10.7208
mus	-10.7211
▁Ridge	-10.7211
▁Johnny	-10.7211
▁drew	-10.7212
▁inner	-10.7214
▁1908	-10.7217
▁strike	-10.7221
90	-10.723
▁otherwise	-10.7233
15	-10.7233
▁struck	-10.7235
▁margin	-10.7236
▁Finance	-10.7236
▁tell	-10.7236
▁VI	-10.724
▁thousands	-10.724
▁Range	-10.724
▁strongly	-10.7242
▁Ice	-10.7242
▁Nicholas	-10.7242
▁honors	-10.7243
▁note	-10.7244
▁Mass	-10.7244
▁persons	-10.7248
▁Win	-10.7253
▁bird	-10.7256
▁dynasty	-10.7258
ib	-10.7258
▁speak	-10.7259
▁1000	-10.7259
▁Lin	-10.726
▁suggests	-10.7261
sur	-10.7261
tis	-10.7261
ali	-10.7263
▁hip	-10.7263
▁credits	-10.7267
▁Monte	-10.7269
died	-10.7269
▁Tur	-10.7275
▁Thailand	-10.7276
▁HMS	-10.7278
▁tied	-10.728
▁Gray	-10.7285
▁Hor	-10.7286
.5	-10.7293
▁Jon	-10.7293
des	-10.7296
ins	-10.7296
▁departure	-10.7297
▁Disney	-10.7299
32	-10.7299
▁Sur	-10.7301
bre	-10.7301
▁cattle	-10.7303
▁questions	-10.7305
▁Ru	-10.7305
▁NY	-10.7313
tar	-10.7313
▁Last	-10.7317
▁1983,	-10.7317
▁Alberta	-10.7319
▁Friday	-10.7321
▁assisted	-10.7322
▁assist	-10.7322
▁enjoyed	-10.7331
▁changing	-10.7335
▁1,000	-10.7338
▁fly	-10.734
▁Democrat	-10.7341
▁How	-10.7342
▁die	-10.7345
▁Gro	-10.7345
▁Ji	-10.7346
▁51	-10.7347
▁PC	-10.7348
▁1916	-10.735
row	-10.7352
▁Auckland	-10.7353
▁1982,	-10.7354
04	-10.7356
▁smooth	-10.7356
▁120	-10.7358
eng	-10.7361
▁Base	-10.7365
▁Gil	-10.7369
▁1987.	-10.737
▁nor	-10.7375
▁costs	-10.7378
ón	-10.7379
▁Jeff	-10.738
winning	-10.7382
57	-10.7384
▁wedding	-10.7385
▁modified	-10.7386
▁Evans	-10.7387
▁Kil	-10.7387
▁criticized	-10.739
▁task	-10.7399
▁Century	-10.7401
▁mis	-10.7402
▁Literature	-10.7404
▁Computer	-10.7408
▁instrument	-10.7409
▁sailed	-10.741
78	-10.7413
▁fitted	-10.7419
▁audio	-10.742
▁tools	-10.7421
▁Lloyd	-10.7422
med	-10.7423
No	-10.7424
▁tribe	-10.7425
▁Com	-10.7425
▁displayed	-10.7427
▁inherited	-10.7427
▁assists	-10.7431
▁venture	-10.7433
1,	-10.7437
▁behavior	-10.7437
SC	-10.7438
Man	-10.7447
02	-10.7448
▁Hope	-10.7458
▁photographs	-10.7458
▁conduct	-10.7461
▁Barcelona	-10.7464
ug	-10.7469
▁advantage	-10.7469
▁thereafter	-10.7474
ese	-10.7476
▁1990.	-10.7481
▁vision	-10.7482
▁manuscript	-10.7483
▁wealthy	-10.7484
89	-10.7484
olo	-10.7487
our	-10.7487
▁Hunter	-10.7488
▁Der	-10.7492
▁favor	-10.7493
42	-10.7494
▁option	-10.7495
▁require	-10.7497
▁1972,	-10.7506
pre	-10.7507
▁Bible	-10.751
▁Chu	-10.7513
▁Serbian	-10.7514
▁refer	-10.7514
▁produces	-10.752
▁spoke	-10.7523
▁Athens	-10.7524
▁Constitution	-10.7525
▁bio	-10.7525
▁maintenance	-10.7526
▁hometown	-10.7527
type	-10.7529
gel	-10.7529
▁Dream	-10.7533
▁farming	-10.7535
▁suburb	-10.7538
▁customers	-10.754
▁Wayne	-10.7541
ré	-10.7541
▁Charlie	-10.7542
round	-10.7543
zy	-10.7551
▁Hawaii	-10.7551
▁internationally	-10.7553
▁obtain	-10.7555
▁Socialist	-10.7555
sey	-10.7555
Mo	-10.7557
zu	-10.7557
▁CBS	-10.7562
▁frequent	-10.7562
▁Stanford	-10.7563
▁1986.	-10.7563
▁satellite	-10.7564
▁argued	-10.7566
ua	-10.7567
▁spell	-10.7568
▁mounted	-10.7569
▁1988.	-10.7572
▁Ren	-10.758
▁1870	-10.758
▁Venice	-10.7584
▁seconds	-10.7584
▁everything	-10.7585
och	-10.7585
▁Small	-10.7587
▁SS	-10.7588
▁arrest	-10.7588
▁safe	-10.7598
▁Shu	-10.7601
▁storm	-10.7606
▁factor	-10.7606
▁message	-10.7608
▁vessels	-10.7611
▁1979,	-10.7613
▁easy	-10.7613
ub	-10.7615
▁broadcasting	-10.7616
▁Dead	-10.7621
30	-10.7621
▁earn	-10.7622
place	-10.7623
mel	-10.7626
▁eggs	-10.7627
▁vocalist	-10.7634
▁bid	-10.7636
▁apartment	-10.7639
59	-10.764
▁Newcastle	-10.7642
▁requirements	-10.7644
.1	-10.7644
oo	-10.7646
but	-10.7648
▁sole	-10.7651
af	-10.7654
▁Vermont	-10.7655
▁qualify	-10.7656
ec	-10.7657
par	-10.7659
▁facing	-10.766
▁scholars	-10.766
▁difference	-10.7662
▁focuses	-10.7664
▁string	-10.7665
ei	-10.7665
▁cinema	-10.7666
▁parent	-10.7667
▁opportunities	-10.7669
▁arch	-10.7669
▁Wolf	-10.7673
▁representation	-10.7674
form	-10.7677
▁1974,	-10.768
46	-10.7681
▁gone	-10.7681
▁expert	-10.7682
▁attributed	-10.7684
▁fort	-10.7685
▁Fleet	-10.7685
ira	-10.7686
▁Ve	-10.7689
96	-10.7691
▁elementary	-10.7692
az	-10.7694
▁Blues	-10.7697
▁reaches	-10.7697
▁insurance	-10.7698
▁Ab	-10.7701
▁Arkansas	-10.7703
▁labor	-10.7706
▁output	-10.7707
▁Child	-10.7709
▁Historical	-10.7711
09	-10.7711
▁counties	-10.7715
▁describe	-10.7717
▁Wu	-10.7722
▁#1	-10.7723
▁occasion	-10.7724
ae	-10.7728
▁Collection	-10.7729
▁NBA	-10.7729
▁Model	-10.773
▁organised	-10.7734
▁1981,	-10.7736
▁concerns	-10.7739
nia	-10.7739
▁summit	-10.774
▁Virgin	-10.7747
▁Chapel	-10.775
▁participation	-10.7753
▁spirit	-10.7753
▁symbol	-10.7755
▁experimental	-10.7756
01	-10.776
▁Mun	-10.776
▁wave	-10.7762
▁significantly	-10.7764
▁processes	-10.7766
ble	-10.7768
▁controversy	-10.7776
▁Pass	-10.7779
Ma	-10.778
▁Salt	-10.7782
▁copy	-10.7784
▁qualification	-10.7785
▁Buffalo	-10.7785
▁Warner	-10.7785
▁Junction	-10.7786
▁Section	-10.7789
▁spots	-10.7796
▁mall	-10.7801
▁approval	-10.7805
▁Primary	-10.7807
▁proper	-10.7812
▁prisoners	-10.7813
▁ca	-10.7815
▁bay	-10.7817
▁decorated	-10.7818
ila	-10.7819
hour	-10.7823
▁moment	-10.7824
bank	-10.7831
▁schedule	-10.7832
60	-10.7838
▁victims	-10.7841
wick	-10.7842
▁involvement	-10.7843
vis	-10.7843
▁auto	-10.7844
bro	-10.7845
▁thin	-10.7851
▁Standard	-10.7855
▁shore	-10.7855
▁begun	-10.7856
ense	-10.7859
▁crosses	-10.7859
▁Bengal	-10.786
▁Springs	-10.7861
▁conductor	-10.7869
▁Turner	-10.787
jan	-10.787
▁consultant	-10.7871
▁writes	-10.7871
▁Arabic	-10.7872
pp	-10.7874
▁chemistry	-10.7874
dom	-10.7881
▁horses	-10.7882
▁Zone	-10.7889
-6	-10.7891
▁roster	-10.7893
-5	-10.7893
ification	-10.7898
54	-10.7903
▁topics	-10.7904
▁roots	-10.7905
▁Angel	-10.7905
▁Jam	-10.7905
▁threatened	-10.7911
▁(11	-10.7913
▁switched	-10.7915
▁ticket	-10.7915
▁Stockholm	-10.7916
▁exists	-10.7916
▁thousand	-10.7917
▁initiative	-10.7918
▁limit	-10.7919
▁Hugh	-10.7919
▁1985.	-10.7923
▁Gary	-10.7924
set	-10.7929
▁Borough	-10.7932
36	-10.7935
tion	-10.7936
▁penalty	-10.794
▁file	-10.7944
▁Horse	-10.7944
▁Baronet	-10.7944
▁rising	-10.7945
▁Guinea	-10.7946
▁tackles	-10.7949
▁1945.	-10.7953
▁meetings	-10.7953
▁apparently	-10.7954
-10	-10.7956
▁Industrial	-10.7961
▁rated	-10.7961
▁happened	-10.7963
▁photographer	-10.7963
▁Shanghai	-10.7964
▁thesis	-10.7965
▁Pin	-10.7966
▁accessible	-10.7968
▁locally	-10.7969
▁Romanian	-10.7971
▁Norfolk	-10.7972
▁earth	-10.7974
▁Parker	-10.7981
▁Ye	-10.7981
▁supports	-10.7984
27	-10.7984
▁1864	-10.7984
▁Raja	-10.7985
▁requires	-10.7985
▁secured	-10.7987
▁Windows	-10.7991
gun	-10.7991
▁Caribbean	-10.7992
▁1978,	-10.8
-8	-10.8002
gy	-10.8006
▁components	-10.8008
▁feed	-10.8008
▁Books	-10.801
▁Cap	-10.8012
cu	-10.802
▁Ring	-10.802
▁soldier	-10.8021
▁fled	-10.8022
minute	-10.8036
▁fit	-10.8036
-12	-10.8038
▁64,	-10.8039
▁portrayed	-10.8039
▁wear	-10.8042
▁behalf	-10.8043
finals	-10.8044
▁encouraged	-10.8053
▁crowd	-10.8054
▁legend	-10.8055
▁partners	-10.8056
ip	-10.8057
▁Op	-10.806
▁1905	-10.8063
▁Mediterranean	-10.8065
▁colony	-10.8067
▁recipient	-10.8083
Star	-10.8086
▁disc	-10.8088
hal	-10.8091
▁Honor	-10.8093
▁economics	-10.8105
founder	-10.8106
▁Ze	-10.8107
yama	-10.8109
▁ambassador	-10.8111
▁Carr	-10.8111
▁Nashville	-10.8113
▁decline	-10.8114
▁expand	-10.8115
▁proposal	-10.8117
▁tie	-10.8118
▁Death	-10.8122
▁Plan	-10.8123
▁54	-10.8125
▁progress	-10.8125
▁kingdom	-10.813
▁1863	-10.8132
pt	-10.8133
▁Season	-10.8133
▁Derby	-10.8134
▁appeal	-10.8135
▁Places	-10.8137
▁beating	-10.8137
▁ma	-10.8139
ible	-10.8143
05	-10.8147
▁1975,	-10.8148
▁250	-10.8149
▁Rad	-10.8152
▁Cincinnati	-10.8156
▁NBC	-10.8157
▁Wellington	-10.8158
Con	-10.816
▁1882	-10.8167
▁Bull	-10.8167
▁eighth	-10.8168
▁44,	-10.817
▁clerk	-10.8173
sel	-10.818
▁ward	-10.8181
▁1984.	-10.8184
,500	-10.8185
▁illegal	-10.8186
▁commenced	-10.8192
▁seek	-10.8192
▁powered	-10.8192
▁Andy	-10.8196
▁Parish	-10.8197
▁Cole	-10.8197
▁reportedly	-10.8199
▁ministry	-10.8199
▁Kenya	-10.8199
▁Rangers	-10.8201
▁powers	-10.8202
▁settlers	-10.821
▁56	-10.8212
▁Pur	-10.8213
▁recommended	-10.8214
▁Systems	-10.8217
▁missed	-10.822
▁convention	-10.8224
▁Ste	-10.8226
▁Dick	-10.8238
▁sessions	-10.8239
▁outbreak	-10.8245
▁und	-10.8247
▁1976,	-10.8249
▁institute	-10.8254
▁inspiration	-10.8257
▁Rod	-10.8257
▁Hunt	-10.8257
cus	-10.8258
▁none	-10.8259
▁spin	-10.8261
▁conservation	-10.8263
▁activist	-10.8264
▁Holland	-10.8265
▁accept	-10.8266
▁pianist	-10.8267
▁ranks	-10.827
▁Video	-10.8275
▁tier	-10.8276
▁editorial	-10.8281
▁loaned	-10.8287
▁soft	-10.829
▁gradually	-10.8291
▁Craig	-10.8291
non	-10.8291
▁crisis	-10.8296
▁strip	-10.8297
▁tunnel	-10.8298
▁Exchange	-10.83
▁legislation	-10.8303
▁bound	-10.8304
▁Much	-10.8304
▁Mil	-10.8305
og	-10.8306
▁Every	-10.8308
▁Gun	-10.8308
▁Stan	-10.8308
▁Dark	-10.8316
▁dream	-10.8317
zer	-10.8318
▁Food	-10.8324
▁Hebrew	-10.8325
▁1968,	-10.8326
▁Drive	-10.8329
▁Egyptian	-10.8329
▁charter	-10.833
▁Persian	-10.833
ava	-10.8331
▁Marc	-10.8333
▁1904	-10.8333
▁classification	-10.8334
▁Ur	-10.8335
▁longest	-10.8336
▁Commerce	-10.8337
▁1971,	-10.834
▁(14	-10.8345
▁operational	-10.8347
▁Sp	-10.8349
▁incumbent	-10.8352
▁birthday	-10.8352
mat	-10.8353
▁instance	-10.8354
▁1944,	-10.8361
▁Pradesh	-10.8362
▁disbanded	-10.8364
▁Common	-10.8365
▁par	-10.8377
▁1980,	-10.8378
▁Hamburg	-10.8378
▁Herbert	-10.838
MA	-10.838
▁Copenhagen	-10.8383
view	-10.8384
▁Lan	-10.8384
▁Penn	-10.8386
▁66	-10.8387
ret	-10.8388
▁massive	-10.8391
▁Vincent	-10.8394
▁Muhammad	-10.8397
▁resignation	-10.8401
▁manage	-10.8401
▁constant	-10.8401
▁Mall	-10.8404
▁mix	-10.8405
▁integrated	-10.8406
▁producers	-10.8406
▁teach	-10.8407
gal	-10.8408
▁courts	-10.841
▁mental	-10.8411
▁markets	-10.8412
▁Digital	-10.8413
▁Bro	-10.8414
▁1969,	-10.8418
▁Romania	-10.8422
▁doesn	-10.8423
▁jobs	-10.8428
▁Ian	-10.8432
▁DNA	-10.8434
▁hearing	-10.8436
▁serial	-10.8436
final	-10.8439
▁Arena	-10.8442
▁fifteen	-10.8445
▁latest	-10.8447
mal	-10.8457
ori	-10.8459
▁Mother	-10.8462
▁1.5	-10.8463
▁drums	-10.8466
▁characterized	-10.8467
▁Dakota	-10.8471
▁1860	-10.8473
▁Costa	-10.8475
▁stable	-10.8477
such	-10.8481
▁(13	-10.8482
▁Brisbane	-10.8482
▁alleged	-10.8483
ux	-10.8484
▁Eventually	-10.8487
▁tank	-10.8492
tti	-10.8493
▁Race	-10.8496
▁trust	-10.8502
are	-10.8503
▁paint	-10.8506
SP	-10.8509
De	-10.851
▁1983.	-10.851
▁advisor	-10.8511
▁locomotives	-10.8512
▁Stock	-10.8514
▁Survey	-10.8517
▁legs	-10.8519
ora	-10.8523
▁Grove	-10.8524
▁Harrison	-10.8525
▁1903	-10.8529
▁Lions	-10.853
eau	-10.8531
▁Schools	-10.8531
nis	-10.8532
и	-10.8533
▁Masters	-10.8533
▁Em	-10.8534
ming	-10.8534
▁infrastructure	-10.8535
▁Bre	-10.8535
▁Cuba	-10.8538
▁Sho	-10.8539
▁1977,	-10.854
▁differences	-10.854
dia	-10.854
mark	-10.8544
▁anything	-10.8544
▁Jose	-10.8546
▁Char	-10.8547
ob	-10.8549
▁Armenian	-10.855
▁faith	-10.855
▁suit	-10.8552
▁Methodist	-10.8553
▁send	-10.8554
▁employment	-10.8554
▁Late	-10.8558
▁Os	-10.8559
▁minimum	-10.8559
▁Gabriel	-10.856
▁agencies	-10.856
Co	-10.8563
▁Oliver	-10.8564
▁emergency	-10.8565
▁Morning	-10.8565
▁Territory	-10.8566
▁protest	-10.8567
▁offensive	-10.857
▁dual	-10.8572
▁hundreds	-10.8577
▁sp	-10.8577
84	-10.8579
▁1979.	-10.8579
▁Prague	-10.8581
▁mini	-10.8581
▁Minor	-10.8581
▁Pal	-10.8582
▁1982.	-10.8583
76	-10.8583
▁themes	-10.8585
mb	-10.8586
▁Fall	-10.8593
▁Nord	-10.8597
▁Th	-10.86
▁rivers	-10.8602
▁Johann	-10.8604
▁editions	-10.8608
▁Secondary	-10.8611
▁funeral	-10.8612
cur	-10.8613
▁Industry	-10.8616
▁advice	-10.8619
▁Guide	-10.8622
▁acquisition	-10.8623
71	-10.8624
▁2.5	-10.8625
▁walking	-10.8625
yu	-10.8631
▁establishing	-10.8633
37	-10.8635
▁Wang	-10.8638
▁Bath	-10.8643
ا	-10.8646
▁Barry	-10.8646
▁sun	-10.8647
▁Instead	-10.8647
▁grey	-10.8647
▁Leo	-10.8648
▁Lanka	-10.8651
▁opinion	-10.8653
rum	-10.8654
▁RAF	-10.8655
▁Ottawa	-10.866
▁Luis	-10.8661
▁Bas	-10.8663
▁1902	-10.8665
tter	-10.8666
ical	-10.8667
▁spiritual	-10.8667
▁Bulgarian	-10.8667
▁aim	-10.867
▁Peninsula	-10.8674
▁Luke	-10.8674
▁Peru	-10.8674
▁assets	-10.8676
▁53	-10.8677
▁manufacturer	-10.8685
▁85	-10.8685
▁Gal	-10.8689
▁Kor	-10.8691
08	-10.8692
▁prestigious	-10.8692
eri	-10.8696
▁600	-10.8697
▁survive	-10.8697
▁1973,	-10.8698
▁Cro	-10.8699
85	-10.8699
▁Ce	-10.8701
▁72	-10.8701
▁transportation	-10.8702
▁absence	-10.8703
▁electrical	-10.8704
▁waters	-10.8704
▁Hudson	-10.8707
▁ranking	-10.871
shan	-10.8711
▁cable	-10.8712
▁poly	-10.8715
▁Woman	-10.8718
sley	-10.8719
▁Jason	-10.8721
ue	-10.8722
▁Serbia	-10.8724
mes	-10.8724
ets	-10.8727
▁columns	-10.8728
▁knee	-10.873
▁guide	-10.8732
acre	-10.8735
▁coat	-10.874
▁planet	-10.874
▁flower	-10.8742
sburg	-10.8749
▁initiated	-10.8749
▁Rick	-10.875
▁diocese	-10.8752
rich	-10.8755
▁Collins	-10.8755
▁Tai	-10.8757
Be	-10.8758
cal	-10.8763
▁Ana	-10.8764
▁aimed	-10.8765
▁originated	-10.8772
25	-10.8773
▁add	-10.8776
▁Ivan	-10.8778
▁specialized	-10.8779
▁fresh	-10.8779
then	-10.878
▁participants	-10.878
64	-10.8781
▁mention	-10.8782
▁connecting	-10.8783
▁Ambassador	-10.8784
osa	-10.8787
▁bell	-10.8788
à	-10.8788
▁finance	-10.8789
▁Throughout	-10.879
▁partly	-10.8791
▁pioneer	-10.8798
tte	-10.8799
▁Mag	-10.88
▁ride	-10.8807
▁Brook	-10.8807
28	-10.8807
die	-10.8807
▁Guardian	-10.8809
▁regime	-10.8813
▁deck	-10.8815
iti	-10.8816
ž	-10.8818
ima	-10.8821
▁São	-10.8821
▁1830	-10.8822
▁manor	-10.8823
band	-10.8824
▁Bern	-10.8824
▁pale	-10.8827
inch	-10.8829
5,000	-10.8831
▁grave	-10.8832
▁Sim	-10.8833
?"	-10.8833
▁elevated	-10.8835
▁Wil	-10.8841
Ba	-10.8842
▁Action	-10.8843
▁spoken	-10.8847
▁Yan	-10.8847
▁participating	-10.8847
68	-10.8848
wer	-10.885
▁promoting	-10.8851
▁recovered	-10.8854
py	-10.8856
▁Saints	-10.886
▁Raj	-10.886
▁tribute	-10.8861
▁Dis	-10.8863
put	-10.8866
av	-10.8874
▁Mumbai	-10.8874
▁depending	-10.8874
▁count	-10.8874
▁Jonathan	-10.8876
▁Ny	-10.8877
ef	-10.8878
▁Fo	-10.888
▁beauty	-10.8882
74	-10.8888
-16	-10.8891
▁assault	-10.8893
▁Phoenix	-10.8894
▁resumed	-10.8895
▁choose	-10.8896
▁Stars	-10.8896
▁Control	-10.8898
▁apart	-10.8898
▁Apple	-10.8899
▁Hol	-10.8901
▁pen	-10.8906
▁tea	-10.8911
▁Mir	-10.8913
▁rapidly	-10.8913
▁accounts	-10.8914
▁Cam	-10.8916
ew	-10.8918
▁struggle	-10.892
▁favorite	-10.892
▁renowned	-10.8921
key	-10.8923
▁shops	-10.8924
▁debate	-10.8924
▁shopping	-10.8925
_	-10.8926
▁Susan	-10.8929
▁thing	-10.893
▁Warsaw	-10.8931
ü	-10.8931
length	-10.8931
▁orange	-10.8932
To	-10.8934
▁exclusively	-10.8934
▁Tech	-10.8936
od	-10.8936
▁submarine	-10.8938
▁57	-10.8939
▁possession	-10.8944
▁divorced	-10.8944
▁missions	-10.8947
▁resolution	-10.8947
member	-10.8951
▁tropical	-10.8952
▁adults	-10.8958
CO	-10.8958
▁sum	-10.8958
▁sentence	-10.8959
▁Classic	-10.896
▁closure	-10.8963
sville	-10.8966
▁treated	-10.8966
▁partially	-10.8968
gon	-10.8969
▁cash	-10.897
▁76	-10.8972
▁sitting	-10.8972
▁800	-10.8973
53	-10.8974
IC	-10.8975
07	-10.8978
▁Shaw	-10.898
Me	-10.8982
wo	-10.8989
03	-10.8993
mu	-10.8994
▁jurisdiction	-10.8995
▁Policy	-10.8996
49	-10.8997
▁1967,	-10.8999
▁baby	-10.9
▁1878	-10.9
▁policies	-10.9001
▁Ros	-10.9004
▁1901	-10.9004
▁Gregory	-10.9004
bridge	-10.9005
▁sees	-10.9007
▁Mont	-10.9008
▁understand	-10.9012
▁crash	-10.9013
▁$	-10.9014
far	-10.9014
▁1972.	-10.9024
▁Hon	-10.9026
▁Robin	-10.9028
▁Hindu	-10.9028
▁Sultan	-10.9031
▁Wy	-10.9039
pan	-10.9043
▁Language	-10.9043
ö	-10.9043
▁normally	-10.9044
ions	-10.9047
▁Wing	-10.9049
▁Next	-10.905
▁perfect	-10.905
▁restaurants	-10.9053
lie	-10.9054
▁sculptor	-10.9059
▁Manager	-10.9059
cent	-10.9062
▁doors	-10.9063
▁Competition	-10.9064
88	-10.9068
▁Provincial	-10.9069
▁clinical	-10.9069
▁weekend	-10.907
▁Advisory	-10.907
▁speaking	-10.9075
▁everyone	-10.9078
▁Agriculture	-10.9082
▁closing	-10.9082
▁Jerry	-10.9087
▁emperor	-10.9088
▁pitch	-10.9089
▁Wal	-10.9093
▁Bru	-10.9093
▁farmers	-10.9096
▁belongs	-10.9097
▁frequency	-10.91
▁spend	-10.91
▁Tre	-10.91
▁Ground	-10.9101
▁desire	-10.9101
▁strategy	-10.9103
▁Alaska	-10.9103
▁Associate	-10.9104
▁1978.	-10.9107
▁enlisted	-10.9109
▁categories	-10.9109
▁detailed	-10.911
▁Sr	-10.911
▁62	-10.9111
▁Afghanistan	-10.9112
▁tool	-10.9114
▁exposed	-10.912
▁links	-10.912
▁Coach	-10.912
▁useful	-10.9121
▁canal	-10.9123
▁abolished	-10.9123
▁Sta	-10.9123
▁58	-10.9124
▁speaker	-10.9125
cia	-10.9126
▁processing	-10.9127
▁denied	-10.9127
▁Fellowship	-10.913
ph	-10.9131
Ra	-10.9131
▁1981.	-10.9132
▁enters	-10.9136
▁Vegas	-10.9138
book	-10.9139
heim	-10.9139
▁farmer	-10.914
▁Universal	-10.9141
fish	-10.9141
ill	-10.9142
▁Nation	-10.9146
▁bed	-10.9149
▁Years	-10.9149
▁Sheffield	-10.915
▁Songs	-10.915
▁lb	-10.9151
▁Drama	-10.9153
▁1974.	-10.9156
▁rocks	-10.9159
▁congregation	-10.9163
hall	-10.9165
▁centers	-10.9166
bat	-10.9174
▁Wind	-10.9177
▁Mason	-10.9177
▁Oslo	-10.9178
▁10,000	-10.918
▁Contemporary	-10.9183
▁Islam	-10.9184
aga	-10.9188
▁para	-10.9188
▁connects	-10.9188
▁UN	-10.9193
▁conclusion	-10.9195
▁designation	-10.9196
▁founders	-10.9196
▁remove	-10.9199
eo	-10.9203
▁carbon	-10.9203
▁timber	-10.9204
▁Side	-10.921
▁knew	-10.9217
▁warm	-10.9218
▁Grey	-10.922
▁1977.	-10.9226
▁legislature	-10.9228
▁Freedom	-10.9232
▁ruling	-10.9233
▁representatives	-10.9236
▁borough	-10.9237
▁diverse	-10.9237
life	-10.9237
▁59	-10.9238
▁Off	-10.924
elle	-10.924
▁PA	-10.9242
▁innings	-10.9245
▁gay	-10.9249
▁rapid	-10.925
94	-10.9256
▁1976.	-10.9259
▁spaces	-10.9261
▁Motor	-10.9265
▁hectares	-10.9267
▁Electric	-10.9267
▁Abu	-10.9268
els	-10.9268
▁external	-10.927
▁favour	-10.9271
▁suitable	-10.9271
▁Grace	-10.9272
▁cargo	-10.9279
kha	-10.9281
▁exhibit	-10.9284
▁Harbor	-10.9286
▁Ty	-10.9289
▁Code	-10.929
▁conservative	-10.9292
awa	-10.9292
▁Butler	-10.9296
win	-10.9298
▁Campaign	-10.93
▁keeping	-10.9303
▁Railways	-10.9305
▁Financial	-10.9306
▁wheel	-10.9306
▁Mills	-10.9307
fo	-10.9309
▁Gilbert	-10.9313
▁bench	-10.9315
▁Nevada	-10.9316
master	-10.9319
67	-10.932
▁Ak	-10.9322
▁dissolved	-10.9324
cut	-10.9325
▁Vo	-10.9328
▁Leon	-10.9329
▁Neu	-10.933
▁clan	-10.933
▁internet	-10.9334
▁interviews	-10.9335
▁patient	-10.934
hara	-10.9344
▁concerned	-10.9345
▁seeking	-10.9345
▁mechanical	-10.9345
rus	-10.9345
▁Kai	-10.9348
▁Nature	-10.9349
▁excellent	-10.9351
nell	-10.9353
aria	-10.9359
▁increasingly	-10.936
▁Dal	-10.9363
▁1973.	-10.9364
▁explained	-10.9365
▁1975.	-10.9372
▁matters	-10.9375
▁commune	-10.9376
▁affiliate	-10.9379
44	-10.9388
▁Seminary	-10.9389
▁reviewed	-10.939
▁circle	-10.939
▁Perry	-10.9393
▁Anglo	-10.9393
state	-10.9395
▁belonging	-10.9396
▁tours	-10.9397
▁greatly	-10.94
▁concentration	-10.94
▁viewers	-10.94
eg	-10.9401
▁ranging	-10.9401
she	-10.9404
▁exception	-10.9405
▁Elementary	-10.9405
а	-10.9406
▁journalism	-10.9406
▁permission	-10.941
▁execution	-10.9417
▁manufactured	-10.9421
▁Gas	-10.9426
▁profession	-10.9432
▁1867	-10.9435
▁emigrated	-10.9437
▁Type	-10.9437
▁Rich	-10.9437
▁immigrants	-10.9438
▁component	-10.9439
▁ocean	-10.9439
▁communications	-10.944
▁1971.	-10.944
▁practices	-10.9442
▁indigenous	-10.9444
hn	-10.9446
▁sugar	-10.9456
▁humans	-10.9457
▁Giovanni	-10.9459
▁jump	-10.9461
▁throne	-10.9461
▁clothing	-10.9461
▁Ter	-10.9463
▁arrangement	-10.9465
▁immediate	-10.9467
ute	-10.9467
>	-10.9471
▁Princeton	-10.9473
▁tourist	-10.9475
▁knots	-10.9476
▁snow	-10.9479
adi	-10.9484
▁ski	-10.9486
ore	-10.9488
▁monthly	-10.9498
▁falling	-10.9501
▁Joan	-10.9502
▁Sara	-10.9503
▁colors	-10.9504
▁earthquake	-10.9506
▁Tigers	-10.9509
▁Higher	-10.9513
▁net	-10.9513
▁landed	-10.9514
hy	-10.9515
two	-10.9516
▁submitted	-10.952
▁guilty	-10.9525
▁verse	-10.9526
▁Otto	-10.9526
▁transmission	-10.9527
ado	-10.9527
▁rain	-10.9529
yne	-10.953
▁Non	-10.9532
▁gardens	-10.9532
esh	-10.9535
22	-10.9536
▁abuse	-10.9537
▁CE	-10.9538
▁travels	-10.9538
▁burned	-10.9539
▁extends	-10.954
▁cave	-10.954
Pa	-10.9541
▁Finally	-10.9541
▁unincorporated	-10.9545
ović	-10.9546
▁Key	-10.9547
▁pictures	-10.9548
▁63	-10.9549
ade	-10.9555
▁scientists	-10.9555
▁Lou	-10.9555
▁Golf	-10.9556
▁Berg	-10.9556
You	-10.9558
▁relation	-10.9559
66	-10.956
▁coalition	-10.9562
▁operator	-10.9563
▁Athletics	-10.9563
▁Tra	-10.9564
▁scientist	-10.9565
α	-10.9572
▁1965,	-10.9573
▁ready	-10.9573
ved	-10.9575
Ro	-10.9575
▁ban	-10.9576
▁settlements	-10.9578
31	-10.9578
▁remote	-10.9578
▁99	-10.9579
▁Distinguished	-10.9581
▁hp	-10.9581
38	-10.9585
▁61	-10.9588
▁predecessor	-10.959
▁alliance	-10.9591
▁pages	-10.9592
▁Protestant	-10.9596
▁Ker	-10.9599
▁Perth	-10.96
▁1866	-10.96
▁inscription	-10.9603
ă	-10.9606
▁runners	-10.9606
▁Pedro	-10.9606
▁conversion	-10.9607
▁Denver	-10.9608
▁revenue	-10.9609
▁repair	-10.961
▁sing	-10.9611
vel	-10.9613
▁Scotia	-10.9614
▁Manuel	-10.9619
▁clean	-10.962
▁solar	-10.9621
thi	-10.9622
aw	-10.9622
▁cancelled	-10.9623
▁Roberts	-10.9623
▁borders	-10.9631
▁claiming	-10.9631
uch	-10.9632
ben	-10.9636
▁Clinton	-10.9637
owned	-10.9639
▁whereas	-10.964
▁preparation	-10.9641
▁anchor	-10.9645
rock	-10.9651
game	-10.9651
▁Admiral	-10.9656
▁Cardinal	-10.9657
70	-10.9658
▁Philosophy	-10.966
tier	-10.966
▁lists	-10.9665
[	-10.9667
▁breaking	-10.9669
▁AC	-10.967
▁hunting	-10.9674
▁96	-10.9675
mile	-10.9675
▁crossed	-10.9676
▁pastor	-10.968
▁Americans	-10.9681
nic	-10.9684
87	-10.9684
bed	-10.9686
xi	-10.9688
▁Rogers	-10.9692
▁fame	-10.9692
▁Ag	-10.9692
▁Treaty	-10.9692
▁placing	-10.9694
82	-10.9694
▁sung	-10.9695
▁tournaments	-10.9696
▁Pine	-10.971
▁voting	-10.972
▁driven	-10.9721
▁facade	-10.9721
▁supplies	-10.9723
▁Hard	-10.9724
scale	-10.9727
▁passage	-10.973
▁bomb	-10.973
▁threat	-10.9733
▁substantial	-10.9735
▁Sin	-10.9738
vers	-10.9742
▁1877	-10.9742
▁extreme	-10.9745
▁strategic	-10.9749
▁Chester	-10.9749
▁tests	-10.975
▁recognised	-10.975
ological	-10.9751
▁intention	-10.9755
▁tip	-10.9756
▁Confederate	-10.9756
▁1970,	-10.9756
▁publicly	-10.9757
uli	-10.9759
▁dominated	-10.9761
▁altitude	-10.9762
▁worship	-10.9765
▁boundaries	-10.9765
▁jury	-10.9766
Chinese	-10.9766
▁belt	-10.9767
free	-10.9768
▁indicated	-10.977
80	-10.9772
▁athletes	-10.9776
▁Keith	-10.9776
▁pairs	-10.9776
▁Conservation	-10.9779
▁Mai	-10.9781
▁67	-10.9781
ele	-10.9782
▁opponent	-10.9782
▁Kara	-10.9784
ato	-10.9785
▁Indians	-10.9786
top	-10.9787
▁Leonard	-10.979
▁Buck	-10.9794
▁Bach	-10.9794
▁Milwaukee	-10.9795
▁implementation	-10.9798
▁fighter	-10.9798
▁dispute	-10.9799
▁parking	-10.9801
”.	-10.9802
▁(20	-10.9803
▁releases	-10.9804
▁Rai	-10.9809
ple	-10.9809
Bo	-10.9809
▁romantic	-10.9811
▁|	-10.9812
TC	-10.9813
▁maps	-10.9813
▁Fer	-10.9814
▁logo	-10.9814
ose	-10.9814
▁Chan	-10.9815
▁98	-10.9815
▁clock	-10.9815
▁Further	-10.9819
▁Kumar	-10.982
▁playoffs	-10.9821
nal	-10.9822
▁Microsoft	-10.9823
▁Westminster	-10.9827
▁resort	-10.9829
▁vertical	-10.9831
uf	-10.9831
47	-10.9835
▁licensed	-10.9836
▁1964,	-10.9838
▁1963,	-10.9838
73	-10.984
qua	-10.9842
▁Operations	-10.9842
▁Murphy	-10.9845
▁Essex	-10.9847
▁outdoor	-10.9848
▁1840	-10.985
▁custom	-10.985
▁Terry	-10.9851
▁Aviation	-10.9853
gg	-10.9854
▁Sel	-10.9859
–16	-10.986
▁legislative	-10.986
▁Rat	-10.9861
▁moves	-10.9865
▁conventional	-10.9866
▁select	-10.9868
Mar	-10.9868
▁Fisher	-10.9869
▁Wilhelm	-10.987
▁liberal	-10.9873
▁losses	-10.9873
▁Ralph	-10.9875
▁commented	-10.9876
las	-10.9876
ons	-10.988
ş	-10.9881
zen	-10.9884
▁neck	-10.9885
▁guests	-10.9885
▁asks	-10.9886
▁77	-10.9889
▁1968.	-10.989
▁1942,	-10.9891
▁Cruz	-10.9894
▁Magic	-10.9894
▁Nebraska	-10.9895
▁overseas	-10.9895
SA	-10.9895
▁origins	-10.9899
▁Greater	-10.99
▁flew	-10.9901
bus	-10.9904
▁networks	-10.9904
▁aviation	-10.9909
▁caps	-10.9911
▁murdered	-10.9913
▁Fri	-10.9913
▁printing	-10.9914
under	-10.9916
▁bear	-10.9916
lay	-10.9916
▁mansion	-10.9921
SL	-10.9923
▁1980.	-10.9925
▁Cork	-10.9928
box	-10.9928
:00	-10.993
▁correct	-10.993
▁truth	-10.9936
▁recruited	-10.994
▁indicate	-10.9941
▁stem	-10.9944
▁milk	-10.9945
▁observation	-10.9947
right	-10.9948
▁Singles	-10.995
▁hat	-10.9954
▁Lancashire	-10.9954
▁narrative	-10.9954
▁Friedrich	-10.9954
▁researchers	-10.9957
▁1966,	-10.9957
▁Bird	-10.9958
▁linear	-10.9958
matic	-10.9962
▁carries	-10.9962
▁pupils	-10.9963
▁Mari	-10.9964
▁seeds	-10.9965
▁effectively	-10.9965
▁Madison	-10.9966
▁Hell	-10.9966
▁•	-10.9967
▁distinctive	-10.9967
▁Editor	-10.9967
ili	-10.9969
▁1969.	-10.9969
è	-10.9971
▁trials	-10.9974
▁USS	-10.9975
ash	-10.9976
▁Canterbury	-10.9976
▁violin	-10.9976
▁plain	-10.9976
▁seeing	-10.9978
▁Je	-10.9978
▁Aires	-10.998
=	-10.9982
▁Are	-10.9984
▁perspective	-10.9986
▁journals	-10.9987
▁consider	-10.9988
▁emerged	-10.9989
sar	-10.9989
▁Forum	-10.9995
▁mono	-10.9995
▁Was	-10.9997
č	-10.9998
▁Byzantine	-10.9998
▁arriving	-11.0003
▁withdrew	-11.0009
о	-11.001
▁Gre	-11.001
▁LP	-11.0012
▁colonel	-11.0013
▁decide	-11.0017
95	-11.0017
▁distinction	-11.002
▁1899	-11.0021
▁Weekly	-11.0022
nar	-11.0025
▁trans	-11.0026
MC	-11.0026
▁Stuart	-11.0027
ensis	-11.0028
bin	-11.003
▁Peak	-11.0034
▁Eu	-11.0034
▁ninth	-11.0036
▁convicted	-11.0037
ema	-11.0038
▁discontinued	-11.0038
▁1941,	-11.0039
▁Price	-11.004
▁wearing	-11.0041
▁dancing	-11.0042
▁cooperation	-11.0044
▁relegation	-11.0045
▁wrestling	-11.0045
▁forty	-11.0046
▁municipalities	-11.0048
▁Wo	-11.0048
▁accommodate	-11.0048
▁88	-11.0049
▁giant	-11.0049
▁siblings	-11.0052
AP	-11.0053
This	-11.0054
▁channels	-11.0055
▁practiced	-11.0055
▁Monday	-11.0055
▁Independence	-11.0065
▁1885	-11.0066
▁sort	-11.0066
▁Mars	-11.0067
his	-11.0068
▁Auto	-11.0068
▁nickname	-11.0073
und	-11.0073
una	-11.0074
▁Room	-11.0074
▁Bass	-11.0076
gue	-11.0076
vy	-11.0078
▁factors	-11.0079
▁shoot	-11.0086
▁Edwards	-11.0087
▁Wells	-11.0088
rah	-11.0089
▁Circuit	-11.0095
▁banned	-11.0095
▁judges	-11.0097
▁patron	-11.0099
▁gift	-11.0101
▁1857	-11.0101
ín	-11.0102
lands	-11.0107
LA	-11.0108
▁1967.	-11.0109
▁styles	-11.0109
▁1946,	-11.011
▁1898	-11.011
▁68	-11.0111
aire	-11.0112
▁hills	-11.0114
▁instructor	-11.0115
ians	-11.0119
▁dismissed	-11.0122
▁MTV	-11.0134
ire	-11.0134
meter	-11.0135
PS	-11.0136
▁Bla	-11.0138
uff	-11.014
▁layer	-11.0141
▁Production	-11.0141
▁Laboratory	-11.0142
▁Bat	-11.0152
▁Jin	-11.0152
▁plate	-11.0152
▁Physics	-11.0153
lla	-11.0154
▁extend	-11.0157
▁Support	-11.0158
▁Dennis	-11.0163
▁imprisoned	-11.0163
mor	-11.0164
▁specimens	-11.0165
▁veteran	-11.0166
▁jail	-11.0167
▁Friends	-11.0168
high	-11.017
▁relay	-11.017
▁Buenos	-11.0175
▁Larry	-11.0177
▁Durham	-11.0178
▁Chen	-11.018
▁machines	-11.0181
German	-11.0185
▁electricity	-11.0186
▁Productions	-11.0187
▁Cher	-11.0188
▁Gra	-11.0193
▁Arnold	-11.0199
▁78	-11.02
▁1894	-11.0205
▁describing	-11.0205
▁Mind	-11.0205
▁Had	-11.0206
▁Abraham	-11.0206
▁1897	-11.021
▁Ghana	-11.0211
▁Bol	-11.0212
▁reporting	-11.0214
▁widespread	-11.0217
▁Cinema	-11.0221
▁Say	-11.0222
▁drugs	-11.0222
▁Sabha	-11.0224
26	-11.0226
55	-11.0226
▁supporters	-11.0227
bor	-11.0228
▁deployed	-11.023
▁Hughes	-11.023
nam	-11.0232
▁gate	-11.0235
▁Artist	-11.0235
ory	-11.0238
▁eighteen	-11.0238
▁Watson	-11.0239
▁División	-11.024
▁raising	-11.024
nica	-11.0241
▁steps	-11.0243
ware	-11.0248
▁liquid	-11.0249
▁1869	-11.0251
93	-11.0252
▁Future	-11.0252
▁destruction	-11.0252
▁Palm	-11.0252
▁Harold	-11.0253
▁1947,	-11.0253
Do	-11.0254
▁Care	-11.0254
stad	-11.0254
▁Philippine	-11.0256
▁generated	-11.0257
▁nations	-11.0259
▁citizen	-11.0261
uck	-11.0262
▁implemented	-11.0263
ridge	-11.0265
▁Nor	-11.0265
▁compositions	-11.0267
anda	-11.0272
▁buses	-11.0275
tain	-11.0275
▁Anglican	-11.0277
Best	-11.0278
▁hope	-11.0278
▁installation	-11.0279
▁Lebanon	-11.0282
▁clients	-11.0282
▁truck	-11.0282
▁Tin	-11.0287
▁Joint	-11.0289
▁underwent	-11.0292
▁laboratory	-11.0294
▁Colombia	-11.0295
IP	-11.0296
▁concern	-11.03
▁rebounds	-11.03
gh	-11.0301
▁identical	-11.0305
▁meat	-11.0306
▁MD	-11.0309
ras	-11.031
chy	-11.031
▁Brunswick	-11.0311
▁locomotive	-11.0313
▁emphasis	-11.0313
▁industries	-11.0315
▁basin	-11.0316
▁ongoing	-11.0316
▁Based	-11.0321
▁desert	-11.0323
▁Ruth	-11.0327
▁certified	-11.0327
▁1943,	-11.0328
stra	-11.0329
▁marks	-11.033
▁fun	-11.0333
▁Punjab	-11.0335
related	-11.0335
▁Iranian	-11.0336
-7	-11.0336
idae	-11.0337
▁Players	-11.0338
▁cathedral	-11.0338
▁Uganda	-11.0339
▁Oscar	-11.0345
▁Georgian	-11.0346
▁95	-11.0347
▁Has	-11.0349
ser	-11.0349
arch	-11.035
some	-11.0351
ito	-11.0352
▁Phillips	-11.0352
▁campaigns	-11.0354
making	-11.0354
lic	-11.0354
▁lose	-11.0355
▁artwork	-11.0357
▁pain	-11.0358
▁Brussels	-11.0363
▁gear	-11.0368
aki	-11.0368
▁supposed	-11.0369
where	-11.0369
zh	-11.037
▁1800	-11.0371
▁pin	-11.0373
▁anyone	-11.0379
aba	-11.0381
▁Rail	-11.0383
ami	-11.0384
▁1893	-11.0386
▁doubles	-11.0386
▁preserve	-11.0386
rick	-11.0386
▁Dame	-11.0387
▁mines	-11.0388
▁Municipality	-11.0393
▁CF	-11.0396
▁rarely	-11.0396
▁Pictures	-11.0398
▁Tro	-11.0402
▁involves	-11.0402
anga	-11.0404
▁wider	-11.0404
▁1966.	-11.0405
▁tube	-11.0408
▁1895	-11.0409
41	-11.0411
▁interchange	-11.0411
▁Pet	-11.0412
▁neighboring	-11.0412
▁copper	-11.0413
▁Prefecture	-11.0421
▁honored	-11.0422
▁renovated	-11.0424
▁1962,	-11.0426
▁escaped	-11.0429
▁orbit	-11.0432
▁Jefferson	-11.0436
ture	-11.044
▁ideal	-11.0442
▁Such	-11.0442
▁Beck	-11.0446
▁Call	-11.0446
▁82	-11.0447
aj	-11.0448
3,	-11.0449
▁Kerala	-11.0449
▁1948,	-11.0451
▁Fr	-11.0451
▁Advanced	-11.0453
▁portraits	-11.0453
▁1961,	-11.0454
An	-11.0454
▁delivery	-11.0461
▁tributary	-11.0463
sis	-11.0464
▁Shakespeare	-11.0464
▁Snow	-11.0468
▁compiled	-11.0469
▁breeding	-11.0474
-21	-11.0474
▁Wei	-11.0476
▁74	-11.0477
▁1940,	-11.0478
▁Representative	-11.0479
▁departed	-11.0479
Na	-11.048
sia	-11.0484
▁1939,	-11.0485
rt	-11.0488
ites	-11.0489
▁connect	-11.0489
▁animated	-11.0489
▁eligible	-11.0496
▁else	-11.0496
▁filming	-11.0496
▁thirteen	-11.05
▁vi	-11.0501
▁connections	-11.0503
My	-11.0504
▁Yugoslavia	-11.0506
▁Wi	-11.0509
▁identify	-11.051
▁Private	-11.0512
▁lessons	-11.0513
▁1965.	-11.0515
▁Principal	-11.0516
▁characteristic	-11.0516
43	-11.0516
▁Rural	-11.0516
▁athletic	-11.052
29	-11.0524
▁comprises	-11.0525
▁Cer	-11.0529
mond	-11.053
▁repeated	-11.0533
lle	-11.0534
▁1859	-11.0534
▁yard	-11.0535
ī	-11.0536
▁traveling	-11.0536
▁specialist	-11.0537
eur	-11.054
▁Kha	-11.054
33	-11.0544
▁Secret	-11.0544
wal	-11.0546
▁drum	-11.0546
▁phrase	-11.0551
▁Rosa	-11.0553
86	-11.0554
▁percentage	-11.0558
▁Harvey	-11.056
eta	-11.0561
▁Rabbi	-11.0562
▁rounded	-11.0563
▁Nine	-11.0565
▁fifty	-11.0569
BA	-11.0572
▁1892	-11.0572
▁Sierra	-11.0573
▁continuous	-11.0573
▁saved	-11.0575
▁reduction	-11.0576
▁influences	-11.0577
▁Pla	-11.0578
▁Soul	-11.0579
▁Anton	-11.0581
▁renovation	-11.0582
▁Blood	-11.0582
▁worker	-11.0588
Russian	-11.0588
▁gauge	-11.0588
▁periods	-11.0592
▁bright	-11.0593
▁84	-11.0594
▁reflect	-11.0595
▁closer	-11.0595
ello	-11.0596
▁Vin	-11.0599
▁civilian	-11.0599
▁Ski	-11.0604
▁Steel	-11.0604
▁Kat	-11.0604
▁consist	-11.0607
▁te	-11.0608
▁volunteers	-11.0608
▁Spirit	-11.0609
▁Sheriff	-11.0609
▁Beginning	-11.061
▁elsewhere	-11.0614
▁traditionally	-11.0614
▁extent	-11.0617
DC	-11.0619
▁Bag	-11.062
Or	-11.0621
▁Bulgaria	-11.0625
▁Artists	-11.0626
▁movements	-11.0627
▁programmes	-11.0629
hen	-11.0631
▁debt	-11.0632
92	-11.0636
PA	-11.0639
▁plastic	-11.064
▁71	-11.0642
▁Fan	-11.0646
▁tribes	-11.065
chen	-11.0654
63	-11.0654
65	-11.0655
▁receives	-11.0657
ably	-11.0657
▁Ernest	-11.0658
▁Subsequently	-11.0663
▁Artillery	-11.0664
▁framework	-11.0665
Go	-11.0666
▁1964.	-11.0669
▁touchdowns	-11.0671
▁fourteen	-11.0673
▁3-	-11.0679
▁Ser	-11.068
▁1896	-11.068
▁Montgomery	-11.0681
▁indoor	-11.0683
rate	-11.0684
horn	-11.0684
list	-11.0685
▁Student	-11.0686
▁Bradford	-11.0688
▁difficulties	-11.069
▁construct	-11.069
chief	-11.069
▁Low	-11.0691
▁Grammar	-11.0692
▁exclusive	-11.0694
▁alternate	-11.0694
е	-11.0696
mas	-11.0698
▁app	-11.0698
▁lectures	-11.0698
▁viewed	-11.0699
▁Storm	-11.0699
▁coaches	-11.0701
▁proteins	-11.0705
▁ruins	-11.0712
formerly	-11.0718
83	-11.0721
▁lowest	-11.0722
▁ka	-11.0723
▁artillery	-11.0723
▁mosque	-11.0725
▁venues	-11.0725
▁Argentine	-11.0728
▁agents	-11.0728
▁theatrical	-11.073
▁fictional	-11.0732
Pro	-11.0733
▁trio	-11.0734
nce	-11.0735
▁Nam	-11.0736
▁Thai	-11.0739
▁approached	-11.074
▁personality	-11.0744
▁Google	-11.0749
▁Ry	-11.0749
▁Bobby	-11.075
▁relationships	-11.0752
▁illustrated	-11.0752
▁1946.	-11.0752
▁Newton	-11.0752
▁pursued	-11.0754
sp	-11.0756
▁span	-11.0757
▁beam	-11.076
▁roll	-11.0762
bal	-11.0762
▁Besides	-11.0764
▁Isaac	-11.0764
▁dorsal	-11.0766
▁81	-11.0772
▁defended	-11.0773
▁Columbus	-11.0774
▁discussed	-11.0776
▁Pearl	-11.0778
▁Somerset	-11.078
▁sit	-11.0781
▁workshops	-11.0782
uma	-11.0783
▁looks	-11.0785
▁advocate	-11.0785
▁dangerous	-11.0787
sz	-11.0789
▁Jamaica	-11.0791
▁69	-11.0791
▁seem	-11.0798
MS	-11.08
▁Set	-11.0803
▁Northwest	-11.081
itt	-11.081
▁Franz	-11.0811
▁1918,	-11.0813
aya	-11.0814
▁releasing	-11.0817
▁Mis	-11.0817
▁discussion	-11.0818
▁usual	-11.0818
▁Bou	-11.0823
West	-11.0823
▁Track	-11.0824
▁1944.	-11.0831
▁Pol	-11.0836
▁Kate	-11.0839
▁affair	-11.0841
▁ridge	-11.0841
▁Workers	-11.0842
lot	-11.0843
▁sixteen	-11.0847
▁remembered	-11.0849
For	-11.0853
▁Surrey	-11.0853
58	-11.0856
log	-11.086
▁vast	-11.0861
▁requested	-11.0865
▁CA	-11.0865
▁w	-11.0866
shire	-11.0866
pen	-11.0866
▁prototype	-11.0867
▁balance	-11.087
▁Rhode	-11.0871
▁Eddie	-11.0874
▁horror	-11.0875
May	-11.0875
▁chorus	-11.088
▁gaining	-11.0883
ien	-11.0886
AC	-11.0886
▁locality	-11.089
▁Dur	-11.0891
▁tourism	-11.0892
▁failing	-11.0892
▁exact	-11.0893
▁texts	-11.0894
▁taste	-11.0898
▁1845	-11.0899
AL	-11.0899
▁reservoir	-11.09
▁1846	-11.0904
62	-11.0904
▁signs	-11.0904
play	-11.0905
▁bonus	-11.0905
▁Hand	-11.0907
▁92	-11.0908
▁Web	-11.0913
▁volunteer	-11.0915
▁Sussex	-11.0915
▁Diamond	-11.0915
▁2–1	-11.0916
▁Ted	-11.0917
▁alcohol	-11.0919
ving	-11.0922
▁contributing	-11.0929
▁psychology	-11.0929
▁Raymond	-11.0929
▁angle	-11.0932
▁supporter	-11.0932
away	-11.0932
▁Data	-11.0934
▁1854	-11.0935
▁actively	-11.0937
▁Let	-11.0938
▁Card	-11.0938
▁Horn	-11.0939
▁Block	-11.0939
▁Michel	-11.094
▁Ob	-11.094
▁apply	-11.0941
▁Eagles	-11.0943
▁awareness	-11.0945
▁Por	-11.0945
▁rice	-11.0946
▁#	-11.0946
▁Zo	-11.0948
▁Delaware	-11.0951
▁flood	-11.0957
mate	-11.0958
▁surgeon	-11.0959
▁bordered	-11.096
▁Foster	-11.0961
▁Eagle	-11.0969
lee	-11.0969
▁visits	-11.097
▁Cold	-11.097
▁configuration	-11.0971
RC	-11.0972
▁Celtic	-11.0972
ES	-11.0972
▁sample	-11.0976
FA	-11.0981
▁Kay	-11.0982
▁Musical	-11.0983
fu	-11.0986
▁:	-11.0987
ral	-11.0987
oon	-11.0988
▁Inn	-11.0989
▁blog	-11.0992
▁Bir	-11.0992
▁Bin	-11.0992
Li	-11.0994
pu	-11.0995
▁Laura	-11.0995
most	-11.0995
▁preferred	-11.0996
▁archaeological	-11.0998
▁voyage	-11.1
▁brigade	-11.1
▁limits	-11.1001
▁Plant	-11.1002
▁extending	-11.1002
▁grades	-11.1006
▁eat	-11.1012
▁clearly	-11.1013
▁MS	-11.1014
▁express	-11.1014
▁Writing	-11.1014
▁diesel	-11.1018
▁1855	-11.1024
▁Formula	-11.1026
▁Reed	-11.1029
▁Honours	-11.103
▁resides	-11.103
▁Rovers	-11.1032
▁pan	-11.1033
▁sounds	-11.1034
▁Cass	-11.1034
▁Hull	-11.1037
raj	-11.1038
▁1956,	-11.1039
▁supplied	-11.1041
▁Bond	-11.1041
▁Environmental	-11.1042
League	-11.1042
▁Kam	-11.1043
▁87	-11.1045
▁practical	-11.1046
▁£1	-11.1048
▁vs	-11.1049
▁Reading	-11.1051
▁Kingston	-11.1054
lit	-11.1055
▁triple	-11.1056
▁starter	-11.1056
▁believes	-11.1056
▁constitution	-11.106
▁waiting	-11.1065
language	-11.1065
▁97	-11.1067
▁Architecture	-11.1068
▁circumstances	-11.1068
▁interesting	-11.1069
▁god	-11.1069
▁consecrated	-11.1071
▁revolution	-11.1073
ified	-11.1078
▁descendants	-11.1079
▁Boulevard	-11.1079
▁Paulo	-11.1081
▁holiday	-11.1082
▁Frankfurt	-11.1082
▁dress	-11.1083
▁Pas	-11.1084
▁mechanism	-11.1084
▁favourite	-11.1088
▁Gothic	-11.1098
▁cutting	-11.1098
▁biography	-11.1098
▁weapon	-11.1099
▁lifetime	-11.1099
▁Mathematics	-11.11
▁pa	-11.1102
▁Starting	-11.1105
▁Conservatory	-11.1111
▁pounds	-11.1112
▁Antarctic	-11.1113
▁Kirk	-11.1115
▁prince	-11.1117
▁73	-11.1117
▁Stein	-11.112
ichi	-11.1124
▁Spa	-11.1125
▁aboard	-11.1126
▁Protection	-11.1127
▁Tam	-11.1132
▁isolated	-11.1133
▁dancer	-11.1133
▁im	-11.1137
▁uniform	-11.1138
▁sharp	-11.1141
▁Leader	-11.1142
▁ferry	-11.1146
▁Delta	-11.1146
signed	-11.1148
▁Edmund	-11.1148
▁departments	-11.1148
▁Interstate	-11.115
▁Writers	-11.1151
▁bow	-11.1153
▁appropriate	-11.1153
▁concerning	-11.1154
▁aims	-11.1154
vor	-11.1156
▁Presbyterian	-11.1156
El	-11.1158
▁Bear	-11.116
▁false	-11.116
ū	-11.1161
▁valuable	-11.1161
▁Stage	-11.1166
▁coffee	-11.1166
3.	-11.1168
▁Dragon	-11.1169
–1	-11.117
▁Newport	-11.1171
▁tomb	-11.1172
▁Ran	-11.1177
▁celebration	-11.1177
▁Jacques	-11.1178
cc	-11.118
▁1837	-11.1181
▁heir	-11.1181
▁principles	-11.1184
▁administered	-11.1187
▁organisations	-11.1188
▁patent	-11.1191
▁artificial	-11.1191
▁Fish	-11.1195
▁Buddhist	-11.1195
▁sheep	-11.1201
▁tend	-11.1201
▁1970.	-11.1202
▁neighbouring	-11.1203
IS	-11.1205
ties	-11.1205
▁Kra	-11.1208
▁animation	-11.121
Sa	-11.121
▁divorce	-11.1212
cap	-11.1214
▁friendship	-11.1217
▁restricted	-11.1218
▁dramatic	-11.1219
CC	-11.1219
▁EU	-11.1219
kel	-11.122
▁Bennett	-11.122
▁readers	-11.1221
▁coup	-11.1222
▁flights	-11.1223
▁sciences	-11.1225
▁ties	-11.1226
ax	-11.1231
▁documented	-11.1231
▁Maurice	-11.1232
▁studios	-11.1233
-0	-11.1234
OS	-11.1235
▁characteristics	-11.1236
▁bin	-11.1238
▁Gill	-11.124
▁ERA	-11.1241
▁golden	-11.1241
▁hidden	-11.1242
▁graphic	-11.1245
cer	-11.1245
lived	-11.1245
▁sequel	-11.1247
▁soul	-11.1247
pping	-11.1247
▁Thor	-11.1249
▁organic	-11.1251
▁superior	-11.1255
▁queen	-11.1258
IT	-11.1258
▁happy	-11.1261
▁girlfriend	-11.1261
▁blind	-11.1264
▁Croatian	-11.1265
▁hence	-11.1265
▁corresponding	-11.1266
Po	-11.1267
▁Stakes	-11.1268
▁exile	-11.1268
▁Isle	-11.1269
ual	-11.1273
▁Au	-11.1273
▁destroy	-11.1273
▁Ballet	-11.1273
TA	-11.1274
▁Davies	-11.1276
▁comprehensive	-11.1277
▁Environment	-11.128
▁Palestine	-11.1283
▁ensemble	-11.1285
▁Henri	-11.1285
▁airline	-11.1286
▁Saudi	-11.1289
77	-11.129
▁thanks	-11.129
51	-11.1291
▁coins	-11.1292
▁input	-11.1297
▁Palmer	-11.1298
feld	-11.13
▁LA	-11.1301
nor	-11.1301
▁Clarke	-11.1304
▁acoustic	-11.1305
▁variant	-11.1308
▁1957,	-11.1308
▁evolved	-11.1308
Ho	-11.1313
Ta	-11.1313
yer	-11.1314
▁pulled	-11.1315
▁Spencer	-11.1317
▁recalled	-11.1319
▁Transportation	-11.1322
▁Geneva	-11.1322
▁Wallace	-11.1323
▁profile	-11.1328
▁Deep	-11.1328
▁Qu	-11.1329
▁namely	-11.1329
chan	-11.1332
▁86	-11.1338
avi	-11.1341
dra	-11.1347
aq	-11.1348
▁exterior	-11.1349
▁stint	-11.1354
▁victim	-11.1356
maker	-11.1357
▁travelling	-11.1361
▁diplomatic	-11.1365
▁×	-11.1366
▁1958,	-11.1366
▁sc	-11.1367
1.	-11.1367
▁Chang	-11.1369
▁Tha	-11.137
▁shut	-11.137
▁Tal	-11.1372
oka	-11.1374
▁depicted	-11.1375
nen	-11.1376
dio	-11.138
▁Amazon	-11.1384
▁1888	-11.1384
500	-11.1388
▁focusing	-11.1391
▁Outstanding	-11.1392
▁SA	-11.1394
▁imperial	-11.1395
▁Im	-11.1396
▁Herald	-11.1397
qu	-11.1398
ów	-11.1398
▁bo	-11.1403
▁Graduate	-11.1404
▁Dog	-11.1404
bri	-11.1407
▁1891	-11.1407
▁investigate	-11.1409
▁Circle	-11.1415
▁Owen	-11.1416
▁VII	-11.1417
▁2,000	-11.1417
▁discovers	-11.1417
▁drawings	-11.1423
▁atmosphere	-11.1423
▁Az	-11.1426
▁freight	-11.1431
▁Gay	-11.1432
▁rates	-11.1433
▁unlike	-11.1435
▁benefits	-11.1438
▁mail	-11.1438
▁Gate	-11.144
cker	-11.1441
dor	-11.1441
▁noble	-11.1442
▁arena	-11.1444
▁Days	-11.1448
▁tenth	-11.1448
▁Planet	-11.145
▁Comics	-11.1451
BC	-11.1451
▁traditions	-11.1453
▁Flying	-11.1455
▁carved	-11.1458
▁1959,	-11.146
▁Legion	-11.1462
▁1963.	-11.1462
▁Nepal	-11.1463
▁Blake	-11.1464
▁Lau	-11.1466
▁SH	-11.1467
▁1962.	-11.1467
oh	-11.1468
▁Gardens	-11.147
▁Members	-11.1471
etti	-11.1471
▁Naples	-11.1473
▁pointed	-11.1475
▁wealth	-11.1475
ned	-11.1475
▁attendance	-11.1476
Vi	-11.1481
▁79	-11.1482
▁Gene	-11.1482
▁View	-11.1483
▁Rush	-11.1484
ations	-11.1485
▁biological	-11.1485
▁Allied	-11.1486
▁possibility	-11.1487
▁temporarily	-11.1487
▁sa	-11.1493
▁Intelligence	-11.1494
▁poll	-11.1495
▁Flight	-11.1502
▁Tommy	-11.1505
▁Greg	-11.1507
▁Manitoba	-11.1511
▁tape	-11.1511
▁bears	-11.1515
ches	-11.1516
▁Sony	-11.1525
▁1887	-11.1527
▁load	-11.1527
▁Estate	-11.153
▁surname	-11.1531
▁helps	-11.1532
▁teeth	-11.1534
▁colleagues	-11.1534
▁inaugurated	-11.1534
▁intellectual	-11.1535
▁Record	-11.1536
▁mixture	-11.1537
zar	-11.1537
▁Yi	-11.1537
▁sweet	-11.154
ison	-11.1542
▁inhabited	-11.1543
▁streams	-11.1546
▁prove	-11.1546
▁Lutheran	-11.1546
ν	-11.1547
▁ruler	-11.1548
ration	-11.1549
▁minority	-11.1549
▁compound	-11.155
▁waste	-11.155
PC	-11.1551
▁Ancient	-11.1555
▁1–0	-11.1557
▁Renaissance	-11.1559
▁exercise	-11.1562
▁Azerbaijan	-11.1562
▁cat	-11.1563
org	-11.1568
▁Mus	-11.1569
▁banking	-11.157
▁Maha	-11.1571
▁Publishing	-11.1575
▁definition	-11.1576
mic	-11.1577
▁respective	-11.1577
▁*	-11.1578
▁manages	-11.1582
▁playoff	-11.1582
▁battery	-11.1582
▁Still	-11.1587
card	-11.1588
▁Krishna	-11.159
▁impressive	-11.1592
72	-11.1595
▁defend	-11.1596
gin	-11.1597
▁Shore	-11.1598
-9	-11.1598
▁furniture	-11.1599
▁evil	-11.16
All	-11.16
ans	-11.1601
itz	-11.1603
▁waived	-11.1604
ging	-11.1604
ante	-11.1608
lov	-11.1611
▁simultaneously	-11.1612
▁Performance	-11.1613
▁collective	-11.1615
▁authored	-11.1616
▁Yang	-11.1618
▁slowly	-11.1618
eb	-11.1619
▁collapse	-11.162
▁significance	-11.162
▁neither	-11.1623
illo	-11.1623
▁110	-11.1625
▁floors	-11.1625
▁boards	-11.1627
eck	-11.1628
▁empty	-11.163
▁Reform	-11.1632
▁writings	-11.1634
61	-11.1635
▁1961.	-11.1636
▁leagues	-11.1637
▁formula	-11.1637
▁exposure	-11.1637
▁shallow	-11.1637
▁po	-11.1639
▁1838	-11.164
▁essential	-11.164
▁extinct	-11.1643
▁Neil	-11.1644
▁PS	-11.1646
▁dollars	-11.1649
▁Relations	-11.1649
▁confused	-11.165
▁soap	-11.165
▁Nacional	-11.1652
▁Tang	-11.1652
▁alive	-11.1653
▁1955,	-11.1656
▁Vale	-11.1656
▁dealing	-11.1656
▁Mah	-11.1657
▁averaged	-11.1657
▁Croatia	-11.1657
▁Ay	-11.1658
▁segments	-11.1658
▁expensive	-11.1659
▁Parliamentary	-11.166
▁Louise	-11.1665
▁creek	-11.1666
▁provinces	-11.1669
▁footballer	-11.167
▁backing	-11.167
four	-11.1672
▁Bun	-11.1675
▁imp	-11.1675
lane	-11.1676
▁sharing	-11.1677
▁Panama	-11.1678
▁Steven	-11.1678
▁lease	-11.1678
▁Scientific	-11.1685
▁lawsuit	-11.1686
SI	-11.1688
▁radar	-11.1688
▁1812	-11.1691
▁Nancy	-11.1692
▁prisoner	-11.1693
▁dialogue	-11.1697
▁stretch	-11.1701
-15	-11.1701
▁faces	-11.1703
SS	-11.1705
▁egg	-11.1706
▁petition	-11.171
▁Mann	-11.1712
▁employee	-11.1713
▁Pri	-11.1713
▁territories	-11.1714
iva	-11.1715
▁collect	-11.1717
▁Š	-11.1717
▁patterns	-11.1718
▁si	-11.1721
▁correspondent	-11.1722
▁handed	-11.1722
half	-11.1722
een	-11.1722
▁Engineers	-11.1723
▁shorter	-11.1724
EC	-11.1725
▁examination	-11.1725
lum	-11.1725
kal	-11.1727
made	-11.1728
▁footage	-11.1728
▁worn	-11.1729
kai	-11.1735
▁1960,	-11.1736
▁suddenly	-11.174
▁bond	-11.1741
ious	-11.1742
▁dominant	-11.1742
▁predominantly	-11.1742
brook	-11.1744
▁variable	-11.1746
▁runway	-11.1748
▁Andrews	-11.1749
▁Legislature	-11.1753
▁marble	-11.1756
▁permanently	-11.1759
▁Chess	-11.1759
▁grass	-11.1759
▁Bri	-11.1761
▁suggest	-11.1762
▁el	-11.1766
▁Lodge	-11.1769
agh	-11.1772
▁Simpson	-11.1773
▁stationed	-11.1775
▁wrong	-11.1777
▁regulations	-11.178
▁1856	-11.1784
cast	-11.1785
▁Manila	-11.1787
▁Well	-11.1788
▁Bio	-11.1788
▁stones	-11.1788
▁revival	-11.1789
▁bassist	-11.179
▁doctoral	-11.1796
▁acclaimed	-11.1797
▁Montana	-11.1798
▁referring	-11.18
pm	-11.18
▁Number	-11.1801
▁ta	-11.1802
▁nave	-11.1802
▁patrol	-11.1805
▁songwriter	-11.1805
tta	-11.1807
▁telephone	-11.1811
34	-11.1815
▁Knights	-11.1817
rk	-11.1819
▁celebrate	-11.1822
▁theology	-11.1824
▁Cameron	-11.1824
▁Abdul	-11.1825
nus	-11.1827
▁root	-11.1828
SE	-11.1829
▁Grande	-11.183
▁singers	-11.1832
▁curriculum	-11.1833
▁width	-11.1838
▁1886	-11.1842
tum	-11.1843
▁Brand	-11.1846
int	-11.1847
▁researcher	-11.185
▁circulation	-11.1851
▁1954,	-11.1851
ui	-11.1855
▁Ferdinand	-11.1855
▁fear	-11.1855
oy	-11.1856
▁athlete	-11.1858
▁Cabinet	-11.1858
via	-11.1861
▁challenges	-11.1864
▁check	-11.1865
▁stroke	-11.1865
▁autumn	-11.1865
▁89	-11.1868
yr	-11.1871
▁Cardiff	-11.1873
▁Ober	-11.1873
▁clay	-11.1874
cio	-11.1874
▁craft	-11.1875
▁conducting	-11.1876
tch	-11.1877
▁Hopkins	-11.188
berry	-11.1886
▁evolution	-11.1887
▁drink	-11.1888
▁usage	-11.1889
table	-11.1892
▁Devon	-11.1892
▁reception	-11.1893
SR	-11.1893
▁1948.	-11.1896
▁ballet	-11.1896
æ	-11.1897
▁Rochester	-11.1898
aro	-11.1898
▁radical	-11.1907
▁Planning	-11.191
▁workshop	-11.1913
▁demonstrated	-11.1914
▁93	-11.1914
▁altar	-11.1916
▁Institution	-11.1918
▁shelter	-11.192
▁Therefore	-11.192
▁Roll	-11.1921
▁Heights	-11.1922
ET	-11.1924
▁hosting	-11.1926
▁recovery	-11.193
▁signature	-11.1933
▁Double	-11.1934
▁guidance	-11.1939
▁afternoon	-11.1939
▁Mul	-11.1941
▁Study	-11.1943
ST	-11.1944
▁magic	-11.1946
mmer	-11.1946
cin	-11.1946
▁answer	-11.1947
sol	-11.195
▁bearing	-11.1951
▁hole	-11.1952
▁invented	-11.1952
▁hero	-11.1952
NA	-11.1955
▁Cre	-11.1958
▁Sad	-11.1961
▁references	-11.1963
▁naming	-11.1967
▁1820	-11.1967
iel	-11.1969
▁Report	-11.1973
ovich	-11.1974
▁announcement	-11.1977
▁praise	-11.1977
▁IT	-11.1977
▁Halifax	-11.1979
ids	-11.1979
▁reveals	-11.1979
▁Cornell	-11.198
▁Pay	-11.1983
OC	-11.1985
ising	-11.1985
ique	-11.1993
▁Course	-11.1998
▁conferences	-11.2003
▁cotton	-11.2004
ø	-11.2005
▁Saskatchewan	-11.2006
▁Site	-11.2007
wall	-11.2007
▁publish	-11.2011
▁slopes	-11.2012
▁Democrats	-11.2013
▁UFC	-11.2014
hai	-11.2014
▁Venezuela	-11.2016
▁passion	-11.2021
▁1881	-11.2024
spect	-11.2025
▁lap	-11.2026
▁Albanian	-11.2031
▁moral	-11.2033
inus	-11.2033
▁fundamental	-11.2038
▁stake	-11.2039
▁apparent	-11.204
▁drivers	-11.2041
▁steep	-11.2043
▁colleges	-11.2043
▁Dominican	-11.2045
uda	-11.2046
▁Edmonton	-11.2049
▁citing	-11.205
▁explains	-11.2052
▁1951,	-11.2052
▁Kid	-11.2053
▁burial	-11.2057
▁communist	-11.2063
▁looked	-11.2063
–15	-11.2063
▁Queens	-11.2065
bay	-11.2065
onia	-11.2068
▁specimen	-11.2069
CR	-11.2069
▁sits	-11.2073
▁Voice	-11.2074
▁Syria	-11.2075
FC	-11.2078
▁infantry	-11.2079
▁goalkeeper	-11.2079
▁hamlet	-11.2082
▁Album	-11.2082
▁beaten	-11.2084
▁technologies	-11.2084
▁loop	-11.2084
wen	-11.2088
▁1953,	-11.209
▁1884	-11.2093
hurst	-11.2094
▁Neo	-11.2094
mit	-11.2095
▁Ky	-11.2095
▁relating	-11.2096
five	-11.2097
▁principle	-11.2102
▁Bai	-11.2104
▁Gran	-11.2106
▁Tele	-11.2112
▁Gau	-11.2113
▁1842	-11.2114
its	-11.2114
▁gathered	-11.2116
▁Brad	-11.2125
RA	-11.2125
bon	-11.2126
▁Tr	-11.2128
▁Directors	-11.2131
▁Lab	-11.2131
▁enemies	-11.2134
▁database	-11.2136
▁1843	-11.2137
president	-11.2137
▁handle	-11.2137
▁novelist	-11.2141
Ka	-11.2142
▁Liberty	-11.2143
▁directing	-11.2144
▁Annual	-11.2144
▁1832	-11.2145
▁Belfast	-11.2147
etta	-11.215
▁Gospel	-11.2152
▁Episcopal	-11.2152
▁Solomon	-11.2152
▁Indies	-11.2154
Ar	-11.2154
▁1947.	-11.2155
▁Speaker	-11.2156
▁Rice	-11.2157
▁relevant	-11.2159
iki	-11.2163
▁drinking	-11.2164
lat	-11.2164
▁Get	-11.2167
▁renewed	-11.2167
▁Page	-11.2168
iri	-11.2169
▁biology	-11.2174
▁boss	-11.2174
▁diploma	-11.2175
▁Swan	-11.2176
▁91	-11.2179
▁scandal	-11.2182
▁index	-11.2184
▁Revival	-11.2185
▁Travel	-11.2187
▁fabric	-11.2187
enburg	-11.2187
▁Danny	-11.219
tia	-11.219
";	-11.2194
▁1917,	-11.2195
▁lie	-11.2198
▁83	-11.2199
▁Cox	-11.2201
▁circular	-11.2202
CA	-11.2202
ı	-11.2202
▁Guild	-11.2209
▁Sc	-11.2211
▁permitted	-11.2211
▁Java	-11.2212
fin	-11.2213
▁revised	-11.2213
▁oak	-11.2214
▁voters	-11.222
▁mainstream	-11.2221
▁4-	-11.2222
▁updated	-11.2223
▁investors	-11.2223
▁Ellis	-11.2224
▁Lyon	-11.2224
▁shipping	-11.223
▁freshman	-11.223
▁Liu	-11.2231
▁Christianity	-11.2231
▁photos	-11.2231
▁Rama	-11.2233
91	-11.2236
▁1942.	-11.2236
▁Cornwall	-11.2236
▁Carlo	-11.2237
▁Ever	-11.2238
white	-11.2239
▁measuring	-11.2243
▁upcoming	-11.2247
▁trainer	-11.2248
▁Wildlife	-11.2248
▁Ludwig	-11.2251
▁shall	-11.2252
▁attempting	-11.2253
▁privately	-11.2253
▁negotiations	-11.2253
▁Giants	-11.2254
▁bars	-11.2255
▁touch	-11.2261
▁switch	-11.2261
thy	-11.2261
▁arrives	-11.2263
▁presenter	-11.2264
▁Santiago	-11.2266
owski	-11.2269
sco	-11.227
gas	-11.2275
▁Henderson	-11.2276
act	-11.228
▁Bul	-11.2281
tive	-11.2282
▁Curtis	-11.2282
▁conjunction	-11.2284
▁Vladimir	-11.2286
gra	-11.2289
▁Beat	-11.2289
ments	-11.229
▁Oakland	-11.2292
▁Kom	-11.2294
▁bull	-11.2294
lyn	-11.2295
eva	-11.2299
▁destination	-11.2301
▁É	-11.2302
75	-11.2302
▁Calgary	-11.2304
▁brings	-11.2307
▁customer	-11.2308
▁estates	-11.2309
▁adventure	-11.231
▁belief	-11.2317
▁rap	-11.2317
cat	-11.2318
▁solutions	-11.2318
▁pink	-11.232
▁1952,	-11.232
–5	-11.2321
▁constitutional	-11.2321
▁Expedition	-11.2323
para	-11.2324
▁mature	-11.2327
▁quick	-11.2327
▁Kur	-11.2329
▁bore	-11.2333
▁ghost	-11.2338
▁kitchen	-11.234
hir	-11.2342
▁reconstruction	-11.2346
▁temperatures	-11.2347
▁Facebook	-11.2348
▁partial	-11.235
▁commentary	-11.2351
▁displays	-11.2351
▁Machine	-11.2353
▁1861	-11.2355
▁maintains	-11.2355
rell	-11.2357
▁1957.	-11.2358
▁disaster	-11.2359
▁indicates	-11.236
▁scores	-11.2363
▁fallen	-11.2364
▁1938,	-11.2364
▁Armed	-11.2364
▁grants	-11.2365
dam	-11.2366
▁neighbourhood	-11.2366
▁assignment	-11.2369
▁cuts	-11.2374
▁log	-11.2374
▁Med	-11.2376
▁thinking	-11.2378
present	-11.2382
▁Sweet	-11.2382
▁hyper	-11.2383
▁tested	-11.2385
▁Oil	-11.2386
▁objective	-11.2386
▁€	-11.2389
pper	-11.239
▁Box	-11.239
▁Triple	-11.2394
ij	-11.2394
▁shift	-11.2394
▁Marcus	-11.2396
▁limestone	-11.2397
▁auction	-11.2398
nagar	-11.2404
▁missionary	-11.2407
was	-11.2408
▁bone	-11.2409
▁exactly	-11.2412
▁diplomat	-11.2414
▁Right	-11.2415
She	-11.2416
▁Justin	-11.2416
▁Contest	-11.2419
▁Belgrade	-11.2421
▁Stra	-11.2422
▁functional	-11.2423
▁pupil	-11.2424
▁Manor	-11.2426
▁lakes	-11.243
▁Comedy	-11.2431
HS	-11.2432
▁violent	-11.2432
▁Poly	-11.2433
▁touchdown	-11.2435
▁options	-11.2436
▁1956.	-11.2438
▁fin	-11.2438
▁suspension	-11.2439
100	-11.2439
▁1958.	-11.244
▁Leipzig	-11.244
▁fuselage	-11.2441
met	-11.2444
▁Richardson	-11.2446
▁Furthermore	-11.2447
▁wish	-11.2449
▁discover	-11.245
▁genetic	-11.2452
▁treaty	-11.2452
▁1883	-11.2453
▁Kill	-11.2454
▁vegetation	-11.2454
▁occasional	-11.2454
▁moderate	-11.2455
▁catch	-11.2457
▁Fraser	-11.246
▁Tree	-11.246
▁corruption	-11.2461
▁Kol	-11.2463
bie	-11.2463
▁Kir	-11.2464
▁cult	-11.2466
On	-11.2467
ör	-11.2475
▁sailing	-11.2476
▁Nadu	-11.2477
▁calendar	-11.2478
▁premises	-11.2479
▁Mail	-11.2479
ock	-11.2482
▁Ellen	-11.2482
Ch	-11.2482
▁nationally	-11.2484
▁developer	-11.2488
▁heading	-11.249
yi	-11.2494
▁drove	-11.2494
▁commissioner	-11.2495
▁1959.	-11.2495
56	-11.2501
▁siege	-11.2501
▁94	-11.2505
gle	-11.2506
▁quit	-11.2506
▁Folk	-11.2507
▁NC	-11.2507
LP	-11.2508
▁throw	-11.2512
▁demo	-11.2513
▁Ac	-11.2514
▁Es	-11.2515
▁Those	-11.2515
▁shifted	-11.2516
▁succession	-11.2516
▁staged	-11.2518
▁Campus	-11.252
ico	-11.2525
▁bases	-11.2525
▁chaired	-11.253
▁independently	-11.253
▁algorithm	-11.2533
cz	-11.2534
▁collecting	-11.2537
▁Wrestling	-11.254
WA	-11.2542
gram	-11.2544
mis	-11.2545
page	-11.2545
▁ordinary	-11.2546
▁breast	-11.2547
▁1950,	-11.2549
rod	-11.2549
▁shield	-11.2549
▁depicting	-11.2551
vent	-11.2551
▁Sisters	-11.2552
▁mathematical	-11.2554
▁supervision	-11.2556
▁instruction	-11.2558
▁onwards	-11.2561
▁servant	-11.2561
▁Albany	-11.2561
▁consumer	-11.2562
▁stops	-11.2563
▁rough	-11.2565
▁measured	-11.2568
▁1943.	-11.2571
▁notice	-11.2574
▁panels	-11.2576
▁historically	-11.2579
▁grid	-11.2579
▁battalion	-11.2595
▁fantasy	-11.2596
▁Agricultural	-11.2596
▁feeling	-11.2598
▁Official	-11.2598
▁pit	-11.2598
fold	-11.2603
▁camps	-11.2605
▁Muslims	-11.2605
▁ra	-11.2605
▁trouble	-11.2605
▁Bert	-11.2606
ID	-11.2606
▁Sullivan	-11.2607
▁teaches	-11.2608
▁Vel	-11.2609
II	-11.2609
▁Miguel	-11.2609
▁fluid	-11.2611
ester	-11.2612
had	-11.2612
▁Poetry	-11.2612
35	-11.2613
▁Merit	-11.2614
▁dialect	-11.2614
AF	-11.2616
cor	-11.2616
school	-11.2618
▁hull	-11.2619
▁quarterback	-11.2619
▁talks	-11.2619
hat	-11.2623
dimensional	-11.2625
▁1847	-11.2626
borg	-11.2627
▁plaque	-11.2628
▁plates	-11.2628
▁1955.	-11.263
▁deemed	-11.263
▁grandmother	-11.2631
▁Marathon	-11.2636
▁corporation	-11.2636
▁AS	-11.2646
ath	-11.2646
▁invitation	-11.2646
▁Cy	-11.2646
▁Eve	-11.2646
▁Take	-11.2647
RI	-11.265
▁hear	-11.2651
▁manuscripts	-11.2651
▁Metal	-11.2653
▁graph	-11.2654
▁Armstrong	-11.2654
ago	-11.2654
▁attraction	-11.2654
▁transformed	-11.2656
▁Gibson	-11.2657
▁interface	-11.2659
bound	-11.266
▁FK	-11.2662
▁edges	-11.2664
▁1876	-11.2665
▁presentation	-11.2666
▁indicating	-11.2667
▁portfolio	-11.2667
▁legendary	-11.2667
▁mainland	-11.2673
▁improvements	-11.2675
FL	-11.2675
▁nautical	-11.2675
▁prepare	-11.2679
▁eventual	-11.2679
works	-11.2679
▁Films	-11.2683
▁1919,	-11.2683
▁Left	-11.2685
ther	-11.2685
▁1941.	-11.2689
▁dean	-11.2693
▁vary	-11.2697
▁scorer	-11.2698
hua	-11.2699
▁cream	-11.2699
▁Kas	-11.2704
▁theorem	-11.2709
▁Pakistani	-11.2709
▁App	-11.2709
SU	-11.2711
til	-11.2712
seat	-11.2716
▁Thi	-11.2718
▁sleep	-11.2719
PL	-11.2719
▁reopened	-11.2724
▁Sor	-11.2724
▁ad	-11.2725
tle	-11.2726
▁retreat	-11.2726
▁mo	-11.2727
AT	-11.2727
▁Stevens	-11.2727
▁impressed	-11.2728
▁Case	-11.273
ê	-11.2733
▁posts	-11.2733
▁diseases	-11.2733
cle	-11.2734
▁payment	-11.2734
try	-11.2735
▁gap	-11.2735
▁Pete	-11.2737
▁Link	-11.2737
uro	-11.2743
▁depot	-11.2747
▁intermediate	-11.2748
▁shaped	-11.2753
▁Nat	-11.2755
▁1953.	-11.2755
▁Martha	-11.2755
▁Cyprus	-11.2756
▁difficulty	-11.2756
▁Zi	-11.2756
▁Sul	-11.2758
▁proof	-11.2763
▁Gang	-11.2763
rid	-11.2764
▁breed	-11.2764
▁Honorary	-11.2767
GA	-11.2768
▁Julia	-11.2769
▁Lok	-11.2769
▁Brighton	-11.2777
▁Revolutionary	-11.2778
▁teammate	-11.2779
▁seriously	-11.2781
▁volleyball	-11.2782
▁Airlines	-11.2784
▁detail	-11.2785
▁Caroline	-11.2786
▁NASA	-11.2787
ces	-11.2788
200	-11.2789
▁Copa	-11.279
▁Mobile	-11.2793
▁700	-11.2793
dell	-11.2794
▁Indonesian	-11.2795
▁hardware	-11.2799
March	-11.2799
▁Franco	-11.2799
▁3,000	-11.28
wald	-11.2801
▁Portsmouth	-11.2804
▁Form	-11.2804
abad	-11.2805
▁removal	-11.2807
vert	-11.2807
▁Harper	-11.2808
▁interred	-11.2809
▁fur	-11.2809
produced	-11.281
▁$5	-11.2811
▁achievement	-11.2811
▁Wen	-11.2812
▁$2	-11.2813
▁engagement	-11.2813
▁Mine	-11.2816
▁130	-11.2819
▁depression	-11.2819
ão	-11.2821
▁broadcasts	-11.2822
▁Sei	-11.2823
▁Baby	-11.2823
▁Pont	-11.2824
▁pure	-11.2825
▁sculptures	-11.283
▁1862	-11.283
▁disappeared	-11.2831
▁tune	-11.2831
TS	-11.2832
▁surprise	-11.2834
▁Academic	-11.2835
▁Resources	-11.2836
▁Ronald	-11.2836
▁Plymouth	-11.2836
▁victories	-11.2837
inger	-11.2838
▁files	-11.2838
▁stress	-11.2839
▁101	-11.2846
ars	-11.2849
▁Broad	-11.285
▁Desert	-11.285
▁Malta	-11.2851
▁statistics	-11.2853
▁performer	-11.2856
▁XI	-11.2858
▁resource	-11.2858
▁Memphis	-11.2858
▁Porter	-11.2858
▁experiment	-11.2859
▁Walk	-11.286
sized	-11.286
▁j	-11.2862
eli	-11.2862
▁carrier	-11.2863
▁Belle	-11.2866
▁Progressive	-11.2867
▁lighting	-11.2868
piece	-11.2868
▁reserves	-11.2872
▁Emma	-11.2873
▁1865	-11.2876
▁interpretation	-11.2876
▁1937,	-11.2877
▁slave	-11.2879
▁comprising	-11.2885
▁reverse	-11.2886
▁trustees	-11.2886
▁Kh	-11.2889
Lo	-11.2894
▁Todd	-11.2894
▁surrender	-11.2895
▁weak	-11.2896
▁sky	-11.2901
▁dies	-11.2901
ates	-11.2902
▁Store	-11.2902
▁doubt	-11.2902
▁1872	-11.2903
52	-11.2904
▁12-	-11.2904
pop	-11.2905
▁topped	-11.2912
▁chess	-11.2912
▁translator	-11.2912
▁referee	-11.2915
built	-11.2915
▁labour	-11.2917
▁1939.	-11.2919
▁Ahmed	-11.2921
▁Edition	-11.2924
▁experiments	-11.2925
▁Glass	-11.2926
▁virtual	-11.2929
track	-11.293
▁1954.	-11.2931
titled	-11.2933
▁h	-11.2937
▁Tampa	-11.294
▁variation	-11.2942
▁stepped	-11.2944
▁François	-11.2944
▁1879	-11.2945
ult	-11.2946
asi	-11.2946
▁punk	-11.2946
▁Near	-11.2947
▁crops	-11.2948
wrote	-11.2949
▁Gan	-11.295
▁opponents	-11.295
▁millimetres	-11.2951
▁Albums	-11.2953
▁acquire	-11.2954
▁silent	-11.2956
▁r	-11.2961
▁Grammy	-11.2962
▁screenplay	-11.2962
▁fastest	-11.2963
▁Lar	-11.2965
▁WA	-11.2965
▁Programme	-11.2966
▁Sex	-11.2966
▁administrator	-11.2967
▁Sid	-11.297
zan	-11.297
▁stolen	-11.2972
wide	-11.2973
▁1914,	-11.2974
▁automatic	-11.2976
▁warning	-11.2976
▁Bang	-11.2978
4,	-11.2979
▁arrive	-11.2982
▁pub	-11.2983
:30	-11.2987
▁approaches	-11.2987
▁zero	-11.2989
▁battles	-11.299
▁1871	-11.2991
▁Windsor	-11.2992
▁random	-11.2993
▁Male	-11.2995
▁140	-11.3
▁hybrid	-11.3
▁wildlife	-11.3
▁Bala	-11.3003
▁towers	-11.3005
▁Allan	-11.301
ym	-11.3011
▁improvement	-11.3011
▁1868	-11.3012
pat	-11.3013
ota	-11.3014
▁Gur	-11.3014
▁Istanbul	-11.3015
▁restore	-11.3016
▁upgraded	-11.3016
▁unsuccessfully	-11.3017
borough	-11.3018
▁severely	-11.3019
▁molecular	-11.3023
▁Indianapolis	-11.3025
tone	-11.3025
enko	-11.3026
▁interviewed	-11.3027
mir	-11.3029
▁Fernando	-11.3029
▁Rao	-11.3029
▁Lucas	-11.303
▁Cave	-11.3034
▁IBM	-11.3034
▁Iceland	-11.3035
▁tight	-11.3035
▁Creative	-11.3036
▁exit	-11.3036
▁essays	-11.3038
▁structural	-11.3038
▁dissertation	-11.3039
boy	-11.3042
▁Jun	-11.3043
▁Bailey	-11.3046
▁Amy	-11.3047
anti	-11.3049
▁basement	-11.3049
▁1874	-11.3052
▁Aberdeen	-11.3052
▁Julian	-11.3052
▁exploration	-11.3052
▁explosion	-11.3055
▁fortune	-11.3056
ère	-11.3057
lé	-11.3059
▁Wan	-11.306
jar	-11.306
▁boxing	-11.306
▁Exhibition	-11.3061
▁parks	-11.3066
▁boarding	-11.3067
▁Sto	-11.3067
rio	-11.307
▁cent	-11.3071
▁Congo	-11.3078
▁putting	-11.308
▁rectangular	-11.308
iana	-11.3087
▁pitched	-11.3089
▁1920,	-11.3089
81	-11.309
▁Rain	-11.3091
sti	-11.3093
▁Notre	-11.3097
▁Haven	-11.3099
▁Bart	-11.31
igan	-11.3101
▁sufficient	-11.3102
▁accomplished	-11.3103
▁helicopter	-11.3105
▁wire	-11.3105
▁shoulder	-11.3107
▁tale	-11.3111
▁Carnegie	-11.3111
IA	-11.3112
▁rector	-11.3114
uz	-11.3116
▁tutor	-11.3116
tech	-11.3118
▁Southeast	-11.3121
▁architects	-11.3122
▁generations	-11.3124
▁performs	-11.3126
speaking	-11.3126
pal	-11.3127
▁retire	-11.3128
▁Clay	-11.3128
▁assessment	-11.3128
▁kids	-11.3131
▁decisions	-11.3134
▁realized	-11.3136
hl	-11.3136
▁Zhang	-11.3137
▁Preston	-11.3138
▁performers	-11.3138
▁joins	-11.3144
▁fortress	-11.3144
▁Chemistry	-11.315
▁crimes	-11.3151
▁innovative	-11.3152
▁thereby	-11.3153
▁fairly	-11.3154
ë	-11.3156
▁airfield	-11.3158
▁blues	-11.3158
▁(21	-11.316
▁dense	-11.316
▁succeed	-11.3162
▁honours	-11.3163
▁absorbed	-11.3165
fl	-11.3167
▁3.5	-11.3171
▁beer	-11.3172
▁Living	-11.3172
▁download	-11.3173
▁promotional	-11.3174
▁Clement	-11.3174
▁diagnosed	-11.3176
▁bridges	-11.3177
sal	-11.3178
▁Philharmonic	-11.318
▁Jar	-11.3183
▁granite	-11.3184
▁Sean	-11.3184
▁contribute	-11.3186
▁dogs	-11.3186
▁Micro	-11.3188
▁Ang	-11.3188
▁Amateur	-11.3189
▁Powell	-11.3189
▁essentially	-11.319
▁Fighter	-11.319
arm	-11.3191
zon	-11.3193
▁lip	-11.3196
▁lift	-11.3199
▁McG	-11.32
uka	-11.3204
▁delayed	-11.3204
▁peninsula	-11.3206
▁convinced	-11.3207
▁error	-11.3207
ald	-11.3209
▁Eye	-11.3212
ering	-11.3212
▁permit	-11.3213
▁encourage	-11.3213
▁Pier	-11.3214
ere	-11.3217
▁Carol	-11.3219
▁libraries	-11.322
▁Nigerian	-11.3221
▁tonnes	-11.3222
▁manufacture	-11.3224
▁lifestyle	-11.3225
▁Emmy	-11.3226
▁2-	-11.3228
▁1935,	-11.3229
ave	-11.323
▁rookie	-11.3231
▁Mario	-11.3234
▁Dev	-11.3237
AS	-11.3242
▁responded	-11.3243
▁beneath	-11.3245
▁1815	-11.3246
▁Winnipeg	-11.3248
▁licence	-11.3248
▁explore	-11.325
▁magnitude	-11.3251
▁stored	-11.3257
▁Emily	-11.3257
los	-11.3258
▁defending	-11.3259
wy	-11.326
▁Chancellor	-11.3265
▁1960.	-11.3266
▁contributor	-11.3268
▁Corn	-11.3268
▁Woods	-11.3269
▁client	-11.327
▁Change	-11.3271
▁governed	-11.3273
post	-11.3273
ient	-11.3277
sion	-11.3277
▁Lancaster	-11.3279
▁Dy	-11.328
Don	-11.328
▁challenged	-11.3281
▁Chase	-11.3281
▁Harbour	-11.3283
court	-11.3283
duc	-11.3288
▁encounter	-11.329
▁premier	-11.3292
▁lo	-11.3292
▁trips	-11.3293
ess	-11.3294
▁1918.	-11.3295
▁achievements	-11.3296
boat	-11.3301
▁tourists	-11.3303
pet	-11.3306
das	-11.3307
▁enabled	-11.3309
▁closest	-11.3309
▁Aaron	-11.3313
▁Apart	-11.3315
▁Morocco	-11.3316
cum	-11.3318
▁sustained	-11.3322
▁Francesco	-11.3323
▁settle	-11.3323
▁Chapter	-11.3324
rea	-11.3324
▁array	-11.3324
▁accommodation	-11.3327
yang	-11.3329
▁proceeded	-11.3329
rel	-11.3329
▁Madras	-11.333
▁allegedly	-11.3331
▁1834	-11.3332
oid	-11.3332
▁1952.	-11.3338
▁respond	-11.3339
ition	-11.3339
▁1929,	-11.3341
▁noise	-11.3346
▁2–0	-11.3347
▁Duncan	-11.3348
▁ceiling	-11.335
has	-11.335
▁package	-11.3351
▁5,000	-11.3353
▁Julius	-11.3353
iff	-11.3354
▁pet	-11.3355
▁Plaza	-11.3357
▁farms	-11.3358
▁brands	-11.336
▁Reid	-11.3362
only	-11.3363
▁cu	-11.3363
▁telling	-11.3364
▁fiscal	-11.3364
▁corn	-11.3365
ille	-11.3365
▁layout	-11.3366
CI	-11.3366
▁Cuban	-11.3369
▁resided	-11.3371
▁Sat	-11.3372
▁rifle	-11.3372
▁1949.	-11.3374
released	-11.3374
▁Lisa	-11.3385
▁cloud	-11.3386
sse	-11.3387
tern	-11.3388
amba	-11.3389
▁registration	-11.339
▁observations	-11.3393
▁speakers	-11.3395
▁lover	-11.3397
én	-11.34
▁1831	-11.34
ao	-11.3403
▁militia	-11.3404
▁Lost	-11.3406
▁Dale	-11.3406
▁listing	-11.3407
▁pushed	-11.3409
▁vicinity	-11.341
ois	-11.3412
▁delegate	-11.3413
▁lateral	-11.3414
Brien	-11.3415
▁Brooks	-11.3418
▁rebellion	-11.3418
▁Luxembourg	-11.342
EA	-11.3422
ech	-11.3423
▁rivals	-11.3425
▁Clo	-11.3428
hole	-11.3431
▁Budapest	-11.3431
▁Bed	-11.3432
RO	-11.3435
▁intervention	-11.3436
▁ages	-11.3437
–10	-11.3438
▁(24	-11.3439
CE	-11.3441
▁elite	-11.3441
rey	-11.3442
▁sporting	-11.3443
ink	-11.3444
DA	-11.3448
▁playwright	-11.3448
▁wet	-11.3448
▁Excellence	-11.345
▁emerging	-11.345
▁experts	-11.3452
▁Holmes	-11.3453
Am	-11.3454
▁Colin	-11.3458
▁exhibits	-11.3459
BS	-11.3467
▁progressive	-11.3474
▁1933,	-11.3482
▁Interior	-11.3482
oi	-11.3483
speed	-11.3483
▁submerged	-11.3485
▁Wars	-11.3485
▁chapters	-11.3487
EM	-11.3488
▁nurse	-11.349
▁Formation	-11.349
▁deliver	-11.3493
▁ratings	-11.3493
▁varies	-11.3495
▁1500	-11.3496
▁Alpha	-11.3499
▁Ras	-11.35
▁1951.	-11.3503
ée	-11.3507
▁ibn	-11.3508
▁register	-11.3508
▁1940.	-11.3508
DP	-11.3511
ologist	-11.3511
▁Shar	-11.3513
▁(30	-11.3515
▁lab	-11.3517
aged	-11.3518
▁informed	-11.3518
▁protests	-11.3524
ters	-11.3524
▁Observatory	-11.3525
▁Lucy	-11.3526
sie	-11.3526
▁Watch	-11.3528
▁depicts	-11.3532
▁enjoy	-11.3533
take	-11.3534
▁rises	-11.3534
▁mentor	-11.3536
▁Superior	-11.3537
IM	-11.3537
▁Leicester	-11.3539
▁metric	-11.3544
after	-11.3544
gam	-11.3545
CS	-11.3548
▁nineteenth	-11.3549
▁discuss	-11.3552
▁certificate	-11.3553
▁asking	-11.3554
three	-11.3559
▁martial	-11.3561
▁saint	-11.3562
▁preservation	-11.3563
▁governing	-11.3563
▁colours	-11.3564
ssel	-11.3566
ges	-11.3568
▁Georg	-11.3569
▁terrain	-11.3574
▁Wednesday	-11.3574
▁reviewer	-11.3577
ground	-11.3578
▁belong	-11.3579
▁Net	-11.358
▁Milton	-11.3581
▁deals	-11.3582
▁improving	-11.3582
▁Nottingham	-11.3583
▁Taka	-11.3587
▁portions	-11.3587
▁lighthouse	-11.3587
▁porch	-11.3587
▁Insurance	-11.3589
▁Forbes	-11.3592
▁skill	-11.3592
▁Tiger	-11.3594
▁syndrome	-11.3595
▁dozen	-11.3597
▁tender	-11.3598
▁Meyer	-11.3598
onic	-11.3599
▁1833	-11.36
▁undertook	-11.3601
▁insects	-11.3601
▁Being	-11.3602
gui	-11.3603
▁Hat	-11.3603
▁rotation	-11.3604
BL	-11.3605
▁maintaining	-11.3605
▁pregnant	-11.3607
▁reducing	-11.3607
arra	-11.3609
▁procedure	-11.3609
▁nationwide	-11.361
▁1841	-11.361
▁wa	-11.3612
▁Arabia	-11.3613
▁Canyon	-11.3613
▁collector	-11.3616
▁Foot	-11.3617
▁IF	-11.3621
▁mineral	-11.3622
▁tackle	-11.3623
pha	-11.3623
▁arc	-11.3623
written	-11.3624
ido	-11.3629
▁familiar	-11.3632
▁fate	-11.3633
▁125	-11.3633
▁commitment	-11.3634
▁Miles	-11.3635
▁ranges	-11.3636
▁maternal	-11.3636
▁survivors	-11.3636
ott	-11.3638
▁expelled	-11.3639
▁Working	-11.3639
that	-11.3641
▁Lion	-11.3641
▁recurring	-11.3642
cre	-11.3642
▁Len	-11.3644
zel	-11.3645
▁professionals	-11.3651
▁Kit	-11.3651
▁Universe	-11.3651
▁automatically	-11.3654
▁Mala	-11.3654
▁1875	-11.3656
▁export	-11.3656
▁Idaho	-11.3657
▁Chemical	-11.3657
▁firing	-11.3659
▁Ship	-11.3659
ffer	-11.366
▁Eli	-11.3663
new	-11.3665
▁Chelsea	-11.3665
▁Bryan	-11.3666
▁illustrations	-11.3667
▁sophomore	-11.3668
▁Heinrich	-11.3668
▁abbey	-11.3668
zz	-11.3669
iah	-11.3669
▁Edge	-11.3671
▁Ages	-11.3673
▁Tsu	-11.3673
▁creates	-11.3673
▁1934,	-11.3674
▁Fourth	-11.3674
▁Ek	-11.3675
▁tissue	-11.3675
▁Twenty	-11.3679
▁bankruptcy	-11.368
▁bombing	-11.3681
▁Salvador	-11.3682
▁Dom	-11.3683
▁Kun	-11.3684
▁USSR	-11.3684
▁Lam	-11.3685
▁interact	-11.3686
▁comics	-11.3687
▁Robertson	-11.3687
▁athletics	-11.3687
▁aspect	-11.3691
▁handling	-11.3692
▁cha	-11.3693
ked	-11.3693
▁nose	-11.3694
lik	-11.3695
▁Ahmad	-11.3695
▁Burton	-11.3695
▁Inspector	-11.3698
▁romance	-11.3698
▁Marion	-11.3698
NS	-11.37
AD	-11.3701
▁computers	-11.3703
English	-11.3705
nin	-11.3711
▁commanding	-11.3711
▁facilitate	-11.3711
▁Theological	-11.3714
▁affect	-11.3716
▁deeply	-11.3718
▁Colonial	-11.372
nai	-11.3722
▁1873	-11.3725
▁Bis	-11.3726
▁profit	-11.3727
▁1848	-11.3727
▁jointly	-11.3727
▁imprisonment	-11.373
▁Partners	-11.373
▁Eugene	-11.3731
bb	-11.3732
▁acclaim	-11.3735
first	-11.3736
▁Factory	-11.3736
cott	-11.3737
▁Train	-11.3741
▁Obama	-11.3742
.00	-11.3744
▁audiences	-11.3745
nov	-11.3746
pers	-11.3747
▁expanding	-11.3748
gor	-11.3749
▁composers	-11.3753
▁vacant	-11.3754
▁mentions	-11.3756
lim	-11.3759
▁canon	-11.3762
▁Napoleon	-11.3764
▁50%	-11.3765
”,	-11.3767
▁Cohen	-11.3768
▁worst	-11.3769
▁Bosnia	-11.3771
▁altered	-11.3771
▁behaviour	-11.3772
▁Communication	-11.3774
▁interim	-11.3774
▁therapy	-11.3778
▁folded	-11.3778
▁compact	-11.3778
▁owns	-11.3779
▁dinner	-11.3781
▁slaves	-11.3782
▁terminated	-11.3783
▁diet	-11.3784
▁Doug	-11.3786
▁prices	-11.3788
▁VIII	-11.3789
▁Moor	-11.3793
▁Hugo	-11.3794
▁Ave	-11.3794
vik	-11.38
▁landmark	-11.38
▁Fat	-11.3806
▁manufacturers	-11.3807
▁Literary	-11.3807
▁argument	-11.3808
ants	-11.3809
▁Lithuania	-11.3809
▁1919.	-11.381
▁Reynolds	-11.381
▁Joy	-11.3811
▁Commercial	-11.3813
▁ESPN	-11.3814
▁shed	-11.3821
▁Syrian	-11.3821
▁Roosevelt	-11.3822
real	-11.3824
▁faster	-11.3824
▁hop	-11.3824
▁mutual	-11.3828
▁<	-11.3832
ening	-11.3833
ija	-11.3837
▁deposits	-11.3837
▁descendant	-11.3838
▁withdrawn	-11.3841
▁Palestinian	-11.3843
kes	-11.3844
kon	-11.3845
▁AFC	-11.3847
ened	-11.3847
▁arrangements	-11.3847
▁Boat	-11.3852
▁peer	-11.3852
SM	-11.3853
▁sheet	-11.3854
▁partnered	-11.3855
▁cruise	-11.3855
▁comments	-11.3857
▁Pink	-11.3858
One	-11.3858
▁tele	-11.3859
▁refugees	-11.3859
▁stick	-11.3867
▁Bud	-11.3869
▁cool	-11.3869
▁quoted	-11.3873
▁obtaining	-11.3874
link	-11.3875
▁Das	-11.3875
▁rocket	-11.3877
rup	-11.3878
chu	-11.3879
▁decree	-11.3879
▁Yellow	-11.388
▁recreational	-11.3882
▁Spin	-11.3885
▁palm	-11.3885
▁graphics	-11.3885
▁Legal	-11.3886
▁Mile	-11.3886
▁missile	-11.3887
name	-11.3889
▁Globe	-11.389
▁Enterprise	-11.3893
▁transformation	-11.3893
rai	-11.3894
▁sandstone	-11.3895
▁Dai	-11.3896
▁swing	-11.39
rn	-11.3903
▁remix	-11.3903
▁mathematician	-11.3903
▁AP	-11.3904
▁increases	-11.3904
▁bout	-11.3904
▁dubbed	-11.3905
▁Shan	-11.3905
August	-11.3906
dic	-11.391
▁integration	-11.3912
▁Bedford	-11.3916
▁varied	-11.3917
person	-11.3919
▁Springfield	-11.3921
▁consumption	-11.3921
▁lu	-11.3929
▁developers	-11.3929
▁catalogue	-11.3929
▁Bros	-11.3929
▁Annie	-11.3929
▁prevented	-11.3932
▁Leslie	-11.3934
tail	-11.3936
iga	-11.3937
▁remember	-11.3938
▁recover	-11.3942
▁sure	-11.3944
▁revived	-11.3945
▁dome	-11.3946
▁#2	-11.3947
▁Path	-11.3949
▁Cancer	-11.3949
apa	-11.395
▁derives	-11.3952
aries	-11.3953
▁Til	-11.3953
▁lineup	-11.3954
range	-11.3954
▁Sai	-11.3955
å	-11.3956
▁escort	-11.3957
▁Achievement	-11.396
▁Concert	-11.3961
PP	-11.3963
▁Mau	-11.3964
▁Vir	-11.3965
▁samples	-11.3968
ingen	-11.3969
▁sight	-11.3971
ule	-11.3973
▁su	-11.3974
pol	-11.3975
▁tone	-11.3976
ister	-11.3978
uc	-11.3979
▁1938.	-11.398
▁spiral	-11.3982
▁interaction	-11.3984
▁Cairo	-11.3986
second	-11.3987
bur	-11.3991
▁Pot	-11.3994
rant	-11.3998
▁Edgar	-11.4003
▁planted	-11.4003
▁membrane	-11.4005
hard	-11.4006
▁topic	-11.4007
itis	-11.4008
▁Eight	-11.4008
▁impossible	-11.4009
▁pageant	-11.401
▁Clear	-11.4014
▁lying	-11.4015
▁revenge	-11.4018
▁Cur	-11.4019
▁Adult	-11.402
▁emotional	-11.4021
▁streak	-11.4021
ides	-11.4023
▁retain	-11.4024
▁breaks	-11.4029
▁broadcaster	-11.4031
▁Guards	-11.4033
▁OS	-11.4033
tai	-11.4035
▁literally	-11.4036
sberg	-11.4037
▁Marsh	-11.404
iro	-11.404
▁comparison	-11.4041
quin	-11.4041
▁crowned	-11.4042
▁Founded	-11.4042
▁dying	-11.4044
ander	-11.4046
▁Hindi	-11.4049
▁enable	-11.4052
▁valid	-11.4053
▁tanks	-11.4056
▁authorized	-11.4057
▁transported	-11.4062
▁Southampton	-11.4064
▁Seoul	-11.4064
▁Rolling	-11.4067
▁Sofia	-11.4067
▁Aviv	-11.4067
▁prolific	-11.407
EP	-11.407
▁1950.	-11.4074
▁kick	-11.4075
shed	-11.4082
IN	-11.4083
000	-11.4085
▁Sons	-11.4085
▁mysterious	-11.4085
▁watching	-11.4088
▁Monroe	-11.4088
ular	-11.4089
▁amounts	-11.409
▁Actor	-11.4092
▁Wagner	-11.4092
▁Rachel	-11.4092
gie	-11.4093
▁Ghost	-11.4097
▁Klein	-11.41
▁teenager	-11.41
▁impression	-11.4101
▁learns	-11.4103
▁moon	-11.4105
lag	-11.4105
▁relatives	-11.4111
▁André	-11.4112
▁Basin	-11.4114
▁GT	-11.4114
▁Ard	-11.4116
▁Primera	-11.4116
▁1937.	-11.4119
▁Past	-11.4119
▁semifinals	-11.412
–0.	-11.4121
hin	-11.4121
▁regulation	-11.4122
▁Orlando	-11.4122
▁controls	-11.4129
▁Bears	-11.4131
pel	-11.4131
CD	-11.4133
num	-11.4133
▁reflected	-11.4136
▁Christians	-11.4138
▁Bombay	-11.4141
tsu	-11.4143
▁Face	-11.4144
▁Mega	-11.4146
▁Nathan	-11.4148
▁Full	-11.4149
▁parade	-11.415
▁corps	-11.4153
▁intense	-11.4157
▁concentrated	-11.4158
▁Ven	-11.4159
▁Claude	-11.4161
▁adviser	-11.4162
▁Dynasty	-11.4162
fire	-11.4164
If	-11.4166
▁trails	-11.4168
▁supplement	-11.4168
▁varieties	-11.4168
▁reader	-11.4169
▁feelings	-11.4173
▁1928,	-11.4174
▁delegation	-11.4175
▁vinyl	-11.4175
▁Crawford	-11.4181
elo	-11.4182
vil	-11.4182
sham	-11.4185
oz	-11.4186
▁meter	-11.4187
▁magnetic	-11.4188
▁repeatedly	-11.4189
▁historians	-11.4191
▁McDonald	-11.4193
–12	-11.4193
leg	-11.4194
ente	-11.4195
▁grain	-11.4196
bee	-11.4197
▁Safety	-11.4197
nk	-11.4198
▁Industries	-11.4201
▁Lip	-11.4202
▁agree	-11.4202
▁pine	-11.4203
▁Deutsche	-11.4204
▁Ernst	-11.4206
▁Aboriginal	-11.4206
▁Viscount	-11.4206
▁targets	-11.4207
Sc	-11.4208
▁finalist	-11.4209
ske	-11.4211
lor	-11.4213
▁Glenn	-11.4216
▁harbour	-11.4218
▁Exeter	-11.4218
▁endemic	-11.4219
rak	-11.422
▁neuro	-11.4222
▁Albania	-11.4222
▁asteroid	-11.4223
▁demands	-11.4224
week	-11.4224
▁Movie	-11.4225
aux	-11.4227
▁Using	-11.423
▁HD	-11.423
▁Arc	-11.423
▁consistent	-11.4231
ο	-11.4233
stead	-11.4235
▁Din	-11.4235
▁Fiction	-11.4235
▁1814	-11.4241
▁Vic	-11.4243
▁1916,	-11.4248
▁lung	-11.4248
▁surfaces	-11.4248
▁Brun	-11.4254
ingham	-11.4255
▁Iraqi	-11.4255
metre	-11.4256
▁Wol	-11.4257
▁Kho	-11.4258
▁absent	-11.4258
▁pipe	-11.4259
▁Vas	-11.4261
▁Louisville	-11.4263
▁Clara	-11.4265
▁Located	-11.4265
▁lights	-11.4268
▁Rep	-11.4272
▁collapsed	-11.4274
▁batting	-11.4275
▁Access	-11.4275
▁Andre	-11.4278
▁Andrea	-11.4278
▁monks	-11.4279
▁lady	-11.4281
bha	-11.4282
▁fault	-11.4282
▁strange	-11.4282
▁sponsor	-11.4282
▁contracted	-11.4283
mun	-11.4283
▁160	-11.4284
–20	-11.4286
▁followers	-11.4287
▁photograph	-11.4288
▁oxygen	-11.429
▁backed	-11.429
fra	-11.4291
▁1–1	-11.4291
▁Sudan	-11.4292
▁trunk	-11.4293
▁curator	-11.4294
▁1839	-11.4294
▁populations	-11.4295
▁committees	-11.4296
ische	-11.4296
▁Testament	-11.4296
▁distant	-11.4296
IL	-11.4296
▁Slovakia	-11.4298
▁Gerald	-11.4298
ight	-11.4299
▁1825	-11.4299
▁Former	-11.4299
▁1922,	-11.4302
anna	-11.4304
▁transit	-11.4305
▁Whit	-11.4309
▁companion	-11.4309
▁Headquarters	-11.4309
▁grammar	-11.4309
▁CO	-11.4309
45	-11.431
▁Via	-11.431
▁pitcher	-11.4312
fall	-11.4312
President	-11.4314
▁1829	-11.4316
mine	-11.4319
RS	-11.432
▁pe	-11.432
▁diversity	-11.4321
hon	-11.4324
▁(25	-11.4324
chin	-11.4325
▁Capitol	-11.4326
▁1836	-11.4326
▁Cumberland	-11.4327
▁freelance	-11.4328
▁fighters	-11.4329
▁cavalry	-11.433
▁Twitter	-11.4334
wheel	-11.4336
ED	-11.4336
▁Letters	-11.4339
▁Reg	-11.434
▁clothes	-11.434
Th	-11.434
▁--	-11.434
▁Met	-11.4341
▁feels	-11.4344
▁María	-11.4344
▁Heath	-11.4345
▁preliminary	-11.4346
▁Moss	-11.435
▁LLC	-11.4351
▁hospitals	-11.4351
▁sixty	-11.4352
▁1923,	-11.4352
▁Prof	-11.4352
▁mild	-11.4352
tron	-11.4355
▁Roth	-11.4355
hor	-11.4356
▁enforcement	-11.4356
▁citizenship	-11.4356
▁editing	-11.4357
general	-11.4358
▁manual	-11.4358
screen	-11.4358
▁Ai	-11.4359
▁Kenneth	-11.4359
▁Rap	-11.436
▁Math	-11.4361
▁detective	-11.4362
▁cabin	-11.4363
▁purple	-11.4367
▁Crystal	-11.4368
▁efficient	-11.4371
▁suspected	-11.4372
▁Zu	-11.4374
▁Bow	-11.4375
▁fossil	-11.4375
Bar	-11.4376
▁Carroll	-11.4378
▁pseudonym	-11.438
hop	-11.438
AN	-11.4382
▁ver	-11.4385
▁Bronze	-11.4385
both	-11.4385
▁conceived	-11.4387
▁prayer	-11.4388
▁Canon	-11.439
▁wards	-11.439
▁1927,	-11.439
▁pole	-11.4392
vet	-11.4393
VA	-11.4393
▁Prison	-11.4394
erson	-11.4396
MI	-11.4396
▁sending	-11.4396
▁Alexandria	-11.4397
▁enlarged	-11.4398
So	-11.4398
▁cluster	-11.4398
▁Corner	-11.4402
▁180	-11.4402
▁AFL	-11.4403
▁1921,	-11.4405
ste	-11.4406
▁Santo	-11.4407
▁numbered	-11.4407
▁invested	-11.4408
▁Pala	-11.441
AA	-11.4411
PR	-11.4412
Car	-11.4413
▁judicial	-11.4414
world	-11.4415
▁1917.	-11.4416
bul	-11.4416
▁loved	-11.4418
French	-11.4418
▁killer	-11.4418
nn	-11.4419
▁protagonist	-11.4421
▁regard	-11.4423
▁provision	-11.4425
▁preparing	-11.4428
▁entity	-11.4428
▁disk	-11.4429
tas	-11.443
▁leased	-11.4432
rite	-11.4434
ography	-11.4435
▁Frances	-11.4436
▁Cast	-11.4437
▁Barnes	-11.4438
▁Dia	-11.4441
▁dish	-11.4441
▁Flag	-11.4441
▁Maj	-11.4444
▁mu	-11.4444
beck	-11.4446
▁Sox	-11.4446
▁Charleston	-11.4447
▁nest	-11.4447
▁explain	-11.4448
▁addressed	-11.4449
▁trophy	-11.4451
▁allocated	-11.4452
▁Llan	-11.4454
▁handled	-11.4454
▁rocky	-11.4455
▁slot	-11.4456
▁presents	-11.4458
▁1930,	-11.4459
bell	-11.4459
▁engage	-11.4461
▁torpedo	-11.4462
▁Linda	-11.4463
▁Previously	-11.4465
▁Ir	-11.4465
▁Dorothy	-11.4466
▁seized	-11.4467
▁pace	-11.4468
▁Hayes	-11.447
▁Glacier	-11.447
than	-11.4471
▁Troy	-11.4471
▁Again	-11.4472
▁Cologne	-11.4473
▁odd	-11.4476
▁investigated	-11.4476
▁Fil	-11.4477
▁Adrian	-11.4478
AR	-11.4481
▁Nevertheless	-11.4482
▁ranch	-11.4483
▁trailer	-11.4485
power	-11.4485
ume	-11.4485
▁CR	-11.4486
▁Trump	-11.4486
▁bounded	-11.4487
▁metropolitan	-11.449
▁hub	-11.449
▁Wai	-11.4496
▁Sant	-11.4496
▁Ap	-11.4497
▁Sk	-11.45
CP	-11.4501
▁Continental	-11.4503
▁Hero	-11.4506
▁priests	-11.4507
writer	-11.4507
▁mar	-11.4509
▁Cow	-11.451
▁sacred	-11.4511
▁Qa	-11.4513
▁Suffolk	-11.4514
lly	-11.4517
▁Cavalry	-11.4518
▁1912,	-11.4519
▁Complex	-11.4524
▁colleague	-11.4525
What	-11.4526
▁presenting	-11.4527
▁oval	-11.4527
grave	-11.4528
▁refuge	-11.4529
▁pilots	-11.4529
▁Herman	-11.4538
▁Apollo	-11.4539
Jo	-11.454
ched	-11.4541
▁Tara	-11.4542
ign	-11.4544
▁Bradley	-11.4545
brown	-11.4545
▁encountered	-11.4547
▁longtime	-11.4547
▁SP	-11.4548
▁Chandra	-11.4548
▁fu	-11.4548
-14	-11.455
att	-11.4551
oro	-11.4551
▁Maritime	-11.4552
NC	-11.4552
▁Sy	-11.4553
–3	-11.4553
rim	-11.4557
▁nursing	-11.4559
▁associations	-11.4559
▁enterprise	-11.456
▁Gy	-11.4563
press	-11.4564
▁disorder	-11.4567
Gu	-11.4567
▁cleared	-11.4568
▁Warriors	-11.4568
umi	-11.4569
quet	-11.4569
▁Software	-11.4569
uga	-11.457
▁Sugar	-11.457
LC	-11.457
▁Ble	-11.4572
▁identification	-11.4572
▁Kurt	-11.4572
▁solve	-11.4574
▁Body	-11.4574
owner	-11.4574
gent	-11.4574
▁accurate	-11.4576
▁Lynn	-11.4576
▁essay	-11.4578
▁Dec	-11.458
cock	-11.4581
▁Loch	-11.4581
▁Chin	-11.4581
▁Xi	-11.4582
▁1932,	-11.4583
▁Lamb	-11.4583
▁neo	-11.4583
▁Sebastian	-11.4585
sted	-11.4585
▁Physical	-11.4591
park	-11.4592
▁seemed	-11.4594
offs	-11.4595
▁kills	-11.4598
▁Level	-11.4598
▁Ulster	-11.4598
▁politicians	-11.4598
▁bulk	-11.4601
▁chancel	-11.4607
lio	-11.4608
▁treat	-11.4608
▁Learning	-11.461
▁trend	-11.461
▁succeeding	-11.4611
▁UCLA	-11.4612
▁Bee	-11.4614
▁Got	-11.4614
▁scattered	-11.4617
▁1925,	-11.4618
nel	-11.4619
▁Cra	-11.4619
▁Webb	-11.462
▁horizontal	-11.4621
▁trace	-11.4622
leigh	-11.4622
▁Janeiro	-11.4624
▁taxi	-11.4624
-11	-11.4625
Fi	-11.4626
▁separation	-11.4627
lem	-11.4627
▁epi	-11.4631
▁Kre	-11.4634
▁École	-11.464
▁centres	-11.464
▁coordinator	-11.464
▁undertaken	-11.464
▁wheels	-11.4641
▁1810	-11.4644
▁personally	-11.4646
▁aggregate	-11.4646
▁garrison	-11.465
▁Comp	-11.465
hol	-11.465
▁2.0	-11.465
▁discipline	-11.4651
▁Know	-11.4651
▁Drum	-11.4652
▁landscapes	-11.4652
▁Cad	-11.4653
tine	-11.4654
verse	-11.4655
▁1931,	-11.4655
▁admission	-11.4656
▁refuses	-11.4657
▁0.1	-11.4658
▁reveal	-11.466
get	-11.4661
/10	-11.4661
lea	-11.4662
▁Original	-11.4664
▁tables	-11.4665
zhou	-11.4666
▁lit	-11.4667
▁loose	-11.4667
▁Morrison	-11.4668
cht	-11.467
▁Sche	-11.4671
▁parishes	-11.4673
▁shock	-11.4674
▁Northwestern	-11.4674
▁trademark	-11.4676
▁Pitt	-11.4677
▁striking	-11.4679
▁accredited	-11.468
▁Bergen	-11.468
▁hydro	-11.4683
▁Statistics	-11.4685
▁Providence	-11.4685
OR	-11.4686
▁(26	-11.4686
rac	-11.4691
▁societies	-11.4692
▁twentieth	-11.4692
▁climbing	-11.4693
▁Mara	-11.4694
haus	-11.4695
bia	-11.4698
▁Presidential	-11.4699
▁Lind	-11.4699
▁Half	-11.47
▁Chronicle	-11.4701
▁Chennai	-11.4702
▁Shri	-11.4703
▁raid	-11.4704
fan	-11.4705
▁entries	-11.4705
▁danger	-11.4706
LE	-11.4707
Fa	-11.4708
▁Lie	-11.4709
▁artifacts	-11.4711
▁Tru	-11.4714
▁Antarctica	-11.4715
▁Santos	-11.4717
Su	-11.4719
▁Germans	-11.4722
▁Source	-11.4722
▁Thunder	-11.4724
▁1924,	-11.4724
▁consulting	-11.4725
▁scales	-11.4725
▁Marco	-11.4726
FI	-11.4727
▁Actress	-11.4728
hood	-11.4731
▁educator	-11.4732
vey	-11.4733
▁rent	-11.4734
▁Indoor	-11.4734
▁Rand	-11.4736
▁rainfall	-11.4738
▁Too	-11.4739
▁Lock	-11.4739
vat	-11.474
▁tribal	-11.4741
▁Liberation	-11.4745
▁muscle	-11.4746
▁struggled	-11.4747
▁Housing	-11.4748
▁strict	-11.4749
▁horn	-11.4754
any	-11.4755
SO	-11.4755
▁secular	-11.4757
▁journalists	-11.4758
▁centered	-11.4759
▁convent	-11.476
▁woodland	-11.4761
handed	-11.4762
▁Sing	-11.4766
▁Lim	-11.4768
ault	-11.4769
▁Gul	-11.477
▁reads	-11.4776
lets	-11.4777
▁boom	-11.4778
▁Popular	-11.478
▁situations	-11.4783
▁quantum	-11.4784
June	-11.4787
▁shrine	-11.4789
ern	-11.4791
▁invention	-11.4792
▁1910,	-11.4793
▁Diploma	-11.4795
▁Erik	-11.4798
▁Fin	-11.4798
lines	-11.4801
▁duration	-11.4801
▁Edwin	-11.4801
▁z	-11.4803
▁headquartered	-11.4811
▁layers	-11.4815
▁Talk	-11.4815
ucci	-11.4816
▁unless	-11.4817
▁Note	-11.4818
▁Ei	-11.4821
▁MC	-11.4821
▁Qui	-11.4822
▁Criminal	-11.4823
▁Alt	-11.4824
Da	-11.4825
▁backup	-11.4827
▁1821	-11.4828
▁engineers	-11.4828
▁Helsinki	-11.483
▁consent	-11.483
▁True	-11.483
holm	-11.483
▁0.5	-11.4831
▁holder	-11.4831
▁unveiled	-11.4833
ox	-11.4834
▁Beau	-11.4837
▁sword	-11.4839
▁unclear	-11.4839
▁Row	-11.4842
▁northeastern	-11.4845
ush	-11.4845
corn	-11.4846
▁Inside	-11.4846
▁Stoke	-11.4847
▁Calcutta	-11.4849
Se	-11.485
▁variations	-11.4853
host	-11.4854
stock	-11.4856
▁electro	-11.4858
▁transform	-11.4858
▁Ada	-11.486
▁Worcester	-11.4863
group	-11.4865
▁Johannes	-11.4865
▁anthology	-11.4869
▁axis	-11.487
▁thrown	-11.4871
▁Bavaria	-11.4872
logy	-11.4873
▁abilities	-11.4875
▁Worth	-11.4878
▁Kids	-11.4879
pot	-11.4881
▁Eva	-11.4881
hem	-11.4882
▁Fur	-11.4888
▁similarly	-11.4889
ario	-11.489
▁remarkable	-11.4891
–0	-11.4891
▁Mol	-11.4892
▁Esp	-11.4893
▁fruits	-11.4894
▁2:	-11.4894
▁blow	-11.4895
▁metre	-11.4897
▁donations	-11.4898
▁advisory	-11.49
▁1935.	-11.49
▁(22	-11.4902
DS	-11.4902
▁pension	-11.4903
▁symptoms	-11.4904
▁embarked	-11.4906
▁southeastern	-11.4908
stan	-11.4908
▁Pick	-11.4909
bet	-11.4911
▁Hai	-11.4913
▁Mini	-11.4914
odo	-11.4914
spor	-11.4916
▁badly	-11.4917
▁350	-11.4919
▁Syracuse	-11.4919
dle	-11.492
▁inclusion	-11.4921
▁Jesse	-11.4921
EL	-11.4922
▁taxes	-11.4923
▁Afterwards	-11.4925
▁proximity	-11.4926
▁competitors	-11.4926
▁Qua	-11.4926
▁electorate	-11.4926
▁Baroque	-11.4926
▁Without	-11.4932
▁attract	-11.4932
tam	-11.4933
▁hopes	-11.4935
▁celebrity	-11.4936
▁1844	-11.4943
▁knockout	-11.4943
kawa	-11.4944
cross	-11.4945
hausen	-11.4946
▁centimetres	-11.4946
▁abstract	-11.4947
ct	-11.4948
▁Ethiopia	-11.4948
▁1835	-11.495
▁Southwest	-11.495
▁Marvel	-11.495
▁hitting	-11.4952
site	-11.4952
▁Salem	-11.4952
Ga	-11.4953
anta	-11.4954
▁Zoo	-11.4962
▁1926,	-11.4963
sport	-11.4963
▁Uruguay	-11.4964
▁habitats	-11.4965
TE	-11.497
hari	-11.497
▁disabled	-11.4973
▁1826	-11.4973
bot	-11.4974
▁100,000	-11.4974
▁doctors	-11.4979
▁1818	-11.4979
▁stems	-11.498
▁Sher	-11.4981
▁Cash	-11.4986
▁1824	-11.4987
▁larvae	-11.4989
rot	-11.499
shaw	-11.4992
▁Geo	-11.4995
▁seating	-11.4996
▁wait	-11.4996
▁Shiva	-11.4998
▁Fal	-11.4999
▁Fashion	-11.4999
://	-11.5
▁narrowly	-11.5001
▁curve	-11.5002
▁Tennis	-11.5002
▁philosopher	-11.5005
kins	-11.5006
▁constituencies	-11.5006
▁skull	-11.5006
▁Solar	-11.5007
▁"...	-11.501
▁1828	-11.5011
▁Tyler	-11.5011
▁ballot	-11.5011
▁1936.	-11.5012
▁winds	-11.5012
▁Burns	-11.5013
▁threats	-11.5013
▁revolutionary	-11.5013
▁Tourism	-11.5013
▁recognize	-11.5015
▁Chand	-11.5017
▁populated	-11.5017
▁Quarter	-11.5017
▁constitute	-11.5018
▁sketch	-11.5019
ssen	-11.502
▁Karen	-11.502
▁Table	-11.502
atus	-11.5023
▁statistical	-11.5023
▁Rosen	-11.5025
▁colonies	-11.5027
▁requirement	-11.503
▁receiver	-11.5034
rad	-11.5034
▁Arsenal	-11.5036
▁empire	-11.5036
▁Pit	-11.5039
▁certification	-11.504
▁convert	-11.5041
gger	-11.5041
▁ba	-11.5043
▁Pil	-11.5047
–2	-11.5048
tie	-11.5052
▁$6	-11.5054
▁Faith	-11.5054
▁prizes	-11.5058
▁wore	-11.5059
▁optical	-11.5059
oe	-11.5059
hang	-11.506
kara	-11.5063
▁1929.	-11.5063
▁Pel	-11.5064
▁Ul	-11.5065
▁paying	-11.5068
char	-11.5072
mouth	-11.5076
▁Estonia	-11.5077
▁indeed	-11.5077
show	-11.5077
▁binding	-11.5078
▁suburban	-11.5079
▁assembled	-11.5079
▁Om	-11.508
▁Scout	-11.5081
▁Theodore	-11.5081
▁bat	-11.5083
▁Thursday	-11.5084
▁pm	-11.5086
▁garage	-11.5091
▁crop	-11.5095
▁warehouse	-11.5097
▁chef	-11.5098
▁separately	-11.51
front	-11.5101
TP	-11.5103
▁Bil	-11.5108
▁Pad	-11.511
Love	-11.5111
There	-11.5111
core	-11.5115
▁AG	-11.5115
roy	-11.5117
▁1934.	-11.5117
▁fellowship	-11.5118
▁dynamic	-11.5121
tty	-11.5122
▁Clare	-11.5122
▁aware	-11.5123
▁migration	-11.5124
rail	-11.5124
▁publishes	-11.5127
nick	-11.5128
▁requiring	-11.5128
▁ni	-11.5128
▁Prussian	-11.5129
▁Lem	-11.5131
▁welfare	-11.5131
▁Any	-11.5132
▁gathering	-11.5133
▁adopt	-11.5133
▁Cri	-11.5135
▁SE	-11.5137
▁universal	-11.5137
▁Crime	-11.5138
▁Hampton	-11.5138
▁minimal	-11.5138
▁1914.	-11.514
▁Banks	-11.514
▁alien	-11.5145
▁dependent	-11.5151
▁Trinidad	-11.5152
▁Finn	-11.5153
▁pond	-11.5155
▁creator	-11.5156
▁Py	-11.5156
▁Credit	-11.5157
▁Oriental	-11.5157
▁Greene	-11.5158
▁efficiency	-11.5159
▁compounds	-11.516
▁barn	-11.5161
tham	-11.5162
▁fraud	-11.5162
gro	-11.5162
▁upset	-11.5163
mara	-11.5164
rated	-11.5165
▁rapper	-11.5165
author	-11.5166
▁Baltic	-11.5167
▁Classical	-11.517
gia	-11.5171
▁5-	-11.5171
▁Johnston	-11.5174
late	-11.5176
▁cooking	-11.5179
▁Educational	-11.5183
▁contracts	-11.5187
▁Article	-11.519
▁Lithuanian	-11.5191
▁Jennifer	-11.5193
▁referendum	-11.5193
▁Lakes	-11.5193
▁lord	-11.5194
▁slope	-11.5195
hel	-11.5198
▁solely	-11.5199
ρ	-11.5201
tom	-11.5202
▁governments	-11.5205
▁inception	-11.5206
▁Berry	-11.5206
▁promised	-11.5206
▁pi	-11.5209
tree	-11.5209
▁tasks	-11.5209
▁Norwich	-11.521
▁cheese	-11.521
▁copyright	-11.521
▁Rum	-11.5211
base	-11.5212
▁universe	-11.5213
city	-11.5216
▁stamps	-11.5217
▁jet	-11.5219
sex	-11.522
▁Rou	-11.5221
mini	-11.5221
night	-11.5222
▁knows	-11.5222
▁Estonian	-11.5224
50,000	-11.5226
▁Casa	-11.5227
▁Oh	-11.5227
▁mystery	-11.5227
▁Visual	-11.523
▁Burn	-11.523
jin	-11.5231
fest	-11.5232
▁Coal	-11.5234
▁generate	-11.5235
▁vault	-11.5235
▁constantly	-11.5235
▁conquest	-11.5238
▁Ling	-11.5238
▁aunt	-11.524
▁oral	-11.5241
▁defender	-11.5241
▁talking	-11.5243
▁ob	-11.5243
▁Yard	-11.5243
▁prominence	-11.5244
▁Psychology	-11.5244
ake	-11.5245
▁virus	-11.5247
▁firms	-11.5249
▁Silva	-11.5249
cell	-11.5252
▁Lords	-11.5254
HL	-11.5256
▁Appeals	-11.5257
▁Baldwin	-11.5258
▁temples	-11.5259
▁Mos	-11.526
▁radiation	-11.5261
▁900	-11.5263
▁Kiev	-11.5264
▁anterior	-11.5265
eth	-11.5266
▁Raw	-11.5267
tation	-11.5268
▁Minneapolis	-11.5268
tun	-11.5269
▁convoy	-11.5272
▁draws	-11.5273
▁sail	-11.5274
▁legacy	-11.5275
▁theoretical	-11.5276
▁1858	-11.5278
▁elaborate	-11.5278
▁theories	-11.5281
▁Dundee	-11.5282
▁Summit	-11.5282
vas	-11.5283
dre	-11.5286
▁Speed	-11.5288
▁aerial	-11.529
▁Lisbon	-11.5293
April	-11.5296
▁shots	-11.5296
▁oversaw	-11.5296
▁NSW	-11.5298
▁rhythm	-11.5299
▁Newfoundland	-11.5299
▁motorcycle	-11.53
▁Colony	-11.5302
▁Lt	-11.5302
etz	-11.5304
asa	-11.5306
▁explanation	-11.5306
▁allegations	-11.5307
▁Ant	-11.5307
pole	-11.5309
grade	-11.531
▁catalog	-11.5311
▁thriller	-11.5312
Sha	-11.5312
▁humor	-11.5312
▁Cru	-11.5312
▁vicar	-11.5314
▁Oblast	-11.5314
▁lecture	-11.5315
▁Bonn	-11.5318
authored	-11.532
▁Poli	-11.532
▁poets	-11.532
▁screened	-11.5322
▁reunited	-11.5323
▁mac	-11.5325
▁Armenia	-11.5327
▁Chad	-11.5327
▁revolt	-11.5328
▁Zimbabwe	-11.5329
HA	-11.533
▁holes	-11.533
▁HIV	-11.5332
▁concepts	-11.5332
▁manga	-11.5332
▁Where	-11.5332
▁Elliott	-11.5332
▁Wyoming	-11.5334
▁laser	-11.5334
▁immigrant	-11.5335
▁Biology	-11.5336
▁pull	-11.5336
▁Arm	-11.5336
▁Hop	-11.5337
▁Res	-11.5339
qi	-11.5346
▁Petr	-11.5347
▁Segunda	-11.5348
▁synthesis	-11.5351
wn	-11.5352
▁Benedict	-11.5355
▁Tuesday	-11.5355
▁accidentally	-11.5356
▁Tea	-11.5356
▁Gandhi	-11.5359
▁variants	-11.536
▁entrepreneur	-11.5362
▁Gol	-11.5362
▁attacking	-11.5363
▁Duchy	-11.5363
ici	-11.5365
▁Phi	-11.5368
bble	-11.537
▁infection	-11.537
▁hatch	-11.5371
▁hotels	-11.5371
▁ne	-11.5372
▁Rotten	-11.5372
▁Shop	-11.5373
▁dressed	-11.5376
▁1816	-11.5377
eira	-11.5377
▁signals	-11.5381
September	-11.5383
▁Notable	-11.5383
▁feeding	-11.5383
ction	-11.5384
Big	-11.5387
▁Fun	-11.5387
▁contestant	-11.5387
▁gather	-11.5389
▁powder	-11.539
▁Ng	-11.5391
▁endangered	-11.5394
▁curved	-11.5394
▁Dubai	-11.5395
▁Vietnamese	-11.5395
osis	-11.5395
▁Fen	-11.5396
▁boyfriend	-11.5396
▁witness	-11.5396
▁phenomenon	-11.5397
hana	-11.5401
July	-11.5401
South	-11.5401
▁confusion	-11.5404
▁traces	-11.5405
RP	-11.5405
▁forcing	-11.5407
▁Vision	-11.5408
gli	-11.5408
▁1933.	-11.541
▁wake	-11.5414
▁Julie	-11.5414
mur	-11.5416
▁intent	-11.5421
▁Never	-11.5422
▁Make	-11.5424
▁silk	-11.5424
▁Tag	-11.5425
▁flagship	-11.5426
▁wickets	-11.5426
▁Giuseppe	-11.5428
▁rope	-11.5428
▁varying	-11.543
▁10-	-11.543
▁reserved	-11.5432
▁Eurovision	-11.5432
▁push	-11.5432
▁settling	-11.5433
▁Guru	-11.5434
▁advised	-11.5434
▁Betty	-11.5435
▁villa	-11.5437
▁portal	-11.5438
▁Mani	-11.5439
▁collegiate	-11.5442
▁Mae	-11.5443
▁Telegraph	-11.5444
▁geo	-11.5445
▁introduce	-11.5445
pid	-11.5446
▁logic	-11.5449
▁Burke	-11.5449
▁Thames	-11.545
▁fewer	-11.5451
▁chest	-11.5451
▁Ara	-11.5452
order	-11.5453
▁Blair	-11.5453
▁Cab	-11.5459
▁Arms	-11.5459
▁Norton	-11.546
mani	-11.546
▁villagers	-11.5461
400	-11.5463
▁Flat	-11.5464
är	-11.5464
shin	-11.5466
▁Kel	-11.5467
▁vector	-11.5467
▁airing	-11.5469
▁(23	-11.5471
ulu	-11.5473
▁Mei	-11.5475
llo	-11.5477
▁Shadow	-11.5479
▁enclosed	-11.5479
▁Than	-11.5479
▁Angels	-11.548
▁Kos	-11.5481
▁"[	-11.5481
▁Engineer	-11.5481
▁reforms	-11.5483
▁Prussia	-11.5484
▁Antwerp	-11.5485
▁Kala	-11.5485
▁Rie	-11.5488
▁Malcolm	-11.5488
responsibilities	-11.5488
▁fed	-11.5488
chel	-11.549
lick	-11.5491
▁merely	-11.5492
▁sustainable	-11.5496
UN	-11.5497
▁easier	-11.5499
▁beds	-11.5499
▁Multi	-11.5504
▁freestyle	-11.5505
▁interrupted	-11.5505
▁Logan	-11.5507
lau	-11.5507
▁bays	-11.5508
▁rescued	-11.551
▁Pod	-11.5511
▁Josh	-11.5512
Mu	-11.5513
CM	-11.5514
▁southwestern	-11.5515
▁Qatar	-11.5515
USA	-11.5518
▁Dong	-11.5518
▁Gustav	-11.552
▁Midland	-11.5521
TI	-11.5522
▁Money	-11.5523
▁Ferry	-11.5524
bol	-11.5524
▁comedian	-11.5525
SB	-11.5528
Greek	-11.5528
▁1865.	-11.5531
yam	-11.5532
▁sometime	-11.5532
▁decommissioned	-11.5532
▁ST	-11.5533
▁ser	-11.5534
▁1913,	-11.5535
0.0	-11.5537
▁ministers	-11.5538
pri	-11.5538
▁dealt	-11.5538
udi	-11.554
▁Barn	-11.5541
▁tough	-11.5542
October	-11.5542
▁Hood	-11.5543
▁1927.	-11.5544
▁talented	-11.555
▁spotted	-11.555
uta	-11.5552
▁bowl	-11.5554
▁Cla	-11.5554
▁migrated	-11.5554
▁climb	-11.556
▁opens	-11.556
bass	-11.556
▁u	-11.5562
▁Diana	-11.5562
▁grandchildren	-11.5565
▁Coalition	-11.5566
▁fountain	-11.557
▁proceeds	-11.5571
▁li	-11.5572
▁ask	-11.5573
▁waves	-11.5573
▁raw	-11.5575
▁automobile	-11.5575
Un	-11.5575
▁explored	-11.5575
▁Cas	-11.5576
▁commercials	-11.5576
▁Ladies	-11.5577
keeper	-11.5579
▁Pac	-11.558
▁verses	-11.5581
sum	-11.5584
▁charitable	-11.5584
▁repairs	-11.5584
▁mythology	-11.5584
vid	-11.5585
lip	-11.5585
▁Ranch	-11.5585
sim	-11.5587
▁Winchester	-11.5591
▁comprised	-11.5591
tica	-11.5592
▁Paper	-11.5592
▁prey	-11.5593
ł	-11.5595
▁Choice	-11.5595
▁Aero	-11.5596
▁organize	-11.5597
▁Transit	-11.5597
ered	-11.5599
▁trick	-11.56
▁Agreement	-11.5602
▁ITV	-11.5602
▁equity	-11.5602
▁Barr	-11.5602
fort	-11.5603
▁march	-11.5605
▁threw	-11.5605
▁operators	-11.5606
▁Zagreb	-11.5609
▁knocked	-11.5609
▁columnist	-11.561
▁Kei	-11.5611
▁Chal	-11.5611
green	-11.5613
rem	-11.5613
▁server	-11.5614
▁classrooms	-11.5616
▁prop	-11.5616
▁cord	-11.5616
▁Tasmania	-11.5617
▁Lund	-11.5617
orum	-11.5618
−	-11.5618
▁specializing	-11.5619
ER	-11.562
hart	-11.5621
▁survival	-11.5623
▁hydrogen	-11.5624
▁1813	-11.5624
▁Walsh	-11.5625
▁correspondence	-11.5627
MO	-11.5628
▁congressional	-11.563
rian	-11.5631
▁Devil	-11.5631
▁Picture	-11.5633
about	-11.5634
▁accompanying	-11.5635
inter	-11.5635
▁Archives	-11.5638
▁considering	-11.564
▁Sau	-11.5643
SD	-11.5645
▁banner	-11.5646
▁contestants	-11.5647
▁pot	-11.5647
▁reddish	-11.5648
▁Filipino	-11.5649
▁cartoon	-11.5651
▁attractive	-11.5652
▁Cloud	-11.5652
▁Volunteer	-11.5653
▁eating	-11.5654
▁Aircraft	-11.5654
▁1852	-11.5656
▁Discovery	-11.5657
▁speaks	-11.566
▁UC	-11.5661
▁flash	-11.5661
▁1806	-11.5662
▁outlets	-11.5662
▁Outside	-11.5663
▁Hermann	-11.5664
▁fights	-11.5664
storey	-11.5664
▁prompted	-11.5665
film	-11.5666
▁happen	-11.5668
▁equally	-11.5668
▁Against	-11.5669
▁Hyderabad	-11.567
▁achieving	-11.567
▁civic	-11.567
vu	-11.5674
br	-11.5675
▁soloist	-11.5677
plane	-11.5677
oke	-11.5677
▁Chapman	-11.5678
▁marathon	-11.568
idi	-11.568
▁105	-11.5681
▁Current	-11.5681
▁paved	-11.5684
sq	-11.5686
▁guided	-11.5687
say	-11.5691
▁labels	-11.5691
▁Dresden	-11.5691
▁Rot	-11.5693
▁Sacred	-11.5695
▁1827	-11.5695
CL	-11.5695
▁Tau	-11.5699
▁watched	-11.5699
November	-11.57
▁1931.	-11.5701
▁Monument	-11.5702
▁Lyn	-11.5703
south	-11.5703
▁councillor	-11.5704
▁realizes	-11.5709
▁Lor	-11.5709
▁quarters	-11.5711
pit	-11.5713
ía	-11.5714
▁genes	-11.5714
▁Rocky	-11.5715
stro	-11.5716
▁noticed	-11.5716
▁Bologna	-11.5716
▁anime	-11.5718
▁nicknamed	-11.5719
▁Bog	-11.572
tten	-11.5721
▁Scho	-11.5725
▁Bak	-11.5726
▁lock	-11.5726
▁sin	-11.5726
sko	-11.5726
Ca	-11.5728
▁Gr	-11.5729
▁Come	-11.573
▁Polytechnic	-11.5731
▁Bod	-11.5731
▁ear	-11.5732
▁fragments	-11.5734
▁Fifth	-11.5734
▁Index	-11.5736
sten	-11.5737
▁absolute	-11.5737
bad	-11.5739
▁Investment	-11.5739
▁1920.	-11.5741
▁Canberra	-11.5742
hm	-11.5743
▁shaft	-11.5745
▁seal	-11.5746
▁iTunes	-11.5749
▁volcanic	-11.5749
▁demanded	-11.5751
▁Leadership	-11.5753
aku	-11.5755
▁1923.	-11.5755
sea	-11.5756
▁commemorate	-11.5758
▁targeted	-11.5758
▁Drug	-11.5761
ways	-11.5762
▁Tribune	-11.5763
▁enhance	-11.5763
▁geometry	-11.5763
▁Easter	-11.5764
▁Generation	-11.5764
▁MIT	-11.5764
▁1900,	-11.5764
▁conversation	-11.5765
▁professionally	-11.5766
▁accordance	-11.5767
▁1924.	-11.5768
▁Sporting	-11.5769
▁messages	-11.5769
▁shadow	-11.5769
▁cum	-11.5773
▁Applied	-11.5774
▁Ark	-11.5777
shu	-11.5777
▁bark	-11.5778
▁decorative	-11.5778
cas	-11.5778
▁assassination	-11.5779
▁slide	-11.5779
▁1932.	-11.5779
▁Marcel	-11.5779
▁Parks	-11.5779
ines	-11.578
▁Pond	-11.5781
▁Ming	-11.5784
▁marking	-11.5784
▁posterior	-11.5785
▁supervised	-11.5787
phy	-11.5789
▁Griffin	-11.5789
▁SD	-11.5791
▁barrel	-11.5791
unda	-11.5792
▁Unfortunately	-11.5792
▁Zen	-11.5793
▁fat	-11.5793
▁feminist	-11.5795
▁Naga	-11.5796
▁2012–13	-11.5798
▁1928.	-11.5798
usa	-11.5799
▁Clyde	-11.58
▁Lal	-11.58
oa	-11.58
▁Female	-11.5802
▁erect	-11.5804
▁modest	-11.5804
ographic	-11.5804
▁continental	-11.5807
▁Rhine	-11.5807
▁criticised	-11.5808
▁Bran	-11.5809
▁20,000	-11.581
▁autobiography	-11.5811
▁Newman	-11.5812
▁burning	-11.5812
▁Hitler	-11.5815
bes	-11.5816
▁inventor	-11.5821
▁integral	-11.5823
▁1823	-11.5824
ged	-11.5824
▁Elder	-11.5824
▁Rica	-11.5825
▁Cecil	-11.5825
▁Agnes	-11.5827
▁Total	-11.5829
▁keen	-11.5829
▁punishment	-11.5829
▁Fiji	-11.583
rine	-11.5831
▁Reverend	-11.5833
▁granddaughter	-11.5834
▁Hin	-11.5834
▁item	-11.5835
▁matrix	-11.5836
▁foundations	-11.5839
isa	-11.5841
▁sanctuary	-11.5843
▁Morton	-11.5845
▁submission	-11.5848
▁Close	-11.5849
▁Jake	-11.585
▁circles	-11.5851
▁crashed	-11.5851
▁routine	-11.5852
▁posthumously	-11.5856
▁tag	-11.5857
smith	-11.5858
sus	-11.5859
▁Fork	-11.586
alo	-11.5861
▁ju	-11.5861
▁illustrator	-11.5862
▁psychological	-11.5862
▁Kle	-11.5863
▁Arctic	-11.5864
▁confluence	-11.5865
▁Middlesex	-11.5866
▁Bundesliga	-11.5869
ür	-11.587
▁Ah	-11.5871
uel	-11.5874
▁für	-11.5877
ode	-11.5877
Ko	-11.5879
▁suburbs	-11.5881
▁BCE	-11.5884
ovsky	-11.5884
▁Kemp	-11.5885
▁hoped	-11.5887
▁suggesting	-11.5887
▁agrees	-11.5887
▁faction	-11.5888
▁recreation	-11.5888
▁Boris	-11.589
▁1817	-11.5893
▁flooding	-11.5895
▁Hurricane	-11.5897
▁activists	-11.5897
▁Roland	-11.59
▁archives	-11.59
▁Fre	-11.5901
▁Wave	-11.5902
Neill	-11.5908
pic	-11.5912
▁Rag	-11.5913
▁compensation	-11.5913
▁Rey	-11.5913
▁promise	-11.5914
▁rubber	-11.5914
▁monitoring	-11.5916
▁Bruno	-11.5916
▁Sang	-11.5921
▁Sham	-11.5923
ς	-11.5926
lac	-11.5927
eus	-11.5927
▁unanimous	-11.5929
▁Leone	-11.593
▁dreams	-11.5932
mill	-11.5932
▁raced	-11.5933
▁Choir	-11.5934
▁(2006)	-11.5936
▁melody	-11.5939
▁Kolkata	-11.5939
▁smoke	-11.594
rium	-11.594
▁Abd	-11.5941
ching	-11.5942
▁modeling	-11.5943
▁consequence	-11.5944
▁keyboard	-11.5944
▁bike	-11.5944
▁harm	-11.5946
▁presidency	-11.5946
–14	-11.5948
▁Kali	-11.5949
▁1803	-11.5949
▁designing	-11.595
▁Jer	-11.595
▁commit	-11.5955
ced	-11.5957
pon	-11.5958
▁Sil	-11.5959
RT	-11.5962
▁lots	-11.5963
▁Tax	-11.5964
▁finite	-11.5967
▁filmmaker	-11.5967
▁Moh	-11.5969
oriented	-11.5972
▁MW	-11.5972
▁tan	-11.5974
▁confidence	-11.5975
▁narrator	-11.5976
▁Jenkins	-11.5976
▁united	-11.5977
▁1922.	-11.5977
▁Mak	-11.5978
hoe	-11.5979
▁SK	-11.5981
eno	-11.5981
▁innovation	-11.5981
▁Map	-11.5981
▁Led	-11.5982
▁Thomson	-11.5984
▁Luc	-11.5988
ashi	-11.5989
beat	-11.599
▁Kenny	-11.599
▁Mach	-11.5992
▁rolling	-11.5992
н	-11.5994
▁Chuck	-11.5995
):	-11.5996
▁Bha	-11.5996
▁leather	-11.5998
▁sponsorship	-11.5999
▁Stuttgart	-11.6
▁Tanzania	-11.6002
uni	-11.6002
▁Fra	-11.6004
▁customs	-11.6005
▁respected	-11.6008
▁commercially	-11.6008
▁2017–18	-11.6008
▁immigration	-11.6009
▁transmitter	-11.601
▁Victory	-11.601
▁charted	-11.6011
hit	-11.6013
mura	-11.6014
▁Sandy	-11.6015
▁Theory	-11.6018
.50	-11.6019
▁treasure	-11.602
▁luxury	-11.602
stown	-11.6021
▁Beth	-11.6021
▁$3	-11.6022
▁(28	-11.6023
▁Critics	-11.6023
▁critically	-11.6024
▁Papa	-11.6026
▁Af	-11.6027
▁1851	-11.6027
▁1790	-11.6028
▁galleries	-11.6028
▁Corp	-11.6029
▁Moreover	-11.603
cri	-11.6032
▁Recreation	-11.6032
▁1916.	-11.6033
,800	-11.6033
▁activated	-11.6033
dha	-11.6038
eman	-11.6038
uring	-11.6039
▁gable	-11.604
▁IC	-11.6041
▁merge	-11.6042
▁Churchill	-11.6043
▁rally	-11.6044
▁bones	-11.6046
▁Mt	-11.6047
▁1912.	-11.6047
▁Reich	-11.6049
▁Pioneer	-11.605
kra	-11.6051
▁consul	-11.6052
▁Dee	-11.6052
▁riders	-11.6056
Di	-11.6057
▁dancers	-11.6057
▁2016–17	-11.6057
▁£2	-11.6059
▁FIBA	-11.6059
▁1925.	-11.6061
December	-11.6062
▁complement	-11.6063
▁sudden	-11.6063
▁Leopold	-11.6065
mato	-11.6066
▁Cedar	-11.6066
..."	-11.6066
▁petals	-11.6067
▁Eg	-11.6071
▁Cardinals	-11.6071
▁cloth	-11.6072
▁criteria	-11.6073
gio	-11.6073
▁Evening	-11.6073
▁costume	-11.6074
▁Vernon	-11.6076
ily	-11.6076
rou	-11.6076
▁salary	-11.6077
▁Holt	-11.6078
insky	-11.6078
▁fees	-11.6078
▁pottery	-11.6078
ement	-11.6079
▁continuously	-11.6079
▁excess	-11.6079
▁repertoire	-11.608
▁ammunition	-11.6084
stadt	-11.6086
▁occurring	-11.6087
▁2013–14	-11.6089
▁uncertain	-11.6091
▁Mack	-11.6091
▁Lea	-11.6093
kun	-11.6093
▁fl	-11.6094
▁Mira	-11.6095
TO	-11.6095
té	-11.6096
▁provisions	-11.6097
▁vol	-11.6099
uv	-11.61
tric	-11.6101
Si	-11.6101
▁ease	-11.6102
iko	-11.6102
▁wheat	-11.6103
lang	-11.6104
▁1910.	-11.6104
▁northwestern	-11.6105
nath	-11.6105
lett	-11.6109
▁Lambert	-11.6109
▁Treasury	-11.611
▁specified	-11.611
▁decoration	-11.611
▁Pir	-11.6111
▁Johan	-11.6111
▁interactive	-11.6111
unt	-11.6112
▁stability	-11.6114
Ireland	-11.6114
▁coral	-11.6115
▁Beer	-11.6117
igo	-11.6119
ending	-11.6122
▁Journalism	-11.6124
▁examined	-11.6125
craft	-11.6126
▁Piano	-11.6126
▁rejoined	-11.6126
▁ho	-11.6128
▁flee	-11.613
▁den	-11.6135
eer	-11.6136
hof	-11.6136
▁acknowledged	-11.6136
▁Av	-11.6137
January	-11.6137
▁posting	-11.614
▁understood	-11.614
▁Mozart	-11.614
▁Whitney	-11.6141
▁rendered	-11.6141
▁trap	-11.6141
along	-11.6141
▁Own	-11.6143
▁doctrine	-11.6144
▁chaplain	-11.6144
tr	-11.6148
▁Leg	-11.6151
▁Potter	-11.6151
▁Nas	-11.6151
media	-11.6153
▁cricketer	-11.6155
itch	-11.6157
▁counsel	-11.6159
▁Brother	-11.6161
▁Rus	-11.6161
▁2015–16	-11.6162
enne	-11.6163
▁Nash	-11.6163
▁gl	-11.6163
▁bra	-11.6163
▁Degree	-11.6163
▁1853	-11.6164
▁Joel	-11.6165
▁Cove	-11.6166
▁plantation	-11.6166
▁Hun	-11.6168
▁Willie	-11.6169
▁democratic	-11.6169
rik	-11.6171
▁ports	-11.6173
▁Constantinople	-11.6174
gno	-11.6175
▁notion	-11.6175
▁Highland	-11.6175
▁delay	-11.6176
Ex	-11.6177
▁Dock	-11.6179
▁staying	-11.6179
aud	-11.6179
wyn	-11.6181
▁dimensions	-11.6181
▁Bangalore	-11.6182
▁Heaven	-11.6183
▁Architects	-11.6183
▁cre	-11.6185
ache	-11.6185
▁embassy	-11.6185
vir	-11.6186
▁imported	-11.6189
▁ve	-11.6192
DF	-11.6192
▁Border	-11.6196
▁Nobel	-11.6197
▁juvenile	-11.6197
▁Fight	-11.6197
▁scope	-11.6199
oku	-11.6199
▁whorls	-11.6199
▁triangle	-11.6201
▁Performing	-11.6201
▁memoir	-11.6203
▁1819	-11.6203
▁museums	-11.6203
space	-11.6204
▁Drake	-11.6204
▁1902,	-11.6204
▁procedures	-11.6205
▁−	-11.6205
▁Mam	-11.6205
▁banker	-11.6206
,”	-11.621
▁epic	-11.6211
▁Bend	-11.6213
▁substance	-11.6214
OL	-11.6217
▁spur	-11.6221
▁counts	-11.6222
▁blocked	-11.6223
▁Felix	-11.6224
▁loyal	-11.6225
▁ko	-11.6225
▁1822	-11.6226
tian	-11.6226
▁1801	-11.6228
▁Belt	-11.6228
▁Wine	-11.6231
lig	-11.6236
▁mills	-11.6236
▁Bolton	-11.624
wei	-11.6242
▁Lac	-11.6243
▁environments	-11.6243
2,000	-11.6245
▁alignment	-11.6246
▁Et	-11.625
lt	-11.6251
▁blast	-11.6252
▁Ala	-11.6255
▁botanist	-11.6258
▁3–1	-11.6259
combe	-11.6259
▁sick	-11.6259
▁Macedonia	-11.6261
best	-11.6261
▁duet	-11.6262
▁Sanskrit	-11.6263
▁SM	-11.6264
ivity	-11.6267
▁considerably	-11.6269
ár	-11.627
▁sitcom	-11.6271
▁Charter	-11.6271
▁Hus	-11.6274
▁socialist	-11.6275
▁Winston	-11.6279
alis	-11.628
▁drainage	-11.6281
tens	-11.6281
As	-11.6281
▁sequences	-11.6281
▁spelling	-11.6282
▁3000	-11.6282
aceae	-11.6283
▁seeks	-11.6284
▁capabilities	-11.6284
▁Toledo	-11.6284
cro	-11.6285
▁Lima	-11.6287
▁Yoshi	-11.6287
▁3.0	-11.6288
▁Brock	-11.6288
▁Claire	-11.6289
▁Kiss	-11.6289
▁seventeen	-11.629
▁ritual	-11.6291
▁Turin	-11.6292
▁Helena	-11.6292
▁expertise	-11.6293
▁finger	-11.6293
▁1905,	-11.6296
trans	-11.6296
▁autonomous	-11.6296
Pe	-11.6296
dog	-11.6299
lecommunications	-11.6299
▁1921.	-11.6304
▁Cliff	-11.6304
▁slight	-11.6304
▁resign	-11.6307
▁conflicts	-11.6308
▁pocket	-11.6308
▁Pole	-11.6311
▁discharge	-11.6311
ency	-11.6313
▁Jung	-11.6316
▁1930.	-11.6316
▁provider	-11.6316
▁condemned	-11.6316
▁niece	-11.6319
▁2020	-11.6319
–8	-11.6319
▁genres	-11.632
▁Freeman	-11.6321
▁nominee	-11.6323
▁bicycle	-11.6323
▁Georgetown	-11.6325
▁Slovenia	-11.6327
▁complications	-11.6328
▁neutral	-11.633
rom	-11.633
SF	-11.6331
▁geographical	-11.6331
graph	-11.6333
▁Depression	-11.6335
▁Castro	-11.6336
▁(27	-11.6336
ith	-11.6337
▁tubes	-11.6337
▁tobacco	-11.6338
AB	-11.6339
▁casting	-11.6342
▁Wings	-11.6342
nder	-11.6343
wind	-11.6344
▁strings	-11.6346
▁busy	-11.6346
▁Gross	-11.6347
test	-11.6347
▁Josef	-11.6347
▁Constitutional	-11.6347
▁Population	-11.635
▁2014–15	-11.6352
▁Counsel	-11.6352
▁1908,	-11.6353
▁dealer	-11.6353
▁attained	-11.6354
▁Additional	-11.6355
▁discussions	-11.6357
▁Mé	-11.636
eff	-11.6361
▁designers	-11.6362
.25	-11.6363
▁descended	-11.6364
▁superintendent	-11.6365
▁preceded	-11.6366
▁seminary	-11.6368
▁ja	-11.6368
▁brass	-11.637
▁preceding	-11.6372
▁tips	-11.6373
sam	-11.6374
▁beside	-11.6374
▁restrictions	-11.6375
▁Title	-11.6375
▁trustee	-11.6376
▁Large	-11.6377
▁Pon	-11.6378
▁drag	-11.6378
▁Made	-11.6379
▁teamed	-11.6379
▁wound	-11.6379
▁mascot	-11.638
▁chase	-11.6381
established	-11.6382
▁properly	-11.6383
▁Hale	-11.6386
▁mandate	-11.6386
gre	-11.6386
▁mast	-11.6394
▁Maxwell	-11.6394
▁Pirates	-11.6395
lich	-11.6402
▁quiet	-11.6402
▁Screen	-11.6403
▁struggling	-11.6403
▁goddess	-11.6403
rama	-11.6407
woman	-11.6408
▁Hanover	-11.6409
▁2011–12	-11.6409
▁wishes	-11.641
▁navy	-11.6412
▁Speedway	-11.6412
yon	-11.6412
▁Hartford	-11.6413
endra	-11.6414
▁Arch	-11.6416
▁Dunn	-11.6416
▁storyline	-11.6419
▁occupies	-11.6419
nier	-11.6419
ça	-11.642
issa	-11.6422
▁gates	-11.6422
▁gross	-11.6423
▁Sign	-11.6424
▁Gla	-11.6426
▁cur	-11.6428
▁monuments	-11.6429
▁Atlético	-11.643
▁à	-11.6432
▁Kro	-11.6434
▁Latvia	-11.6435
sdale	-11.6437
shot	-11.6438
▁dining	-11.6438
▁Czechoslovakia	-11.6438
▁virtually	-11.6439
cylinder	-11.644
▁Deb	-11.6441
▁Gardner	-11.6442
▁fr	-11.6442
ego	-11.6443
won	-11.6445
ML	-11.6449
▁celebrities	-11.645
▁mirror	-11.6452
▁happens	-11.6452
▁introducing	-11.6454
▁Image	-11.6454
mble	-11.6454
▁Beaver	-11.6455
▁cultures	-11.6456
▁AT	-11.6457
▁considers	-11.6457
zin	-11.6457
rr	-11.6458
▁spite	-11.646
▁1926.	-11.6461
IF	-11.6461
▁Qing	-11.6466
▁Rom	-11.6466
▁Syn	-11.6467
LS	-11.6471
omi	-11.6472
▁voices	-11.6474
▁Augustus	-11.6477
▁meta	-11.6477
▁organist	-11.6478
▁Albion	-11.6482
▁genera	-11.6482
▁coin	-11.6482
▁poorly	-11.6482
▁Legend	-11.6483
▁Bab	-11.6486
▁Salon	-11.6487
▁Wonder	-11.6488
▁Ravi	-11.6488
▁Fast	-11.649
mount	-11.649
▁elderly	-11.649
▁(2008)	-11.6491
Old	-11.6492
atory	-11.6493
$1	-11.6493
▁Kap	-11.6495
igh	-11.6496
▁Amar	-11.6498
▁involve	-11.6499
▁flavor	-11.6499
even	-11.65
▁ا	-11.6501
▁particles	-11.6501
▁tickets	-11.6502
▁NATO	-11.6505
▁Patricia	-11.6506
TR	-11.6506
▁Wide	-11.6507
▁podcast	-11.6509
body	-11.6509
▁finishes	-11.6509
▁Clan	-11.651
dr	-11.651
ios	-11.651
▁op	-11.6512
▁Semi	-11.6513
▁Tell	-11.6514
▁sprint	-11.6514
script	-11.6515
▁chicken	-11.652
▁Names	-11.6521
▁attitude	-11.6521
lice	-11.6521
bourne	-11.6521
eni	-11.6522
▁sends	-11.6523
powered	-11.6524
▁ch	-11.6524
action	-11.6524
▁vital	-11.6526
▁Volume	-11.6528
▁Dol	-11.6529
▁Beyond	-11.6529
▁Cotton	-11.6531
dai	-11.6532
▁enrollment	-11.6532
▁Dixon	-11.6533
Ne	-11.6533
▁potentially	-11.6533
sworth	-11.6534
PO	-11.6535
▁Marshal	-11.6536
▁moments	-11.6541
▁reformed	-11.6541
amo	-11.6541
▁Cle	-11.6544
τ	-11.6546
▁Valencia	-11.6552
escu	-11.6555
▁sensitive	-11.6556
▁stained	-11.6559
ural	-11.6559
▁Jeremy	-11.6559
с	-11.6559
▁Stories	-11.656
▁ISO	-11.656
▁territorial	-11.6563
▁olive	-11.6564
▁commentator	-11.6564
▁saving	-11.6564
iger	-11.6564
burgh	-11.6567
▁Devi	-11.6571
▁Linux	-11.6571
▁Certificate	-11.6575
▁laps	-11.6576
▁stronger	-11.6577
▁1864.	-11.6578
▁currency	-11.6579
enstein	-11.6579
▁subspecies	-11.6579
▁walks	-11.6581
▁torn	-11.6583
ann	-11.6584
rill	-11.6585
▁Uni	-11.6586
▁flown	-11.6586
▁Tomatoes	-11.6587
▁1,500	-11.6587
▁Mick	-11.6588
▁curves	-11.6588
▁nationalist	-11.6589
▁Siege	-11.6589
▁fence	-11.6589
▁Hari	-11.659
▁sued	-11.6591
une	-11.6592
▁Teachers	-11.6592
-23	-11.6594
▁Schedule	-11.6595
▁Walt	-11.6597
▁tar	-11.6597
▁cook	-11.6597
sty	-11.6597
▁paternal	-11.6598
▁Geological	-11.6599
▁Meeting	-11.6601
otic	-11.6602
▁outfit	-11.6602
▁1811	-11.6602
▁diamond	-11.6604
John	-11.6604
▁midfielder	-11.6604
▁Scholarship	-11.6607
▁rings	-11.661
asse	-11.6612
pra	-11.6612
▁accounting	-11.6612
ame	-11.6614
▁lodge	-11.6615
▁Jorge	-11.6617
ulf	-11.6619
▁extract	-11.662
▁immigrated	-11.6623
ι	-11.6623
jer	-11.6623
▁fitness	-11.6624
▁Twin	-11.6625
▁Hardy	-11.6626
▁Laws	-11.6626
▁Maple	-11.6627
▁della	-11.6628
▁Joshua	-11.6631
tner	-11.6631
▁perceived	-11.6632
▁Hyde	-11.6632
When	-11.6634
▁lens	-11.6636
▁Appeal	-11.664
▁née	-11.6642
▁skating	-11.6642
oper	-11.6645
▁Monica	-11.6645
▁statues	-11.6646
▁Embassy	-11.6646
▁navigation	-11.6646
▁Saxon	-11.665
▁Kosovo	-11.665
▁Salisbury	-11.6654
▁Built	-11.6654
▁nerve	-11.6654
▁evaluation	-11.6655
face	-11.6657
▁teenage	-11.6658
▁spectrum	-11.6658
▁monk	-11.6658
▁comment	-11.6658
▁gray	-11.6661
▁marketed	-11.6661
▁(2009)	-11.6666
▁factories	-11.6668
▁MBA	-11.6668
▁Conrad	-11.6669
▁Plain	-11.6669
▁scholarly	-11.6671
▁Turn	-11.6672
GS	-11.6672
–13	-11.6673
▁Vatican	-11.6674
lev	-11.6674
▁bitter	-11.6674
–7	-11.6675
▁1809	-11.6677
bey	-11.6677
▁Scha	-11.6679
Hu	-11.6681
▁Algeria	-11.6682
▁zones	-11.6684
TU	-11.6684
▁1849	-11.6686
thal	-11.6686
â	-11.6687
▁Mohammad	-11.669
rri	-11.6692
▁archive	-11.6692
▁maker	-11.6693
▁codes	-11.6694
▁Shield	-11.6696
▁findings	-11.6697
▁Davidson	-11.67
▁Adolf	-11.6703
series	-11.6705
▁Rafael	-11.6705
isch	-11.6707
▁Fuji	-11.6708
▁flowing	-11.6709
▁CP	-11.6709
rit	-11.6709
▁cardinal	-11.671
▁patch	-11.671
aging	-11.671
▁bush	-11.671
▁Finals	-11.6711
▁garnered	-11.6713
▁Kazakhstan	-11.6713
▁Mod	-11.6714
▁AU	-11.6714
ivo	-11.6716
▁organizing	-11.6718
▁ru	-11.672
▁Constituency	-11.6721
▁Mali	-11.6723
▁McC	-11.6724
▁knowing	-11.6727
▁Br	-11.6728
this	-11.673
▁crystal	-11.6731
▁tension	-11.6731
,200	-11.6732
good	-11.6732
▁Sherman	-11.6733
▁dissolution	-11.6733
▁Holdings	-11.6735
▁Tong	-11.6736
▁Dragons	-11.6737
▁Indo	-11.6737
▁promising	-11.6737
▁promoter	-11.6739
ière	-11.6744
▁Wigan	-11.6745
PM	-11.6745
ega	-11.6745
▁Confederation	-11.6749
▁affiliation	-11.6749
▁maiden	-11.6753
▁favorable	-11.6753
force	-11.6753
▁reward	-11.6753
▁Stefan	-11.6753
▁sworn	-11.6753
▁Jamie	-11.6754
▁Animal	-11.6754
▁crest	-11.6754
nate	-11.6754
xa	-11.6754
▁Lev	-11.6755
▁1808	-11.6757
▁casualties	-11.6757
▁Yuan	-11.6758
▁massacre	-11.6759
▁Ot	-11.676
▁advancing	-11.6761
NO	-11.6763
▁102	-11.6765
▁Witt	-11.6765
▁Election	-11.6765
▁Initiative	-11.6765
▁yacht	-11.6765
▁Hit	-11.6766
▁stamp	-11.6767
ean	-11.6768
▁dropping	-11.677
▁rape	-11.6771
▁Smart	-11.6771
▁interpreted	-11.6772
ppa	-11.6773
▁Ple	-11.6773
▁Ecuador	-11.6776
▁statements	-11.6777
inder	-11.6777
▁Innovation	-11.6777
▁opposing	-11.6777
▁Jacksonville	-11.6779
▁IN	-11.678
▁Hague	-11.678
writing	-11.6781
▁kinds	-11.6784
Com	-11.6784
▁cameras	-11.6785
▁harsh	-11.6786
▁naturally	-11.6787
sche	-11.6788
World	-11.6789
▁quartet	-11.6789
▁Galway	-11.6791
▁brilliant	-11.6794
▁Darwin	-11.6794
weight	-11.6795
tori	-11.6795
▁toll	-11.6795
MB	-11.6797
▁economist	-11.6797
▁pursuing	-11.6797
▁Coventry	-11.6798
▁Sz	-11.68
ude	-11.68
▁hide	-11.6802
▁concession	-11.6802
,600	-11.6803
▁custody	-11.6806
▁Resort	-11.6806
▁democracy	-11.6806
UK	-11.6807
▁define	-11.6807
CH	-11.6809
▁woods	-11.681
kas	-11.6811
Har	-11.6814
▁overcome	-11.6814
▁vacated	-11.6814
▁1913.	-11.6814
▁rebel	-11.6815
▁Gui	-11.6817
▁flute	-11.6819
▁irregular	-11.6819
▁Eleanor	-11.6822
▁Combat	-11.6822
▁deceased	-11.6827
▁Step	-11.6827
▁dragon	-11.6829
▁Tab	-11.6832
▁gymnasium	-11.6834
tto	-11.6834
▁Webster	-11.6835
▁3–0	-11.6838
Ja	-11.6838
▁Jet	-11.6839
▁Sacramento	-11.684
▁Task	-11.684
gus	-11.6841
▁Fest	-11.6842
▁violinist	-11.6842
▁cylinder	-11.6843
▁Crow	-11.6843
▁4,000	-11.6844
▁desired	-11.6846
▁Sak	-11.6847
▁celebrations	-11.6847
mos	-11.6849
▁Era	-11.6851
▁Berkshire	-11.6854
▁Weather	-11.6858
р	-11.6859
▁mud	-11.6861
▁Thur	-11.6867
▁princess	-11.6867
▁Hou	-11.6868
▁Lagos	-11.6869
▁Gloucester	-11.687
▁Burma	-11.687
▁Porto	-11.6872
▁adventures	-11.6874
,900	-11.6876
▁Lynch	-11.6876
▁Cel	-11.6877
▁1915.	-11.6878
▁bread	-11.6878
▁everyday	-11.6883
▁submarines	-11.6883
▁corridor	-11.6886
▁Quartet	-11.6886
▁Sig	-11.6887
▁Basel	-11.6888
▁pursuit	-11.6888
▁Eng	-11.6891
▁Lei	-11.6893
eu	-11.6896
▁Kru	-11.6896
▁Ole	-11.6896
mia	-11.6898
▁bigger	-11.6898
▁liver	-11.6899
▁Negro	-11.6901
▁Rifle	-11.6902
▁gr	-11.6902
▁Mercury	-11.6903
▁Gazette	-11.6904
▁Omaha	-11.6907
▁cycling	-11.6908
fiction	-11.691
▁implement	-11.691
▁terrorist	-11.6911
▁textile	-11.6911
spir	-11.6911
▁acute	-11.6916
▁Recording	-11.6916
▁cultivated	-11.6916
▁Moses	-11.6917
▁1807	-11.6919
▁annexed	-11.6919
rous	-11.6919
▁Europa	-11.6919
▁dedication	-11.6921
ilo	-11.6922
hil	-11.6923
▁Ensemble	-11.6923
mé	-11.6923
▁apprentice	-11.6923
dem	-11.6923
▁removing	-11.6924
ias	-11.6924
production	-11.6925
▁hunt	-11.6929
▁Cell	-11.693
Ru	-11.6931
▁stunt	-11.6931
▁Civic	-11.6932
▁machinery	-11.6933
▁veterans	-11.6936
▁UNESCO	-11.6939
▁Jen	-11.6941
▁JR	-11.6941
▁commerce	-11.6941
▁hook	-11.6943
▁Rein	-11.6944
wel	-11.6945
▁Geoffrey	-11.6947
CT	-11.6949
dorf	-11.6951
▁Sheikh	-11.6953
▁Caesar	-11.6955
▁Roma	-11.6956
▁(2011)	-11.6956
▁Cheshire	-11.6956
300	-11.6957
▁Lorenzo	-11.696
▁Online	-11.6964
▁Bet	-11.6965
▁Dhaka	-11.6966
lier	-11.6966
▁investigations	-11.6968
▁Gaelic	-11.6968
mid	-11.697
▁Karnataka	-11.6972
▁hiking	-11.6972
▁Various	-11.6973
▁Luther	-11.6973
▁successive	-11.6974
IR	-11.6975
▁knighted	-11.6975
▁listening	-11.6975
▁García	-11.6976
▁rebels	-11.698
▁initiatives	-11.6981
▁Sharp	-11.6981
▁countryside	-11.6984
▁Climate	-11.6984
▁Guitar	-11.6985
lab	-11.699
▁arose	-11.6993
▁surveys	-11.6993
▁(31	-11.6993
▁arcade	-11.6993
▁algebra	-11.6996
▁consensus	-11.6996
square	-11.6996
▁Osaka	-11.6997
▁finest	-11.6999
▁Ner	-11.6999
uru	-11.7001
▁clinic	-11.7002
▁bold	-11.7002
▁Fol	-11.7002
▁noting	-11.7003
ort	-11.7003
▁Dub	-11.7007
▁participant	-11.7009
▁Associated	-11.7009
▁Hundred	-11.7009
▁Plate	-11.701
▁Plains	-11.7011
▁def	-11.7013
▁email	-11.7014
▁antenna	-11.7014
RL	-11.7016
▁CBC	-11.7017
▁competitor	-11.7017
▁Scholar	-11.7018
▁Mata	-11.7021
▁Bulls	-11.7021
▁hiding	-11.7021
izer	-11.7022
▁Mori	-11.7023
▁watershed	-11.7024
iba	-11.7025
▁hanging	-11.7026
▁IP	-11.7028
ovo	-11.703
▁develops	-11.703
▁Od	-11.7031
▁com	-11.7031
▁cubic	-11.7031
▁Rhodes	-11.7032
▁Electronic	-11.7032
▁challenging	-11.7033
▁drives	-11.7034
▁Hil	-11.7036
▁Percy	-11.704
,700	-11.704
▁snake	-11.7041
sub	-11.7043
▁Ferguson	-11.7047
▁Humanities	-11.7047
▁Chilean	-11.7048
▁tu	-11.705
▁willing	-11.7052
word	-11.7052
▁Wat	-11.7052
▁prints	-11.7053
▁deer	-11.7053
▁buying	-11.7054
rov	-11.7055
engine	-11.7055
▁keeps	-11.7055
▁deaths	-11.7056
▁Richards	-11.7056
MT	-11.7056
▁sandy	-11.7057
mut	-11.7057
▁blend	-11.7058
▁beliefs	-11.7059
▁Steam	-11.7062
▁receptions	-11.7063
▁placement	-11.7063
▁(2010)	-11.7063
▁Happy	-11.7064
HC	-11.7064
▁Zurich	-11.7067
▁Catalan	-11.7067
▁Cop	-11.7068
▁Emergency	-11.7071
▁Mono	-11.7072
East	-11.7072
▁Boyd	-11.7073
▁Strait	-11.7073
cot	-11.7073
mission	-11.7074
▁slip	-11.7075
▁Match	-11.7078
▁Boeing	-11.7081
▁resembles	-11.7081
▁Prairie	-11.7083
▁concentrate	-11.7088
▁thermal	-11.7088
▁2010–11	-11.7089
▁witnessed	-11.709
▁rows	-11.7091
selling	-11.7093
–4	-11.7094
▁£	-11.7095
▁Rudolf	-11.7095
▁Dry	-11.7096
▁mechanics	-11.7096
▁healthcare	-11.7096
▁advocated	-11.7097
▁lesser	-11.7097
▁accessed	-11.7097
▁rushing	-11.7101
▁Munster	-11.7101
▁Counties	-11.7102
▁dairy	-11.7104
▁circa	-11.7104
▁certainly	-11.7104
▁MVP	-11.7105
▁Kang	-11.7107
Art	-11.7107
▁healthy	-11.7108
▁opted	-11.7108
▁Ultra	-11.7109
PI	-11.7112
▁ancestry	-11.7112
▁AA	-11.7112
▁interactions	-11.7116
▁inspection	-11.7116
▁Hawaiian	-11.7116
▁Style	-11.7116
dh	-11.7117
▁Adventure	-11.7118
▁Leigh	-11.7121
gren	-11.7123
ç	-11.7123
▁Dictionary	-11.7124
wear	-11.7125
shima	-11.7125
▁Strong	-11.7127
▁triangular	-11.7129
▁proven	-11.7129
▁masters	-11.713
mad	-11.7131
▁consideration	-11.7133
▁Fletcher	-11.7133
▁prose	-11.7134
▁protocol	-11.7135
lation	-11.7136
lai	-11.7136
cul	-11.7136
▁Gibraltar	-11.7137
▁horsepower	-11.7137
▁Coleman	-11.7138
▁revision	-11.714
▁documentaries	-11.7141
▁bowling	-11.7144
▁decreased	-11.7145
▁ceremonies	-11.7145
▁Gala	-11.7147
▁lasting	-11.715
▁Tol	-11.715
mbo	-11.7151
▁distinguish	-11.7152
And	-11.7152
▁colored	-11.7153
▁Things	-11.7153
chal	-11.7154
▁nightclub	-11.7154
Day	-11.7154
▁Chat	-11.7156
▁PM	-11.7156
▁deployment	-11.7157
mail	-11.716
▁dive	-11.716
▁str	-11.716
▁Kerr	-11.7161
ñ	-11.7161
▁WS	-11.7162
▁bishops	-11.7162
▁Aid	-11.7162
ete	-11.7163
▁donation	-11.7165
▁Ou	-11.7166
▁Religion	-11.7166
-1990	-11.7166
fully	-11.7167
к	-11.7169
800	-11.717
▁cultivation	-11.717
▁inspector	-11.717
-13	-11.7172
▁Eden	-11.7176
▁tract	-11.7178
▁Beta	-11.7178
▁reflects	-11.7181
▁1.2	-11.7186
▁bacteria	-11.7186
▁Sutton	-11.7187
▁casino	-11.7187
▁lumber	-11.7187
▁pack	-11.7187
▁motto	-11.7189
▁courtyard	-11.719
▁font	-11.7194
rap	-11.7194
▁couldn	-11.7194
▁Uttar	-11.7195
▁Monastery	-11.7195
sser	-11.7196
▁congress	-11.7196
▁publishers	-11.7197
▁shrub	-11.7197
▁Roberto	-11.7197
dos	-11.7198
▁combining	-11.7199
▁subscription	-11.7199
named	-11.7201
▁1900.	-11.7202
mma	-11.7202
oga	-11.7202
▁Islander	-11.7205
▁livestock	-11.7206
▁captained	-11.7209
▁settings	-11.7209
BI	-11.721
▁possess	-11.7211
▁decrease	-11.7212
▁sacks	-11.7212
▁viewing	-11.7213
▁Dra	-11.7213
lou	-11.7213
▁collision	-11.7216
▁probability	-11.7216
▁Nordic	-11.7216
UC	-11.7217
lies	-11.7218
fen	-11.7218
▁Icelandic	-11.7218
▁computing	-11.722
▁aftermath	-11.7221
▁gym	-11.7221
▁Gri	-11.7223
oda	-11.7224
▁Parade	-11.7224
▁inscriptions	-11.7225
ej	-11.7231
guard	-11.7232
▁practicing	-11.7233
▁1862.	-11.7233
▁Workshop	-11.7233
rang	-11.7234
▁Jesuit	-11.7237
aca	-11.7239
▁texture	-11.7239
▁1793	-11.7239
iu	-11.7241
▁averaging	-11.7241
ender	-11.7242
▁Waterloo	-11.7242
▁Vil	-11.7244
▁reside	-11.7245
▁Hammer	-11.7245
abi	-11.7247
▁pioneering	-11.7247
league	-11.7248
▁twist	-11.725
▁Fly	-11.7251
tour	-11.7251
care	-11.7251
▁gravel	-11.7254
LD	-11.7254
▁pronounced	-11.7255
▁endorsed	-11.7256
▁soils	-11.7256
hot	-11.7256
▁underlying	-11.7259
▁linking	-11.7259
▁walked	-11.7261
▁Pul	-11.7263
▁flu	-11.7263
▁developments	-11.7266
▁Naka	-11.7266
▁collaborative	-11.7267
▁proclaimed	-11.7268
▁physically	-11.727
rav	-11.727
▁Gru	-11.727
▁Hannah	-11.7271
▁Self	-11.7272
▁adoption	-11.7272
scape	-11.7272
▁legally	-11.7273
▁intersects	-11.7274
▁Drew	-11.7275
▁Kr	-11.7275
▁cockpit	-11.7275
DE	-11.7276
▁Kla	-11.7276
En	-11.7276
▁mapping	-11.7276
▁Janet	-11.7279
▁360	-11.728
▁partition	-11.7281
▁rational	-11.7281
▁Theology	-11.7281
▁abundant	-11.7283
▁symbols	-11.7284
▁Sue	-11.7284
▁1794	-11.7284
camp	-11.7284
lund	-11.7286
▁tiny	-11.7287
▁consistently	-11.7287
February	-11.729
ffe	-11.729
▁Dawn	-11.7291
▁Maharashtra	-11.7292
cke	-11.7293
eal	-11.7293
▁Sud	-11.7296
▁Want	-11.7296
▁fi	-11.7298
▁Hour	-11.7299
▁1904,	-11.7299
▁EC	-11.7299
▁Holocaust	-11.73
▁Fleming	-11.7301
▁Pablo	-11.7301
wu	-11.7301
rach	-11.7303
▁Gram	-11.7304
▁epithet	-11.7305
▁warfare	-11.7305
nch	-11.7305
▁115	-11.7306
▁cruiser	-11.7306
▁maritime	-11.7309
▁launching	-11.7309
rl	-11.731
▁merit	-11.7311
▁Spe	-11.7311
▁searching	-11.7313
▁dust	-11.7314
stage	-11.7315
phone	-11.7315
▁crucial	-11.7317
▁Baba	-11.7318
Can	-11.7318
▁apartments	-11.7318
bird	-11.7319
▁Sab	-11.732
▁spare	-11.7321
▁extraordinary	-11.7321
▁Katherine	-11.7322
▁unopposed	-11.7322
▁hairs	-11.7322
▁Trent	-11.7324
▁2.8	-11.7324
brand	-11.7325
▁Have	-11.7326
▁physicist	-11.7326
▁Kyle	-11.7326
▁capped	-11.7327
▁Bengali	-11.7329
▁exam	-11.7331
▁1802	-11.7332
▁Stand	-11.7334
▁Hank	-11.7334
▁Barber	-11.7335
▁Color	-11.7335
▁proceedings	-11.7335
▁Tehran	-11.7338
▁regardless	-11.734
▁beaches	-11.734
▁Single	-11.7341
▁AB	-11.7342
▁Wie	-11.7342
▁proposals	-11.7344
▁Very	-11.7345
▁1796	-11.7347
dian	-11.7349
Chief	-11.735
▁Word	-11.735
▁surrendered	-11.7353
ough	-11.7355
▁pedestrian	-11.7355
▁1903,	-11.7356
▁Yugoslav	-11.7358
nz	-11.7358
▁keel	-11.7359
▁0.2	-11.736
▁Sala	-11.736
▁Warwick	-11.7361
▁Returning	-11.7362
▁discrimination	-11.7363
▁Whilst	-11.7364
▁Fear	-11.7365
bil	-11.7365
playing	-11.7366
tru	-11.7367
▁Basil	-11.737
▁Que	-11.7372
▁slogan	-11.7372
▁4.5	-11.7373
▁Photo	-11.7375
▁2009–10	-11.7375
▁Till	-11.7377
▁skiing	-11.7381
▁Tales	-11.7383
great	-11.7383
sher	-11.7383
▁1901,	-11.7384
▁Mohammed	-11.7385
▁Sergeant	-11.7386
▁Wanderers	-11.7386
▁sponsors	-11.7386
▁reactions	-11.7387
▁1908.	-11.739
alla	-11.7392
ono	-11.7399
▁PR	-11.7399
▁Merc	-11.74
▁nights	-11.74
▁Name	-11.7401
▁highlighted	-11.7403
▁Sidney	-11.7403
▁expired	-11.7404
San	-11.7404
▁Belarus	-11.7405
assi	-11.7406
▁Lebanese	-11.7407
▁1798	-11.7408
▁percussion	-11.741
ancy	-11.741
▁Hastings	-11.7411
▁Collegiate	-11.7411
bling	-11.7412
▁1805	-11.7412
▁darker	-11.7414
▁LGBT	-11.7415
▁Bangkok	-11.7415
▁demolition	-11.7415
▁idol	-11.7415
▁Mix	-11.7418
▁Masa	-11.7419
▁predicted	-11.7419
▁Papua	-11.742
▁Apostolic	-11.742
▁Elite	-11.7421
▁(29	-11.7424
▁Oz	-11.7425
▁sh	-11.7426
▁intact	-11.7428
▁Alma	-11.7429
▁Von	-11.7433
▁aggressive	-11.7435
▁Pride	-11.7435
garh	-11.7435
▁hiatus	-11.7437
▁kings	-11.7439
▁Andreas	-11.7441
yev	-11.7441
cra	-11.7443
▁Elisabeth	-11.7445
▁Swa	-11.7447
▁steal	-11.7447
dd	-11.7447
▁Shire	-11.745
▁painters	-11.7451
▁bust	-11.7452
▁Pius	-11.7453
dler	-11.7453
▁Mud	-11.7453
▁mate	-11.7454
▁uprising	-11.7454
▁teammates	-11.7455
▁Search	-11.7455
▁Nag	-11.7458
makers	-11.746
▁obvious	-11.7461
ees	-11.7461
▁Kad	-11.7462
▁harbor	-11.7462
▁formats	-11.7466
emia	-11.7466
▁Tak	-11.7468
Bu	-11.7469
tsch	-11.747
uddin	-11.7474
▁Rams	-11.7475
▁100%	-11.7475
–11	-11.7476
▁Cut	-11.7478
At	-11.7478
▁Pic	-11.7479
▁scrap	-11.7479
oko	-11.7479
▁NASCAR	-11.748
600	-11.748
▁brewery	-11.7482
DI	-11.7482
▁AIDS	-11.7482
vision	-11.7483
▁Technologies	-11.7484
AG	-11.7485
▁trumpet	-11.7485
▁argues	-11.7485
ators	-11.7486
▁Gel	-11.7487
▁min	-11.7487
▁Newark	-11.7488
▁truly	-11.7488
▁controlling	-11.7489
▁stalk	-11.7489
▁spy	-11.7489
▁Churches	-11.749
pl	-11.7491
▁Beverly	-11.7492
▁(2003)	-11.7492
▁treasurer	-11.7493
▁sphere	-11.7496
app	-11.7497
▁nominations	-11.75
▁Ibrahim	-11.7501
vier	-11.7502
▁Acting	-11.7502
▁Inner	-11.7503
▁Noble	-11.7505
dict	-11.7505
▁Wong	-11.7507
▁allied	-11.7508
▁dia	-11.7509
amine	-11.751
▁editors	-11.751
▁Greenwich	-11.751
▁mouse	-11.7511
▁directions	-11.7511
▁personalities	-11.7512
▁lighter	-11.7513
▁senator	-11.7514
▁utility	-11.7514
▁Democracy	-11.7514
▁apex	-11.7514
▁Bald	-11.7516
▁ballad	-11.7517
song	-11.7519
▁Ama	-11.7522
▁builder	-11.7523
▁Kane	-11.7524
▁Zhu	-11.7524
▁transferring	-11.7525
▁1906.	-11.7526
▁1905.	-11.7526
▁liked	-11.7526
▁rented	-11.7527
▁Blu	-11.7527
▁Sicily	-11.7527
▁Elm	-11.7527
dit	-11.7528
▁Adventures	-11.7529
▁Flash	-11.753
▁Ari	-11.7531
▁clergy	-11.7532
▁Xu	-11.7532
▁Fields	-11.7535
▁commissions	-11.7538
▁pistol	-11.754
▁comeback	-11.754
▁worse	-11.754
▁Joyce	-11.7541
▁Slovak	-11.7542
▁6-	-11.7543
▁10%	-11.7546
▁106	-11.7548
▁Marketing	-11.7548
lling	-11.7548
nine	-11.7548
lob	-11.7549
▁cor	-11.7551
▁zoo	-11.7552
gna	-11.7555
▁Cara	-11.7556
▁yellowish	-11.7556
▁Politics	-11.7557
▁lanes	-11.7558
▁Wor	-11.7559
▁sings	-11.7559
▁Alexandra	-11.7559
▁rider	-11.7559
▁cooperative	-11.756
▁boxes	-11.7561
▁rabbi	-11.7562
▁nobility	-11.7563
▁Novel	-11.7564
▁Reservoir	-11.7566
▁feast	-11.7567
▁plateau	-11.7567
▁Qi	-11.757
▁Pilot	-11.7573
▁Sally	-11.7575
▁Garcia	-11.7576
MD	-11.7576
moto	-11.7577
▁Lis	-11.7578
▁operas	-11.7579
▁slender	-11.7579
▁gra	-11.7579
▁sank	-11.758
atta	-11.7583
▁withdraw	-11.7583
EX	-11.7587
Pi	-11.7588
▁seasonal	-11.7589
▁fold	-11.7589
▁judgment	-11.7592
col	-11.7592
▁Mathematical	-11.7593
▁trucks	-11.7596
▁photographic	-11.7599
▁complicated	-11.7602
uca	-11.7602
NR	-11.7603
shore	-11.7604
▁FBI	-11.7604
▁1804	-11.7605
▁Kerry	-11.7606
▁Panthers	-11.7606
▁Stor	-11.7608
TM	-11.7612
▁1795	-11.7613
▁Mou	-11.7613
▁Willis	-11.7614
▁(2012)	-11.7614
▁Vis	-11.7617
▁orientation	-11.7618
▁pad	-11.7619
▁Bally	-11.7619
▁Northeast	-11.7619
▁Jets	-11.7622
,000,000	-11.7623
▁2018–19	-11.7624
ying	-11.7624
▁progressed	-11.7625
PD	-11.7628
cing	-11.7631
rz	-11.7631
lal	-11.7631
path	-11.7634
eti	-11.7634
▁1902.	-11.7635
▁protecting	-11.7637
ket	-11.764
▁Patterson	-11.764
▁pavilion	-11.764
▁Direct	-11.7641
▁Gujarat	-11.7643
▁Universities	-11.7644
▁postgraduate	-11.7645
▁balls	-11.7646
▁audition	-11.7647
▁Derek	-11.7648
yar	-11.7649
isha	-11.7652
hum	-11.7655
▁Dorset	-11.7655
▁Teatro	-11.7655
dro	-11.7656
▁cuisine	-11.7658
▁(40	-11.7658
▁Bavarian	-11.7659
▁Guatemala	-11.7659
tics	-11.766
ome	-11.766
▁Pierce	-11.7661
▁infant	-11.7663
imi	-11.7664
▁monitor	-11.7666
▁Riley	-11.7666
▁kit	-11.7668
▁fe	-11.7668
▁mon	-11.7669
▁valued	-11.767
–6	-11.767
▁coordinates	-11.7671
▁Sister	-11.7671
▁Strategic	-11.7675
▁sacrifice	-11.7676
▁generic	-11.7676
▁warrant	-11.7678
▁Electrical	-11.7678
▁boxer	-11.7679
nny	-11.768
▁Christchurch	-11.768
ote	-11.7682
▁1780	-11.7682
▁amino	-11.7682
▁Cherry	-11.7683
▁Heidelberg	-11.7684
▁Barker	-11.7685
EN	-11.7686
operative	-11.7688
▁upgrade	-11.7689
ook	-11.7693
▁defunct	-11.7695
▁miniature	-11.7697
▁Raiders	-11.7698
▁schooling	-11.7699
around	-11.77
nh	-11.7701
▁Swift	-11.7703
brother	-11.7706
▁nonprofit	-11.7712
ulation	-11.7713
▁Fried	-11.7715
▁highlight	-11.7715
party	-11.7715
▁Nicolas	-11.7715
▁1863.	-11.7716
▁Stern	-11.7717
▁Fle	-11.7717
▁incorporates	-11.7719
▁Poll	-11.7719
▁Recently	-11.772
▁Bos	-11.7723
Pre	-11.7724
▁Administrative	-11.7724
mie	-11.7724
▁fusion	-11.7726
▁disputed	-11.7726
▁Tucker	-11.7727
NG	-11.7727
▁Sci	-11.7728
▁Blo	-11.7729
▁synagogue	-11.7732
▁Shirley	-11.7733
▁Isabella	-11.7734
roll	-11.7734
▁Fran	-11.7735
GC	-11.7736
▁Stirling	-11.7737
▁tenor	-11.7737
ô	-11.7739
▁Carson	-11.7742
▁Dawson	-11.7746
▁diving	-11.7747
▁conquered	-11.7747
position	-11.7749
▁Brain	-11.7749
▁spelled	-11.775
▁feeds	-11.7752
▁employs	-11.7752
▁detect	-11.7753
▁consumers	-11.7753
▁Montenegro	-11.7754
▁alumni	-11.7754
▁sketches	-11.7755
▁lane	-11.7756
▁Gerard	-11.7758
▁staircase	-11.7759
▁1911.	-11.7759
▁1797	-11.7763
specific	-11.7763
▁breakthrough	-11.7764
▁gameplay	-11.7764
▁persuaded	-11.7764
▁deposit	-11.7767
▁tongue	-11.7768
ès	-11.777
▁holy	-11.777
Per	-11.7771
▁SO	-11.7773
▁Method	-11.7774
▁slate	-11.7775
▁Ska	-11.7776
▁Erie	-11.7779
▁(2002)	-11.7779
grad	-11.7781
▁Bucharest	-11.7781
▁excellence	-11.7781
▁Variety	-11.7781
–9	-11.7781
uba	-11.7783
▁coined	-11.7783
▁Augusta	-11.7784
▁Tate	-11.7785
▁excavated	-11.7786
▁CI	-11.7786
▁struggles	-11.7787
evich	-11.7788
▁Pike	-11.7788
▁CH	-11.7789
▁SV	-11.7789
▁Dil	-11.7789
▁Monk	-11.7791
▁sunk	-11.7794
▁mammals	-11.7794
▁Settlement	-11.7795
ON	-11.7796
▁anthem	-11.7798
▁prosecutor	-11.7799
▁knock	-11.78
▁Sophie	-11.78
▁Wade	-11.78
▁guards	-11.7802
▁clip	-11.7802
▁Jeffrey	-11.7804
▁resist	-11.7807
▁indie	-11.7807
liga	-11.7807
▁telescope	-11.7808
▁tin	-11.7808
/19	-11.7812
▁delegates	-11.7813
▁Countess	-11.7813
▁Ok	-11.7813
▁Bright	-11.7813
▁Cool	-11.7814
read	-11.7815
ddy	-11.7816
▁IX	-11.7817
▁merchants	-11.7818
▁translations	-11.782
▁Boss	-11.7821
▁Homer	-11.7822
▁controller	-11.7826
▁18;	-11.7829
▁rehabilitation	-11.783
▁estimate	-11.783
▁Pak	-11.7832
▁Lands	-11.7833
▁ancestors	-11.7833
▁Egg	-11.7834
▁[...]	-11.7835
▁Canton	-11.7836
cis	-11.7837
▁Flora	-11.7838
ér	-11.784
six	-11.7841
▁Buddha	-11.7842
▁Normal	-11.7843
▁shirt	-11.7843
▁MLS	-11.7844
▁Lil	-11.7844
▁ecclesiastical	-11.7845
▁cab	-11.7846
wara	-11.7849
▁Philippe	-11.7853
▁cow	-11.7855
▁demonstrate	-11.7856
▁Og	-11.7857
▁BS	-11.786
▁philosophical	-11.7861
size	-11.7861
▁Nuclear	-11.7861
▁analog	-11.7862
▁Singer	-11.7863
TF	-11.7863
▁repeat	-11.7864
▁screening	-11.7865
▁1903.	-11.7866
▁ingredients	-11.7867
▁Malaysian	-11.7867
▁offense	-11.7868
▁websites	-11.7868
Black	-11.7868
berger	-11.7868
qa	-11.7869
▁graves	-11.7871
▁103	-11.7871
▁shipped	-11.7873
▁Midlands	-11.7874
▁Tun	-11.7874
▁bag	-11.7875
▁Associates	-11.7876
▁Barton	-11.7877
▁Saxony	-11.7878
[...]
