<unk>	0
<s>	0
▁the	-3.02759
,	-3.20845
.	-3.28472
▁of	-3.60229
▁and	-3.74274
▁in	-3.79888
▁a	-4.1016
▁to	-4.15365
s	-4.16924
▁was	-4.43545
▁The	-4.80651
-	-4.87885
▁is	-4.96246
▁for	-4.98668
▁on	-5.06889
'	-5.11358
▁as	-5.13195
▁with	-5.14406
▁by	-5.23565
▁at	-5.32532
▁(	-5.363
▁	-5.37778
▁from	-5.44494
▁his	-5.44831
▁he	-5.50357
▁In	-5.53648
▁that	-5.62979
▁He	-5.65765
)	-5.73385
▁"	-5.751
▁an	-5.80754
▁were	-6.05238
▁which	-6.06608
▁it	-6.15349
▁are	-6.15456
▁has	-6.15997
▁also	-6.21618
"	-6.27681
▁first	-6.27771
▁had	-6.33866
▁be	-6.39754
▁her	-6.46064
▁or	-6.52419
▁It	-6.52996
▁A	-6.54949
▁one	-6.56934
▁its	-6.59664
▁who	-6.60768
▁two	-6.62118
▁their	-6.63511
▁but	-6.64563
:	-6.70168
▁she	-6.76385
▁been	-6.76404
▁this	-6.78516
;	-6.78946
▁after	-6.7987
▁not	-6.81239
▁have	-6.81923
th	-6.86347
a	-6.86928
),	-6.90423
).	-6.92444
▁University	-6.93153
▁years	-6.95265
e	-6.96755
▁She	-6.97538
▁New	-6.997
▁where	-7.00389
▁into	-7.00717
▁other	-7.00795
ing	-7.01116
▁On	-7.01226
▁time	-7.01588
▁they	-7.07969
▁when	-7.08451
▁became	-7.10936
▁over	-7.14731
▁all	-7.16883
▁made	-7.16984
▁during	-7.19306
▁then	-7.19508
▁up	-7.19785
▁later	-7.22575
▁new	-7.25299
▁three	-7.2533
▁under	-7.27446
▁year	-7.27887
ed	-7.28841
▁season	-7.28923
▁more	-7.29239
▁him	-7.29461
▁After	-7.29668
▁part	-7.29981
▁This	-7.30478
t	-7.30836
▁team	-7.33126
▁only	-7.33255
▁between	-7.33435
▁out	-7.34312
▁until	-7.36259
er	-7.38237
▁used	-7.38664
▁would	-7.39547
▁I	-7.40666
▁about	-7.4111
▁de	-7.41395
i	-7.4142
▁school	-7.41904
y	-7.42303
▁including	-7.42782
▁United	-7.43021
▁His	-7.44235
▁well	-7.4428
▁School	-7.44345
▁played	-7.44718
▁there	-7.44884
▁work	-7.45107
▁can	-7.45329
▁known	-7.46694
S	-7.4698
▁1	-7.4737
d	-7.48047
/	-7.48096
▁before	-7.48691
▁most	-7.48716
▁being	-7.48836
▁such	-7.49153
▁second	-7.50193
▁film	-7.50314
▁born	-7.52552
▁name	-7.52851
n	-7.53925
▁through	-7.54043
▁against	-7.54116
▁area	-7.5558
▁won	-7.56381
in	-7.5769
▁As	-7.57695
▁many	-7.59097
’	-7.59657
▁World	-7.59702
▁American	-7.5985
o	-7.60459
▁National	-7.60604
▁some	-7.60875
▁served	-7.61291
▁than	-7.61479
▁family	-7.61868
▁May	-7.63034
".	-7.63315
▁age	-7.63475
▁U	-7.65206
▁while	-7.65789
▁released	-7.66149
▁both	-7.66679
▁member	-7.66914
ly	-7.66919
▁2	-7.67845
▁3	-7.69549
▁named	-7.69908
▁four	-7.7051
▁died	-7.70781
▁June	-7.71108
▁January	-7.71274
▁began	-7.71452
▁called	-7.71599
▁March	-7.71686
▁album	-7.72031
▁July	-7.72262
▁September	-7.72433
▁John	-7.72454
▁York	-7.73033
▁several	-7.73104
▁August	-7.74295
▁them	-7.74657
▁St	-7.75392
▁States	-7.75738
▁October	-7.76214
."	-7.76834
▁number	-7.76848
▁people	-7.77364
▁no	-7.78305
▁April	-7.78454
▁company	-7.79439
▁early	-7.79996
▁–	-7.80148
▁At	-7.80388
▁College	-7.80559
▁series	-7.80624
▁same	-7.81679
▁War	-7.81746
▁music	-7.81965
▁They	-7.82202
▁received	-7.83124
▁November	-7.83181
▁December	-7.83289
▁B	-7.84713
▁club	-7.84998
▁South	-7.85738
▁moved	-7.85896
▁city	-7.86263
▁4	-7.86538
▁City	-7.86607
A	-7.87546
▁son	-7.88596
▁group	-7.88849
▁located	-7.88869
▁career	-7.89036
▁There	-7.89126
▁will	-7.89696
▁km	-7.90522
▁station	-7.90877
▁held	-7.91212
▁S	-7.91394
▁since	-7.92099
▁took	-7.92398
m	-7.92562
▁game	-7.9261
▁State	-7.92962
▁end	-7.93242
▁married	-7.939
▁home	-7.94086
▁built	-7.94215
▁song	-7.94566
▁published	-7.94949
▁February	-7.95195
",	-7.95523
▁town	-7.95596
▁place	-7.98037
▁League	-7.98104
▁5	-7.98344
▁10	-7.98376
▁local	-7.98759
▁County	-7.98873
▁joined	-7.98965
▁high	-7.99223
▁worked	-7.9956
▁so	-7.99837
▁building	-7.99932
▁During	-8.0011
▁state	-8.00411
▁band	-8.00537
▁found	-8.00664
▁following	-8.01868
▁father	-8.02085
▁each	-8.03234
▁&	-8.03367
▁left	-8.03625
C	-8.03944
▁-	-8.03999
▁back	-8.0463
▁C	-8.04646
▁now	-8.04963
▁British	-8.05093
▁former	-8.05145
▁around	-8.05264
▁London	-8.06732
▁long	-8.06879
▁D	-8.06915
es	-8.07477
▁along	-8.07522
▁children	-8.07642
▁population	-8.07855
▁M	-8.08629
▁single	-8.0884
▁started	-8.08936
▁use	-8.09089
▁North	-8.09462
▁'	-8.09951
an	-8.10798
man	-8.10853
▁death	-8.11147
en	-8.11609
▁18	-8.13659
▁side	-8.1409
▁century	-8.14123
▁life	-8.14417
▁these	-8.1444
▁However	-8.14689
▁village	-8.147
▁small	-8.14841
r	-8.1513
▁6	-8.15545
▁show	-8.15746
al	-8.16044
▁five	-8.16368
▁play	-8.16704
▁book	-8.17105
▁For	-8.17442
▁re	-8.17561
▁line	-8.17804
▁went	-8.18708
▁public	-8.18888
▁included	-8.18946
▁may	-8.19004
▁did	-8.19185
▁include	-8.19566
▁m	-8.19838
▁based	-8.20345
▁own	-8.20518
▁O	-8.20564
▁national	-8.20565
▁E	-8.20795
▁12	-8.21749
▁government	-8.21771
▁20	-8.2187
▁From	-8.2202
▁appointed	-8.22534
▁due	-8.23124
▁members	-8.23443
▁signed	-8.23531
▁near	-8.23629
▁large	-8.24132
▁set	-8.24186
▁main	-8.24554
the	-8.24612
▁returned	-8.24908
▁established	-8.25389
▁last	-8.25781
▁world	-8.26144
▁English	-8.26575
▁any	-8.26705
on	-8.27485
▁debut	-8.27938
▁day	-8.2798
▁service	-8.28257
▁West	-8.28463
▁River	-8.28887
▁third	-8.29302
▁founded	-8.29343
▁Cup	-8.29566
▁elected	-8.29573
▁system	-8.29798
▁again	-8.29997
▁final	-8.3013
▁San	-8.30203
▁All	-8.30843
D	-8.309
▁II	-8.30951
▁house	-8.30978
▁8	-8.31539
▁original	-8.31735
▁like	-8.31874
▁co	-8.32016
▁very	-8.32142
▁International	-8.32333
▁7	-8.32366
▁still	-8.32503
▁High	-8.32628
▁role	-8.33307
▁French	-8.33525
▁best	-8.33853
▁9	-8.33915
▁title	-8.34076
▁When	-8.34266
▁because	-8.34525
st	-8.34877
▁off	-8.35289
▁could	-8.35303
▁Her	-8.35406
▁House	-8.35482
▁per	-8.35483
▁north	-8.35586
▁P	-8.35696
▁church	-8.35725
▁F	-8.35769
▁late	-8.35785
▁T	-8.35964
The	-8.35988
▁wife	-8.36028
▁major	-8.36815
▁within	-8.36897
▁another	-8.36986
▁water	-8.37375
▁games	-8.37712
▁came	-8.381
▁England	-8.38242
▁land	-8.38619
▁German	-8.38672
▁led	-8.39213
▁11	-8.39288
▁15	-8.39741
▁announced	-8.39822
▁daughter	-8.40232
▁said	-8.40257
▁G	-8.40736
▁community	-8.41022
▁total	-8.4107
▁J	-8.41223
or	-8.41953
▁Park	-8.42117
▁created	-8.42242
▁million	-8.42325
▁R	-8.42614
▁top	-8.42636
▁site	-8.42772
▁become	-8.42982
▁opened	-8.43007
▁those	-8.43012
▁history	-8.43015
▁south	-8.43303
▁six	-8.43359
▁square	-8.43543
h	-8.43632
▁William	-8.43946
▁down	-8.44316
▁record	-8.44327
▁14	-8.44488
▁appeared	-8.44825
▁form	-8.45067
▁election	-8.45294
▁13	-8.45355
▁various	-8.45823
to	-8.45828
▁Council	-8.45991
▁miles	-8.45993
▁wrote	-8.46097
re	-8.46197
▁species	-8.46694
▁works	-8.4679
▁One	-8.46876
▁different	-8.46932
▁California	-8.47472
▁head	-8.47541
▁just	-8.47893
2	-8.47944
▁Royal	-8.48199
I	-8.48237
▁La	-8.48758
▁Award	-8.48803
▁general	-8.48995
▁playing	-8.49277
▁District	-8.49391
g	-8.49677
▁director	-8.49791
▁students	-8.50011
▁working	-8.50097
▁An	-8.50282
▁short	-8.50453
▁East	-8.50614
▁Association	-8.507
▁period	-8.50845
k	-8.51034
▁district	-8.51145
▁K	-8.5128
▁L	-8.51538
▁often	-8.51574
▁degree	-8.51917
▁next	-8.52003
▁country	-8.52228
▁No	-8.52263
▁average	-8.52295
B	-8.52339
▁Street	-8.52656
▁business	-8.52829
▁player	-8.52926
▁make	-8.52949
▁old	-8.53132
▁produced	-8.53385
▁position	-8.53828
▁President	-8.53928
▁together	-8.54172
▁Church	-8.54259
▁16	-8.5435
us	-8.54425
▁women	-8.54656
▁among	-8.54986
▁having	-8.55139
▁George	-8.55279
year	-8.55384
▁King	-8.55425
▁19	-8.55501
▁Party	-8.55944
▁US	-8.56048
▁non	-8.56267
▁attended	-8.57555
▁According	-8.57589
▁living	-8.57835
▁Institute	-8.57948
l	-8.58074
▁office	-8.58198
▁football	-8.58247
▁much	-8.58291
▁law	-8.58569
▁research	-8.58642
▁development	-8.58684
▁continued	-8.5869
▁H	-8.58743
▁order	-8.58842
▁India	-8.5887
▁given	-8.58977
c	-8.59099
▁video	-8.59241
▁production	-8.59251
▁program	-8.59367
▁recorded	-8.59663
▁few	-8.59756
▁full	-8.59761
▁international	-8.59919
▁Australia	-8.59977
▁James	-8.60043
▁present	-8.60114
▁General	-8.602
▁war	-8.6021
▁version	-8.60353
▁European	-8.60365
▁do	-8.60995
▁brother	-8.6105
▁France	-8.6126
▁2010	-8.61451
▁30	-8.61864
▁studied	-8.61989
▁Society	-8.62011
▁what	-8.62033
ers	-8.62383
▁support	-8.62477
▁25	-8.62652
▁formed	-8.62928
▁mother	-8.63091
▁sold	-8.63142
u	-8.63384
▁if	-8.63555
▁2011	-8.63647
▁win	-8.63965
▁Academy	-8.64202
▁Division	-8.64205
▁By	-8.6426
▁100	-8.64339
▁way	-8.64357
▁awarded	-8.64538
▁using	-8.64563
▁written	-8.65097
▁art	-8.65498
▁men	-8.65819
▁round	-8.65997
▁take	-8.66361
▁however	-8.66782
▁television	-8.66978
▁17	-8.67276
▁league	-8.67334
▁Army	-8.67502
–	-8.67686
▁every	-8.67849
▁Canada	-8.68138
▁completed	-8.68357
▁times	-8.68452
▁V	-8.68557
▁Hall	-8.6861
▁Company	-8.68715
▁level	-8.69075
▁project	-8.69238
▁1,	-8.69344
▁lost	-8.69509
▁Road	-8.7027
▁finished	-8.70388
▁“	-8.70428
▁2012	-8.7082
▁run	-8.70929
▁2008	-8.70979
▁To	-8.71344
▁post	-8.71415
▁W	-8.71465
▁east	-8.71568
▁performed	-8.71821
▁described	-8.71965
E	-8.72049
▁professional	-8.72103
▁party	-8.7213
born	-8.72206
z	-8.72251
N	-8.72386
▁De	-8.72975
▁young	-8.73085
▁education	-8.73393
▁president	-8.73618
▁Art	-8.73632
▁Club	-8.73679
▁event	-8.74026
▁design	-8.74172
▁N	-8.74357
▁match	-8.74644
▁2009	-8.74852
▁story	-8.7489
▁graduated	-8.74935
▁region	-8.75209
▁west	-8.7525
ton	-8.75307
▁man	-8.75597
▁While	-8.75637
▁political	-8.75705
▁addition	-8.75839
▁release	-8.75877
▁2014	-8.75883
▁These	-8.75945
b	-8.76044
▁Union	-8.76138
▁With	-8.76311
▁teams	-8.76325
▁America	-8.76451
▁live	-8.76466
▁days	-8.7654
▁Thomas	-8.77109
▁making	-8.77384
na	-8.77459
le	-8.77479
▁contract	-8.77598
▁Department	-8.77857
▁Music	-8.78161
▁point	-8.78306
M	-8.78349
▁2013	-8.78389
▁himself	-8.78496
▁Since	-8.78988
▁Center	-8.79526
▁even	-8.79603
▁featured	-8.7961
▁2007	-8.79761
▁field	-8.79841
up	-8.80115
▁half	-8.80533
▁remained	-8.80601
▁without	-8.80803
▁popular	-8.81044
▁power	-8.81166
ia	-8.81495
▁David	-8.81644
▁developed	-8.81685
▁road	-8.81994
▁designed	-8.82409
▁construction	-8.82577
▁Group	-8.82585
▁Australian	-8.82608
▁Al	-8.8267
▁track	-8.83079
▁originally	-8.8309
▁services	-8.83183
▁First	-8.83331
▁Germany	-8.83355
▁important	-8.83496
W	-8.83692
▁further	-8.84083
▁military	-8.84112
▁considered	-8.84437
▁2015	-8.84504
▁Court	-8.84563
▁Arts	-8.8459
▁coach	-8.8463
▁Robert	-8.84631
nd	-8.84694
▁training	-8.84728
▁race	-8.85071
▁current	-8.85573
▁right	-8.85583
▁2006	-8.85628
▁Charles	-8.86217
▁TV	-8.86226
▁points	-8.86336
▁months	-8.86385
▁currently	-8.86653
▁followed	-8.86668
▁Paul	-8.8679
▁gave	-8.86792
▁24	-8.8723
▁Museum	-8.87342
▁Championship	-8.87529
▁open	-8.87532
▁Washington	-8.87554
▁away	-8.87574
▁Paris	-8.87768
▁Air	-8.88085
▁21	-8.88258
▁2016	-8.88396
▁similar	-8.88516
▁across	-8.88592
1	-8.89423
▁term	-8.89627
▁Island	-8.89851
▁body	-8.89975
▁once	-8.90132
P	-8.90244
▁available	-8.90272
▁lead	-8.90296
▁result	-8.90332
▁songs	-8.91178
ta	-8.91199
▁college	-8.91382
▁Indian	-8.91616
▁Minister	-8.91635
▁others	-8.91647
▁radio	-8.91872
▁eventually	-8.91935
▁free	-8.92009
▁involved	-8.92074
is	-8.92261
▁great	-8.9229
▁Dr	-8.92487
▁Central	-8.92594
de	-8.92623
▁white	-8.92766
▁UK	-8.92839
▁areas	-8.92846
▁spent	-8.92865
▁features	-8.93039
▁seven	-8.93083
and	-8.93157
▁style	-8.93354
▁ft	-8.9346
▁scored	-8.93565
ar	-8.93606
▁leading	-8.93777
▁1990	-8.93895
▁Europe	-8.93939
▁official	-8.94193
▁study	-8.94548
▁Festival	-8.94858
▁taken	-8.95257
▁never	-8.95344
T	-8.95353
F	-8.95645
▁includes	-8.95832
▁Los	-8.9598
▁22	-8.96258
▁stage	-8.9629
▁events	-8.96374
▁White	-8.96484
▁help	-8.96514
▁senior	-8.96804
▁1980	-8.96894
▁Japan	-8.96902
▁female	-8.97013
▁Mary	-8.97027
▁although	-8.97077
▁competition	-8.97246
▁replaced	-8.97363
▁private	-8.97414
as	-8.97575
▁Co	-8.97662
▁size	-8.97694
▁Committee	-8.9797
▁black	-8.98154
▁eight	-8.98238
▁active	-8.98273
▁2015,	-8.9893
▁Sir	-8.9906
▁Lake	-8.99079
▁control	-8.99261
▁China	-8.99442
▁2010,	-8.9976
▁Henry	-8.99764
▁2014,	-8.99855
▁language	-9.00028
▁return	-9.00055
▁social	-9.00276
▁2016,	-9.0033
▁throughout	-9.00358
▁magazine	-9.0058
▁changed	-9.00809
▁books	-9.0104
▁2012,	-9.0107
▁2013,	-9.0143
—	-9.01499
▁Western	-9.01596
▁2000	-9.01658
▁summer	-9.01807
▁decided	-9.01902
▁2017,	-9.0206
▁seat	-9.02068
el	-9.02155
▁performance	-9.0231
▁2011,	-9.02443
▁go	-9.0249
▁husband	-9.02501
▁board	-9.0265
▁African	-9.02764
▁added	-9.02829
▁center	-9.03103
▁lived	-9.03208
▁placed	-9.03284
son	-9.03312
▁though	-9.03506
▁2005	-9.03549
▁case	-9.03661
▁2017	-9.03762
▁car	-9.03832
▁23	-9.03884
▁good	-9.04181
▁shows	-9.04275
3	-9.04284
▁Italian	-9.04285
ne	-9.0431
▁close	-9.04346
▁Bay	-9.04479
▁Some	-9.04538
p	-9.04757
▁Russian	-9.04771
ley	-9.0478
K	-9.04965
▁Le	-9.04971
▁schools	-9.04995
▁winning	-9.05001
▁1970	-9.05014
▁Man	-9.05069
▁special	-9.05089
▁you	-9.05137
▁common	-9.05303
▁mi	-9.0537
▁example	-9.05453
▁Canadian	-9.05587
▁modern	-9.05621
▁professor	-9.05666
▁collection	-9.05716
▁studies	-9.05726
▁sent	-9.05809
▁Board	-9.05886
▁Red	-9.05957
▁writing	-9.05966
▁river	-9.06208
▁earned	-9.06212
▁range	-9.06294
▁feet	-9.06666
▁class	-9.06677
▁largest	-9.06701
▁Saint	-9.0677
▁mid	-9.06826
▁character	-9.07071
▁older	-9.07287
▁how	-9.07323
f	-9.07466
▁un	-9.07489
▁Born	-9.0755
at	-9.07598
R	-9.07703
time	-9.07871
ic	-9.07876
▁2018,	-9.08029
G	-9.08133
▁players	-9.08241
▁directed	-9.08293
▁award	-9.08305
▁Following	-9.08323
land	-9.08429
▁Hill	-9.08475
▁successful	-9.0856
▁retired	-9.08829
▁Great	-9.08849
O	-9.08862
▁Chicago	-9.08887
▁get	-9.08903
▁artist	-9.09024
no	-9.09186
▁above	-9.09194
▁2004	-9.09221
▁2009,	-9.09282
▁Michael	-9.09296
▁Africa	-9.09343
te	-9.09463
▁seen	-9.09464
▁start	-9.09501
▁Film	-9.09605
▁El	-9.09738
ist	-9.09742
▁Peter	-9.09801
▁ten	-9.09866
▁Its	-9.09882
▁mm	-9.09958
▁section	-9.10327
▁Texas	-9.10482
▁Although	-9.10483
▁does	-9.10542
la	-9.10691
▁novel	-9.10816
▁via	-9.11156
▁goal	-9.1148
▁whom	-9.117
▁2018	-9.11998
▁fire	-9.1205
▁Japanese	-9.12114
rd	-9.12245
▁division	-9.12265
▁Best	-9.12427
▁Angeles	-9.12553
▁reported	-9.12763
▁28	-9.12838
ra	-9.12844
▁success	-9.12881
▁owned	-9.13013
▁26	-9.1314
▁organization	-9.13151
▁Science	-9.13317
▁process	-9.13558
▁Law	-9.13767
▁regular	-9.13795
▁2008,	-9.13819
▁promoted	-9.13925
▁income	-9.14095
▁provided	-9.14121
▁selected	-9.14214
▁front	-9.14339
L	-9.14357
▁Black	-9.14456
▁air	-9.1452
▁closed	-9.14713
▁entered	-9.14781
▁court	-9.14988
▁usually	-9.15039
▁Christian	-9.15062
▁reached	-9.15094
▁island	-9.15272
▁ran	-9.15318
▁1960	-9.15362
▁Spanish	-9.15503
▁families	-9.15592
▁Ireland	-9.15612
▁Smith	-9.15621
▁Zealand	-9.15657
▁upon	-9.15731
▁campaign	-9.15774
▁Chinese	-9.15891
▁Grand	-9.15905
]	-9.16035
▁soon	-9.16057
▁less	-9.16153
▁Two	-9.16283
▁author	-9.16369
▁27	-9.16384
x	-9.16472
▁killed	-9.1666
▁student	-9.16679
▁Roman	-9.16875
▁films	-9.16948
▁able	-9.16977
▁Richard	-9.17008
▁aircraft	-9.172
▁park	-9.17438
▁represented	-9.17529
▁space	-9.17645
▁industry	-9.17714
(	-9.17793
▁metres	-9.17935
um	-9.17939
▁serving	-9.17951
▁met	-9.17995
da	-9.18053
▁becoming	-9.18069
▁information	-9.18099
▁Later	-9.18111
▁Government	-9.18119
ch	-9.18222
▁route	-9.18331
▁Director	-9.18345
ka	-9.18421
▁wide	-9.18426
▁beginning	-9.18511
▁ship	-9.18702
▁whose	-9.18955
▁2007,	-9.19029
▁d	-9.192
▁love	-9.19232
▁low	-9.19302
▁practice	-9.19346
▁Act	-9.1946
▁writer	-9.19473
▁contains	-9.19582
▁central	-9.19743
▁Records	-9.19854
▁interest	-9.19883
ie	-9.199
▁fourth	-9.20108
▁50	-9.20162
▁raised	-9.20183
▁previous	-9.20235
▁must	-9.2031
▁Catholic	-9.20337
▁location	-9.20339
▁list	-9.20356
▁we	-9.20398
▁introduced	-9.20424
▁ground	-9.20541
▁runs	-9.20868
▁should	-9.20885
▁goals	-9.21105
▁numerous	-9.21135
ville	-9.21146
▁Women	-9.21242
▁matches	-9.21318
▁sister	-9.21368
▁brought	-9.21478
▁police	-9.21512
▁railway	-9.21686
▁Italy	-9.21712
▁2001	-9.21843
▁manager	-9.21885
▁light	-9.21951
4	-9.21954
”	-9.22053
▁saw	-9.22086
▁defeated	-9.22188
▁hit	-9.22567
▁launched	-9.22707
▁either	-9.22969
▁subsequently	-9.23044
▁child	-9.23138
▁acquired	-9.23431
▁tour	-9.23525
▁buildings	-9.23533
▁(1	-9.2372
▁behind	-9.23741
▁households	-9.23794
▁almost	-9.23833
▁Championships	-9.23869
▁median	-9.23915
▁provide	-9.23923
▁famous	-9.23999
▁previously	-9.24018
▁parents	-9.24092
▁editor	-9.24199
▁groups	-9.24423
▁Kingdom	-9.24469
▁structure	-9.24473
▁base	-9.2456
▁Football	-9.24569
▁listed	-9.24572
▁put	-9.24601
▁Wales	-9.24638
▁Year	-9.24644
▁65	-9.24774
▁tournament	-9.24782
▁artists	-9.24785
▁2003	-9.2484
▁woman	-9.2489
▁40	-9.24891
▁Me	-9.24899
▁human	-9.25249
▁length	-9.2526
▁Second	-9.25279
▁Republic	-9.25305
▁taking	-9.25373
based	-9.25501
▁assistant	-9.25525
▁Other	-9.25569
▁course	-9.26087
▁Theatre	-9.26133
▁countries	-9.26403
▁appearances	-9.26464
▁females	-9.26501
▁rock	-9.26518
▁29	-9.26659
able	-9.2666
ma	-9.26675
ry	-9.26792
▁FC	-9.26819
▁episode	-9.27214
▁primary	-9.27529
▁Radio	-9.2754
▁musical	-9.27622
am	-9.27715
▁Assembly	-9.27891
▁Parliament	-9.28166
▁leader	-9.28215
▁change	-9.28394
▁property	-9.2841
▁2002	-9.28437
co	-9.28454
▁Education	-9.28498
▁Research	-9.28511
ism	-9.28664
▁independent	-9.28786
▁ended	-9.28984
▁studio	-9.29024
▁southern	-9.29041
▁appearance	-9.29122
▁Town	-9.29137
▁youth	-9.29238
▁northern	-9.29274
et	-9.29318
▁feature	-9.29364
▁Most	-9.29561
▁Virginia	-9.29583
▁gold	-9.29864
▁2006,	-9.30336
men	-9.30473
▁staff	-9.30484
▁units	-9.30595
▁model	-9.30724
▁type	-9.30731
▁Service	-9.30751
▁Greek	-9.30778
▁Joseph	-9.30849
▁Green	-9.3096
▁helped	-9.31019
▁opening	-9.31111
▁health	-9.3122
▁ever	-9.31297
▁centre	-9.31363
▁least	-9.31417
▁market	-9.31422
▁grew	-9.31499
▁media	-9.31596
▁movie	-9.31633
▁X	-9.31833
▁traditional	-9.31916
▁parts	-9.31957
▁championship	-9.3197
H	-9.32032
▁Re	-9.32137
▁Chief	-9.3214
▁money	-9.32365
▁find	-9.32448
▁officer	-9.3245
▁transferred	-9.32476
▁Commission	-9.32653
▁running	-9.32663
▁[	-9.32732
▁night	-9.32916
▁Lord	-9.32939
▁Valley	-9.32994
▁little	-9.33021
2)	-9.331
▁instead	-9.3311
▁operations	-9.33254
▁Bank	-9.33674
▁sea	-9.33728
▁annual	-9.3379
▁outside	-9.33985
▁Creek	-9.34187
▁week	-9.34258
▁Professor	-9.34299
▁red	-9.34307
▁itself	-9.34382
▁medal	-9.34496
ri	-9.34521
▁network	-9.34585
▁Their	-9.34625
▁county	-9.34635
▁Foundation	-9.34833
▁Florida	-9.34842
▁Station	-9.35006
▁date	-9.35033
▁pre	-9.35054
▁la	-9.35157
▁management	-9.35247
▁lower	-9.3525
▁rest	-9.3537
▁approximately	-9.35527
▁Martin	-9.35683
▁data	-9.35891
▁Times	-9.35903
▁renamed	-9.35929
▁below	-9.35931
▁Force	-9.36012
▁Public	-9.36079
ni	-9.36083
▁forces	-9.36208
▁stated	-9.36287
▁got	-9.36306
▁Irish	-9.36386
▁real	-9.36387
▁rights	-9.36434
▁come	-9.365
one	-9.36506
▁seasons	-9.36508
▁deal	-9.36564
▁2,	-9.36682
▁friend	-9.36799
▁commercial	-9.3686
▁see	-9.36866
▁science	-9.36885
▁Railway	-9.36896
▁future	-9.36913
▁companies	-9.36932
▁rather	-9.36934
▁31	-9.36935
it	-9.37
by	-9.37103
▁operated	-9.37278
▁Mexico	-9.37347
ian	-9.37352
▁Star	-9.37631
▁candidate	-9.37715
▁plant	-9.3782
▁Northern	-9.37851
▁1950	-9.37944
▁Sea	-9.38043
▁initially	-9.38241
▁lives	-9.38255
▁recording	-9.38429
▁Louis	-9.38431
ve	-9.38494
▁participated	-9.38622
▁cover	-9.38648
▁taught	-9.38714
▁Day	-9.38735
▁Navy	-9.38746
▁chief	-9.38917
▁university	-9.38931
▁buried	-9.38964
▁attack	-9.38985
▁remains	-9.3911
▁edition	-9.39127
ner	-9.39227
▁nearby	-9.39319
▁fellow	-9.39457
▁towards	-9.3958
▁move	-9.3962
▁So	-9.39708
▁leaving	-9.39724
▁hand	-9.39748
▁cast	-9.40106
▁movement	-9.40196
▁means	-9.40203
▁sometimes	-9.40215
▁Queen	-9.40354
▁especially	-9.40467
▁activities	-9.40516
▁create	-9.40593
!	-9.4065
▁Under	-9.40674
▁census	-9.40791
▁starting	-9.40842
▁noted	-9.4112
▁past	-9.41125
▁highest	-9.41202
▁possible	-9.41254
▁Southern	-9.4127
old	-9.4132
▁firm	-9.41372
▁issues	-9.41416
com	-9.41447
▁But	-9.41497
▁al	-9.41814
▁newspaper	-9.41852
▁Hospital	-9.42055
▁("	-9.42119
▁Pacific	-9.42182
▁singer	-9.42295
▁nine	-9.42647
ity	-9.42694
ya	-9.42843
▁action	-9.42899
▁allowed	-9.43119
▁mile	-9.43152
▁medical	-9.43178
▁far	-9.43225
▁Bar	-9.43226
▁Battle	-9.43259
▁presented	-9.43294
▁Centre	-9.43429
▁You	-9.43592
▁1999	-9.43609
▁going	-9.43739
▁earlier	-9.43758
▁sports	-9.43978
▁Order	-9.43989
▁complete	-9.44031
▁male	-9.44063
▁army	-9.4427
▁constructed	-9.44357
▁related	-9.44358
▁mostly	-9.44417
▁today	-9.4445
▁purchased	-9.44491
▁Brown	-9.44498
▁Edward	-9.44508
▁takes	-9.44565
▁mainly	-9.44795
▁Soviet	-9.4488
▁strong	-9.44922
▁personal	-9.45004
▁Congress	-9.45099
▁teacher	-9.45415
▁Summer	-9.45422
▁consists	-9.45434
▁covered	-9.45551
▁entire	-9.45679
day	-9.4573
li	-9.45892
▁bridge	-9.45943
▁passed	-9.4625
▁label	-9.46272
▁capital	-9.46491
▁Mr	-9.46518
▁Boston	-9.46623
▁Bishop	-9.46658
▁houses	-9.46667
▁variety	-9.46751
▁Mark	-9.46956
▁Lee	-9.47001
V	-9.47048
▁educated	-9.47074
▁e	-9.47115
j	-9.47181
▁person	-9.474
▁associated	-9.47454
▁parish	-9.4751
▁access	-9.47519
▁western	-9.47546
▁Old	-9.47572
▁already	-9.47672
▁Go	-9.47684
▁Scotland	-9.47727
▁room	-9.47807
▁self	-9.47862
▁sub	-9.47903
▁unit	-9.48012
▁2005,	-9.48084
▁producer	-9.48176
▁supported	-9.48179
▁marriage	-9.48258
▁1998	-9.48258
▁engine	-9.48346
▁victory	-9.48353
▁That	-9.48358
▁surface	-9.48451
▁competed	-9.48526
▁thus	-9.48599
▁programs	-9.48603
▁shot	-9.48629
▁2019,	-9.4866
▁loss	-9.48699
▁Pennsylvania	-9.48725
▁hospital	-9.48793
▁natural	-9.49049
▁Many	-9.49069
▁politician	-9.49112
5	-9.49186
▁too	-9.4961
▁department	-9.49695
▁trade	-9.49819
▁Oxford	-9.49959
ko	-9.50008
▁food	-9.50016
▁Governor	-9.50055
▁native	-9.50095
▁middle	-9.50156
▁master	-9.50159
▁according	-9.50215
&	-9.50272
▁word	-9.50282
▁Prince	-9.50377
▁My	-9.50527
▁higher	-9.50567
▁significant	-9.50581
▁Carolina	-9.50666
ation	-9.50666
J	-9.50717
▁minutes	-9.50724
▁standard	-9.50737
▁races	-9.50801
▁composed	-9.50805
▁material	-9.50855
ur	-9.5092
▁density	-9.51079
▁Games	-9.51101
now	-9.51137
se	-9.5141
▁train	-9.51436
▁finally	-9.51489
▁Spain	-9.51514
▁museum	-9.51611
▁turn	-9.51626
▁Berlin	-9.51672
▁estate	-9.51976
▁my	-9.52104
▁offered	-9.52282
ling	-9.52335
▁BBC	-9.52414
▁council	-9.52577
▁Young	-9.52585
▁1996	-9.52721
▁Line	-9.52731
▁Francisco	-9.52811
▁systems	-9.52855
▁anti	-9.52878
▁generally	-9.52946
")	-9.5299
▁Columbia	-9.52997
▁serve	-9.53045
▁Jewish	-9.53089
▁Z	-9.5323
▁Secretary	-9.53311
▁provides	-9.53498
▁dedicated	-9.53514
ness	-9.53586
▁hours	-9.53673
▁required	-9.53813
▁managed	-9.53823
▁states	-9.53838
▁latter	-9.54028
ca	-9.54085
▁financial	-9.54111
▁give	-9.54158
den	-9.54229
▁Awards	-9.54239
▁45	-9.54241
▁here	-9.54242
field	-9.54399
▁complex	-9.54438
▁join	-9.54483
os	-9.54491
▁moving	-9.54504
▁decision	-9.54612
▁individual	-9.54616
▁larger	-9.54637
▁meeting	-9.54674
▁forced	-9.54715
▁Olympics	-9.54834
▁additional	-9.54887
ti	-9.55066
▁Both	-9.5519
▁alongside	-9.55246
▁carried	-9.55308
▁month	-9.55449
▁discovered	-9.55465
▁1997	-9.55487
▁thought	-9.5565
un	-9.55723
▁2011.	-9.55801
▁Super	-9.55804
▁plan	-9.55843
▁plays	-9.56079
▁battle	-9.56191
▁fight	-9.56241
▁Sydney	-9.56369
▁elections	-9.56404
▁2019	-9.56423
▁tracks	-9.56435
▁Love	-9.56451
▁males	-9.56521
▁sound	-9.56531
▁Pro	-9.56599
▁operation	-9.56685
▁majority	-9.56708
▁acting	-9.56755
▁better	-9.56895
▁2012.	-9.56973
▁turned	-9.57018
▁Long	-9.57055
▁prior	-9.57063
▁Ohio	-9.5728
▁call	-9.57363
2).	-9.575
▁2000,	-9.57622
▁remaining	-9.57675
▁obtained	-9.5776
▁culture	-9.5785
▁issue	-9.57936
▁stone	-9.57975
▁friends	-9.58076
▁succeeded	-9.58166
▁3,	-9.58195
▁responsible	-9.58288
▁Democratic	-9.583
6	-9.58301
▁particularly	-9.5832
▁paper	-9.58378
▁2013.	-9.58421
il	-9.58632
▁fact	-9.58683
▁individuals	-9.58845
▁Don	-9.58889
▁historical	-9.5893
▁failed	-9.58962
▁weeks	-9.59017
▁1930	-9.59053
8	-9.59091
▁experience	-9.59107
▁subject	-9.59163
▁2014.	-9.59169
▁Illinois	-9.59202
▁di	-9.59235
▁2010.	-9.59271
km	-9.59285
ir	-9.59301
▁Latin	-9.59335
▁force	-9.59349
▁me	-9.59439
▁III	-9.59454
▁overall	-9.59498
▁appears	-9.59514
▁website	-9.59559
of	-9.59587
▁Conference	-9.59642
less	-9.59677
▁housing	-9.597
▁stories	-9.59813
▁separate	-9.59852
▁limited	-9.59889
▁shown	-9.59911
▁projects	-9.59945
▁caused	-9.59999
▁Development	-9.60011
▁prominent	-9.60028
▁status	-9.60089
▁Fort	-9.60108
▁minor	-9.60163
▁Team	-9.602
▁Jones	-9.60207
▁Van	-9.60251
▁2009.	-9.60281
ine	-9.60298
▁longer	-9.60303
▁Russia	-9.60311
▁—	-9.60427
▁Empire	-9.60431
▁legal	-9.60531
▁technology	-9.60541
ter	-9.60553
▁Dutch	-9.60643
di	-9.60662
▁owner	-9.60751
▁Office	-9.60762
▁Tom	-9.60772
▁leaves	-9.6079
▁Civil	-9.60798
▁extended	-9.609
▁semi	-9.60903
▁Rock	-9.6102
▁Big	-9.61026
▁1995	-9.61074
▁score	-9.61133
▁couple	-9.61141
▁Ministry	-9.6128
▁1994	-9.61291
▁Eastern	-9.6167
▁Life	-9.61699
ge	-9.61727
U	-9.61814
▁eastern	-9.61835
▁solo	-9.61912
▁particular	-9.61945
▁characters	-9.61954
▁king	-9.61958
▁household	-9.61994
▁Alexander	-9.62053
▁recent	-9.62082
▁command	-9.62131
▁Michigan	-9.62158
▁1992	-9.62252
▁chairman	-9.62286
▁store	-9.62359
▁Mar	-9.62398
▁Route	-9.62525
▁cross	-9.62525
▁History	-9.62549
▁job	-9.6257
▁Asian	-9.62673
▁tower	-9.62836
▁nominated	-9.62887
▁Massachusetts	-9.62928
▁uses	-9.62936
▁ancient	-9.62949
▁2015.	-9.63013
▁broadcast	-9.63024
▁Sun	-9.63037
▁Cambridge	-9.63096
▁cm	-9.63136
▁Frank	-9.63179
▁painting	-9.63242
▁actor	-9.63256
▁squad	-9.63336
▁cost	-9.63386
ke	-9.6342
▁Senate	-9.63454
ro	-9.63526
▁Scottish	-9.6359
▁notable	-9.63777
▁2004,	-9.63793
line	-9.63873
▁products	-9.63884
▁lines	-9.63899
▁Britain	-9.63938
sen	-9.64
▁2016.	-9.64101
▁done	-9.64125
▁Bill	-9.64139
▁Health	-9.64224
▁teaching	-9.64291
▁executive	-9.64302
▁Elizabeth	-9.64388
▁Corporation	-9.64413
▁People	-9.64697
▁Master	-9.64704
▁comes	-9.6474
▁relationship	-9.64759
ov	-9.64818
▁winner	-9.64873
▁municipality	-9.65034
▁If	-9.65082
▁residents	-9.65086
▁/	-9.65087
▁Prize	-9.65154
▁2008.	-9.65286
▁source	-9.65312
v	-9.65325
▁Mount	-9.65379
▁fall	-9.65452
▁religious	-9.65486
▁Library	-9.65495
▁host	-9.65506
▁gained	-9.65598
▁bank	-9.65598
▁meaning	-9.65632
off	-9.65692
▁scoring	-9.65753
▁officially	-9.65785
w	-9.65837
▁claimed	-9.65872
▁terms	-9.65963
▁Rome	-9.66019
▁Georgia	-9.66122
▁Jersey	-9.66163
▁assigned	-9.66245
▁always	-9.66317
▁civil	-9.66445
▁society	-9.66512
▁star	-9.66628
▁200	-9.66689
▁sons	-9.6671
▁recently	-9.6674
▁review	-9.66767
▁referred	-9.66785
▁format	-9.66832
▁bought	-9.66883
▁titled	-9.66891
▁mission	-9.66924
▁floor	-9.66948
▁Top	-9.66966
▁offers	-9.67112
▁Middle	-9.67255
▁Ko	-9.67437
▁Blue	-9.67587
▁believed	-9.67736
▁Business	-9.67755
▁Republican	-9.6776
▁Santa	-9.67772
▁multiple	-9.67846
▁Cross	-9.67862
▁platform	-9.67961
▁Little	-9.68102
▁founder	-9.68119
▁test	-9.6815
▁regional	-9.68252
▁border	-9.68284
▁Gold	-9.68326
▁Port	-9.68409
▁oil	-9.68428
lin	-9.68482
▁c	-9.68532
▁forms	-9.68635
▁leave	-9.68697
▁plans	-9.68702
▁records	-9.6874
▁heart	-9.68766
sa	-9.68871
▁Victoria	-9.68882
▁nearly	-9.68927
▁Coast	-9.69029
▁2007.	-9.6906
▁Show	-9.69061
▁academic	-9.69066
▁coast	-9.69114
▁Census	-9.69135
▁news	-9.69175
▁settlement	-9.69289
▁street	-9.69295
▁changes	-9.69297
do	-9.69357
▁library	-9.69385
▁need	-9.69393
▁60	-9.69409
▁dance	-9.69443
▁serves	-9.69508
▁2017.	-9.69562
▁continues	-9.69567
▁increased	-9.69581
▁arrived	-9.69657
▁theory	-9.69671
▁Johnson	-9.69782
▁Technology	-9.69784
▁festival	-9.69816
▁Bureau	-9.69834
▁face	-9.69866
▁Ma	-9.69942
mi	-9.69946
▁4,	-9.69965
▁Jean	-9.70019
▁vote	-9.70042
▁care	-9.70053
▁double	-9.70088
▁Toronto	-9.70092
▁retirement	-9.70103
▁cut	-9.70112
▁basketball	-9.70131
▁makes	-9.70424
▁stations	-9.70503
▁branch	-9.70541
▁problems	-9.70639
▁Despite	-9.70766
▁online	-9.7084
▁whole	-9.70857
▁younger	-9.70914
▁key	-9.7095
▁Scott	-9.71014
ion	-9.71021
▁Highway	-9.71038
▁build	-9.71043
▁probably	-9.71132
▁Also	-9.7114
▁twice	-9.71141
▁Avenue	-9.71207
go	-9.71219
▁1920	-9.71376
▁conducted	-9.71399
▁channel	-9.71472
▁guitar	-9.71538
▁primarily	-9.71573
ina	-9.71678
▁chart	-9.71729
▁Williams	-9.7184
▁Each	-9.71889
▁We	-9.71904
▁awards	-9.71986
▁mentioned	-9.72047
▁1993	-9.72232
▁Justice	-9.7233
é	-9.72399
▁Over	-9.72403
▁Inc	-9.72423
▁theatre	-9.72507
▁camp	-9.72511
▁Post	-9.72512
▁Duke	-9.72564
▁upper	-9.72645
▁Hong	-9.72708
▁fifth	-9.72711
▁Castle	-9.72735
▁capacity	-9.72783
ki	-9.73023
▁Kong	-9.73046
▁featuring	-9.73082
▁results	-9.73098
▁township	-9.73124
▁Press	-9.73159
▁economic	-9.73263
ha	-9.7329
▁facilities	-9.7337
▁settled	-9.73493
▁newly	-9.73609
▁themselves	-9.73645
▁Ben	-9.73654
▁rate	-9.73665
▁defeat	-9.73697
ba	-9.73798
▁hosted	-9.73859
me	-9.73875
▁Polish	-9.73946
▁Men	-9.73991
wood	-9.74016
▁scene	-9.74071
▁certain	-9.74137
▁organized	-9.74262
▁speed	-9.74307
▁produce	-9.74312
▁divided	-9.74346
▁proposed	-9.74365
▁green	-9.74416
▁attempt	-9.74517
▁Of	-9.74569
▁Sam	-9.74595
▁Province	-9.74616
▁1991	-9.74808
▁bar	-9.74839
▁Book	-9.74912
▁cultural	-9.75043
▁destroyed	-9.75081
▁captain	-9.75131
▁castle	-9.75218
▁appear	-9.75254
▁charge	-9.75445
▁act	-9.75536
▁enough	-9.75566
ul	-9.7561
▁report	-9.75639
va	-9.75821
▁24,	-9.75909
▁18,	-9.75929
▁situated	-9.75961
▁expanded	-9.75994
▁Another	-9.76016
▁continue	-9.76127
▁God	-9.76182
▁Be	-9.76197
▁Sports	-9.76245
ji	-9.76258
▁issued	-9.76408
ham	-9.76432
▁Before	-9.76538
▁Jack	-9.76543
▁province	-9.76579
ty	-9.76603
▁minister	-9.76612
▁removed	-9.76668
▁Y	-9.76676
▁Between	-9.7669
▁Wisconsin	-9.76702
▁p	-9.7675
▁computer	-9.76765
▁roles	-9.76786
▁Three	-9.7703
▁product	-9.77084
ga	-9.77214
▁direction	-9.77238
▁holds	-9.77456
▁i	-9.77562
▁junior	-9.77587
▁direct	-9.77594
▁acres	-9.77643
▁Norwegian	-9.77729
▁commissioned	-9.77752
▁crew	-9.7782
▁alone	-9.7783
▁asked	-9.77911
▁silver	-9.77994
▁CD	-9.77997
▁distance	-9.78001
▁aged	-9.78083
ate	-9.78124
▁USA	-9.78159
side	-9.78163
be	-9.78284
▁nature	-9.78396
▁Asia	-9.78398
▁architect	-9.78442
▁Junior	-9.78481
▁2003,	-9.78493
▁farm	-9.78497
▁drama	-9.78586
▁promotion	-9.78607
▁dark	-9.78666
▁coming	-9.78673
he	-9.78718
▁Land	-9.78748
▁founding	-9.78819
▁Major	-9.78854
▁federal	-9.78924
▁Among	-9.78942
▁campus	-9.78956
▁focus	-9.78995
American	-9.7902
▁voice	-9.79037
▁loan	-9.7905
▁specific	-9.79077
▁brothers	-9.79227
▁Tour	-9.79472
▁Swedish	-9.79478
▁Israel	-9.79494
der	-9.79521
▁influence	-9.79528
▁0	-9.79577
▁Corps	-9.79579
7	-9.79678
berg	-9.79691
▁begins	-9.79724
▁1989	-9.79764
ment	-9.7977
▁allow	-9.79822
▁Member	-9.79859
▁News	-9.79879
▁highly	-9.79882
Z	-9.79885
▁attention	-9.79908
like	-9.79977
▁smaller	-9.79982
▁foreign	-9.80009
id	-9.80011
▁reach	-9.8005
▁energy	-9.80061
▁policy	-9.8007
▁lies	-9.80111
▁clubs	-9.80117
▁2018.	-9.80132
▁Media	-9.80176
▁committee	-9.80212
▁Home	-9.80272
▁idea	-9.80355
▁Li	-9.80442
▁quickly	-9.805
▁wanted	-9.80525
▁Medical	-9.80529
▁initial	-9.80558
▁1940	-9.80558
2),	-9.80566
for	-9.80607
▁Sciences	-9.80669
▁granted	-9.80693
▁35	-9.80717
▁suffered	-9.80774
▁1988	-9.80798
▁Ontario	-9.80805
wa	-9.80829
▁facility	-9.80879
▁von	-9.8088
▁wing	-9.80923
▁basis	-9.80951
▁despite	-9.80985
▁2006.	-9.80987
▁guest	-9.81015
▁Philadelphia	-9.81062
▁our	-9.8125
▁Jr	-9.81333
▁Series	-9.81366
▁kilometres	-9.81369
▁graduating	-9.8139
▁Open	-9.81406
▁entitled	-9.8143
▁Premier	-9.81498
▁spread	-9.81563
▁directly	-9.81666
▁text	-9.8167
);	-9.81857
▁And	-9.8187
▁partner	-9.81887
▁temple	-9.81929
▁returning	-9.81934
▁prison	-9.82015
▁mountain	-9.82059
▁Maria	-9.82062
▁effect	-9.8208
▁contemporary	-9.82119
ad	-9.82131
▁accepted	-9.82387
▁evidence	-9.82402
▁names	-9.82573
▁performances	-9.82582
▁Federal	-9.82624
▁Olympic	-9.82692
▁immediately	-9.82723
▁literature	-9.8274
▁inside	-9.82872
out	-9.83011
▁performing	-9.83017
▁Studies	-9.83049
▁spring	-9.8318
▁meet	-9.83213
▁Medal	-9.83429
▁5,	-9.83506
▁votes	-9.83727
▁split	-9.83756
▁rank	-9.83887
▁injury	-9.84018
▁Lady	-9.84159
▁Car	-9.84168
age	-9.84372
▁chosen	-9.84545
▁Ph	-9.84639
▁planned	-9.84664
▁operating	-9.84674
ford	-9.84714
▁reviews	-9.84715
▁graduate	-9.8486
▁multi	-9.84896
▁principal	-9.84954
▁poor	-9.84956
▁intended	-9.84987
▁forest	-9.85
▁administration	-9.85009
class	-9.85054
way	-9.85141
ja	-9.8519
▁composer	-9.85211
▁twenty	-9.85278
▁joining	-9.8541
ana	-9.85542
▁concert	-9.85653
▁increase	-9.85723
▁cause	-9.85832
▁surrounding	-9.8598
mo	-9.85997
▁cases	-9.86073
▁‘	-9.86077
▁constituency	-9.86153
▁draw	-9.86211
▁publication	-9.86274
▁Netherlands	-9.86292
▁widely	-9.86375
▁Community	-9.86456
▁creation	-9.86495
ies	-9.86589
▁Today	-9.86599
▁Social	-9.86721
▁saying	-9.86748
▁Bo	-9.86808
▁1987	-9.8683
▁giving	-9.86872
▁travel	-9.86942
▁birth	-9.86983
▁adopted	-9.87052
▁Bridge	-9.87101
▁connected	-9.87121
▁hall	-9.87158
▁girl	-9.87313
▁cities	-9.87355
ler	-9.87369
▁Captain	-9.87459
ard	-9.87638
▁flight	-9.87668
▁Do	-9.87716
▁recognized	-9.87794
▁Miss	-9.87814
▁designated	-9.87848
▁80	-9.8795
▁trial	-9.87973
▁heavy	-9.8811
za	-9.88189
▁Moscow	-9.88314
▁goes	-9.88348
▁resigned	-9.88364
▁2002,	-9.88369
▁wall	-9.8843
▁Poland	-9.88454
▁1984	-9.88539
▁merged	-9.88557
▁finish	-9.88619
▁Sweden	-9.8866
▁conditions	-9.88718
▁association	-9.88914
▁hard	-9.88968
▁view	-9.88997
▁covers	-9.89004
lo	-9.89014
▁cancer	-9.89014
▁articles	-9.89032
▁Cemetery	-9.89045
▁inspired	-9.89054
▁pro	-9.89121
▁elements	-9.89141
▁Islands	-9.89141
▁software	-9.89168
▁troops	-9.89201
▁fell	-9.89252
ey	-9.89457
▁Francis	-9.89591
▁respectively	-9.89596
▁big	-9.89647
▁painter	-9.89666
▁classes	-9.89722
▁Vice	-9.8973
▁pay	-9.89797
▁blue	-9.89885
▁ships	-9.89934
▁politics	-9.90004
▁mayor	-9.9001
▁might	-9.90085
▁Forest	-9.90177
▁ex	-9.90211
▁honor	-9.90265
▁told	-9.90423
▁agent	-9.90508
▁1986	-9.90518
▁providing	-9.90541
well	-9.90569
▁2001,	-9.90592
▁Sa	-9.90693
▁conference	-9.90705
▁stop	-9.90719
house	-9.90911
▁engineering	-9.90934
▁article	-9.91047
X	-9.91073
▁yet	-9.91073
▁tree	-9.91085
▁arts	-9.91094
▁color	-9.91118
▁hotel	-9.9114
▁Head	-9.91164
▁yards	-9.91279
▁Journal	-9.91298
▁secondary	-9.91333
▁lake	-9.91409
▁documentary	-9.91436
▁hold	-9.91455
im	-9.91505
▁lack	-9.91539
▁levels	-9.9157
▁develop	-9.91618
▁Pan	-9.91657
▁quality	-9.91685
▁secretary	-9.91693
▁Jan	-9.91702
▁rural	-9.91711
▁equipment	-9.9173
▁growth	-9.91756
▁era	-9.91766
mer	-9.91859
▁revealed	-9.91949
▁champion	-9.92052
▁6,	-9.92136
▁Con	-9.92179
ce	-9.92194
▁vice	-9.92292
▁Joe	-9.92307
▁Pakistan	-9.92428
▁Edinburgh	-9.92495
9	-9.92521
▁likely	-9.92538
▁Beach	-9.92549
▁comedy	-9.92552
▁Ha	-9.92558
▁positive	-9.92573
▁(17	-9.92745
▁finishing	-9.92768
▁7,	-9.92797
▁del	-9.92876
▁efforts	-9.92892
▁van	-9.92903
▁response	-9.92991
▁1983	-9.93002
▁15,	-9.9307
▁exhibition	-9.9319
▁Wilson	-9.93191
▁stars	-9.93214
▁titles	-9.93282
▁Earl	-9.93316
▁Earth	-9.93414
▁Daniel	-9.93475
▁brand	-9.93498
▁contributed	-9.93499
▁ice	-9.93522
▁Mac	-9.93572
▁losing	-9.93642
▁1985	-9.93724
▁Time	-9.93739
▁words	-9.93755
▁Bob	-9.93799
▁security	-9.93829
▁sign	-9.93833
▁value	-9.93835
▁entrance	-9.93884
▁du	-9.93905
▁mixed	-9.93936
▁Arthur	-9.93954
▁figure	-9.93955
▁Prime	-9.9396
▁function	-9.9397
▁growing	-9.93977
▁Taylor	-9.94029
▁Affairs	-9.94147
▁Like	-9.94212
▁Airport	-9.94231
▁Melbourne	-9.94272
em	-9.94291
▁Pope	-9.94301
▁Jackson	-9.94319
▁leadership	-9.94461
▁Bachelor	-9.94511
▁becomes	-9.94588
▁someone	-9.94593
▁forward	-9.9464
▁keep	-9.94666
▁poet	-9.94725
▁piece	-9.94742
▁Band	-9.94749
▁captured	-9.94751
▁activity	-9.94754
rs	-9.94769
▁treatment	-9.94843
▁Village	-9.95009
▁Supreme	-9.95014
▁Network	-9.95042
▁Police	-9.95085
▁bus	-9.95227
▁trains	-9.95288
▁kept	-9.9533
▁Magazine	-9.95337
▁piano	-9.95339
▁arrested	-9.95366
▁remain	-9.95388
▁judge	-9.95417
▁places	-9.95472
▁account	-9.95479
▁letter	-9.95481
▁Cape	-9.95492
▁Executive	-9.95501
▁2005.	-9.95598
▁confirmed	-9.95599
▁purpose	-9.95602
▁incorporated	-9.95722
▁visit	-9.95743
▁oldest	-9.95749
▁Mountain	-9.95763
pur	-9.95771
▁concept	-9.95774
▁metal	-9.95873
▁traffic	-9.95978
century	-9.95986
▁(18	-9.961
▁Engineering	-9.96178
▁invited	-9.96253
▁occurs	-9.9635
▁transfer	-9.96363
▁method	-9.96412
▁rule	-9.96482
▁soldiers	-9.96556
▁Due	-9.96572
▁unique	-9.96592
▁Nations	-9.96611
▁bronze	-9.96639
▁highway	-9.96641
▁trained	-9.96655
▁languages	-9.96705
▁plants	-9.96705
▁fish	-9.96735
▁digital	-9.9675
▁headquarters	-9.9679
▁journalist	-9.96813
▁Management	-9.9688
▁Mike	-9.96883
▁Missouri	-9.96927
don	-9.96967
▁declared	-9.97008
▁offer	-9.97044
▁Mo	-9.97056
▁episodes	-9.97086
▁portion	-9.97101
▁share	-9.97122
▁shortly	-9.97151
▁combined	-9.97172
▁1982	-9.9723
▁brown	-9.97244
▁airport	-9.9725
▁Township	-9.97313
ant	-9.97335
▁literary	-9.97363
▁daily	-9.97477
▁perform	-9.9752
ization	-9.97521
▁actress	-9.97542
con	-9.97569
▁Atlantic	-9.9757
▁governor	-9.97579
▁receiving	-9.97627
ak	-9.97695
▁Country	-9.97762
ll	-9.97817
▁converted	-9.97817
▁height	-9.9782
▁territory	-9.97848
▁break	-9.97928
▁Albert	-9.97943
▁Regiment	-9.98114
▁etc	-9.98206
▁press	-9.98242
known	-9.98254
▁Labour	-9.98371
▁Dan	-9.98467
▁typically	-9.98552
▁interview	-9.98564
▁Military	-9.9858
▁Federation	-9.98661
▁Orchestra	-9.98709
ting	-9.9871
?	-9.98765
▁copies	-9.98778
▁historic	-9.98935
▁visited	-9.98938
▁Bell	-9.99
▁achieved	-9.99002
io	-9.99026
▁Ho	-9.99145
ish	-9.99159
▁Davis	-9.99269
▁Chairman	-9.99389
▁1979	-9.99405
▁500	-9.99429
▁Liberal	-9.99513
▁BC	-9.99545
▁hired	-9.99594
▁gives	-9.99623
▁architecture	-9.99641
▁largely	-9.9971
▁Special	-9.9977
▁reserve	-9.99833
▁winter	-9.99854
▁Night	-9.99857
In	-9.9994
▁disease	-9.99963
▁poetry	-9.99968
▁pass	-10.0006
▁prize	-10.0012
▁Upon	-10.0013
▁Memorial	-10.0021
▁foundation	-10.0027
▁physical	-10.0027
▁Harvard	-10.0031
▁EP	-10.0035
▁scientific	-10.0036
▁Korea	-10.0037
▁roof	-10.0047
▁Andrew	-10.0049
▁Prior	-10.005
▁Four	-10.0055
▁commander	-10.0056
▁singing	-10.006
▁Ali	-10.0068
▁Norway	-10.0074
kin	-10.0077
▁ordered	-10.0077
▁content	-10.0084
which	-10.0095
▁communities	-10.01
▁Minnesota	-10.0103
▁Channel	-10.0124
▁yellow	-10.0125
▁des	-10.0125
▁10,	-10.0127
▁16,	-10.0135
▁albums	-10.0137
bo	-10.0144
▁positions	-10.0145
ten	-10.0152
▁70	-10.0152
▁resulted	-10.0154
▁starts	-10.0154
▁identified	-10.0157
▁receive	-10.0166
▁presence	-10.017
▁Sunday	-10.0173
ite	-10.0174
▁1972	-10.0174
▁agreed	-10.0184
▁joint	-10.0189
▁Gallery	-10.0191
▁8,	-10.0194
▁1949	-10.0195
▁follows	-10.0195
▁passes	-10.0198
▁fought	-10.0198
▁lot	-10.0204
▁amount	-10.0206
▁paid	-10.0211
ah	-10.0218
▁paintings	-10.0219
▁agreement	-10.022
▁pilot	-10.022
▁Field	-10.0226
▁Power	-10.0239
▁Senior	-10.0241
▁girls	-10.0242
▁actually	-10.0246
▁deep	-10.0247
▁gas	-10.0247
▁90	-10.0248
▁inhabitants	-10.0248
▁Point	-10.025
▁whether	-10.0257
▁shape	-10.0281
▁stand	-10.0285
▁11,	-10.0289
▁1976	-10.0294
▁analysis	-10.0297
▁32	-10.0299
▁officers	-10.0299
▁opera	-10.0299
▁organizations	-10.0301
▁Fellow	-10.0306
▁Un	-10.0306
▁17,	-10.0309
▁Jim	-10.0313
ek	-10.0313
▁ranked	-10.0318
▁Ka	-10.0322
▁workers	-10.0331
ous	-10.0338
▁Chris	-10.0347
▁read	-10.0351
▁Manchester	-10.0356
au	-10.0356
▁Free	-10.0358
▁Brazil	-10.036
▁Because	-10.0361
▁Khan	-10.0361
▁distribution	-10.0364
▁dead	-10.0366
▁trees	-10.0367
▁Native	-10.0377
law	-10.0379
▁applied	-10.0382
▁1999,	-10.0383
▁Or	-10.0384
▁approach	-10.0392
▁employed	-10.0393
▁seats	-10.0405
▁en	-10.0406
▁creating	-10.0408
▁Fox	-10.0408
▁Officer	-10.0408
▁unknown	-10.0411
▁urban	-10.0412
▁theme	-10.0415
▁1981	-10.0426
0	-10.043
▁slightly	-10.0431
▁Billboard	-10.0436
▁administrative	-10.044
▁sales	-10.0444
▁boat	-10.045
▁sources	-10.0451
▁1974	-10.0452
▁completely	-10.0454
-1	-10.0461
▁Lewis	-10.0471
▁allows	-10.0479
▁Di	-10.0481
▁formation	-10.0485
▁potential	-10.049
▁therefore	-10.049
▁1978	-10.0494
pa	-10.05
▁union	-10.0505
▁Class	-10.0511
▁needed	-10.0516
chi	-10.0518
▁estimated	-10.052
▁12,	-10.0526
▁Opera	-10.0528
▁permanent	-10.0534
▁Deputy	-10.0535
▁Du	-10.0539
▁occupied	-10.054
Y	-10.0542
▁know	-10.0543
▁critical	-10.0544
▁represent	-10.0546
ally	-10.0547
▁14,	-10.0547
▁clear	-10.0551
▁write	-10.0552
▁Te	-10.0565
▁2004.	-10.0567
▁Anne	-10.057
with	-10.0576
▁Per	-10.0581
TV	-10.0582
▁sides	-10.0591
▁expected	-10.0595
▁code	-10.0598
▁Project	-10.0603
▁laid	-10.0613
▁difficult	-10.0621
▁Kansas	-10.0623
ger	-10.0624
▁daughters	-10.063
▁meters	-10.0634
▁engineer	-10.0645
▁factory	-10.0648
▁block	-10.0648
mann	-10.0659
▁bishop	-10.066
▁9,	-10.066
–18	-10.0661
▁Rose	-10.0662
▁ability	-10.067
▁numbers	-10.0673
▁qualified	-10.068
▁wood	-10.0681
▁survived	-10.0688
▁Good	-10.0698
▁industrial	-10.07
▁commonly	-10.0712
▁resulting	-10.0714
▁baseball	-10.0715
▁formerly	-10.0719
▁tells	-10.0735
▁frequently	-10.0735
▁Tennessee	-10.0736
▁1977	-10.074
▁cell	-10.0741
▁Sri	-10.0747
▁(2	-10.075
▁lyrics	-10.0751
▁starred	-10.0751
▁producing	-10.076
▁Then	-10.0768
▁problem	-10.0771
▁reference	-10.0776
▁focused	-10.0781
▁programme	-10.0787
▁pieces	-10.079
▁Ten	-10.0792
▁1975	-10.0798
▁finds	-10.0808
▁consisted	-10.0812
▁Dublin	-10.0819
▁Simon	-10.0823
▁kind	-10.0828
▁fully	-10.083
▁regularly	-10.0835
▁1968	-10.0837
▁broke	-10.0837
ive	-10.0837
▁villages	-10.084
▁pair	-10.084
▁gun	-10.0843
▁Stephen	-10.0848
▁says	-10.0851
▁audience	-10.0857
▁Golden	-10.086
▁Wood	-10.086
▁En	-10.0861
ck	-10.0873
▁representing	-10.088
▁13,	-10.0885
si	-10.0885
▁About	-10.0891
▁cars	-10.0892
▁System	-10.0897
▁More	-10.09
▁knowledge	-10.0903
▁painted	-10.0911
▁Miller	-10.0917
▁1936	-10.0918
▁derived	-10.0918
▁et	-10.092
▁36	-10.0924
▁types	-10.0925
▁effects	-10.0931
est	-10.0935
▁occurred	-10.0938
▁Fame	-10.0945
▁image	-10.0946
ster	-10.0949
▁Su	-10.0952
▁21,	-10.0955
▁origin	-10.0957
▁murder	-10.0961
▁except	-10.097
▁representative	-10.0973
▁Vienna	-10.0979
▁offices	-10.098
▁pop	-10.0983
▁grade	-10.0985
▁effort	-10.0987
▁MP	-10.0992
▁compared	-10.0994
▁category	-10.0994
▁Final	-10.0999
all	-10.0999
▁Hot	-10.1003
▁tried	-10.1004
▁true	-10.1004
▁Stadium	-10.1005
▁follow	-10.1011
▁percent	-10.1013
▁Youth	-10.1023
▁valley	-10.103
▁Main	-10.1036
▁Foreign	-10.1037
▁makeup	-10.1039
▁simple	-10.104
▁extensive	-10.1043
▁studying	-10.1047
▁bring	-10.1049
▁debuted	-10.1051
han	-10.1056
▁maximum	-10.106
bar	-10.1065
▁showed	-10.1066
▁search	-10.1068
▁mass	-10.1077
▁Da	-10.1087
▁Ni	-10.1091
▁22,	-10.1102
▁letters	-10.1102
▁Trust	-10.1104
▁priest	-10.1105
▁Walter	-10.1107
▁transport	-10.1114
▁courses	-10.1117
▁fields	-10.1117
▁deputy	-10.1121
ng	-10.1132
▁marked	-10.1137
▁port	-10.1141
▁exchange	-10.1144
▁Ar	-10.1145
▁climate	-10.1149
▁ending	-10.1149
▁parties	-10.1156
▁racing	-10.1156
▁Colorado	-10.1158
▁horse	-10.1158
led	-10.1159
▁1973	-10.116
▁things	-10.1161
▁singles	-10.1164
▁abandoned	-10.1169
▁tradition	-10.1173
per	-10.1174
ized	-10.1174
▁30,	-10.1178
▁ends	-10.1183
▁Maryland	-10.1185
▁approved	-10.1186
▁dropped	-10.1189
▁fine	-10.1193
▁arms	-10.1195
▁materials	-10.1196
▁models	-10.1198
▁Song	-10.1198
▁Austria	-10.1202
▁Temple	-10.1204
▁Game	-10.1211
▁Lieutenant	-10.1214
town	-10.1215
▁Region	-10.1217
▁Up	-10.1217
▁1998,	-10.1219
▁faculty	-10.1224
▁existing	-10.1233
ney	-10.1234
▁advanced	-10.1235
▁Program	-10.1237
▁1969	-10.1241
▁versions	-10.1246
▁Samuel	-10.1247
▁classical	-10.1247
▁application	-10.1248
▁ha	-10.1253
▁28,	-10.1258
▁Steve	-10.126
▁authorities	-10.126
▁23,	-10.1268
▁Emperor	-10.1275
▁boy	-10.1276
▁Area	-10.128
▁Water	-10.1284
-18	-10.1288
▁sixth	-10.1289
▁machine	-10.1292
▁funding	-10.1298
ini	-10.1303
▁Ltd	-10.1314
▁Na	-10.132
▁CEO	-10.1325
▁jazz	-10.1325
▁collected	-10.1328
▁educational	-10.1328
▁stands	-10.1334
▁Oregon	-10.1345
▁walls	-10.1358
▁Christ	-10.1361
▁expansion	-10.1362
ci	-10.1366
▁Chi	-10.1369
▁(3	-10.1372
▁subsequent	-10.1373
▁fans	-10.1374
▁edge	-10.1381
▁environment	-10.1383
▁2003.	-10.1385
▁journal	-10.1387
▁1945	-10.1389
▁suggested	-10.1398
▁26,	-10.1404
▁onto	-10.1406
▁admitted	-10.1413
▁1971	-10.1413
▁(16	-10.1414
-19	-10.1419
▁20,	-10.1423
car	-10.1427
▁volume	-10.1431
▁herself	-10.1441
▁stay	-10.1441
▁reduced	-10.1444
ny	-10.1448
▁figures	-10.1449
▁look	-10.1459
▁sites	-10.146
mar	-10.1465
▁hands	-10.1478
▁Naval	-10.148
▁partnership	-10.149
ier	-10.1505
▁engaged	-10.151
▁Margaret	-10.1513
▁Camp	-10.1515
▁Out	-10.1516
▁Lu	-10.1522
▁learning	-10.1524
▁19,	-10.153
▁installed	-10.153
▁corner	-10.1535
ber	-10.1537
▁holding	-10.1538
▁SR	-10.1539
▁box	-10.1541
les	-10.1556
▁27,	-10.1557
▁Design	-10.157
ol	-10.1571
▁launch	-10.1572
▁v	-10.1574
▁recognition	-10.1585
▁Po	-10.1589
▁compete	-10.1592
▁leaders	-10.1594
▁Several	-10.1597
▁theater	-10.1598
▁animals	-10.1605
▁interior	-10.1606
▁spot	-10.1613
▁registered	-10.1616
▁Switzerland	-10.1622
▁Mexican	-10.1623
Q	-10.1627
▁25,	-10.1634
▁contest	-10.1636
▁setting	-10.1639
▁Danish	-10.164
▁Hotel	-10.164
head	-10.1645
▁adult	-10.1648
vi	-10.1649
▁Winter	-10.1652
▁relatively	-10.1659
▁successfully	-10.1661
▁Tokyo	-10.1676
▁Indiana	-10.1678
▁Howard	-10.1679
▁briefly	-10.1699
▁technical	-10.17
▁1964	-10.1701
▁=	-10.1707
▁morning	-10.1713
▁1967	-10.1715
▁developing	-10.1716
▁Far	-10.1723
▁Services	-10.1725
▁flowers	-10.1727
▁Korean	-10.173
ze	-10.1732
▁dates	-10.1744
▁premiered	-10.1748
▁medicine	-10.1749
▁weight	-10.1752
ang	-10.1755
▁shared	-10.1756
▁passing	-10.1776
▁straight	-10.1781
▁try	-10.1781
▁billion	-10.1784
▁bass	-10.1784
▁unable	-10.1785
▁promote	-10.179
▁twelve	-10.1792
▁reaching	-10.1795
▁publishing	-10.1795
▁Mayor	-10.1801
▁residence	-10.1808
▁neighborhood	-10.181
▁Holy	-10.181
▁lawyer	-10.1817
▁1997,	-10.1822
▁Frederick	-10.1824
▁allowing	-10.1825
▁something	-10.1829
▁2019.	-10.1844
▁restaurant	-10.1859
▁Rugby	-10.186
▁Live	-10.1863
also	-10.1867
▁aired	-10.1868
▁northeast	-10.1869
▁municipal	-10.1871
▁Hockey	-10.1875
▁racial	-10.1876
▁shop	-10.1878
▁pressure	-10.1879
▁blood	-10.1883
▁Administration	-10.1896
▁starring	-10.1899
▁claims	-10.1911
▁...	-10.1912
▁memory	-10.1912
▁Regional	-10.1914
▁Is	-10.1945
▁doing	-10.195
▁establishment	-10.1955
▁1996,	-10.1959
ot	-10.1959
war	-10.1961
▁rules	-10.1968
▁PhD	-10.1976
▁Tony	-10.1982
▁Historic	-10.1992
▁29,	-10.1996
▁Harry	-10.2006
▁Ray	-10.2006
▁refers	-10.2009
▁steel	-10.2016
▁damage	-10.2023
▁glass	-10.2023
▁Baron	-10.2024
▁beat	-10.2032
▁signing	-10.2039
▁Fire	-10.2041
▁bands	-10.2041
ut	-10.2048
▁opposition	-10.205
▁Carl	-10.2051
sky	-10.2062
▁condition	-10.2065
▁opposite	-10.2066
▁1965	-10.2069
▁Ocean	-10.2078
▁stood	-10.2085
▁cells	-10.2087
▁sale	-10.2089
▁33	-10.2096
election	-10.2099
▁Anna	-10.2104
▁felt	-10.2104
▁injured	-10.2107
▁accident	-10.211
▁Ross	-10.2111
▁claim	-10.2112
▁display	-10.2112
▁containing	-10.2113
gen	-10.212
▁Q	-10.2121
▁protection	-10.2123
▁Ken	-10.2128
▁sport	-10.214
▁genus	-10.214
▁gets	-10.2143
▁Arizona	-10.2146
▁Independent	-10.2147
▁musicians	-10.2153
▁Can	-10.218
▁entry	-10.2181
▁Television	-10.2184
▁Hamilton	-10.2185
▁l	-10.2186
▁impact	-10.2188
▁Pre	-10.2188
▁flat	-10.2194
▁Stone	-10.2198
▁300	-10.2201
▁nation	-10.2201
▁collaboration	-10.2227
▁1966	-10.2229
▁rare	-10.223
▁2001.	-10.2232
▁begin	-10.2233
▁Revolution	-10.2234
▁restored	-10.2241
▁Commander	-10.2248
▁householder	-10.2255
lan	-10.2256
▁Diego	-10.2265
▁2002.	-10.2265
▁Montreal	-10.2265
▁Iowa	-10.2266
▁Har	-10.2272
▁stayed	-10.2281
▁DVD	-10.2287
▁refused	-10.2287
▁stadium	-10.2288
▁safety	-10.2289
▁fashion	-10.2294
▁funds	-10.2299
▁planning	-10.2302
ary	-10.2308
▁reports	-10.2311
▁scenes	-10.2313
▁quarter	-10.2327
▁Yu	-10.2332
ani	-10.2341
▁Family	-10.2344
▁reason	-10.2344
▁turns	-10.2348
▁Dean	-10.2349
tz	-10.2352
▁rear	-10.2357
▁locations	-10.236
▁narrow	-10.2362
▁relations	-10.2364
▁Philip	-10.2371
▁royal	-10.2374
▁cannot	-10.2375
▁amateur	-10.238
▁philosophy	-10.2384
▁Real	-10.2387
▁da	-10.2388
so	-10.2389
▁iron	-10.2389
▁commission	-10.2389
▁historian	-10.2392
▁FM	-10.2397
▁translated	-10.2398
▁Ku	-10.2399
▁IV	-10.2399
▁agency	-10.2402
▁Children	-10.2403
tra	-10.2406
▁background	-10.241
▁2000.	-10.2411
que	-10.2413
▁institutions	-10.2415
▁ring	-10.2419
jo	-10.242
▁hockey	-10.242
▁Entertainment	-10.2423
▁Jo	-10.2427
▁supporting	-10.2428
▁Fine	-10.2432
▁selection	-10.2448
ung	-10.2448
▁Singapore	-10.2451
▁adjacent	-10.2455
▁connection	-10.2456
▁influenced	-10.2457
▁greater	-10.2457
we	-10.2458
▁tax	-10.2463
▁Queensland	-10.2466
▁chair	-10.2467
▁draft	-10.2471
▁northwest	-10.2476
▁interested	-10.2483
▁Antonio	-10.2493
▁uncle	-10.251
▁tries	-10.2515
▁boys	-10.2517
▁Ram	-10.2523
▁enter	-10.2524
▁1995,	-10.2526
í	-10.2531
▁mill	-10.2532
▁b	-10.2534
▁programming	-10.2535
▁your	-10.2538
▁ceremony	-10.254
▁Space	-10.2541
▁Christmas	-10.2545
▁quite	-10.2553
▁drive	-10.2558
▁edited	-10.2559
▁34	-10.2561
▁Review	-10.2562
back	-10.2563
▁Kentucky	-10.2565
▁drug	-10.2565
▁400	-10.2566
▁Hollywood	-10.2571
dy	-10.2578
ted	-10.2579
▁Square	-10.2579
▁beyond	-10.2588
▁Cathedral	-10.259
▁attend	-10.2605
▁contained	-10.2608
▁Houston	-10.2612
▁sense	-10.2617
▁faced	-10.262
▁Light	-10.2626
gan	-10.2626
▁composition	-10.2631
long	-10.2632
▁x	-10.2634
▁basic	-10.2637
▁inter	-10.265
▁Douglas	-10.2656
▁End	-10.2657
zi	-10.2657
▁Moore	-10.266
▁Ford	-10.2663
sk	-10.2669
▁Railroad	-10.2671
ino	-10.2672
▁opposed	-10.2673
▁stores	-10.2676
yan	-10.2683
▁global	-10.269
▁extension	-10.2693
▁candidates	-10.2694
hi	-10.2695
▁vocals	-10.2698
▁needs	-10.2698
▁stock	-10.2706
▁screen	-10.2708
▁44	-10.2709
▁establish	-10.271
▁appearing	-10.2711
▁flows	-10.2716
▁rugby	-10.2718
▁simply	-10.2721
bi	-10.2726
▁38	-10.2727
▁centuries	-10.2729
▁1948	-10.2732
▁residing	-10.2733
▁appointment	-10.2734
▁childhood	-10.2737
▁°	-10.2738
▁card	-10.2739
▁enemy	-10.2743
▁Denmark	-10.2744
ated	-10.2745
▁Bi	-10.2749
▁critics	-10.2751
▁Human	-10.2752
▁couples	-10.2752
▁chapel	-10.2761
▁Allen	-10.2762
▁sets	-10.2765
▁situation	-10.2772
▁Clark	-10.2774
▁Lincoln	-10.2779
▁districts	-10.2787
▁Connecticut	-10.279
▁Ke	-10.279
▁bottom	-10.2801
▁authority	-10.2804
▁Philippines	-10.2805
ola	-10.2805
▁powerful	-10.2806
▁Building	-10.2808
▁operate	-10.281
▁Legislative	-10.2813
▁Inter	-10.2816
▁Adam	-10.2819
▁extra	-10.2823
more	-10.2833
▁vehicle	-10.2838
▁window	-10.2838
▁agricultural	-10.2841
▁describes	-10.2844
▁CDP	-10.2848
▁fighting	-10.2851
▁want	-10.2856
▁page	-10.2856
▁Turkey	-10.2878
▁windows	-10.2881
▁1994,	-10.2887
▁crime	-10.289
▁rating	-10.2892
▁Juan	-10.2895
▁scheduled	-10.2896
▁foot	-10.2896
ru	-10.2899
▁1962	-10.29
▁Ann	-10.2901
▁rail	-10.2902
▁bachelor	-10.2903
▁normal	-10.2904
▁Reserve	-10.291
▁Gar	-10.2912
▁y	-10.2918
je	-10.292
op	-10.292
▁ultimately	-10.2923
▁heard	-10.2928
▁lieutenant	-10.2928
▁hill	-10.2929
▁rooms	-10.2932
kar	-10.2933
▁opportunity	-10.2949
▁Turkish	-10.2949
▁prevent	-10.295
▁improve	-10.295
▁1915	-10.2954
▁Patrick	-10.2969
▁cricket	-10.2969
▁1963	-10.2973
▁Belgium	-10.298
▁Czech	-10.2988
▁contributions	-10.2989
▁voted	-10.2992
▁substitute	-10.2995
▁NFL	-10.2996
▁publications	-10.2998
▁chain	-10.2998
▁decades	-10.2999
gar	-10.3003
▁consisting	-10.3005
▁maintained	-10.3017
–19	-10.3021
▁generation	-10.3023
▁passengers	-10.3025
▁Infantry	-10.3026
▁1944	-10.3026
▁closely	-10.303
▁worldwide	-10.3033
▁defined	-10.3036
▁Se	-10.3037
▁say	-10.3041
▁Muslim	-10.3054
▁Brian	-10.306
▁31,	-10.3062
▁Ed	-10.3063
▁Assistant	-10.3064
▁contact	-10.3073
▁acts	-10.3078
▁rich	-10.3079
▁brief	-10.308
▁Communist	-10.3084
▁Kim	-10.3086
▁supply	-10.3098
▁Marine	-10.3108
▁Imperial	-10.3109
▁Detroit	-10.311
ship	-10.3112
▁Quebec	-10.3113
▁attempts	-10.3117
▁Will	-10.313
▁protein	-10.3131
cha	-10.3135
▁functions	-10.3148
▁weekly	-10.3158
▁table	-10.3159
▁shell	-10.3165
▁notes	-10.3168
▁Saturday	-10.3169
▁escape	-10.317
▁Way	-10.3176
▁Miami	-10.3184
▁intersection	-10.3186
▁animal	-10.3186
20	-10.3187
▁Doctor	-10.3187
▁trip	-10.3189
▁associate	-10.3192
ho	-10.3193
▁Oklahoma	-10.3195
▁musician	-10.3195
▁passenger	-10.3195
▁Glasgow	-10.3197
▁entirely	-10.3198
▁operates	-10.3202
▁Not	-10.3205
▁fiction	-10.3208
▁regions	-10.3208
▁diameter	-10.3209
▁trying	-10.3212
▁web	-10.3216
▁ball	-10.3216
▁Marie	-10.3228
▁peace	-10.3228
▁poverty	-10.3237
▁southeast	-10.3239
▁Anderson	-10.3242
▁employees	-10.3242
▁1946	-10.3246
▁properties	-10.3249
▁hundred	-10.3249
▁Medicine	-10.3249
▁structures	-10.3254
▁provincial	-10.3255
▁attempted	-10.3256
▁alternative	-10.3259
lu	-10.326
▁Kent	-10.3275
▁getting	-10.3276
du	-10.328
▁Garden	-10.328
▁selling	-10.3285
▁wooden	-10.3286
▁residential	-10.3287
▁Tri	-10.3288
▁Max	-10.3288
▁southwest	-10.3289
▁driver	-10.329
▁1992,	-10.3291
▁sought	-10.3291
▁views	-10.3296
▁leads	-10.3297
▁proved	-10.3299
▁minute	-10.3309
▁resources	-10.3311
shaped	-10.3312
▁1999.	-10.332
see	-10.3321
▁degrees	-10.3322
▁Swiss	-10.3323
▁electric	-10.3329
▁Egypt	-10.3331
▁methods	-10.3334
+	-10.3334
▁1911	-10.3336
fa	-10.3337
▁us	-10.3338
▁officials	-10.3338
▁garden	-10.3338
▁toured	-10.3339
▁Silver	-10.3342
▁chose	-10.3342
▁standing	-10.3354
over	-10.3366
era	-10.3373
▁Fund	-10.3374
▁necessary	-10.338
▁37	-10.3384
▁Welsh	-10.3392
▁existence	-10.3393
▁participate	-10.3396
▁donated	-10.3396
▁cousin	-10.3397
ance	-10.3402
▁eye	-10.3416
▁dry	-10.3418
▁arranged	-10.3419
▁Bal	-10.342
▁vehicles	-10.3421
▁heavily	-10.3422
It	-10.3426
▁meets	-10.3432
▁environmental	-10.3433
▁Mill	-10.3435
▁owners	-10.3436
▁determined	-10.3439
▁Judge	-10.3441
▁credited	-10.3442
▁combat	-10.3444
▁Gordon	-10.3449
▁Argentina	-10.3449
▁effective	-10.3454
▁engines	-10.3457
▁duty	-10.3459
▁notably	-10.346
▁acted	-10.3463
▁Mississippi	-10.3465
▁meant	-10.3467
▁assumed	-10.3469
▁towns	-10.3473
ent	-10.348
▁Modern	-10.3481
▁serious	-10.3481
▁Pat	-10.3481
sh	-10.3482
▁Now	-10.3487
ano	-10.3491
▁businesses	-10.3494
▁Par	-10.3496
▁Tu	-10.3498
▁avoid	-10.3502
▁elevation	-10.3502
▁attached	-10.3509
▁(4	-10.3516
▁eldest	-10.3519
▁Hispanic	-10.3521
▁carry	-10.3526
▁Theater	-10.3529
▁Greece	-10.353
▁Jane	-10.353
ik	-10.3533
▁Ba	-10.3534
▁users	-10.3536
▁phase	-10.3538
▁Han	-10.3539
▁1961	-10.3539
▁grandfather	-10.3539
▁150	-10.354
▁1956	-10.3541
▁Lawrence	-10.3544
▁skills	-10.3544
▁purchase	-10.3547
▁Register	-10.3547
▁plot	-10.3549
▁Tim	-10.3554
▁youngest	-10.3559
▁grow	-10.3562
ski	-10.3567
▁sex	-10.3569
▁equal	-10.3574
▁didn	-10.3578
▁typical	-10.3579
▁institution	-10.3581
ker	-10.3583
▁applications	-10.3583
ts	-10.3584
▁Commonwealth	-10.3586
▁1959	-10.3587
▁Singh	-10.359
▁t	-10.3591
▁sell	-10.3593
▁separated	-10.3594
▁headed	-10.3597
▁Conservative	-10.3598
▁Local	-10.3602
▁Palace	-10.3602
▁con	-10.3605
▁1942	-10.361
▁tail	-10.3617
▁organisation	-10.3619
▁defense	-10.3631
▁75	-10.3637
▁honorary	-10.3638
▁mathematics	-10.3639
▁churches	-10.3645
▁1947	-10.3646
▁64	-10.3647
▁Mal	-10.3648
▁der	-10.3648
▁railroad	-10.3652
▁Si	-10.3652
▁sector	-10.3657
▁Bowl	-10.3658
▁comic	-10.3659
▁brick	-10.3662
▁Anthony	-10.3664
▁stream	-10.3668
▁Iran	-10.3668
q	-10.3669
▁distributed	-10.367
▁Austrian	-10.3673
▁1957	-10.3673
▁Once	-10.3679
▁secret	-10.3683
ran	-10.3685
▁investment	-10.3686
▁exist	-10.3687
▁Spring	-10.3688
▁Yorkshire	-10.3694
▁attacked	-10.3696
▁Brigade	-10.3699
▁folk	-10.3703
▁Though	-10.3714
ron	-10.3714
▁conflict	-10.3729
▁classic	-10.3731
ston	-10.3731
▁winners	-10.3731
▁earliest	-10.3733
▁mine	-10.3733
▁scholarship	-10.374
▁1993,	-10.3743
▁think	-10.3755
▁Security	-10.3756
▁consecutive	-10.3759
▁domestic	-10.3761
▁guitarist	-10.3773
▁reasons	-10.3776
▁price	-10.3782
▁really	-10.3789
▁patients	-10.3793
▁leg	-10.3794
▁Rio	-10.3794
▁1939	-10.3797
▁1958	-10.3808
▁Tamil	-10.381
▁collections	-10.3811
▁rose	-10.3811
ura	-10.3813
che	-10.3814
▁citizens	-10.3819
fer	-10.3823
ell	-10.3827
▁Representatives	-10.3829
▁accompanied	-10.3831
▁Third	-10.3834
▁risk	-10.3835
▁Only	-10.384
▁Liverpool	-10.384
▁Boy	-10.384
ful	-10.3841
▁Squadron	-10.3843
▁signal	-10.3846
▁grounds	-10.3847
▁coal	-10.3854
▁replace	-10.3855
▁42	-10.3864
▁attacks	-10.3875
uk	-10.3878
net	-10.3891
▁Sky	-10.3893
▁Mi	-10.3895
▁Early	-10.3903
▁failure	-10.3907
▁Atlanta	-10.3908
▁poem	-10.3908
▁session	-10.391
▁weather	-10.3917
▁interests	-10.3917
▁independence	-10.3918
▁1991,	-10.3922
▁Forces	-10.3923
▁seems	-10.3927
▁driving	-10.3938
▁Portuguese	-10.3938
▁membership	-10.3939
▁Alabama	-10.3952
▁mining	-10.3952
▁Arab	-10.3953
▁retained	-10.3955
ised	-10.3955
FM	-10.3955
▁Lane	-10.3956
▁1943	-10.3956
▁falls	-10.3958
▁items	-10.3958
▁anniversary	-10.3961
▁broad	-10.3963
▁designer	-10.3965
▁peak	-10.3966
▁Pa	-10.3971
▁Ki	-10.3971
▁artistic	-10.3974
▁economy	-10.3975
▁calls	-10.3975
▁Lo	-10.3975
ab	-10.3976
▁roads	-10.3976
po	-10.3978
▁learned	-10.3982
▁Val	-10.3983
▁1998.	-10.3984
▁Originally	-10.3991
▁choice	-10.3992
▁matter	-10.3994
▁occupation	-10.3998
▁contain	-10.3999
▁rise	-10.4003
▁core	-10.401
▁lands	-10.4011
▁1952	-10.4012
▁Broadway	-10.4015
▁helping	-10.4017
▁scale	-10.402
▁critic	-10.4021
▁Males	-10.4021
▁broken	-10.4024
▁protect	-10.4026
▁1900	-10.4027
▁versus	-10.4027
▁duties	-10.4027
▁temperature	-10.4028
▁Harris	-10.4033
▁visiting	-10.4034
▁Mountains	-10.4035
▁39	-10.4041
ex	-10.4041
▁Trinity	-10.4044
▁Staff	-10.4044
▁kg	-10.4044
▁crossing	-10.4057
▁1941	-10.4063
pe	-10.4068
▁reign	-10.4068
▁decade	-10.4071
▁flying	-10.4072
▁regiment	-10.4074
▁Mrs	-10.4074
▁successor	-10.4078
ium	-10.408
▁Ward	-10.4083
▁Seattle	-10.4087
ita	-10.4088
▁Ber	-10.4093
▁replacing	-10.4095
who	-10.4102
▁looking	-10.4103
▁praised	-10.4106
▁Morgan	-10.4109
▁dated	-10.4116
▁Wall	-10.412
▁Boys	-10.4122
▁user	-10.4122
▁teachers	-10.4123
▁junction	-10.4124
▁bodies	-10.4124
▁Place	-10.4124
mon	-10.4126
▁ways	-10.4126
▁novels	-10.4128
▁Prix	-10.4132
▁Israeli	-10.4143
▁Vietnam	-10.4148
▁Latino	-10.415
▁Fair	-10.4159
▁dating	-10.4161
▁sexual	-10.417
▁subjects	-10.4172
▁papers	-10.4172
Re	-10.4177
▁possibly	-10.418
▁Through	-10.4183
ius	-10.4183
▁investigation	-10.4184
▁1909	-10.4189
sch	-10.4191
▁branches	-10.4194
dale	-10.4194
.”	-10.42
▁Las	-10.4201
▁importance	-10.4201
▁Alan	-10.4208
▁fleet	-10.421
La	-10.4212
▁Bad	-10.4213
▁formal	-10.4215
").	-10.4217
▁Heritage	-10.4225
▁organ	-10.4227
▁1906	-10.4229
▁fast	-10.423
▁Dance	-10.4235
▁mouth	-10.4236
▁introduction	-10.4237
▁Norman	-10.4238
▁reading	-10.4241
▁designs	-10.4241
▁Birmingham	-10.4247
elected	-10.4251
▁Training	-10.4253
▁sections	-10.4253
▁celebrated	-10.4257
mm	-10.4259
▁rebuilt	-10.4264
▁Hungarian	-10.4267
▁flow	-10.4269
▁Walker	-10.4269
▁1954	-10.4273
▁fruit	-10.4274
▁Brooklyn	-10.4275
▁bill	-10.4277
▁relocated	-10.4283
▁increasing	-10.4285
▁Grant	-10.4294
▁regarded	-10.4294
▁door	-10.4295
▁wins	-10.4299
▁Metropolitan	-10.4309
▁FIFA	-10.4325
▁wind	-10.433
▁wounded	-10.433
▁electronic	-10.4331
▁colour	-10.4332
▁attending	-10.4336
vo	-10.4346
▁1907	-10.4355
▁fuel	-10.4356
▁Draft	-10.436
▁Sound	-10.436
▁hour	-10.436
▁sq	-10.4361
▁soccer	-10.4364
▁Jesus	-10.4364
ver	-10.4367
ven	-10.4368
▁qualifying	-10.4369
▁Puerto	-10.4373
▁1955	-10.4375
families	-10.4383
▁specifically	-10.439
▁tall	-10.4393
-2	-10.4398
▁Colonel	-10.4398
▁Hills	-10.44
▁images	-10.4406
▁doctor	-10.4406
▁device	-10.4407
"),	-10.4407
▁Am	-10.441
▁identity	-10.4413
▁incident	-10.4418
▁pick	-10.442
▁biggest	-10.4421
ach	-10.4421
red	-10.4423
ken	-10.4428
▁occur	-10.4428
▁sculpture	-10.4432
▁grand	-10.4433
▁Karl	-10.4435
▁merchant	-10.4435
▁assembly	-10.4439
▁filmed	-10.444
▁fishing	-10.4445
▁Campbell	-10.4447
▁writers	-10.4447
▁ruled	-10.4451
▁1997.	-10.4452
▁drawn	-10.4457
▁recordings	-10.4458
▁Information	-10.4466
▁standards	-10.4468
▁Peace	-10.4471
▁NCAA	-10.4472
▁objects	-10.4474
▁poems	-10.4478
▁flag	-10.4479
▁Brothers	-10.4482
▁internal	-10.4485
▁medieval	-10.4491
▁showing	-10.4494
van	-10.4496
▁Kar	-10.4497
▁Fe	-10.4498
▁Global	-10.4499
har	-10.45
▁surrounded	-10.4502
▁Sarah	-10.4503
fi	-10.4504
▁Knight	-10.4504
▁delivered	-10.451
air	-10.451
▁Daily	-10.4521
▁hot	-10.4521
▁improved	-10.4522
including	-10.4531
▁visual	-10.4539
ram	-10.4539
▁caught	-10.454
▁covering	-10.4541
▁Louisiana	-10.4544
▁journey	-10.4549
zo	-10.455
▁guns	-10.455
▁Matt	-10.4552
▁translation	-10.4552
▁Ti	-10.4554
▁parliament	-10.4557
▁tons	-10.456
▁Del	-10.4562
▁Upper	-10.4563
▁Cleveland	-10.4564
▁accused	-10.4565
▁grown	-10.4569
▁Rev	-10.4572
ns	-10.4573
▁48	-10.4582
west	-10.4584
▁Capital	-10.4586
ev	-10.459
▁Age	-10.459
▁orchestra	-10.4591
▁Express	-10.4592
▁replacement	-10.4594
▁Sar	-10.4601
▁Girls	-10.4605
▁Agency	-10.4606
▁gain	-10.4606
if	-10.4607
▁friendly	-10.4608
▁Les	-10.461
level	-10.4611
▁save	-10.4612
á	-10.4613
▁committed	-10.4618
▁marine	-10.4618
▁sat	-10.4619
▁competitions	-10.4624
▁parallel	-10.4638
ning	-10.464
▁k	-10.4643
ial	-10.4648
▁Gulf	-10.465
ise	-10.465
▁fund	-10.4653
▁distinguished	-10.4657
▁Ge	-10.4657
▁demolished	-10.4659
▁easily	-10.4659
▁1951	-10.4662
▁memorial	-10.4662
▁graduation	-10.4663
▁n	-10.4664
▁talk	-10.4669
US	-10.4671
▁damaged	-10.4677
▁birds	-10.4679
▁path	-10.4684
▁Heart	-10.4692
▁Nelson	-10.4694
▁Thompson	-10.4695
▁toward	-10.4697
ating	-10.4697
▁Ta	-10.4704
▁Culture	-10.4709
▁speech	-10.4711
▁pursue	-10.4714
▁1953	-10.4716
▁hosts	-10.4717
▁zone	-10.4719
burg	-10.4723
▁Studios	-10.4728
ara	-10.4731
end	-10.4747
▁Ver	-10.4749
▁Baltimore	-10.476
▁Munich	-10.476
▁budget	-10.4764
▁combination	-10.4768
gi	-10.4769
▁1919	-10.477
▁Ra	-10.4772
▁41	-10.4772
▁exhibited	-10.4775
▁Guard	-10.4777
▁Internet	-10.4781
▁Austin	-10.4783
iya	-10.4784
▁Tournament	-10.4785
▁picture	-10.4789
stone	-10.479
▁Ukraine	-10.4802
▁visitors	-10.4803
▁honour	-10.4807
We	-10.4809
▁boundary	-10.4811
▁shooting	-10.4811
▁Mu	-10.4813
▁Delhi	-10.4818
▁map	-10.4818
▁1996.	-10.4821
▁afterwards	-10.4821
▁statue	-10.4823
▁step	-10.4824
▁Eric	-10.4828
▁Cal	-10.483
▁motion	-10.4831
nes	-10.4839
▁Liga	-10.4844
▁tenure	-10.4845
▁Alliance	-10.4849
▁acid	-10.4854
▁Convention	-10.4855
▁Athletic	-10.4857
▁Portland	-10.4857
▁1989,	-10.4859
▁observed	-10.4861
▁Bel	-10.4864
▁medium	-10.4867
▁filled	-10.4871
▁ownership	-10.4875
▁cemetery	-10.4876
▁abroad	-10.4878
▁stating	-10.4888
▁Grade	-10.4889
▁championships	-10.489
▁invasion	-10.4892
▁question	-10.4892
▁criminal	-10.4892
▁killing	-10.4897
▁dam	-10.4897
▁formally	-10.4901
▁causes	-10.4902
▁beach	-10.4907
▁techniques	-10.4909
ig	-10.4909
▁Back	-10.491
▁1987,	-10.491
from	-10.4914
▁seventh	-10.4915
ett	-10.4928
▁presidential	-10.4929
▁grant	-10.493
▁coaching	-10.4935
▁ahead	-10.4935
▁Milan	-10.4936
▁doctorate	-10.4939
▁mph	-10.494
▁completing	-10.4944
ica	-10.4947
▁parliamentary	-10.4947
yl	-10.4947
▁Portugal	-10.4948
▁1938	-10.4948
▁Your	-10.4949
▁Dar	-10.495
▁eleven	-10.4954
▁universities	-10.4961
▁José	-10.4967
▁Command	-10.4969
▁column	-10.4972
▁ideas	-10.4975
ju	-10.4975
▁strength	-10.4978
▁Nova	-10.499
▁earning	-10.499
▁entering	-10.4993
▁Pi	-10.4995
▁monument	-10.4998
▁publisher	-10.5002
▁concerts	-10.5008
▁ABC	-10.5011
▁kilometers	-10.502
▁offering	-10.5022
▁traveled	-10.5024
▁chance	-10.5026
▁Roger	-10.5029
▁Crown	-10.5031
▁Ya	-10.5034
▁1918	-10.5039
▁kill	-10.505
▁don	-10.505
▁instrumental	-10.5053
▁wine	-10.5053
▁Tar	-10.5055
▁forming	-10.5056
▁See	-10.5056
ring	-10.5065
▁aid	-10.5067
▁popularity	-10.5069
▁completion	-10.5073
▁calling	-10.5077
▁Dave	-10.5082
▁Limited	-10.5082
▁g	-10.5089
▁Alfred	-10.5089
ology	-10.5099
▁Symphony	-10.5104
bu	-10.5106
▁reality	-10.5106
▁AD	-10.5111
ena	-10.5112
▁Roy	-10.5113
▁target	-10.5116
▁request	-10.5119
her	-10.5123
▁1990,	-10.5129
▁mark	-10.5132
▁Construction	-10.5132
▁landscape	-10.5133
▁mobile	-10.5133
▁contested	-10.5134
▁charged	-10.5135
▁regarding	-10.514
▁talent	-10.514
▁architectural	-10.5146
▁erected	-10.5148
▁sang	-10.515
▁causing	-10.5154
▁Russell	-10.5157
▁competing	-10.5159
▁Dallas	-10.5166
▁(15	-10.5167
▁Kelly	-10.5172
▁ill	-10.518
▁venue	-10.5181
▁heads	-10.5182
tu	-10.5182
▁gene	-10.5183
▁Finland	-10.5183
▁champions	-10.5205
▁1995.	-10.5209
▁Stewart	-10.521
▁address	-10.521
▁justice	-10.5213
▁reputation	-10.5213
▁Five	-10.5214
▁controlled	-10.5215
▁stopped	-10.5216
▁credit	-10.5218
▁Vancouver	-10.522
▁Defense	-10.5221
▁fan	-10.5223
ane	-10.5225
▁monastery	-10.5226
▁expressed	-10.5236
▁vocal	-10.5239
▁whilst	-10.5241
▁islands	-10.5242
▁relegated	-10.5243
▁advance	-10.5243
▁Bristol	-10.5244
▁Mor	-10.5247
▁actions	-10.5247
▁1922	-10.5247
▁defeating	-10.5249
▁arm	-10.5258
▁squadron	-10.5264
General	-10.5265
▁1910	-10.5268
▁Mad	-10.5287
▁Faculty	-10.5287
▁armed	-10.5287
ren	-10.5288
▁inches	-10.5289
▁55	-10.529
▁believe	-10.53
▁Front	-10.5301
▁Tan	-10.5304
▁Alex	-10.5304
▁DC	-10.5305
▁depth	-10.5314
▁Islamic	-10.5322
▁raise	-10.5323
art	-10.5327
▁Natural	-10.5327
▁annually	-10.5327
▁expedition	-10.5328
▁1914	-10.533
▁Er	-10.5331
▁1929	-10.5332
▁premiere	-10.5334
▁Shah	-10.5341
▁Abbey	-10.5342
yn	-10.5345
▁arrival	-10.5347
▁Bangladesh	-10.5349
▁(5	-10.5349
▁Graham	-10.5354
▁Princess	-10.5354
▁downtown	-10.536
▁Iron	-10.5361
port	-10.5362
▁script	-10.5364
▁religion	-10.5369
▁Madrid	-10.5378
▁Kennedy	-10.5379
star	-10.5386
▁beautiful	-10.5387
-17	-10.5387
▁drawing	-10.539
▁Hampshire	-10.5393
▁Hans	-10.5403
▁Ca	-10.5405
▁goods	-10.5405
hill	-10.5407
foot	-10.5408
▁Soon	-10.5409
▁Energy	-10.541
▁Pittsburgh	-10.5411
▁nomination	-10.5419
▁ago	-10.542
▁fixed	-10.5423
▁49	-10.5424
▁Fu	-10.5428
▁frame	-10.543
▁thirty	-10.5439
▁pool	-10.544
▁Phil	-10.5441
▁Shortly	-10.5448
▁Down	-10.545
▁temporary	-10.5454
▁inaugural	-10.5456
▁Marshall	-10.546
▁Robinson	-10.5462
▁gender	-10.5463
▁UEFA	-10.5464
▁distinct	-10.547
▁Vi	-10.5473
▁posted	-10.5473
▁kW	-10.5473
▁runner	-10.5473
▁actual	-10.5474
▁(6	-10.5475
▁1924	-10.5475
▁Soccer	-10.5478
ray	-10.5478
▁protected	-10.548
▁Cha	-10.548
▁belonged	-10.5483
▁Wright	-10.5483
min	-10.5486
▁affairs	-10.5486
dar	-10.5487
▁mind	-10.5496
▁Col	-10.5497
▁soil	-10.5497
vin	-10.5504
▁Baptist	-10.5506
▁technique	-10.5507
▁Richmond	-10.5507
▁entertainment	-10.5509
ists	-10.5512
▁Player	-10.5514
▁Dam	-10.5515
2.	-10.5516
▁camera	-10.5516
▁super	-10.5521
▁carrying	-10.5524
▁ordained	-10.5525
ens	-10.5528
▁Trade	-10.5528
▁homes	-10.5535
▁missing	-10.5536
▁Yale	-10.5538
10	-10.5539
▁measure	-10.554
▁What	-10.5543
ii	-10.5548
▁sequence	-10.5548
▁advertising	-10.5548
▁1890	-10.5559
▁cap	-10.5571
▁Il	-10.5574
▁scheme	-10.5574
▁instruments	-10.5578
wing	-10.5584
▁1928	-10.5586
▁1994.	-10.559
▁linked	-10.559
let	-10.5594
▁Hart	-10.5598
▁learn	-10.5599
▁sand	-10.5599
hu	-10.5605
▁Archbishop	-10.5608
▁Hu	-10.5609
▁electoral	-10.5611
▁bi	-10.5615
tor	-10.5616
ata	-10.5622
tan	-10.5624
▁remainder	-10.5629
▁Authority	-10.563
▁documents	-10.563
▁greatest	-10.5632
▁1937	-10.5635
▁micro	-10.5639
ou	-10.5642
▁Jazz	-10.5642
▁capture	-10.5643
▁touring	-10.5647
▁returns	-10.565
▁skin	-10.5651
▁housed	-10.5653
later	-10.5656
▁Our	-10.5657
▁1935	-10.5667
▁Hi	-10.5668
▁Morris	-10.5673
▁Jordan	-10.5675
▁hits	-10.5678
story	-10.568
▁nuclear	-10.5681
▁negative	-10.5682
▁license	-10.5684
▁responsibility	-10.5687
▁Orleans	-10.5689
▁Until	-10.5691
cy	-10.5699
▁enrolled	-10.5699
▁till	-10.5704
▁Lower	-10.5706
▁collaborated	-10.571
▁1988,	-10.571
▁details	-10.5711
▁heritage	-10.5711
▁lecturer	-10.5719
▁Nick	-10.572
▁vessel	-10.5721
▁Mel	-10.5722
▁restoration	-10.5726
▁concrete	-10.573
▁adapted	-10.5732
▁maintain	-10.5738
▁Fred	-10.574
▁Economic	-10.5745
not	-10.5745
▁palace	-10.5747
▁charges	-10.5747
▁Pierre	-10.5752
ella	-10.5756
▁Ukrainian	-10.5763
▁businessman	-10.5763
▁am	-10.5764
▁stages	-10.5771
▁Glen	-10.5771
▁scholar	-10.5773
née	-10.5777
▁Additionally	-10.5777
▁Hungary	-10.5779
▁attracted	-10.5779
▁Just	-10.578
▁Mission	-10.5783
▁landing	-10.5784
▁1992.	-10.5785
▁Adams	-10.5786
▁o	-10.5787
▁f	-10.5788
▁1993.	-10.5789
▁physics	-10.5795
▁Murray	-10.5796
▁steam	-10.5796
ari	-10.58
▁Chamber	-10.5801
▁surviving	-10.5802
▁somewhat	-10.5804
▁Serie	-10.5806
▁drummer	-10.5807
▁evening	-10.5809
▁occasionally	-10.5814
▁Adelaide	-10.5815
▁let	-10.5815
.1	-10.5818
▁photography	-10.5822
▁cabinet	-10.5823
▁Round	-10.5827
ich	-10.5828
▁respect	-10.5829
▁Together	-10.5832
▁actors	-10.5834
▁Nigeria	-10.5838
▁resident	-10.584
▁retiring	-10.5842
▁purposes	-10.5843
▁marketing	-10.5844
▁1880	-10.5847
▁finals	-10.5848
▁weapons	-10.5849
▁influential	-10.5851
▁defensive	-10.5853
▁Metro	-10.5854
▁Pop	-10.5855
▁Urban	-10.5858
▁creative	-10.5858
▁drafted	-10.5859
▁solid	-10.586
▁Canal	-10.5869
▁Bruce	-10.5869
▁represents	-10.5872
▁print	-10.5874
▁Ad	-10.588
▁sentenced	-10.5882
▁roughly	-10.5886
ria	-10.5889
▁personnel	-10.5889
▁dog	-10.5892
▁Brazilian	-10.5895
ai	-10.5896
▁ceased	-10.5896
▁Farm	-10.59
▁Moon	-10.59
▁Indonesia	-10.5901
▁directors	-10.5902
▁manufacturing	-10.5903
part	-10.5909
▁terminus	-10.591
▁Commissioner	-10.5911
▁surgery	-10.5914
season	-10.5915
▁Ryan	-10.5915
tes	-10.5916
▁Count	-10.5918
▁Victorian	-10.5922
nik	-10.5927
▁prepared	-10.5929
▁measures	-10.5929
▁underground	-10.5934
▁Professional	-10.5937
▁Works	-10.5942
▁survey	-10.5943
▁banks	-10.5944
▁Six	-10.5945
▁Nazi	-10.5947
▁Communications	-10.5948
▁preserved	-10.5951
▁1912	-10.5957
▁reduce	-10.5958
▁printed	-10.5959
▁nothing	-10.596
▁Ottoman	-10.5963
▁Franklin	-10.5963
light	-10.5971
▁tennis	-10.5973
▁1927	-10.5976
▁Champion	-10.5978
▁1986,	-10.598
▁Thus	-10.5989
tic	-10.5991
▁Here	-10.5991
ez	-10.5993
▁traded	-10.5998
▁cycle	-10.5999
▁orders	-10.6
▁Za	-10.6001
▁perhaps	-10.6012
▁YouTube	-10.6013
▁NHL	-10.6014
▁classified	-10.6017
▁Pen	-10.6017
▁plus	-10.6017
▁shares	-10.6023
▁Champions	-10.6024
▁Defence	-10.6025
▁why	-10.6028
▁Jimmy	-10.6032
▁Belgian	-10.6032
▁charts	-10.6033
▁hair	-10.6036
▁attorney	-10.6039
▁1991.	-10.6046
▁Victor	-10.6058
▁1933	-10.6062
▁newspapers	-10.6063
▁Labor	-10.6064
▁Maine	-10.6065
▁suicide	-10.6067
tel	-10.6068
▁Bush	-10.6076
▁unusual	-10.6083
▁photo	-10.6084
▁literacy	-10.6084
▁Christopher	-10.6086
▁pattern	-10.6089
▁Malaysia	-10.6089
▁wings	-10.6092
18	-10.6097
▁platforms	-10.6097
▁Challenge	-10.6097
▁naval	-10.6102
ac	-10.6104
▁52	-10.6106
dis	-10.6107
▁bad	-10.6107
▁coastal	-10.6108
▁grandson	-10.611
▁Commons	-10.6111
▁Along	-10.6111
▁storage	-10.6117
▁sponsored	-10.6121
▁communication	-10.6123
▁trail	-10.6126
▁involving	-10.6131
▁43	-10.6131
▁duo	-10.6133
▁Chart	-10.6135
▁Gen	-10.614
▁Girl	-10.6141
▁grows	-10.6146
▁Jews	-10.6151
▁experienced	-10.6153
ó	-10.6153
▁plane	-10.6158
▁Studio	-10.6159
▁counter	-10.6168
▁Having	-10.6172
▁agriculture	-10.6174
▁Sha	-10.6175
izing	-10.6176
▁charity	-10.6177
▁mountains	-10.6178
founded	-10.618
▁object	-10.6182
▁1931	-10.6183
-20	-10.6184
▁freedom	-10.6185
▁rival	-10.6185
▁descent	-10.6193
▁extremely	-10.6196
▁Battalion	-10.6198
▁Iraq	-10.6198
▁heat	-10.6201
▁Stanley	-10.6205
▁domain	-10.6205
▁peaked	-10.6206
▁occasions	-10.6207
▁affected	-10.6214
▁Villa	-10.6216
▁Utah	-10.622
▁46	-10.6223
▁Anti	-10.6225
▁equivalent	-10.6228
▁forests	-10.6238
▁Who	-10.6243
oni	-10.6248
▁experiences	-10.6249
▁FA	-10.6254
▁mean	-10.6256
▁Branch	-10.6264
▁1985,	-10.6272
▁assistance	-10.6278
▁filed	-10.6279
▁eyes	-10.6285
▁Movement	-10.6285
▁coverage	-10.6285
ku	-10.6286
▁Matthew	-10.629
▁1923	-10.6292
▁movies	-10.6293
▁Jerusalem	-10.6294
ong	-10.6297
▁resistance	-10.63
▁testing	-10.6301
ee	-10.6305
▁Bur	-10.6306
▁1934	-10.6309
▁adding	-10.6317
▁Week	-10.6318
▁Diocese	-10.6325
▁trading	-10.6325
▁Story	-10.6331
▁Around	-10.6331
▁laws	-10.6335
▁Wild	-10.6344
▁Die	-10.6348
▁Attorney	-10.6352
▁continuing	-10.6352
▁merger	-10.6354
▁determine	-10.6354
▁injuries	-10.6355
▁Baseball	-10.6362
▁link	-10.6365
▁equipped	-10.6367
▁circuit	-10.6375
term	-10.638
▁Carter	-10.6381
▁discovery	-10.6382
▁videos	-10.6387
▁Ju	-10.6392
▁demand	-10.6393
▁Finnish	-10.6395
▁outer	-10.6395
▁Jacob	-10.6396
▁Economics	-10.6397
▁achieve	-10.6398
19	-10.64
▁Kings	-10.6402
▁lay	-10.6405
▁Run	-10.6405
▁Tower	-10.6407
▁cited	-10.641
▁contribution	-10.6413
▁Rights	-10.6416
▁Bu	-10.6418
▁streets	-10.6419
ence	-10.6419
▁Play	-10.6426
▁panel	-10.6428
▁1932	-10.6428
▁swimming	-10.643
▁Even	-10.644
▁unsuccessful	-10.6446
▁reporter	-10.6447
cher	-10.6449
▁Jay	-10.6452
▁violence	-10.6458
▁Kevin	-10.646
profit	-10.6462
▁Che	-10.6463
!"	-10.6464
▁Trail	-10.6472
wi	-10.6475
▁spending	-10.6476
▁Gu	-10.6482
▁1917	-10.6483
▁Meanwhile	-10.6485
▁Ball	-10.6489
▁List	-10.6491
▁slow	-10.6492
▁SC	-10.6501
▁huge	-10.6502
low	-10.6502
rie	-10.6503
▁segment	-10.6503
▁Senator	-10.6509
▁visible	-10.6513
▁Sport	-10.6524
▁travelled	-10.6526
▁description	-10.6528
▁Trophy	-10.6532
▁authors	-10.6533
▁Baker	-10.6537
▁Berkeley	-10.6537
▁Charlotte	-10.6539
▁Currently	-10.6541
▁Leeds	-10.6543
▁corporate	-10.6546
▁1984,	-10.6547
▁inducted	-10.6547
▁worth	-10.6548
ok	-10.6553
▁Amsterdam	-10.6558
▁brain	-10.6558
▁Hal	-10.6559
▁Within	-10.6564
▁decides	-10.657
▁(10	-10.6576
▁Ja	-10.6581
ft	-10.6582
▁festivals	-10.6587
▁1921	-10.6588
▁amongst	-10.6595
▁commanded	-10.6597
▁Cricket	-10.6597
tin	-10.6602
▁cards	-10.6608
▁document	-10.661
▁magazines	-10.6612
ette	-10.6613
,000	-10.6614
▁Sal	-10.6616
▁seed	-10.6618
▁managing	-10.6619
▁motor	-10.662
-3	-10.662
my	-10.6633
▁subsidiary	-10.6633
▁Benjamin	-10.6634
▁Chair	-10.6635
▁suffering	-10.6636
▁routes	-10.6642
▁nephew	-10.6647
▁rejected	-10.6654
▁wild	-10.6654
▁volumes	-10.6661
▁relative	-10.6664
▁1945,	-10.6668
▁Broadcasting	-10.6677
▁genre	-10.6678
▁crown	-10.6685
sson	-10.6686
▁manner	-10.6687
He	-10.6689
▁Falls	-10.6692
▁bringing	-10.6692
▁lasted	-10.6693
▁Billy	-10.6694
án	-10.6696
▁picked	-10.67
ow	-10.6702
▁Ham	-10.6703
stein	-10.6705
▁cup	-10.6709
▁Rico	-10.6709
▁portrait	-10.671
▁guard	-10.6711
▁Nu	-10.6715
▁1889	-10.6717
▁academy	-10.6718
▁chapter	-10.6723
▁1989.	-10.6724
▁walk	-10.6729
▁Bor	-10.6738
▁concluded	-10.6744
▁drop	-10.6746
▁chemical	-10.675
su	-10.6751
▁Racing	-10.6752
▁medals	-10.6758
▁Orthodox	-10.6758
▁solution	-10.6759
▁Technical	-10.676
▁Mitchell	-10.6762
▁existed	-10.6765
east	-10.6767
▁executed	-10.6768
▁Alice	-10.6772
▁examples	-10.6772
▁Unit	-10.6776
▁funded	-10.6785
▁1926	-10.6786
▁row	-10.6792
▁franchise	-10.6797
▁Ro	-10.6798
▁relief	-10.68
▁elder	-10.6801
▁Orange	-10.6802
▁riding	-10.6803
▁rounds	-10.6803
ú	-10.6805
▁productions	-10.6808
▁+	-10.6811
▁fired	-10.6821
▁Cultural	-10.6824
▁habitat	-10.6825
dal	-10.6828
▁adaptation	-10.6836
▁Chile	-10.6837
▁statement	-10.6838
▁turning	-10.6841
▁Students	-10.6841
▁Basketball	-10.6843
▁finding	-10.6843
▁Carlos	-10.6844
▁extensively	-10.6845
ska	-10.6853
▁Initially	-10.6857
▁1925	-10.6859
▁considerable	-10.686
▁understanding	-10.6861
▁values	-10.6861
wan	-10.6863
▁Bernard	-10.6867
▁sisters	-10.6868
▁exhibitions	-10.687
▁Barbara	-10.6873
▁feel	-10.6874
▁gallery	-10.6879
▁marry	-10.688
▁capable	-10.6881
▁retail	-10.6881
▁devices	-10.6882
▁devoted	-10.6885
ize	-10.6885
▁Unlike	-10.6886
▁secure	-10.6889
style	-10.6889
▁47	-10.6889
▁golf	-10.6889
▁blocks	-10.6893
▁divisions	-10.6899
▁Warren	-10.6901
▁(8	-10.6901
▁undergraduate	-10.6903
▁wants	-10.6906
shi	-10.6909
▁Shi	-10.691
▁Petersburg	-10.6912
▁Beijing	-10.6915
▁Bus	-10.6916
team	-10.692
▁Pe	-10.6921
▁coached	-10.6923
▁Son	-10.6926
▁ethnic	-10.6928
▁challenge	-10.6931
lon	-10.6931
▁chamber	-10.6932
▁physician	-10.6933
▁Taiwan	-10.694
▁Ban	-10.694
▁DJ	-10.6941
▁intelligence	-10.6948
ea	-10.6948
MP	-10.6949
▁seconds	-10.6951
▁Part	-10.6953
pi	-10.6953
▁Manhattan	-10.6955
▁Short	-10.6957
′	-10.6958
called	-10.6958
ula	-10.6966
▁boats	-10.697
▁Euro	-10.6977
▁affiliated	-10.6981
▁eliminated	-10.6981
ye	-10.6982
▁outstanding	-10.6985
▁note	-10.6987
▁Catherine	-10.6987
▁Mid	-10.699
▁suspended	-10.6993
▁Donald	-10.6993
▁Guy	-10.6995
▁120	-10.7005
▁widow	-10.7005
▁capita	-10.7006
▁Florence	-10.7009
▁persons	-10.7009
▁reform	-10.701
▁severe	-10.7011
▁Transport	-10.7014
▁nearest	-10.7015
▁Political	-10.7018
down	-10.702
▁1913	-10.7022
▁illness	-10.7025
▁declined	-10.7028
–17	-10.7028
▁Municipal	-10.7029
▁Operation	-10.7029
▁aspects	-10.7032
▁terminal	-10.7033
▁honors	-10.7034
▁twin	-10.7037
▁VI	-10.7039
▁1908	-10.704
▁prime	-10.7042
▁Johnny	-10.7042
▁drew	-10.7046
▁contrast	-10.7049
▁1850	-10.7055
▁Kan	-10.7055
▁thousands	-10.7056
died	-10.706
▁AM	-10.7062
▁Cat	-10.7062
▁otherwise	-10.7067
▁struck	-10.7069
▁Finance	-10.7071
▁strongly	-10.7071
▁Seven	-10.7073
▁strike	-10.7075
▁Nicholas	-10.7077
▁credits	-10.7078
▁BA	-10.7079
▁compilation	-10.7083
▁suggests	-10.7083
▁dynasty	-10.7092
ud	-10.7092
▁margin	-10.7092
▁hip	-10.7095
▁expression	-10.7097
ika	-10.7101
▁bird	-10.7102
ida	-10.7106
▁Thailand	-10.711
▁HMS	-10.7111
ix	-10.7111
▁questions	-10.7115
▁tied	-10.7115
▁Gray	-10.7116
▁speak	-10.7117
▁dis	-10.7118
▁Cor	-10.712
▁Cooper	-10.7126
▁departure	-10.7131
▁Disney	-10.7133
▁cattle	-10.7137
ky	-10.714
▁costs	-10.7143
▁Test	-10.7143
rin	-10.7144
gate	-10.7147
▁Alberta	-10.7152
▁1000	-10.7153
▁assisted	-10.7153
▁NY	-10.7155
point	-10.7162
▁1983,	-10.7163
▁enjoyed	-10.7164
▁fly	-10.7168
▁Va	-10.7169
▁changing	-10.7169
▁Cook	-10.7172
▁rescue	-10.7176
▁die	-10.7176
▁Sub	-10.7178
▁1916	-10.7179
▁fee	-10.7179
▁assist	-10.7179
▁Auckland	-10.7187
▁smooth	-10.7192
▁Democrat	-10.7193
°	-10.7198
▁1982,	-10.7201
▁Ron	-10.7202
▁nor	-10.7203
▁Ice	-10.7207
▁soundtrack	-10.7208
▁Jeff	-10.7209
winning	-10.7209
▁1987.	-10.7217
▁Evans	-10.7218
▁modified	-10.722
▁criticized	-10.7224
▁(12	-10.7228
▁Vol	-10.723
▁Century	-10.7235
▁Literature	-10.7238
▁wedding	-10.7238
▁ratio	-10.7239
▁phone	-10.724
▁$1	-10.7241
▁Computer	-10.7242
▁sailed	-10.7243
▁Mc	-10.7243
cho	-10.7244
▁1,000	-10.7244
▁assists	-10.7245
▁ensure	-10.7252
▁audio	-10.7252
▁fitted	-10.7253
▁tools	-10.7255
▁task	-10.7255
▁Lloyd	-10.7256
▁displayed	-10.7256
▁inherited	-10.726
▁fort	-10.7262
▁buy	-10.7262
▁instrument	-10.7264
ala	-10.727
▁photographs	-10.7272
▁tribe	-10.7276
▁leaf	-10.7281
▁venture	-10.7287
ert	-10.7288
▁Hope	-10.729
▁Organization	-10.7292
▁Barcelona	-10.7298
▁Tel	-10.7302
▁produces	-10.7303
type	-10.7307
▁thereafter	-10.7308
▁Para	-10.7315
▁wealthy	-10.7317
▁cold	-10.7317
▁Hunter	-10.7319
▁element	-10.7321
▁advantage	-10.7323
ward	-10.7328
▁favor	-10.733
▁manuscript	-10.7337
bert	-10.7341
▁1990.	-10.7342
▁reaction	-10.7343
▁Bible	-10.7343
▁Serbian	-10.7347
ington	-10.7349
▁require	-10.7352
▁1972,	-10.7352
ova	-10.7352
rat	-10.7357
▁51	-10.7357
▁colonial	-10.7357
▁Athens	-10.7358
▁Constitution	-10.7359
▁spoke	-10.736
yo	-10.736
▁hometown	-10.7361
▁maintenance	-10.7361
▁customers	-10.7361
▁farming	-10.7362
▁mode	-10.7363
▁refer	-10.7367
▁inner	-10.7371
▁bit	-10.7371
▁eggs	-10.7371
▁Wayne	-10.7374
▁Charlie	-10.7375
▁internationally	-10.7376
▁Rob	-10.7384
▁Hawaii	-10.7386
▁Den	-10.7387
▁Socialist	-10.7388
▁suburb	-10.7392
▁CBS	-10.7392
▁obtain	-10.7394
▁Stanford	-10.7398
tal	-10.7398
▁frequent	-10.74
▁argued	-10.74
▁1986.	-10.74
▁mounted	-10.7402
▁1870	-10.7402
▁satellite	-10.7417
▁1988.	-10.7419
▁Venice	-10.7419
▁everything	-10.7419
▁vessels	-10.7422
▁spell	-10.7427
▁safe	-10.7431
Ha	-10.7432
tro	-10.7439
ure	-10.744
▁broadcasting	-10.7442
▁easy	-10.7445
run	-10.7448
No	-10.7451
▁Mon	-10.7451
▁le	-10.7451
▁Helen	-10.7452
▁earn	-10.7458
▁1979,	-10.746
▁factor	-10.7461
▁message	-10.7462
▁option	-10.7464
yard	-10.7464
*	-10.7468
▁criticism	-10.7469
▁requirements	-10.7469
bit	-10.747
▁scholars	-10.7471
var	-10.7475
▁Newcastle	-10.7476
▁sole	-10.748
▁Vermont	-10.7489
▁apartment	-10.7492
▁qualify	-10.7492
▁facing	-10.7493
▁focuses	-10.7495
▁Blues	-10.7499
▁benefit	-10.75
▁controversial	-10.7503
▁opportunities	-10.7503
om	-10.7505
▁gone	-10.7511
▁string	-10.7515
▁difference	-10.7516
▁Fleet	-10.7519
▁attributed	-10.7519
ap	-10.7525
▁representation	-10.7525
▁elementary	-10.7526
▁1974,	-10.7526
▁Ridge	-10.7527
▁reaches	-10.7529
▁insurance	-10.7532
▁expert	-10.7536
▁Arkansas	-10.7537
▁output	-10.754
▁Sand	-10.7542
▁Historical	-10.7545
tar	-10.7547
ities	-10.7547
san	-10.7548
▁counties	-10.7549
▁concerns	-10.7558
▁NBA	-10.7564
▁organised	-10.7569
▁SS	-10.757
▁describe	-10.7571
▁summit	-10.7575
▁occasion	-10.7578
▁1981,	-10.7581
▁Virgin	-10.7584
▁Ga	-10.7586
▁participation	-10.7587
-4	-10.7588
▁Ci	-10.759
water	-10.7593
▁significantly	-10.7594
▁PC	-10.7594
▁spots	-10.7595
▁processes	-10.7596
▁Salt	-10.7599
▁controversy	-10.761
▁watch	-10.7614
▁Warner	-10.7618
▁Buffalo	-10.7619
▁Jon	-10.762
▁Junction	-10.762
▁competitive	-10.762
▁Section	-10.7625
▁Monte	-10.7625
▁prisoners	-10.7632
▁Base	-10.7634
month	-10.7637
▁qualification	-10.7638
▁approval	-10.7639
▁Primary	-10.7641
sha	-10.7648
▁Tor	-10.7648
▁proper	-10.7648
▁thick	-10.765
▁decorated	-10.7652
▁supports	-10.7653
len	-10.7655
▁victims	-10.7662
ada	-10.7666
▁writes	-10.7666
▁Springs	-10.7667
▁bay	-10.7667
▁horses	-10.7671
▁involvement	-10.7677
hour	-10.768
ery	-10.7685
round	-10.7686
▁begun	-10.7689
▁crosses	-10.7691
▁tell	-10.7692
▁thesis	-10.7697
▁cinema	-10.7701
ris	-10.7701
▁Turner	-10.7703
tri	-10.7704
▁Arabic	-10.7705
▁consultant	-10.7705
▁shore	-10.7706
▁chemistry	-10.7708
▁context	-10.7708
▁(9	-10.7714
▁How	-10.7717
▁conductor	-10.7721
▁exists	-10.7721
▁Zone	-10.7722
▁meetings	-10.7722
New	-10.7722
▁Last	-10.7726
▁roster	-10.7727
▁topics	-10.7728
▁threatened	-10.7745
▁switched	-10.7747
▁roots	-10.7749
▁Gary	-10.7749
▁Stockholm	-10.7751
▁Hugh	-10.7755
ela	-10.7757
▁tackles	-10.7763
▁salt	-10.7765
▁Borough	-10.7766
▁1985.	-10.7769
▁thousand	-10.777
▁initiative	-10.7772
▁penalty	-10.7775
▁Baronet	-10.7777
▁limit	-10.7778
▁rising	-10.778
▁locally	-10.778
▁1945.	-10.7784
▁rated	-10.7785
▁apparently	-10.7787
▁file	-10.7791
▁Parker	-10.7794
▁happened	-10.7796
▁Ch	-10.7796
▁accessible	-10.7797
▁Industrial	-10.7798
▁Shanghai	-10.7799
▁requires	-10.7799
▁Romanian	-10.7803
▁64,	-10.7806
▁Norfolk	-10.7806
olo	-10.7806
▁1864	-10.7811
▁photographer	-10.7815
▁secured	-10.7819
▁Windows	-10.7823
▁Schools	-10.7824
illa	-10.7824
▁components	-10.7825
▁Caribbean	-10.7826
▁MA	-10.7828
12	-10.7833
▁Der	-10.7837
▁Wu	-10.7839
▁partners	-10.784
▁Mur	-10.7841
can	-10.7846
▁feed	-10.7846
▁1978,	-10.7847
▁fled	-10.7852
minute	-10.7872
▁portrayed	-10.7873
▁soldier	-10.7875
-10	-10.7877
▁behalf	-10.7878
▁Market	-10.7881
▁economics	-10.7883
▁Books	-10.7885
▁encouraged	-10.7886
▁powers	-10.7898
▁Mediterranean	-10.7899
▁colony	-10.7901
use	-10.7902
▁legend	-10.7908
▁crowd	-10.7909
.5	-10.7912
ball	-10.7914
▁Kil	-10.7921
del	-10.7928
AM	-10.793
21	-10.7931
Star	-10.7934
ay	-10.7934
▁recipient	-10.7937
▁Places	-10.7943
▁Nashville	-10.7947
▁Oak	-10.7947
▁decline	-10.795
▁beating	-10.7954
▁Death	-10.7955
▁tie	-10.7956
▁1863	-10.796
▁progress	-10.7967
▁Derby	-10.7968
▁proposal	-10.7971
▁Trans	-10.7974
▁250	-10.7981
uri	-10.7983
oli	-10.7986
▁44,	-10.7987
▁moment	-10.7989
▁Cincinnati	-10.7991
▁NBC	-10.7992
▁Wellington	-10.7993
▁1975,	-10.7993
▁appeal	-10.7993
▁1882	-10.7995
$	-10.7997
▁eighth	-10.8
▁powered	-10.8006
▁Chapel	-10.8007
▁clerk	-10.8008
▁Systems	-10.8012
ric	-10.8012
▁copy	-10.8015
▁illegal	-10.8022
▁54	-10.8023
▁ward	-10.8024
▁commenced	-10.8026
▁reportedly	-10.8026
▁Andy	-10.8026
▁Parish	-10.8027
▁Rangers	-10.8029
▁1984.	-10.803
▁ministry	-10.8033
▁Sen	-10.8033
▁Kenya	-10.8034
nan	-10.8037
▁settlers	-10.8038
▁sessions	-10.8044
ban	-10.8044
▁recommended	-10.8046
▁ranks	-10.8053
▁missed	-10.8053
▁se	-10.8061
▁inspiration	-10.8064
▁Bon	-10.8064
▁Child	-10.8068
din	-10.8072
▁convention	-10.8079
▁outbreak	-10.8079
▁Father	-10.8087
▁1905	-10.809
▁Work	-10.8091
kov	-10.8091
▁gang	-10.8092
▁1976,	-10.8096
▁conservation	-10.8098
▁arrest	-10.8099
▁Holland	-10.8099
▁none	-10.81
▁labor	-10.8101
▁na	-10.8101
▁pianist	-10.8101
▁tier	-10.8103
but	-10.8106
mont	-10.8108
▁Video	-10.8108
worth	-10.8108
▁institute	-10.8109
▁loaned	-10.8113
▁conduct	-10.8115
▁editorial	-10.8115
▁Mass	-10.8117
▁56	-10.8117
▁activist	-10.8118
▁gradually	-10.8124
▁accept	-10.8126
▁soft	-10.8128
▁crisis	-10.8131
▁Dark	-10.8131
▁Stan	-10.8133
▁Exchange	-10.8134
▁Lin	-10.8137
▁parent	-10.8137
▁legislation	-10.8137
▁(11	-10.8138
▁Dead	-10.8142
▁courts	-10.8147
▁(7	-10.8152
▁Standard	-10.8152
▁tunnel	-10.8153
▁Small	-10.8155
▁markets	-10.8156
iz	-10.8156
▁charter	-10.8157
Man	-10.8158
▁Hebrew	-10.8159
▁Food	-10.8163
▁Egyptian	-10.8163
▁Persian	-10.8164
▁producers	-10.8167
▁classification	-10.8168
▁longest	-10.8168
▁Commerce	-10.8171
▁1968,	-10.8172
▁Drive	-10.8174
Al	-10.8175
▁operational	-10.8176
▁Mas	-10.8176
ae	-10.8177
ros	-10.8177
dan	-10.8178
▁Costa	-10.8178
▁experimental	-10.8178
▁Pu	-10.8179
▁1971,	-10.8186
▁incumbent	-10.8186
▁birthday	-10.8186
▁1980,	-10.8192
▁Pradesh	-10.8196
isation	-10.8198
▁disbanded	-10.8198
▁1944,	-10.8202
▁instance	-10.8207
▁Herbert	-10.8213
▁Friday	-10.8215
▁Hamburg	-10.8216
▁Copenhagen	-10.8217
elli	-10.8217
gu	-10.8218
▁Common	-10.822
bach	-10.8221
▁thin	-10.8222
▁Ian	-10.8224
▁massive	-10.8226
finals	-10.8227
▁Vincent	-10.8228
▁jobs	-10.8228
▁Muhammad	-10.8231
▁resignation	-10.8235
▁spirit	-10.8235
▁constant	-10.8237
Le	-10.824
▁integrated	-10.8241
▁teach	-10.8246
▁Digital	-10.8247
▁mix	-10.8248
▁doesn	-10.8252
▁Romania	-10.8255
▁manage	-10.8255
▁Sch	-10.826
▁1969,	-10.8264
▁DNA	-10.8266
▁Dream	-10.8268
▁latest	-10.8278
▁Model	-10.8278
tus	-10.8278
▁themes	-10.828
▁fifteen	-10.828
▁drums	-10.8285
▁Masters	-10.8289
50	-10.8291
final	-10.8294
▁1860	-10.8294
res	-10.8297
▁Mother	-10.8297
2,	-10.8298
▁legs	-10.8299
▁characterized	-10.83
▁waters	-10.8303
▁Dakota	-10.8306
▁Brisbane	-10.8316
▁alleged	-10.8318
▁Eventually	-10.8321
▁Race	-10.8324
▁ticket	-10.8329
▁locomotives	-10.833
▁stable	-10.833
▁vision	-10.8333
▁Guinea	-10.8335
▁Cu	-10.8338
▁tank	-10.8347
▁1904	-10.8348
▁rivers	-10.8352
▁Survey	-10.8352
▁differences	-10.8353
▁1.5	-10.8355
▁1983.	-10.8356
▁Grove	-10.8357
▁Harrison	-10.8358
▁editions	-10.836
▁Late	-10.8366
▁Cuba	-10.8367
▁infrastructure	-10.8369
kan	-10.8372
▁und	-10.8373
▁anything	-10.8378
▁hundreds	-10.8379
▁1977,	-10.8386
▁behavior	-10.8387
▁Methodist	-10.8387
▁employment	-10.8388
▁Oliver	-10.8393
▁minimum	-10.8393
▁agencies	-10.8394
▁emergency	-10.8399
nt	-10.8399
▁faith	-10.8399
▁Lang	-10.84
▁Territory	-10.8401
▁offensive	-10.8403
▁symbol	-10.8405
▁send	-10.8411
▁66	-10.8415
▁Prague	-10.8415
hr	-10.8421
▁aim	-10.8424
ā	-10.8424
▁1979.	-10.8425
▁1982.	-10.843
▁Johann	-10.8439
▁Range	-10.8441
pin	-10.8442
▁Secondary	-10.8445
▁tri	-10.8445
▁funeral	-10.8447
▁Industry	-10.845
▁Bath	-10.8452
▁advice	-10.8454
▁Guide	-10.8458
▁walking	-10.8459
▁establishing	-10.8462
▁Arena	-10.8464
▁Wang	-10.8467
▁sun	-10.8472
▁Instead	-10.8475
▁acquisition	-10.8476
▁Barry	-10.8477
▁grey	-10.8481
ا	-10.8482
aka	-10.8484
▁2.5	-10.8484
▁Dun	-10.8485
▁RAF	-10.8488
▁Lanka	-10.8489
▁1902	-10.8492
▁Ottawa	-10.8494
▁Luis	-10.8495
▁Shin	-10.8497
▁Bulgarian	-10.85
▁Luke	-10.8501
▁spiritual	-10.8501
▁assets	-10.8503
▁opinion	-10.8507
▁Peninsula	-10.8509
▁prestigious	-10.8527
▁600	-10.8528
▁columns	-10.8535
▁transportation	-10.8535
▁absence	-10.8537
▁electrical	-10.8538
▁manufacturer	-10.8538
48	-10.854
▁Hudson	-10.8541
▁1973,	-10.8543
▁Much	-10.8546
place	-10.8549
▁Woman	-10.8551
▁1903	-10.8551
▁survive	-10.8552
▁Jason	-10.8554
▁ranking	-10.8555
▁Serbia	-10.8559
▁Raja	-10.8561
sur	-10.8561
▁cable	-10.8563
ability	-10.8566
▁fair	-10.8575
▁53	-10.8576
▁partly	-10.8578
▁Craig	-10.8578
▁Saints	-10.8579
▁initiated	-10.8583
▁Collins	-10.8586
▁85	-10.8586
▁planet	-10.859
▁flower	-10.8591
ama	-10.8593
▁aimed	-10.8597
▁originated	-10.8606
▁participants	-10.8606
▁disc	-10.8607
▁specialized	-10.8612
▁connecting	-10.8614
▁Ambassador	-10.8618
▁Throughout	-10.8624
▁choir	-10.8626
▁Fall	-10.8634
▁Stars	-10.8635
▁trust	-10.864
▁mention	-10.864
▁finance	-10.8641
▁Guardian	-10.8644
▁regime	-10.8647
▁manor	-10.8651
▁wear	-10.8651
▁Dick	-10.8655
▁São	-10.8655
▁pioneer	-10.8659
▁ride	-10.866
▁pale	-10.8662
ping	-10.8663
▁add	-10.8664
▁grave	-10.8664
?"	-10.8669
▁elevated	-10.8669
▁strip	-10.867
▁Marc	-10.8671
ene	-10.8672
▁Ex	-10.8675
▁Action	-10.8676
▁spoken	-10.8679
▁participating	-10.8682
▁72	-10.8684
▁promoting	-10.8686
▁recovered	-10.8686
▁accounts	-10.8692
▁Angel	-10.8693
▁tribute	-10.8694
▁seek	-10.8697
▁(13	-10.8697
▁fill	-10.8699
▁mental	-10.8702
▁Mumbai	-10.8708
▁depending	-10.871
▁Jonathan	-10.8711
zer	-10.8711
▁shops	-10.8711
▁vocalist	-10.8714
▁beauty	-10.8716
▁missions	-10.8717
▁Fa	-10.8717
▁apart	-10.8721
▁Phoenix	-10.8728
▁resumed	-10.8729
▁Apple	-10.873
work	-10.8734
ero	-10.8738
▁Ji	-10.8739
▁transition	-10.874
▁rapidly	-10.8746
ff	-10.8746
▁choose	-10.8749
▁adults	-10.8752
▁sees	-10.8753
▁renowned	-10.8755
▁favorite	-10.8755
room	-10.8756
▁shopping	-10.8759
_	-10.876
▁Warsaw	-10.8765
▁orange	-10.8766
▁exclusively	-10.8767
length	-10.8768
ić	-10.8768
▁Horse	-10.8772
▁wave	-10.8774
▁struggle	-10.8775
▁divorced	-10.8777
▁Mer	-10.8778
▁debate	-10.8779
▁thing	-10.8782
▁Stock	-10.8783
▁tropical	-10.8785
▁Minor	-10.8787
▁submarine	-10.8789
▁bid	-10.8789
▁Wa	-10.8793
such	-10.8794
▁treated	-10.8796
▁closure	-10.8797
▁possession	-10.8798
-12	-10.8799
▁partially	-10.8802
▁800	-10.8804
▁cash	-10.8805
▁sitting	-10.8808
▁Dor	-10.8808
▁Classic	-10.8813
▁sentence	-10.8814
▁storm	-10.8815
▁Ger	-10.882
▁defence	-10.8821
king	-10.8822
istic	-10.8823
▁Sol	-10.8824
▁1878	-10.8826
enberg	-10.8827
▁dual	-10.8829
▁Policy	-10.883
▁policies	-10.8835
burn	-10.8837
▁Gregory	-10.8838
▁Honor	-10.8838
▁1967,	-10.8845
▁Lions	-10.8847
▁understand	-10.8849
▁restaurants	-10.8849
inch	-10.8851
▁Wing	-10.8853
▁crash	-10.8855
▁spin	-10.8859
▁Robin	-10.8859
▁earth	-10.8866
▁Sultan	-10.8867
▁doors	-10.8867
▁1972.	-10.887
▁protest	-10.8871
▁normally	-10.8875
▁centers	-10.8876
▁Ze	-10.8879
▁Peru	-10.8881
ua	-10.8881
▁Hindu	-10.8881
▁rocks	-10.8882
▁Years	-10.8883
yu	-10.8884
▁Kin	-10.8886
▁Next	-10.889
▁Kai	-10.8893
▁Leo	-10.8893
▁Manager	-10.8894
▁Language	-10.8896
▁Competition	-10.8898
gun	-10.8899
▁Hay	-10.8899
▁Provincial	-10.8903
▁Advisory	-10.8903
▁speaking	-10.8904
▁Collection	-10.8906
ase	-10.8909
▁farmers	-10.891
▁everyone	-10.8911
▁Agriculture	-10.8917
▁closing	-10.8917
▁belongs	-10.8918
pro	-10.8919
▁Bengal	-10.8919
▁Jerry	-10.8923
▁emperor	-10.8923
▁weekend	-10.8923
▁Win	-10.8929
▁links	-10.8929
▁pitch	-10.8933
▁enters	-10.8933
▁frequency	-10.8934
▁strategy	-10.8937
▁Songs	-10.8938
▁Alaska	-10.894
▁schedule	-10.894
▁detailed	-10.8942
▁enlisted	-10.8942
▁categories	-10.8943
▁canal	-10.8943
▁processing	-10.8945
▁Afghanistan	-10.8946
▁1978.	-10.8952
▁ambassador	-10.8953
▁exposed	-10.8955
▁Jose	-10.8955
▁abolished	-10.8957
▁useful	-10.8957
▁spend	-10.8958
▁Associate	-10.8959
▁denied	-10.8961
▁founders	-10.8962
▁Fellowship	-10.8964
▁Vegas	-10.8966
▁Rick	-10.8967
-16	-10.8969
lia	-10.897
▁Hunt	-10.8974
▁1981.	-10.8976
▁speaker	-10.8977
▁Carr	-10.8977
▁Sheffield	-10.8984
▁57	-10.8985
▁spaces	-10.8985
ile	-10.8987
▁farmer	-10.8988
▁Ivan	-10.8989
lar	-10.899
gel	-10.8991
acre	-10.8993
▁Ana	-10.8994
▁Min	-10.8997
▁connects	-10.8997
▁fit	-10.8999
▁Nation	-10.9
▁1974.	-10.9002
▁1901	-10.9004
▁Americans	-10.9006
▁Mason	-10.9006
▁Wolf	-10.901
▁Oslo	-10.9012
▁10,000	-10.9013
▁expand	-10.9014
▁Side	-10.9016
▁Islam	-10.9016
▁Contemporary	-10.9019
▁Ru	-10.9025
▁designation	-10.9026
▁representatives	-10.9027
▁Mont	-10.9027
▁Des	-10.9029
▁Plan	-10.9034
▁baby	-10.9041
▁mall	-10.9042
▁Penn	-10.9043
▁timber	-10.9046
▁Gil	-10.9048
▁Railways	-10.905
▁ca	-10.905
▁Shaw	-10.9051
▁knew	-10.9052
▁Mills	-10.9054
▁Every	-10.9055
ō	-10.9057
▁legislature	-10.9063
▁Freedom	-10.9066
▁ruling	-10.9067
40	-10.9069
▁diverse	-10.9071
▁1977.	-10.9072
▁Tech	-10.9076
▁gay	-10.9082
▁Tai	-10.9083
▁rapid	-10.9086
▁guide	-10.9087
▁Harbor	-10.9087
▁interviews	-10.9088
lis	-10.9097
▁hectares	-10.9098
▁Electric	-10.9103
▁suitable	-10.9105
▁external	-10.9105
▁1976.	-10.9106
▁Grace	-10.9106
▁innings	-10.9106
▁Tur	-10.9106
▁favour	-10.9109
▁Code	-10.9111
▁cargo	-10.9112
val	-10.9114
▁Motor	-10.9114
ding	-10.9116
oc	-10.9119
pre	-10.912
▁Pass	-10.9121
▁conservative	-10.9126
eng	-10.9126
▁58	-10.9128
▁Season	-10.9129
▁keeping	-10.9129
▁Butler	-10.913
ale	-10.9132
▁Campaign	-10.9135
bel	-10.9135
▁Sr	-10.9138
▁Financial	-10.9141
▁exhibit	-10.9144
▁Bull	-10.9145
ks	-10.9146
▁bench	-10.9149
▁Nevada	-10.915
sey	-10.915
rich	-10.9153
▁Control	-10.9155
▁(14	-10.9156
▁dissolved	-10.9158
▁tours	-10.9163
▁UN	-10.9165
▁practices	-10.9168
▁internet	-10.9169
▁Nature	-10.917
nu	-10.9173
sville	-10.9174
▁concerned	-10.9177
▁matters	-10.9177
▁seeking	-10.9177
ag	-10.9181
▁humans	-10.9182
▁bed	-10.9184
▁clan	-10.9185
▁Chu	-10.9185
ator	-10.9185
▁excellent	-10.9185
▁patient	-10.9191
▁increasingly	-10.9192
▁Drama	-10.9195
▁explained	-10.9198
▁Raj	-10.9204
▁count	-10.9205
▁1973.	-10.9207
des	-10.9209
▁reviewed	-10.9214
hand	-10.9215
▁1975.	-10.9216
▁Anglo	-10.9223
▁Seminary	-10.9223
▁greatly	-10.9224
▁Perry	-10.9225
▁mini	-10.9225
▁viewers	-10.9227
▁Ny	-10.9228
▁belonging	-10.9228
▁commune	-10.9229
▁Var	-10.9234
▁ranging	-10.9235
▁affiliate	-10.9235
▁Abu	-10.9239
▁Elementary	-10.924
▁journalism	-10.924
▁circle	-10.9243
▁permission	-10.9244
%	-10.9245
▁communications	-10.9248
▁Sara	-10.9248
non	-10.9249
▁concentration	-10.9253
▁manufactured	-10.9254
bank	-10.9256
▁exception	-10.9256
ever	-10.9256
▁immigrants	-10.9261
▁1867	-10.9262
▁tool	-10.9266
▁Fi	-10.9266
oma	-10.9266
▁profession	-10.9267
▁Type	-10.927
▁emigrated	-10.9271
а	-10.9276
▁62	-10.9277
ries	-10.9278
▁indigenous	-10.9279
▁Gi	-10.9283
▁colors	-10.9284
▁bound	-10.9284
mu	-10.9285
▁Roberts	-10.9285
▁1971.	-10.9285
▁Ab	-10.9289
▁sugar	-10.929
▁component	-10.9292
▁Giovanni	-10.9294
▁clothing	-10.9294
▁suit	-10.9294
▁throne	-10.9295
▁travels	-10.93
▁immediate	-10.9304
sel	-10.9306
▁Princeton	-10.9306
▁tourist	-10.9306
▁knots	-10.9306
>	-10.9307
▁fresh	-10.9312
▁landed	-10.9312
▁arrangement	-10.9318
▁jump	-10.9324
▁falling	-10.9324
▁Higher	-10.9324
▁Ri	-10.9328
▁monthly	-10.9331
▁gardens	-10.9331
▁Tigers	-10.9332
▁Joan	-10.9332
▁Gas	-10.9335
▁bell	-10.9336
▁pictures	-10.9338
▁Otto	-10.9343
▁settlements	-10.9345
▁Hon	-10.9346
nia	-10.9353
▁submitted	-10.9354
▁extends	-10.9356
▁guilty	-10.9359
▁earthquake	-10.9359
▁verse	-10.9364
then	-10.9366
ice	-10.9366
▁Athletics	-10.9367
▁Gor	-10.937
▁scientists	-10.937
▁Wind	-10.9371
▁burned	-10.9371
▁Finally	-10.9372
▁arch	-10.9375
▁Morning	-10.9377
▁unincorporated	-10.9379
▁Susan	-10.9382
▁cave	-10.9387
▁Golf	-10.9388
▁pages	-10.9389
▁lists	-10.939
▁ban	-10.9391
▁kingdom	-10.9392
You	-10.9393
nie	-10.9394
▁coalition	-10.9396
▁Kor	-10.9399
▁borders	-10.9399
▁Grey	-10.9399
▁ready	-10.9403
▁Th	-10.9403
eh	-10.9408
▁runners	-10.9411
▁remote	-10.9413
▁Distinguished	-10.9415
▁operator	-10.9416
▁scientist	-10.9416
▁hp	-10.9419
▁1965,	-10.9419
▁Rich	-10.9422
▁Perth	-10.9423
▁tournaments	-10.9425
▁alliance	-10.9426
▁1866	-10.9427
nis	-10.9439
▁conversion	-10.9441
▁Denver	-10.9442
▁predecessor	-10.9443
▁Pedro	-10.9446
tis	-10.9448
▁Scotia	-10.9448
▁Manuel	-10.9452
▁inscription	-10.9456
▁cancelled	-10.9457
Con	-10.9458
▁solar	-10.9458
▁sing	-10.9459
▁61	-10.9459
▁claiming	-10.946
▁revenue	-10.9463
▁whereas	-10.9464
▁releases	-10.9466
▁Cole	-10.9467
▁clinical	-10.9468
▁repair	-10.9469
▁Clinton	-10.9473
▁Indians	-10.9473
ali	-10.9476
▁assault	-10.9483
bury	-10.9486
sta	-10.9487
▁Admiral	-10.949
▁Rogers	-10.9492
▁breaking	-10.9494
▁Philosophy	-10.9494
▁preparation	-10.9494
▁crossed	-10.95
▁hunting	-10.951
▁Cardinal	-10.951
▁tests	-10.9515
tha	-10.9515
▁Universal	-10.9522
▁Treaty	-10.9526
▁placing	-10.9528
▁fame	-10.9528
▁congregation	-10.9534
▁sung	-10.9537
two	-10.9538
scale	-10.9546
jan	-10.955
mile	-10.9552
▁driven	-10.9552
▁facade	-10.9556
▁voting	-10.9556
▁supplies	-10.9558
▁Rod	-10.9559
▁perfect	-10.956
lam	-10.956
▁1970,	-10.9563
▁Brook	-10.9563
▁advisor	-10.9563
▁pairs	-10.9564
▁publicly	-10.957
▁Op	-10.957
▁substantial	-10.9571
▁1877	-10.9571
▁99	-10.9575
▁intention	-10.9576
▁extreme	-10.9578
и	-10.9578
-5	-10.958
▁carbon	-10.9581
▁strategic	-10.9583
▁passage	-10.9583
▁recognised	-10.9584
▁Chester	-10.9585
▁lb	-10.9585
▁threat	-10.9587
▁Ne	-10.959
▁Confederate	-10.959
▁dominated	-10.9594
▁athletes	-10.9594
▁tip	-10.9597
▁bomb	-10.9599
▁boundaries	-10.9599
▁jury	-10.96
founder	-10.9603
▁indicated	-10.9603
Chinese	-10.9603
š	-10.9606
▁moves	-10.9607
▁Keith	-10.9608
ori	-10.9608
▁bio	-10.9609
▁Conservation	-10.9613
▁altitude	-10.9615
▁maps	-10.9616
▁hearing	-10.9616
▁76	-10.9617
▁parking	-10.9617
▁Bach	-10.9617
▁Leon	-10.9621
▁Leonard	-10.9627
▁auto	-10.9629
▁ski	-10.9629
▁Milwaukee	-10.963
α	-10.963
▁dream	-10.9631
ins	-10.9634
▁opponent	-10.9635
▁63	-10.9639
▁playoffs	-10.9639
▁logo	-10.9639
▁networks	-10.964
▁fighter	-10.9643
▁Bra	-10.9644
▁|	-10.9645
▁romantic	-10.9645
▁serial	-10.9648
▁Operations	-10.9651
ati	-10.9652
▁Further	-10.9653
▁dispute	-10.9654
▁Microsoft	-10.9657
▁guests	-10.9658
▁Westminster	-10.9662
▁licensed	-10.9664
▁vertical	-10.9668
1,	-10.9675
▁Murphy	-10.9679
▁asks	-10.968
▁Non	-10.968
▁Essex	-10.9681
▁par	-10.9682
▁resort	-10.9683
▁1963,	-10.9684
▁1964,	-10.9685
▁Armenian	-10.9685
▁Terry	-10.9686
▁Aviation	-10.9687
▁origins	-10.9687
▁59	-10.9689
▁outdoor	-10.969
▁legislative	-10.9694
▁conventional	-10.9698
▁losses	-10.9703
▁Lan	-10.9704
▁commented	-10.9709
rum	-10.971
▁Ralph	-10.971
”.	-10.9716
-8	-10.972
▁Greater	-10.9724
▁Cruz	-10.9726
sburg	-10.9727
▁overseas	-10.973
▁Nebraska	-10.973
▁1980.	-10.9735
▁flew	-10.9736
▁1942,	-10.9736
▁1968.	-10.9738
band	-10.9739
▁murdered	-10.974
▁bear	-10.974
▁aviation	-10.9744
▁printing	-10.9745
▁neck	-10.9748
▁trials	-10.975
▁Cork	-10.9751
board	-10.9752
▁Kal	-10.9752
▁mansion	-10.9755
▁Gal	-10.9762
▁researchers	-10.977
▁correct	-10.977
▁recruited	-10.9773
▁seeds	-10.9773
▁Singles	-10.9776
17	-10.9776
▁diocese	-10.9777
▁journals	-10.9777
▁LP	-10.9777
▁milk	-10.9778
▁Mir	-10.9779
▁indicate	-10.978
▁pupils	-10.9782
▁Bird	-10.9784
▁Lancashire	-10.9788
▁Friedrich	-10.9789
▁Gilbert	-10.9793
▁styles	-10.9794
▁carries	-10.9795
▁effectively	-10.9797
▁stem	-10.9798
▁seeing	-10.9798
▁Madison	-10.9799
▁Pin	-10.9799
▁distinctive	-10.9801
▁•	-10.9801
aga	-10.9802
▁wheel	-10.9802
▁1966,	-10.9804
▁Aires	-10.9805
▁forty	-10.9807
game	-10.9809
▁Canterbury	-10.981
eri	-10.9814
▁paint	-10.9814
▁violin	-10.9814
▁1969.	-10.9815
▁Ly	-10.9818
▁channels	-10.982
▁plain	-10.9822
▁Forum	-10.9825
▁emerged	-10.9825
ming	-10.9829
▁Yo	-10.9829
▁linear	-10.983
▁Byzantine	-10.9833
▁Edwards	-10.9833
▁USS	-10.9835
To	-10.9835
▁arriving	-10.9837
▁1899	-10.984
iv	-10.9841
▁98	-10.9842
▁withdrew	-10.9843
▁Hell	-10.9846
▁colonel	-10.9847
▁consider	-10.9847
▁distinction	-10.9853
▁Weekly	-10.9854
zu	-10.9858
▁Peak	-10.9862
▁Stuart	-10.9863
▁clean	-10.9867
▁ninth	-10.987
▁convicted	-10.9871
▁wearing	-10.9871
▁discontinued	-10.9872
▁decide	-10.9872
–16	-10.9873
▁coat	-10.9876
▁judges	-10.9877
▁dancing	-10.9878
▁practiced	-10.9878
▁cooperation	-10.9879
▁relegation	-10.9879
▁Pal	-10.988
▁wrestling	-10.9881
▁municipalities	-10.9882
▁1941,	-10.9883
▁accommodate	-10.9884
▁siblings	-10.9885
▁factors	-10.9888
▁1885	-10.9888
▁Wells	-10.989
▁hills	-10.9893
▁Ash	-10.9896
▁Hor	-10.9897
ob	-10.9898
▁mechanical	-10.9898
▁Independence	-10.9899
This	-10.99
fe	-10.9901
▁giant	-10.9902
▁Room	-10.9907
▁nickname	-10.9909
mp	-10.991
ret	-10.992
set	-10.992
▁rain	-10.9925
▁resolution	-10.9927
▁Circuit	-10.9929
▁banned	-10.9929
▁Jin	-10.993
key	-10.993
▁1857	-10.9931
▁1898	-10.9933
▁(19	-10.9943
pp	-10.9946
▁shoot	-10.9947
▁dismissed	-10.9955
▁1946,	-10.9955
▁1967.	-10.9957
▁Ring	-10.9958
▁machines	-10.996
▁gift	-10.9961
▁MTV	-10.9966
▁instructor	-10.9968
▁Care	-10.9972
ona	-10.9973
▁Laboratory	-10.9976
▁specimens	-10.9983
▁Are	-10.9984
▁Physics	-10.9986
▁layer	-10.9987
▁pastor	-10.9987
ei	-10.9995
▁Production	-10.9995
▁Friends	-10.9996
▁Chan	-10.9997
▁imprisoned	-10.9997
▁Dennis	-10.9999
▁Gabriel	-10.9999
▁Productions	-11.0002
▁jail	-11.0003
▁Key	-11.0007
▁Buenos	-11.0009
▁relay	-11.001
row	-11.0012
▁Larry	-11.0012
▁Durham	-11.0012
ative	-11.0015
▁extend	-11.0016
▁AC	-11.0017
▁electricity	-11.0019
▁veteran	-11.002
heim	-11.0021
▁ocean	-11.0021
German	-11.0023
▁1894	-11.0027
▁1897	-11.003
▁Arnold	-11.0033
▁Say	-11.0034
▁supporters	-11.0037
▁reporting	-11.0038
▁describing	-11.0039
▁Abraham	-11.0041
wick	-11.0045
▁compositions	-11.0047
▁Ghana	-11.0048
▁nations	-11.0051
▁widespread	-11.0051
▁Sabha	-11.0057
free	-11.0058
▁78	-11.0059
▁deployed	-11.0063
▁Hughes	-11.0063
▁campaigns	-11.0065
▁steps	-11.007
▁Watson	-11.0072
▁raising	-11.0074
▁División	-11.0074
▁gate	-11.0075
gal	-11.0075
▁1869	-11.0077
owned	-11.0083
▁Artist	-11.0085
▁Harold	-11.0086
▁destruction	-11.0086
ense	-11.0087
▁generated	-11.009
▁77	-11.0096
▁implemented	-11.0096
tre	-11.0097
▁plate	-11.0098
▁1947,	-11.0098
▁clients	-11.0102
-6	-11.0104
▁buses	-11.0106
Best	-11.011
▁Philippine	-11.0111
▁rebounds	-11.0111
▁Anglican	-11.0113
▁citizen	-11.0115
▁Lebanon	-11.0117
tion	-11.0118
od	-11.0119
▁Joint	-11.0123
▁hope	-11.0125
pan	-11.0125
▁Price	-11.0126
▁underwent	-11.0127
▁laboratory	-11.0128
▁MD	-11.0129
▁Ak	-11.013
▁Colombia	-11.013
▁drugs	-11.0132
▁installation	-11.0132
ensis	-11.0133
▁truck	-11.0135
▁identical	-11.0139
▁marks	-11.0139
▁Players	-11.014
▁meat	-11.0141
▁Mall	-11.0142
▁Brunswick	-11.0145
▁doubles	-11.0149
▁industries	-11.0149
▁ongoing	-11.0151
▁Based	-11.0151
▁Berg	-11.0154
▁deck	-11.0155
▁concern	-11.0159
▁certified	-11.0161
bridge	-11.0164
▁Jam	-11.0164
▁Georgian	-11.0165
▁locomotive	-11.0166
▁Tre	-11.0169
▁Iranian	-11.0169
▁Punjab	-11.017
related	-11.0172
▁mines	-11.0172
▁relation	-11.0172
▁1943,	-11.0173
▁cathedral	-11.0174
▁Uganda	-11.0175
▁Phillips	-11.0178
zy	-11.0179
▁Oscar	-11.018
▁periods	-11.0185
▁caps	-11.0186
▁Mars	-11.0188
tti	-11.019
▁sculptor	-11.019
▁pain	-11.0191
right	-11.0196
▁Brussels	-11.0197
▁Cho	-11.0201
▁gear	-11.0202
▁supposed	-11.0204
▁Dame	-11.0205
mel	-11.0205
▁1893	-11.0206
▁1800	-11.0209
▁artwork	-11.0209
▁Ol	-11.0211
▁anyone	-11.0211
kh	-11.022
▁Pictures	-11.0221
▁lose	-11.0223
▁truth	-11.0224
▁involves	-11.0226
▁Municipality	-11.0226
▁rarely	-11.0227
▁1895	-11.0229
▁Such	-11.0231
▁fun	-11.0233
▁wider	-11.0234
▁filming	-11.0238
ila	-11.0245
▁neighboring	-11.0245
▁interchange	-11.0246
▁copper	-11.0246
▁honored	-11.0248
▁CF	-11.0249
▁1966.	-11.025
▁Prefecture	-11.0255
▁renovated	-11.0258
▁portraits	-11.0259
▁escaped	-11.026
▁Nord	-11.026
▁1830	-11.0263
▁remove	-11.0269
▁Jefferson	-11.027
▁95	-11.0271
▁(20	-11.0272
▁1962,	-11.0273
ón	-11.0273
▁Chen	-11.0279
▁1948,	-11.0281
▁Kerala	-11.0283
▁67	-11.0286
▁Advanced	-11.0286
uli	-11.0291
▁Fisher	-11.0293
▁delivery	-11.0294
▁connections	-11.0295
▁96	-11.0297
▁tributary	-11.0298
▁1961,	-11.0299
▁compiled	-11.0304
▁breeding	-11.0305
▁departed	-11.0312
▁Ruth	-11.0314
▁Off	-11.0316
tte	-11.0317
▁animated	-11.0324
ide	-11.0326
▁68	-11.0329
▁eligible	-11.033
▁1939,	-11.033
▁else	-11.0331
▁1940,	-11.0332
▁Representative	-11.0332
▁pen	-11.0334
▁thirteen	-11.0334
▁Yugoslavia	-11.0337
hara	-11.034
▁lessons	-11.0343
▁snow	-11.0344
▁influences	-11.0345
▁Dis	-11.0345
▁Private	-11.0346
▁identify	-11.0346
▁Principal	-11.035
▁Rural	-11.035
▁comprises	-11.0353
▁Coach	-11.0354
ora	-11.0358
ill	-11.036
▁Ur	-11.036
▁1965.	-11.036
▁traveling	-11.036
tt	-11.0361
▁movements	-11.0362
▁1859	-11.0362
▁Bas	-11.0362
▁Magic	-11.0364
▁PA	-11.0364
▁worship	-11.0366
▁repeated	-11.0366
▁rounded	-11.0368
▁characteristic	-11.0369
yama	-11.0372
▁athletic	-11.0375
▁warm	-11.0375
▁yard	-11.0377
▁knee	-11.0377
▁Yan	-11.0381
▁Mat	-11.0382
▁worker	-11.0384
▁patron	-11.0386
▁specialist	-11.0387
▁percentage	-11.0392
▁liberal	-11.0392
▁Harvey	-11.0394
par	-11.0395
▁1892	-11.0395
ib	-11.0397
▁drum	-11.0397
▁tube	-11.0398
▁desire	-11.0399
▁Rabbi	-11.04
▁fifty	-11.0403
▁Sin	-11.0405
▁saved	-11.0406
▁phrase	-11.0406
▁Sierra	-11.0407
▁continuous	-11.0409
▁reduction	-11.041
▁jurisdiction	-11.0411
▁conclusion	-11.0411
▁programmes	-11.0412
[	-11.0413
mes	-11.0415
▁Blood	-11.0417
▁Soul	-11.0419
▁gauge	-11.0422
▁Mil	-11.0423
▁volunteers	-11.0424
Russian	-11.0424
My	-11.0424
▁closer	-11.0424
▁Auto	-11.0425
▁bright	-11.043
under	-11.0431
à	-11.0432
▁renovation	-11.0435
▁Steel	-11.0436
▁observation	-11.0437
▁receives	-11.0438
▁Sur	-11.0438
▁Artists	-11.0439
▁Nan	-11.044
▁traditionally	-11.0441
▁Spirit	-11.0442
-21	-11.0442
▁Sheriff	-11.0443
▁Beginning	-11.0444
qui	-11.0445
▁Kumar	-11.0448
▁elsewhere	-11.0448
▁extent	-11.0451
▁civilian	-11.0452
▁borough	-11.0457
▁Bulgaria	-11.0462
▁consist	-11.0466
▁Ground	-11.047
▁plastic	-11.0473
hal	-11.0478
▁Rail	-11.0481
▁Wilhelm	-11.0489
▁touchdowns	-11.0489
gy	-11.0492
mat	-11.0494
▁Ernest	-11.0495
▁Subsequently	-11.0497
▁Artillery	-11.0498
▁proteins	-11.0499
▁1896	-11.0499
▁framework	-11.0499
▁net	-11.0501
▁82	-11.0502
▁agents	-11.0502
▁Cinema	-11.0505
▁3-	-11.0506
▁fourteen	-11.0507
▁relationships	-11.0508
▁Set	-11.0511
are	-11.0514
Co	-11.0514
▁1964.	-11.0517
Go	-11.0518
▁indoor	-11.0519
▁lectures	-11.052
▁transmission	-11.0521
▁Bradford	-11.0522
▁difficulties	-11.0523
▁viewed	-11.0524
▁Low	-11.0524
mark	-11.0526
▁venues	-11.0527
▁Grammar	-11.0527
▁coaches	-11.0527
▁exclusive	-11.0529
▁execution	-11.0529
▁Storm	-11.0531
▁alternate	-11.0533
▁ruins	-11.0539
▁Pur	-11.0541
▁Student	-11.0542
▁mis	-11.0549
ick	-11.055
▁Pra	-11.0552
formerly	-11.0554
▁lowest	-11.0555
▁artillery	-11.0557
▁trio	-11.0558
▁Inn	-11.0561
▁Thai	-11.0562
▁Argentine	-11.0562
▁fictional	-11.0564
▁Newton	-11.0565
▁looks	-11.0566
▁theatrical	-11.0566
▁approached	-11.0567
▁tea	-11.0572
▁Lou	-11.0575
▁personality	-11.0577
▁beam	-11.0582
▁Gun	-11.0582
▁Google	-11.0584
▁pursued	-11.0585
▁illustrated	-11.0585
▁71	-11.0586
▁Bobby	-11.0586
▁Besides	-11.0596
▁1946.	-11.0597
▁Isaac	-11.0598
▁workshops	-11.0598
▁defended	-11.0605
▁desert	-11.0605
▁Columbus	-11.0608
▁discussed	-11.0608
▁Pearl	-11.0612
▁Somerset	-11.0614
fish	-11.0615
▁Kate	-11.0616
▁1918,	-11.0616
▁81	-11.0619
▁roll	-11.0619
▁abuse	-11.0621
die	-11.0622
▁dangerous	-11.0622
▁CE	-11.0625
view	-11.0626
▁Jamaica	-11.0627
his	-11.0628
▁Kara	-11.063
ep	-11.0632
life	-11.0633
▁advocate	-11.064
▁Shu	-11.0641
▁Northwest	-11.0644
making	-11.0644
▁liquid	-11.0647
West	-11.0651
▁releasing	-11.0651
eau	-11.0652
▁74	-11.0653
▁usual	-11.0654
high	-11.0655
▁Ted	-11.0655
▁seem	-11.0656
▁texts	-11.066
▁88	-11.0662
▁signs	-11.0666
▁discussion	-11.0671
MC	-11.0671
▁1944.	-11.0671
▁Workers	-11.0672
▁Track	-11.0674
▁Rosa	-11.0675
▁remembered	-11.0681
▁sixteen	-11.0682
▁ridge	-11.0684
▁Surrey	-11.0687
some	-11.0692
▁requested	-11.0694
ification	-11.0696
▁vast	-11.0696
▁affair	-11.0697
De	-11.0698
zen	-11.0698
elle	-11.0704
MA	-11.0704
▁balance	-11.0706
▁Eddie	-11.0708
▁horror	-11.0709
Mo	-11.071
St	-11.071
▁gaining	-11.0712
▁Rhode	-11.0717
▁locality	-11.0718
▁Kon	-11.0719
▁prototype	-11.0721
▁failing	-11.0725
▁tourism	-11.0727
▁exact	-11.073
▁bonus	-11.074
16	-11.0744
▁visits	-11.0745
▁2–1	-11.0749
▁Sussex	-11.0749
ira	-11.075
▁alcohol	-11.0754
▁Web	-11.0755
ble	-11.0756
▁Eagles	-11.0757
ima	-11.0758
▁actively	-11.076
▁1854	-11.0762
▁Bin	-11.0763
▁Raymond	-11.0764
▁contributing	-11.0764
▁psychology	-11.0765
mus	-11.0767
▁supporter	-11.0768
ö	-11.0773
▁volunteer	-11.0774
▁apply	-11.0776
▁rice	-11.0777
▁Block	-11.0777
▁awareness	-11.0779
▁sounds	-11.0779
▁Michel	-11.0781
▁Data	-11.0782
▁bordered	-11.0783
py	-11.0784
▁Delaware	-11.0785
▁Laura	-11.0788
Pro	-11.0789
she	-11.0792
▁Dal	-11.0792
▁surgeon	-11.0793
▁grades	-11.0794
▁Foster	-11.0795
▁vs	-11.0797
▁span	-11.0798
▁Bond	-11.0805
▁Celtic	-11.0805
▁limits	-11.0809
▁flood	-11.0816
▁Eagle	-11.0823
▁Plant	-11.0829
▁preferred	-11.083
bra	-11.0832
▁archaeological	-11.0832
ović	-11.0833
▁extending	-11.0833
▁aboard	-11.0833
▁Reed	-11.084
ese	-11.084
▁Hard	-11.0842
▁clearly	-11.0843
▁Writing	-11.0848
book	-11.0849
▁1855	-11.085
▁diesel	-11.0852
▁resides	-11.0855
▁believes	-11.0856
▁Honours	-11.0856
▁Formula	-11.0858
▁Cap	-11.086
meter	-11.086
▁Rovers	-11.086
▁sp	-11.0866
▁Hull	-11.0868
▁departments	-11.087
▁starter	-11.087
▁supplied	-11.0875
▁Environmental	-11.0876
aria	-11.0876
League	-11.0879
▁97	-11.088
cal	-11.088
▁practical	-11.0881
▁Reading	-11.0884
▁interesting	-11.0885
▁1956,	-11.0886
▁Kingston	-11.0888
▁constitution	-11.089
▁para	-11.089
our	-11.0892
▁triple	-11.0896
▁waiting	-11.0897
▁descendants	-11.0898
▁Paulo	-11.0899
▁Bat	-11.09
▁circumstances	-11.0901
language	-11.0901
▁Architecture	-11.0904
▁consecrated	-11.0905
▁Boulevard	-11.0914
▁Frankfurt	-11.0916
ors	-11.092
▁favourite	-11.0922
cia	-11.0927
form	-11.0927
member	-11.0929
▁cutting	-11.0931
▁biography	-11.0932
▁Gothic	-11.0933
▁emphasis	-11.0933
▁lifetime	-11.0933
▁Mathematics	-11.0935
▁holiday	-11.0935
▁Hy	-11.0936
▁Starting	-11.0937
▁mechanism	-11.0937
▁pounds	-11.094
▁tomb	-11.0942
ves	-11.0944
▁Conservatory	-11.0946
▁69	-11.0947
▁Bru	-11.0947
▁Antarctic	-11.0948
▁studios	-11.095
sley	-11.095
▁sciences	-11.0951
▁weapon	-11.0952
ible	-11.0956
▁aims	-11.0961
▁Protection	-11.0961
shan	-11.0965
az	-11.0965
▁implementation	-11.0966
▁Wil	-11.0967
▁isolated	-11.0967
▁Char	-11.0967
▁organisations	-11.0969
▁prince	-11.0972
osa	-11.0976
cu	-11.0976
▁sharp	-11.0976
▁Writers	-11.0977
▁Stage	-11.098
▁Delta	-11.098
▁ferry	-11.098
▁Edmund	-11.0982
▁Interstate	-11.0985
▁concerning	-11.0985
▁dancer	-11.0986
▁Nor	-11.0988
▁connect	-11.0989
▁Presbyterian	-11.099
▁appropriate	-11.0991
▁flights	-11.0991
▁Bear	-11.0993
▁Leader	-11.0994
▁uniform	-11.0995
▁valuable	-11.0996
▁£1	-11.0998
▁coffee	-11.1
▁Newport	-11.1
▁principles	-11.1
▁1970.	-11.1002
▁Snow	-11.1003
▁Jacques	-11.1011
▁Franz	-11.1018
▁administered	-11.1019
▁ties	-11.1021
▁Dragon	-11.1021
▁sheep	-11.1029
▁Buddhist	-11.1029
▁celebration	-11.103
chief	-11.1032
▁neighbouring	-11.1037
list	-11.1038
▁readers	-11.1039
▁clock	-11.1041
▁belt	-11.1042
af	-11.1043
▁animation	-11.1044
▁patent	-11.1047
▁divorce	-11.1047
▁characteristics	-11.105
▁friendship	-11.1052
▁Fish	-11.1052
▁restricted	-11.1054
▁Bennett	-11.1055
▁dramatic	-11.1055
▁tribes	-11.1058
Me	-11.1059
ug	-11.106
▁documented	-11.1061
▁Shakespeare	-11.1064
▁Maurice	-11.1066
cent	-11.1069
▁Montgomery	-11.107
▁Mai	-11.1073
▁ERA	-11.1074
▁golden	-11.1075
tur	-11.1075
▁hidden	-11.1079
▁organic	-11.108
▁sequel	-11.1081
▁Has	-11.1087
▁hence	-11.1088
▁superior	-11.109
▁graphic	-11.1091
▁queen	-11.1092
▁happy	-11.1095
▁girlfriend	-11.1095
▁Croatian	-11.1098
▁soul	-11.1101
▁corresponding	-11.1101
▁Ter	-11.1104
▁Ballet	-11.1104
▁exile	-11.1107
▁thanks	-11.1108
▁Davies	-11.1109
▁comprehensive	-11.1111
▁Neu	-11.1112
▁Stakes	-11.1113
▁coins	-11.1114
▁Environment	-11.1115
▁namely	-11.1115
▁Palestine	-11.1117
esh	-11.1117
▁Isle	-11.1117
▁Henri	-11.1118
▁#1	-11.1122
▁Saudi	-11.1123
▁Ser	-11.1124
▁Palmer	-11.113
▁Rad	-11.1131
▁Clarke	-11.1133
▁Let	-11.1137
▁trans	-11.1138
▁ensemble	-11.1138
▁acoustic	-11.1139
▁airline	-11.1139
▁te	-11.1142
▁evolved	-11.1142
av	-11.1146
ph	-11.1146
▁pulled	-11.1148
▁Protestant	-11.115
▁recalled	-11.115
▁Spencer	-11.1151
▁sum	-11.1152
▁1957,	-11.1154
▁Geneva	-11.1156
▁Transportation	-11.1156
▁Wallace	-11.1159
ben	-11.1159
▁variant	-11.1161
ew	-11.1161
▁73	-11.1161
rock	-11.1163
ped	-11.1163
▁Ren	-11.1167
med	-11.1167
▁Days	-11.1167
▁Deep	-11.1168
-7	-11.1172
An	-11.1175
▁Dog	-11.118
▁profile	-11.1183
▁exterior	-11.1183
▁helps	-11.1186
▁:	-11.1188
▁rates	-11.119
dia	-11.1192
▁Musical	-11.1192
▁travelling	-11.1195
▁shut	-11.1195
▁Buck	-11.1198
▁×	-11.1198
▁diplomatic	-11.1198
▁custom	-11.1206
▁1888	-11.1207
▁stint	-11.1207
▁depicted	-11.1209
▁victim	-11.1209
▁1958,	-11.1213
▁Monday	-11.1213
▁84	-11.1213
▁focusing	-11.1214
Be	-11.1218
▁drawings	-11.1222
▁Palm	-11.1222
▁Stein	-11.1226
▁Outstanding	-11.1226
▁1891	-11.1227
▁construct	-11.1227
▁benefits	-11.123
box	-11.1232
▁Members	-11.1233
▁Herald	-11.1233
▁discovers	-11.1234
▁arena	-11.1234
▁traditions	-11.1235
▁Graduate	-11.1238
▁VII	-11.1242
▁sit	-11.1245
▁2,000	-11.1246
eta	-11.1247
▁leagues	-11.1248
▁Circle	-11.1248
▁angle	-11.125
chen	-11.1252
▁atmosphere	-11.1258
▁reflect	-11.1259
▁Gardens	-11.1261
ava	-11.1268
▁freight	-11.1269
▁Gate	-11.127
▁orbit	-11.1272
▁unlike	-11.1273
▁Comics	-11.1276
▁tenth	-11.1277
▁mail	-11.1279
▁pointed	-11.128
▁86	-11.1284
tier	-11.1284
▁Planet	-11.1285
▁Pol	-11.1287
▁Flying	-11.1289
▁Sh	-11.1289
▁Editor	-11.129
▁Blake	-11.1292
▁carved	-11.1292
▁Sho	-11.1293
▁Nar	-11.1294
▁noble	-11.1297
▁Legion	-11.1297
▁Nepal	-11.1297
▁Bol	-11.1298
▁blog	-11.1299
ware	-11.1305
mal	-11.1305
▁1959,	-11.1307
▁Naples	-11.1308
▁79	-11.1309
▁Rush	-11.1309
▁1963.	-11.1309
matic	-11.1309
▁attendance	-11.131
▁wealth	-11.1311
ue	-11.1311
▁boards	-11.1311
▁1962.	-11.1314
▁select	-11.1315
▁writings	-11.1316
hn	-11.1317
▁Bro	-11.132
▁Allied	-11.132
▁Was	-11.132
▁possibility	-11.1321
▁temporarily	-11.1322
▁biological	-11.1324
▁bears	-11.1325
▁dorsal	-11.1325
bro	-11.1326
▁110	-11.1326
▁Intelligence	-11.1328
▁streams	-11.1328
nica	-11.1332
▁Greg	-11.1334
▁Flight	-11.1335
bal	-11.1335
▁debt	-11.1337
ore	-11.1341
▁Tommy	-11.1341
▁Fer	-11.1343
ps	-11.1344
▁Manitoba	-11.1345
eg	-11.1347
▁heir	-11.1348
▁Sony	-11.1348
▁1887	-11.1348
lock	-11.1351
=	-11.1352
▁colleagues	-11.1354
▁floors	-11.1356
▁tape	-11.136
May	-11.1363
▁surname	-11.1366
▁teeth	-11.1368
▁inaugurated	-11.1368
▁mixture	-11.1371
▁narrative	-11.1373
▁inhabited	-11.1377
▁revolution	-11.1378
▁Lutheran	-11.1381
lie	-11.1382
▁minority	-11.1382
▁Estate	-11.1382
ef	-11.1384
▁theology	-11.1386
▁1–0	-11.1388
▁intellectual	-11.1388
▁prove	-11.1388
▁Ancient	-11.1388
▁manages	-11.1389
lane	-11.1391
▁banking	-11.1392
▁Ty	-11.1392
▁Renaissance	-11.1393
▁Azerbaijan	-11.1398
▁Sim	-11.1398
▁Record	-11.1398
▁ruler	-11.1403
▁Publishing	-11.1409
xi	-11.141
▁respective	-11.1412
▁battery	-11.1415
▁cat	-11.1417
▁exercise	-11.1417
▁authored	-11.1425
▁impressive	-11.1426
▁provinces	-11.1427
▁definition	-11.1429
▁furniture	-11.1433
▁playoff	-11.1435
▁evil	-11.1437
▁defend	-11.1437
▁waived	-11.1438
▁backing	-11.1444
▁segments	-11.1445
▁simultaneously	-11.1446
ato	-11.1447
▁Performance	-11.1448
▁slowly	-11.145
▁collective	-11.145
▁Yang	-11.1451
▁significance	-11.1455
▁collapse	-11.1456
▁neither	-11.1457
▁faces	-11.1457
hen	-11.1461
▁92	-11.1461
Ma	-11.1462
▁averaged	-11.1467
▁Reform	-11.1467
▁empty	-11.1467
▁Wei	-11.1471
▁shallow	-11.1472
▁exposure	-11.1472
▁dealing	-11.1474
▁dollars	-11.1475
▁essential	-11.1476
ín	-11.1479
▁extinct	-11.1479
▁1961.	-11.1481
▁soap	-11.1481
ü	-11.1481
▁app	-11.1482
▁Ros	-11.1483
four	-11.1483
▁eighteen	-11.1484
▁confused	-11.1484
▁LA	-11.1485
▁alive	-11.1485
▁Nacional	-11.1486
stad	-11.1486
▁Tang	-11.1488
▁Louise	-11.149
▁Had	-11.1492
▁Relations	-11.1492
▁dress	-11.1492
▁Parliamentary	-11.1493
▁expensive	-11.1493
▁Croatia	-11.1493
▁hat	-11.1496
▁formula	-11.1498
▁Fr	-11.1498
▁Mann	-11.1499
cur	-11.1501
▁1955,	-11.1502
▁footballer	-11.1504
▁CA	-11.1504
wer	-11.1504
▁sharing	-11.151
▁Panama	-11.1511
е	-11.1517
▁patterns	-11.1519
pt	-11.1519
▁Scientific	-11.152
▁false	-11.1521
▁Andrews	-11.1522
▁radar	-11.1522
▁Nancy	-11.1525
All	-11.1526
▁Steven	-11.1526
och	-11.1527
nar	-11.1533
▁shorter	-11.1535
▁Horn	-11.1536
▁stones	-11.1538
▁stationed	-11.1538
▁prisoner	-11.1539
signed	-11.154
▁Ker	-11.1541
▁Engineers	-11.1543
▁handed	-11.1544
▁87	-11.1544
ans	-11.1547
▁petition	-11.1548
▁territories	-11.1548
▁perspective	-11.155
▁Owen	-11.1552
▁correspondent	-11.1556
▁singers	-11.1556
▁Neil	-11.1556
raj	-11.1562
▁footage	-11.1562
half	-11.1563
▁worn	-11.1566
▁employee	-11.1567
▁Je	-11.1567
▁collect	-11.1573
▁suddenly	-11.1573
▁predominantly	-11.1576
▁dominant	-11.1576
▁Dur	-11.1578
▁examination	-11.1579
▁chorus	-11.1579
ello	-11.1587
▁Legislature	-11.1587
▁Chess	-11.1589
▁permanently	-11.1589
▁marble	-11.159
▁Em	-11.1592
▁grass	-11.1592
▁bond	-11.1593
▁Os	-11.1595
▁Krishna	-11.1598
▁variable	-11.1599
▁regulations	-11.1599
▁runway	-11.16
▁hero	-11.1601
▁Lodge	-11.1602
11	-11.1608
lla	-11.1609
▁wrong	-11.1609
▁1856	-11.1611
▁Knights	-11.1611
▁1960,	-11.1613
ians	-11.162
▁Manila	-11.162
▁suggest	-11.1623
▁bassist	-11.1623
▁revival	-11.1624
▁doctoral	-11.1624
▁nave	-11.1626
▁acclaimed	-11.1629
nam	-11.163
▁referring	-11.1634
▁Montana	-11.1636
▁Fo	-11.1639
▁Wal	-11.1644
▁Wy	-11.1645
▁Grande	-11.1645
▁telephone	-11.1646
▁root	-11.1649
▁anchor	-11.1651
▁Abdul	-11.1657
▁Cameron	-11.1658
▁Pine	-11.1658
▁patrol	-11.1658
bin	-11.1661
▁*	-11.1662
▁1886	-11.1665
▁Hand	-11.1666
▁challenges	-11.1667
▁curriculum	-11.1668
▁width	-11.1672
▁god	-11.1673
El	-11.1673
▁egg	-11.1675
▁Future	-11.1678
▁celebrate	-11.1679
▁researcher	-11.1683
state	-11.1683
▁circulation	-11.1685
iva	-11.1687
▁Cabinet	-11.1692
▁colleges	-11.1694
made	-11.1697
▁1954,	-11.1698
▁sample	-11.1698
▁autumn	-11.1699
▁fear	-11.1702
▁conducting	-11.1705
▁athlete	-11.1705
▁Cardiff	-11.1707
23	-11.1708
▁clay	-11.1711
top	-11.1713
▁Hopkins	-11.1714
▁stroke	-11.1716
ów	-11.1718
▁Ran	-11.1719
org	-11.172
▁evolution	-11.1721
▁usage	-11.1723
▁Devon	-11.1725
▁1948.	-11.1725
▁ballet	-11.1728
▁craft	-11.1729
win	-11.173
06	-11.173
▁Rochester	-11.1732
ire	-11.1733
lay	-11.174
▁references	-11.174
uf	-11.174
▁radical	-11.1742
▁Planning	-11.1744
▁Gene	-11.1744
▁drink	-11.1745
▁demonstrated	-11.1747
▁hosting	-11.1748
▁express	-11.1748
▁altar	-11.175
bus	-11.1751
▁Tal	-11.1754
▁Therefore	-11.1754
cus	-11.1756
▁Heights	-11.1756
▁Fan	-11.1758
CO	-11.176
▁recovery	-11.1763
▁Call	-11.1765
ical	-11.1767
▁conferences	-11.1769
▁Institution	-11.1772
▁guidance	-11.1773
▁waste	-11.1773
▁shelter	-11.1776
▁Study	-11.1776
▁bearing	-11.1781
horn	-11.1783
▁magic	-11.1785
▁invented	-11.1786
▁signature	-11.1786
▁hole	-11.1789
▁reveals	-11.1799
▁1820	-11.18
▁naming	-11.1801
▁answer	-11.1806
kai	-11.1807
▁workshop	-11.1808
▁Cornell	-11.1814
▁Halifax	-11.1814
▁pan	-11.1814
▁Democrats	-11.1816
▁Kirk	-11.1821
▁Directors	-11.1823
▁drivers	-11.1829
ash	-11.1831
▁slopes	-11.1832
▁preserve	-11.1833
▁Report	-11.1835
▁Queens	-11.1837
▁cotton	-11.1838
▁Saskatchewan	-11.184
fu	-11.1841
▁Amazon	-11.1846
▁1881	-11.1846
▁UFC	-11.1846
▁Venezuela	-11.1851
▁basin	-11.1854
▁publish	-11.1855
▁passion	-11.1856
aba	-11.1864
▁explains	-11.1871
▁Kid	-11.1874
-15	-11.1875
For	-11.1876
▁apparent	-11.1876
▁sits	-11.1877
▁Dominican	-11.1877
▁steep	-11.1878
▁Cold	-11.188
▁citing	-11.188
96	-11.1882
▁Edmonton	-11.1883
uma	-11.1883
42	-11.1886
ridge	-11.1886
▁tend	-11.1886
▁looked	-11.1889
▁Anton	-11.1891
lived	-11.1895
▁1951,	-11.1898
▁1840	-11.1901
79	-11.1903
▁burial	-11.191
▁Syria	-11.1911
▁infantry	-11.1913
▁goalkeeper	-11.1913
▁1884	-11.1914
▁beaten	-11.1916
▁1953,	-11.1916
▁technologies	-11.1918
▁Wi	-11.192
▁Nine	-11.192
▁Vale	-11.1922
▁specimen	-11.1922
▁Bou	-11.1923
▁Voice	-11.1927
five	-11.1929
▁relating	-11.193
tter	-11.1934
–1	-11.1935
▁hamlet	-11.1935
▁loop	-11.1936
master	-11.1936
▁Album	-11.1938
lands	-11.194
cut	-11.1941
▁Lab	-11.1945
▁gathered	-11.1948
sz	-11.1951
▁imperial	-11.1952
▁Page	-11.1953
▁principle	-11.1955
▁artificial	-11.1961
▁bars	-11.1963
ec	-11.1963
▁novelist	-11.1966
▁directing	-11.1967
▁enemies	-11.1968
SS	-11.197
fo	-11.1974
▁Annual	-11.1978
▁Liberty	-11.1979
LA	-11.198
▁Belfast	-11.1981
▁Rice	-11.1981
▁Indies	-11.1982
▁Solomon	-11.1986
▁database	-11.1989
▁Speaker	-11.199
▁handle	-11.1991
▁relevant	-11.1995
▁drinking	-11.1995
▁1917,	-11.1998
▁SH	-11.1998
▁renewed	-11.2
▁1947.	-11.2
idae	-11.2005
rate	-11.2005
▁boss	-11.2007
▁biology	-11.2008
▁Swan	-11.2009
▁lap	-11.201
▁diploma	-11.2011
una	-11.2015
▁View	-11.2017
▁Revival	-11.2019
bre	-11.2024
▁Danny	-11.2026
▁Kra	-11.2026
▁Maha	-11.2027
▁Liu	-11.2027
▁Cox	-11.203
▁touch	-11.2031
▁EU	-11.2032
▁circular	-11.2036
▁Java	-11.2037
▁Guild	-11.204
▁estates	-11.204
▁permitted	-11.2045
▁revised	-11.2047
▁investors	-11.2048
▁voters	-11.2048
▁lie	-11.2051
▁oak	-11.2054
▁mainstream	-11.2056
▁updated	-11.2056
";	-11.2056
president	-11.206
▁Christianity	-11.2063
▁freshman	-11.2063
▁shipping	-11.2063
▁Cer	-11.2064
▁Secret	-11.2068
▁Cornwall	-11.2071
▁Lyon	-11.2073
▁Support	-11.2075
▁privately	-11.2075
white	-11.2075
▁Still	-11.2075
▁measuring	-11.2077
▁arrives	-11.2079
far	-11.2079
▁Giants	-11.208
▁upcoming	-11.208
▁attempting	-11.2081
▁Ellis	-11.2082
▁1942.	-11.2082
▁Wildlife	-11.2083
08	-11.2083
▁brings	-11.2083
▁negotiations	-11.2084
▁Ry	-11.2087
ser	-11.2089
▁shall	-11.2092
▁presenter	-11.2096
▁83	-11.2096
▁bow	-11.2099
▁Santiago	-11.21
▁scores	-11.2101
▁switch	-11.2102
▁Spa	-11.2105
ī	-11.2107
▁Henderson	-11.211
▁Eu	-11.2112
▁conjunction	-11.2118
▁ka	-11.2119
▁Gro	-11.2119
▁solutions	-11.2119
MS	-11.212
▁Vladimir	-11.2121
▁load	-11.2124
Na	-11.2124
▁Oakland	-11.2125
▁Pet	-11.2126
▁Kay	-11.2132
▁displays	-11.2134
Ka	-11.2135
▁temperatures	-11.2138
▁$	-11.2138
▁Calgary	-11.2139
ites	-11.2141
sia	-11.2146
FA	-11.2147
aya	-11.2148
▁1952,	-11.2148
▁check	-11.215
▁grants	-11.2151
▁ideal	-11.2151
▁Cher	-11.2152
▁maintains	-11.2153
▁poly	-11.2154
▁pink	-11.2154
▁destination	-11.2155
away	-11.2158
▁customer	-11.2159
pm	-11.2159
where	-11.216
▁constitutional	-11.2162
▁adventure	-11.2164
▁indicates	-11.2169
▁belief	-11.2171
▁kitchen	-11.2175
oka	-11.2175
▁reconstruction	-11.218
▁partial	-11.2182
▁Facebook	-11.2182
aj	-11.2183
▁commentary	-11.2185
▁Expedition	-11.2185
▁lakes	-11.219
DC	-11.2192
▁compound	-11.2192
▁Shore	-11.2192
▁Machine	-11.2194
▁fallen	-11.2195
▁Armed	-11.2195
ets	-11.22
▁cuts	-11.2203
▁1957.	-11.2204
▁thinking	-11.2205
▁1938,	-11.221
▁tested	-11.2211
▁disaster	-11.2212
▁Oil	-11.2213
▁Yi	-11.2216
▁bases	-11.222
wal	-11.2222
▁assignment	-11.2223
▁Box	-11.2225
ons	-11.2228
▁Marcus	-11.2229
og	-11.223
▁limestone	-11.2231
▁auction	-11.2234
ele	-11.2235
▁options	-11.2235
▁objective	-11.2239
▁missionary	-11.2241
▁Kam	-11.2241
ole	-11.2243
▁exactly	-11.2244
▁IT	-11.2245
▁bone	-11.2247
▁MS	-11.2249
▁shift	-11.2253
▁Belgrade	-11.2255
ante	-11.2261
▁violent	-11.2265
▁Comedy	-11.2265
▁Right	-11.2267
▁Tro	-11.2269
▁posts	-11.2271
▁suspension	-11.2273
▁1883	-11.2273
▁Leipzig	-11.2274
▁fuselage	-11.2275
log	-11.2276
▁pupil	-11.2277
▁heading	-11.2278
▁Richardson	-11.2278
▁sort	-11.2281
▁Furthermore	-11.2281
▁sweet	-11.2283
▁1956.	-11.2285
▁treaty	-11.2285
dam	-11.2286
▁1958.	-11.2286
▁occasional	-11.2288
▁vegetation	-11.2288
▁touchdown	-11.2289
▁nationally	-11.2289
▁brigade	-11.2289
▁wish	-11.2289
OS	-11.2292
▁Fraser	-11.2294
▁catch	-11.2295
▁corruption	-11.2295
▁trouble	-11.2297
▁Diamond	-11.2301
Mar	-11.2301
▁Tree	-11.2303
▁Carlo	-11.2306
▁Sp	-11.2306
▁Zo	-11.2307
▁Manor	-11.2307
▁sailing	-11.2308
▁premises	-11.2308
▁89	-11.2309
▁Nadu	-11.231
▁poll	-11.231
▁camps	-11.2311
▁calendar	-11.2312
▁Ellen	-11.2313
Do	-11.2317
▁discover	-11.2318
▁reception	-11.2319
Ra	-11.2323
BA	-11.2324
▁stops	-11.2324
▁drove	-11.2328
▁Im	-11.2329
▁Card	-11.2333
▁staged	-11.2334
▁developer	-11.2335
▁siege	-11.2335
▁Folk	-11.2336
▁quit	-11.2338
▁1959.	-11.2342
▁commissioner	-11.2345
▁shifted	-11.2347
▁succession	-11.2349
▁Mail	-11.235
▁Hol	-11.235
▁Those	-11.2352
▁Campus	-11.2352
▁independently	-11.2355
▁stretch	-11.2355
▁coup	-11.2358
▁Films	-11.2359
▁chaired	-11.236
▁hear	-11.2361
ade	-11.2366
▁Chang	-11.2366
▁Bag	-11.2367
о	-11.2368
▁collecting	-11.2369
▁Mari	-11.2372
▁Mind	-11.2373
▁Wrestling	-11.2374
▁Sisters	-11.2374
▁panels	-11.2374
▁ordinary	-11.238
▁throw	-11.238
▁Ludwig	-11.2381
ip	-11.2382
▁blind	-11.2383
▁depicting	-11.2384
▁onwards	-11.2384
▁breast	-11.2386
▁1950,	-11.2386
brook	-11.2387
30	-11.2387
▁algorithm	-11.2387
ä	-11.2387
▁mathematical	-11.2388
TC	-11.2389
▁Muslims	-11.239
▁supervision	-11.2391
IC	-11.2392
▁Albany	-11.2395
▁1861	-11.2397
▁mono	-11.2398
▁#	-11.2398
feld	-11.2398
▁measured	-11.2399
▁rough	-11.2399
-9	-11.24
▁stake	-11.2403
▁historically	-11.2406
▁grid	-11.2409
▁photos	-11.241
▁mosque	-11.2411
▁servant	-11.2412
▁talks	-11.2412
▁instruction	-11.2412
▁consumer	-11.2415
15	-11.2415
▁1943.	-11.2417
ami	-11.242
▁notice	-11.2423
ple	-11.2429
,500	-11.2429
▁fantasy	-11.243
▁Agricultural	-11.243
▁reservoir	-11.2432
▁Bir	-11.2433
▁plates	-11.2435
▁taste	-11.2437
ema	-11.2439
▁edges	-11.2439
▁Merit	-11.2439
▁teaches	-11.244
▁Sullivan	-11.2441
▁Cam	-11.2442
▁Miguel	-11.2443
▁Poetry	-11.2446
▁feeling	-11.2446
▁battalion	-11.2448
ux	-11.245
▁1847	-11.2452
▁manuscripts	-11.2453
▁quarterback	-11.2454
school	-11.2455
bed	-11.2455
page	-11.2459
▁deemed	-11.2464
▁NC	-11.2465
▁grandmother	-11.2465
yi	-11.2465
▁dialect	-11.2467
▁Marathon	-11.247
wo	-11.2471
dom	-11.2472
▁1955.	-11.2475
ré	-11.2478
▁93	-11.2479
▁1876	-11.2483
ory	-11.2484
▁Ce	-11.2487
AP	-11.2487
▁transformed	-11.2487
▁Armstrong	-11.2488
▁corporation	-11.2489
▁FK	-11.2489
▁improvements	-11.249
▁Gibson	-11.2491
▁hull	-11.2491
▁Brand	-11.2494
bound	-11.2496
▁Metal	-11.2498
On	-11.2498
▁diseases	-11.25
▁indicating	-11.2501
▁legendary	-11.2501
▁mainland	-11.2502
▁graph	-11.2504
▁ma	-11.2504
90	-11.2506
▁attraction	-11.2508
▁Well	-11.2508
▁nautical	-11.251
▁interface	-11.2512
qua	-11.2513
▁Mag	-11.2514
▁eventual	-11.2514
zh	-11.2515
▁presentation	-11.2515
▁ages	-11.252
▁1919,	-11.2524
▁Left	-11.2527
▁scorer	-11.2527
▁Martha	-11.2531
▁vary	-11.2533
5,000	-11.2533
seat	-11.2533
▁cream	-11.2534
▁prepare	-11.2534
▁1941.	-11.2535
▁Neo	-11.2536
etta	-11.2539
▁Pakistani	-11.254
▁Stevens	-11.2542
▁theorem	-11.2542
▁Get	-11.2546
▁Bass	-11.2548
ă	-11.2549
rus	-11.2551
vel	-11.2552
▁Pete	-11.2554
▁broadcasts	-11.2556
▁configuration	-11.2557
mate	-11.2557
▁reopened	-11.2557
vis	-11.2557
▁101	-11.2561
▁impressed	-11.2562
▁sleep	-11.2562
▁retreat	-11.2565
▁Gill	-11.2566
▁Double	-11.2568
▁Triple	-11.2574
▁shaped	-11.2575
wald	-11.2578
▁1953.	-11.258
▁depot	-11.258
▁cult	-11.2581
▁intermediate	-11.2583
▁payment	-11.2584
▁gap	-11.2585
▁Brad	-11.2585
▁difficulty	-11.2585
most	-11.2588
▁Cyprus	-11.259
▁130	-11.2591
▁proof	-11.2595
▁91	-11.2598
play	-11.2598
▁Honorary	-11.2601
▁Kill	-11.2602
▁Copa	-11.2603
▁Julia	-11.2604
▁Brighton	-11.2611
▁hyper	-11.2612
▁seriously	-11.2612
▁Revolutionary	-11.2614
▁volleyball	-11.2617
was	-11.2617
▁sculptures	-11.262
▁Caroline	-11.262
▁NASA	-11.2622
▁Ferdinand	-11.2624
▁Mobile	-11.2627
▁Indonesian	-11.2627
▁3,000	-11.2628
March	-11.2629
▁700	-11.263
▁teammate	-11.2631
▁Airlines	-11.2631
▁hardware	-11.2633
▁reserves	-11.2637
▁Portsmouth	-11.2638
▁voyage	-11.2638
▁input	-11.2639
▁pure	-11.2639
▁removal	-11.2641
54	-11.2642
▁interred	-11.2643
▁detail	-11.2643
produced	-11.2646
ras	-11.2651
▁files	-11.2651
▁1862	-11.2652
▁depression	-11.2653
▁Baby	-11.2654
▁SA	-11.2657
▁destroy	-11.2658
▁Resources	-11.2662
▁tune	-11.2662
▁achievement	-11.2664
PS	-11.2664
▁disappeared	-11.2664
▁engagement	-11.2666
▁Ronald	-11.2669
▁surprise	-11.267
▁Plymouth	-11.2671
▁victories	-11.2671
▁Vin	-11.2672
▁Cro	-11.2676
▁Porter	-11.2679
▁Mine	-11.268
▁lighting	-11.268
chan	-11.2681
▁Store	-11.2681
▁Malta	-11.2682
pen	-11.2682
▁breed	-11.2683
▁Broad	-11.2683
▁Desert	-11.2685
▁XI	-11.2685
▁Tin	-11.2687
▁moral	-11.2687
▁Bern	-11.2688
▁dies	-11.2691
▁Memphis	-11.2692
▁1865	-11.2697
hy	-11.2698
▁statistics	-11.27
▁140	-11.2701
▁Progressive	-11.2701
▁Beck	-11.2703
PA	-11.2703
▁performer	-11.2703
▁1937,	-11.2704
▁Por	-11.2704
▁trustees	-11.2705
▁parks	-11.2706
▁Contest	-11.2708
▁Emma	-11.2712
ado	-11.2712
▁resource	-11.2713
▁Todd	-11.2716
▁battles	-11.2716
▁carrier	-11.2719
▁comprising	-11.2719
▁Glass	-11.2719
▁Gay	-11.272
▁reverse	-11.2721
▁1872	-11.2724
▁Male	-11.2728
▁interpretation	-11.2729
▁scandal	-11.2731
stra	-11.2734
▁slave	-11.2736
▁towers	-11.2739
▁experiments	-11.2739
▁Wars	-11.2739
▁beer	-11.2741
▁topped	-11.2744
▁chess	-11.2746
▁translator	-11.2747
▁Nam	-11.2747
built	-11.2752
▁labour	-11.2753
▁crops	-11.2753
▁demo	-11.2754
▁Ahmed	-11.2755
▁opponents	-11.2757
▁Edition	-11.2758
▁Bang	-11.276
▁virtual	-11.2764
▁1939.	-11.2765
▁Albums	-11.2766
▁1879	-11.2766
▁Beat	-11.2769
▁12-	-11.2771
▁Tampa	-11.2773
▁experiment	-11.2774
▁Belle	-11.2775
▁fin	-11.2775
▁Pri	-11.2776
▁Episcopal	-11.2777
sar	-11.2777
▁1954.	-11.2777
▁stepped	-11.2778
▁punk	-11.2779
▁François	-11.278
nagar	-11.2781
▁Lok	-11.2782
▁quick	-11.2783
▁millimetres	-11.2785
wrote	-11.2785
▁Near	-11.2785
▁Sei	-11.279
▁acquire	-11.279
▁silent	-11.279
▁index	-11.2794
▁variation	-11.2796
▁Grammy	-11.2796
▁fastest	-11.2797
▁eat	-11.2798
▁Programme	-11.28
▁stolen	-11.2806
▁1914,	-11.2807
pu	-11.2809
▁automatic	-11.281
▁1871	-11.2812
▁Cave	-11.2816
▁approaches	-11.2818
▁zero	-11.2818
▁pub	-11.282
▁administrator	-11.2821
nen	-11.2823
▁Windsor	-11.2826
▁Amy	-11.2827
▁Allan	-11.2828
▁Ste	-11.2828
EC	-11.2828
▁App	-11.2829
SL	-11.2831
gin	-11.2831
▁1868	-11.2832
▁wildlife	-11.2835
▁arrive	-11.2837
cer	-11.284
nic	-11.2845
mor	-11.2847
▁interviewed	-11.2848
▁Com	-11.2848
▁unsuccessfully	-11.2849
▁upgraded	-11.2849
▁Lucas	-11.2849
▁Istanbul	-11.2849
▁restore	-11.285
enko	-11.2851
▁severely	-11.2851
▁essays	-11.2855
▁Rao	-11.2856
▁molecular	-11.2857
▁decisions	-11.2858
▁Indianapolis	-11.2859
▁Fernando	-11.2863
▁improvement	-11.2864
▁IBM	-11.2867
▁joins	-11.2867
▁Iceland	-11.2869
▁architects	-11.2869
▁Creative	-11.287
ichi	-11.287
▁1874	-11.2871
▁structural	-11.2872
▁h	-11.2873
▁dissertation	-11.2873
▁boarding	-11.2873
▁bin	-11.2874
▁Bailey	-11.288
▁basement	-11.2881
▁1845	-11.2882
Ro	-11.2883
▁boxing	-11.2884
▁functional	-11.2885
▁Aberdeen	-11.2887
▁exploration	-11.2887
▁performs	-11.2888
ising	-11.2889
▁bridges	-11.289
▁2-	-11.2891
vers	-11.2891
▁Franco	-11.2892
▁Julian	-11.2893
▁Exhibition	-11.2895
▁exit	-11.2897
tia	-11.29
▁Thor	-11.29
▁Ag	-11.2902
▁generations	-11.2906
▁Congo	-11.2908
▁fortune	-11.2908
II	-11.291
▁putting	-11.2912
▁rectangular	-11.2914
▁pitched	-11.2919
▁investigate	-11.2922
▁Notre	-11.2928
▁Haven	-11.293
▁crimes	-11.2931
▁Wo	-11.2933
eur	-11.2934
lle	-11.2935
▁accomplished	-11.2936
▁sufficient	-11.2937
▁Ye	-11.2938
▁honours	-11.2941
▁Carnegie	-11.2945
▁1920,	-11.2947
▁shoulder	-11.2947
▁Sad	-11.2949
▁performers	-11.2951
▁rector	-11.2952
▁Es	-11.2955
▁tale	-11.2955
▁Clay	-11.2956
▁Southeast	-11.2957
▁kids	-11.2958
▁helicopter	-11.2958
▁blues	-11.296
▁dogs	-11.2961
speaking	-11.2963
▁Woods	-11.2963
▁retire	-11.2964
▁pit	-11.2964
▁imp	-11.2966
▁realized	-11.2968
▁Preston	-11.297
▁Zhang	-11.2971
dor	-11.2973
▁Bio	-11.2978
▁fortress	-11.2978
▁thereby	-11.298
▁fairly	-11.2983
▁Mus	-11.2985
▁Chemistry	-11.2985
▁innovative	-11.2987
▁Case	-11.2989
▁dense	-11.299
▁Sean	-11.2992
▁airfield	-11.2992
▁Eye	-11.2995
▁absorbed	-11.2997
▁promotional	-11.3003
▁Living	-11.3003
cio	-11.3006
ological	-11.3008
▁diagnosed	-11.301
▁3.5	-11.3011
▁4-	-11.3013
▁Philharmonic	-11.3015
cc	-11.3017
▁granite	-11.3018
▁succeed	-11.3021
▁fur	-11.3023
▁essentially	-11.3023
tum	-11.3025
▁Powell	-11.3026
57	-11.3032
▁Justin	-11.3034
▁genetic	-11.3035
▁delayed	-11.3036
▁peninsula	-11.304
▁convinced	-11.304
▁download	-11.304
▁contribute	-11.3041
▁mature	-11.3041
▁lift	-11.3047
▁Ever	-11.3049
▁Sel	-11.3051
ien	-11.3052
▁Nigerian	-11.3053
▁Mun	-11.3053
▁libraries	-11.3054
▁1935,	-11.3055
▁tonnes	-11.3055
▁Rama	-11.3058
▁error	-11.3059
▁lifestyle	-11.3059
▁Emmy	-11.3062
▁Carol	-11.3062
owski	-11.3063
▁rookie	-11.3065
▁permit	-11.3066
▁pin	-11.3068
▁encourage	-11.3069
▁Mario	-11.3069
▁1846	-11.307
▁responded	-11.3072
▁trips	-11.3076
maker	-11.3077
▁beneath	-11.3079
▁manufacture	-11.308
▁stored	-11.3081
▁Winnipeg	-11.3082
▁licence	-11.3082
▁magnitude	-11.3085
▁Bert	-11.3089
▁defending	-11.309
IT	-11.309
▁1918.	-11.309
▁Emily	-11.3091
▁Eve	-11.3098
▁Chancellor	-11.3098
aki	-11.3102
AC	-11.3106
▁governed	-11.3107
▁explore	-11.3108
▁tourists	-11.3108
▁1929,	-11.3109
▁achievements	-11.311
Sa	-11.3112
iti	-11.3112
▁challenged	-11.3112
eo	-11.3113
▁Lancaster	-11.3113
▁farms	-11.3115
▁brands	-11.3116
▁Harbour	-11.3117
▁Rai	-11.3118
▁contributor	-11.3121
▁client	-11.3123
▁Tam	-11.313
▁w	-11.313
▁premier	-11.3135
▁closest	-11.314
▁enabled	-11.3141
▁1960.	-11.3143
iana	-11.3145
ST	-11.3146
▁Aaron	-11.3147
▁Morocco	-11.315
▁Apart	-11.3151
Bo	-11.3154
▁sustained	-11.3155
only	-11.3157
▁Chapter	-11.3158
▁Francesco	-11.3158
▁array	-11.3159
▁5,000	-11.3159
▁settle	-11.316
▁proceeded	-11.3162
▁allegedly	-11.3163
▁94	-11.3164
▁Madras	-11.3165
▁Qu	-11.3165
▁1952.	-11.3165
iri	-11.317
tain	-11.3171
ovich	-11.3171
▁2–0	-11.3176
▁noise	-11.3179
▁Reid	-11.318
▁owns	-11.3181
▁Duncan	-11.3182
▁lateral	-11.3182
▁moderate	-11.3182
▁dean	-11.3186
29	-11.3187
▁observations	-11.3187
▁Julius	-11.3187
▁Plaza	-11.319
▁telling	-11.3192
▁Take	-11.3193
▁dialogue	-11.3193
aro	-11.3194
ili	-11.3195
▁Lau	-11.3195
▁speakers	-11.3198
▁Lisa	-11.3198
▁fiscal	-11.3198
bay	-11.3199
uro	-11.3199
▁layout	-11.32
▁$2	-11.3201
▁stress	-11.3203
▁resided	-11.3203
lum	-11.3205
▁package	-11.3206
▁Cuban	-11.3206
▁Brooks	-11.3208
gas	-11.3209
▁Gran	-11.3209
▁professionals	-11.3209
avi	-11.321
released	-11.321
wen	-11.3212
LP	-11.3215
Po	-11.3219
▁Bala	-11.322
▁rivals	-11.322
▁Ve	-11.3221
▁Micro	-11.3222
▁rifle	-11.3226
▁1949.	-11.3226
▁registration	-11.3226
▁Lost	-11.3227
lit	-11.3229
▁Bla	-11.3238
▁militia	-11.3238
▁announcement	-11.324
hurst	-11.3241
▁pushed	-11.3241
▁vicinity	-11.3244
▁lover	-11.3245
▁Gang	-11.325
▁experts	-11.3252
▁rebellion	-11.3253
▁Luxembourg	-11.3255
pop	-11.3255
etti	-11.3258
Brien	-11.3258
▁Tra	-11.3259
present	-11.326
▁Gre	-11.326
aw	-11.326
▁Course	-11.3261
▁wet	-11.3262
▁Walk	-11.3263
▁exhibits	-11.3263
▁Budapest	-11.3266
▁delegate	-11.3269
▁sporting	-11.3269
anti	-11.3272
▁ratings	-11.3273
▁afternoon	-11.3273
▁Albanian	-11.3273
▁elite	-11.3274
▁Colin	-11.3277
▁deals	-11.3278
▁playwright	-11.3282
▁Bai	-11.3282
sis	-11.3283
▁ranges	-11.3284
▁chapters	-11.3284
▁emerging	-11.3284
HS	-11.3285
▁Excellence	-11.3285
▁(21	-11.3288
lic	-11.3291
met	-11.3294
▁(30	-11.33
Or	-11.3305
▁1933,	-11.3306
▁Tele	-11.3308
ū	-11.3308
▁progressive	-11.3311
▁informed	-11.3313
▁Interior	-11.3316
▁protests	-11.3316
▁submerged	-11.3319
▁rises	-11.3319
speed	-11.3319
▁Formation	-11.3323
lyn	-11.3326
▁lease	-11.3326
▁varies	-11.3329
▁Sex	-11.3332
▁colours	-11.3332
14	-11.3332
▁Alpha	-11.3333
▁1500	-11.3337
▁125	-11.334
▁ibn	-11.3342
ë	-11.3343
▁nurse	-11.3343
▁asking	-11.3344
nell	-11.3345
▁portions	-11.3346
SR	-11.3347
▁1951.	-11.335
▁deliver	-11.3353
▁Lucy	-11.3357
▁depicts	-11.3357
CC	-11.3358
has	-11.3359
▁Observatory	-11.3359
▁Simpson	-11.3363
▁Watch	-11.3363
▁tight	-11.3365
▁1940.	-11.3366
▁register	-11.3369
ito	-11.3371
▁rap	-11.3371
▁Superior	-11.3372
▁Sweet	-11.3373
gg	-11.3373
▁Leicester	-11.3374
▁creates	-11.3374
▁metric	-11.3375
▁Mul	-11.3377
cin	-11.3379
▁nineteenth	-11.3382
▁discuss	-11.3388
▁enjoy	-11.3392
SI	-11.3393
three	-11.3394
▁martial	-11.3394
▁1837	-11.3395
85	-11.3396
▁governing	-11.3397
▁preservation	-11.3397
3,	-11.3398
▁Chase	-11.3402
▁certificate	-11.3407
SA	-11.3407
▁terrain	-11.3408
vert	-11.3408
pper	-11.3408
▁Holmes	-11.3409
▁creek	-11.3409
▁weak	-11.3409
▁Kas	-11.3409
▁Wednesday	-11.341
▁Milton	-11.3414
▁Med	-11.3415
▁Being	-11.3415
▁saint	-11.3415
▁improving	-11.3416
▁insects	-11.3417
▁Nottingham	-11.3417
è	-11.342
▁lighthouse	-11.3421
▁reviewer	-11.3422
▁Insurance	-11.3423
gra	-11.3424
▁Forbes	-11.3425
▁syndrome	-11.3429
▁belong	-11.3431
▁Jun	-11.3431
▁invitation	-11.3432
▁maintaining	-11.3434
ago	-11.3435
▁undertook	-11.3436
▁rotation	-11.344
yr	-11.3441
▁pregnant	-11.3441
▁reducing	-11.3441
▁skill	-11.3442
▁computers	-11.3444
▁nationwide	-11.3444
vent	-11.3446
▁Harper	-11.3446
▁Canyon	-11.3447
▁Tiger	-11.3447
▁Arabia	-11.3447
▁dozen	-11.345
▁aspect	-11.3451
▁Ages	-11.3453
illo	-11.3453
▁Foot	-11.3455
▁ad	-11.3456
39	-11.3457
SC	-11.3459
written	-11.3461
▁survivors	-11.3462
▁procedure	-11.3463
▁fate	-11.3465
▁Working	-11.3466
▁familiar	-11.3468
▁collector	-11.3469
▁comics	-11.3469
▁maternal	-11.347
▁expelled	-11.3473
▁1875	-11.3476
▁recurring	-11.3476
▁Universe	-11.3485
▁commitment	-11.3487
▁automatically	-11.3488
that	-11.3488
▁Chemical	-11.3491
▁Idaho	-11.3491
▁nose	-11.3492
▁illustrations	-11.3492
▁athletics	-11.3495
▁1934,	-11.3495
▁firing	-11.3497
▁Zi	-11.35
▁Chelsea	-11.3501
▁composers	-11.3501
▁sophomore	-11.3502
▁Heinrich	-11.3502
▁abbey	-11.3502
▁Bryan	-11.3502
▁Lion	-11.3506
▁Fourth	-11.3507
▁audiences	-11.3511
▁lawsuit	-11.3511
▁Official	-11.3512
▁Twenty	-11.3513
▁bankruptcy	-11.3514
agh	-11.3514
▁Salvador	-11.3516
▁Robertson	-11.3517
▁USSR	-11.3518
▁Marion	-11.352
eva	-11.3522
▁Dom	-11.3527
▁Burton	-11.3527
25	-11.3527
▁tissue	-11.3529
▁handling	-11.3529
▁commanding	-11.353
▁bombing	-11.353
▁romance	-11.3532
rk	-11.3537
-0	-11.3538
ico	-11.3539
ties	-11.354
24	-11.3541
▁Theological	-11.3541
English	-11.3542
▁random	-11.3543
▁cent	-11.3543
▁1873	-11.3544
▁deeply	-11.3546
CR	-11.3547
▁1848	-11.3548
▁(24	-11.3549
▁Academic	-11.3549
▁hybrid	-11.3551
lot	-11.3552
▁Colonial	-11.3555
▁jointly	-11.3555
▁Partners	-11.3558
▁mentions	-11.3559
titled	-11.3559
▁Site	-11.3562
▁imprisonment	-11.3564
▁Eugene	-11.3565
▁log	-11.3568
nus	-11.3568
▁el	-11.3569
▁Factory	-11.357
▁prices	-11.357
first	-11.3572
▁acclaim	-11.3572
wide	-11.3573
▁expanding	-11.3575
iah	-11.3576
▁Obama	-11.3576
▁profit	-11.3577
500	-11.3577
▁Thi	-11.3584
gue	-11.3584
▁affect	-11.3586
▁vacant	-11.3588
▁diet	-11.3589
▁communist	-11.3593
▁slaves	-11.3595
▁50%	-11.3598
bor	-11.3598
▁Napoleon	-11.36
Ho	-11.36
▁Cohen	-11.3601
uka	-11.3602
fin	-11.3603
▁altered	-11.3604
▁worst	-11.3606
▁compact	-11.3607
▁interim	-11.3607
track	-11.3607
▁therapy	-11.3609
▁manufacturers	-11.3609
▁folded	-11.3609
▁Roll	-11.3611
▁Amateur	-11.3612
▁mineral	-11.3612
▁dinner	-11.3615
▁PS	-11.3616
▁terminated	-11.3616
13	-11.3617
nce	-11.3619
▁populations	-11.3622
mis	-11.3625
▁Communication	-11.3627
▁VIII	-11.3627
iel	-11.3628
kel	-11.3629
▁Ski	-11.3632
ž	-11.3632
▁Georg	-11.3633
▁praise	-11.3635
PC	-11.3636
ub	-11.3636
▁Literary	-11.3643
▁Reynolds	-11.3644
▁Lithuania	-11.3645
▁Commercial	-11.3649
▁1919.	-11.365
▁increases	-11.3651
▁arrangements	-11.3652
▁Mis	-11.3652
▁surrender	-11.3653
▁Hugo	-11.3653
▁Bros	-11.3653
▁faster	-11.3653
▁Syrian	-11.3654
▁landmark	-11.3654
oo	-11.3656
▁Roosevelt	-11.3657
▁deposits	-11.3658
vor	-11.366
▁argument	-11.3661
inger	-11.3661
▁Rat	-11.3662
para	-11.3663
nal	-11.3663
▁mutual	-11.3664
▁sheet	-11.3664
▁Pink	-11.3666
▁1838	-11.3669
▁withdrawn	-11.367
▁ESPN	-11.367
chy	-11.367
▁Boat	-11.3675
▁comments	-11.3676
▁partnered	-11.3676
sized	-11.3677
▁Palestinian	-11.3677
▁AFC	-11.3678
æ	-11.3678
Ar	-11.3679
ão	-11.3679
ids	-11.3679
▁refugees	-11.3682
Don	-11.3686
One	-11.3687
▁Curtis	-11.3688
▁Doug	-11.369
▁descendant	-11.3693
bat	-11.3693
▁Ober	-11.3694
▁graphics	-11.3694
after	-11.3699
▁diplomat	-11.3701
▁obtaining	-11.3703
▁quoted	-11.3706
▁cool	-11.3706
▁peer	-11.3707
00	-11.3707
”,	-11.3708
▁Legal	-11.371
▁Number	-11.3713
▁decree	-11.3714
▁recreational	-11.3715
▁songwriter	-11.3715
▁fundamental	-11.3717
lee	-11.3718
▁Miles	-11.3725
▁rocket	-11.3727
▁sandstone	-11.3729
▁Globe	-11.3732
▁mathematician	-11.3737
▁developers	-11.3739
▁dubbed	-11.3739
▁Dale	-11.374
▁Tr	-11.374
▁remix	-11.374
▁missile	-11.374
August	-11.3742
▁Enterprise	-11.3746
els	-11.3747
▁controls	-11.3748
▁Bedford	-11.375
▁integration	-11.375
▁varied	-11.3751
▁Springfield	-11.3754
▁sky	-11.3755
▁consumption	-11.3755
▁Ob	-11.3756
▁prevented	-11.3757
▁bout	-11.3758
▁Annie	-11.376
▁samples	-11.376
▁Fri	-11.3761
eck	-11.3764
▁im	-11.3765
▁Leslie	-11.3768
▁sure	-11.3769
▁breaks	-11.3769
▁pa	-11.3776
▁bore	-11.3776
▁revived	-11.3779
▁derives	-11.3779
▁recover	-11.3782
▁Cancer	-11.3783
oh	-11.3785
▁lineup	-11.3786
▁Hat	-11.3792
▁Sto	-11.3793
▁Achievement	-11.3795
kal	-11.3795
▁Concert	-11.3796
▁escort	-11.3797
▁Sid	-11.3807
▁Guards	-11.381
rah	-11.3811
▁Sons	-11.3814
▁planted	-11.3817
▁Bun	-11.3818
▁hop	-11.3819
▁Cairo	-11.382
mmer	-11.3821
▁Form	-11.3822
Pa	-11.3823
80	-11.3825
post	-11.3826
▁1938.	-11.3827
▁amounts	-11.3827
▁sight	-11.3831
aire	-11.3833
▁Wan	-11.3833
86	-11.3834
GA	-11.3834
thi	-11.3836
BL	-11.3836
▁Meyer	-11.3836
▁interaction	-11.3837
▁Edgar	-11.3838
▁lying	-11.3841
▁impossible	-11.3843
▁pageant	-11.3844
▁topic	-11.3845
▁Eight	-11.3847
abad	-11.3847
▁revenge	-11.3852
ches	-11.3855
▁emotional	-11.3856
▁tanks	-11.3857
SP	-11.3863
int	-11.3864
inus	-11.3868
▁literally	-11.3869
▁crowned	-11.387
▁Marsh	-11.3871
▁Adult	-11.3873
▁Founded	-11.3876
▁Ay	-11.3876
▁dying	-11.3877
mb	-11.3879
▁fabric	-11.388
▁Hindi	-11.388
Sc	-11.3881
▁transported	-11.3883
Bar	-11.3889
▁retain	-11.3889
▁authorized	-11.389
▁learns	-11.3892
yne	-11.3893
▁Aviv	-11.3894
itz	-11.3894
▁comparison	-11.3894
▁Rolling	-11.3896
Ta	-11.3896
38	-11.3897
▁Southampton	-11.3898
▁Seoul	-11.3898
oid	-11.39
She	-11.3901
▁Sofia	-11.3901
▁prolific	-11.3904
▁enable	-11.3905
▁relatives	-11.3906
▁Mah	-11.3907
▁1950.	-11.3909
adi	-11.391
▁arc	-11.3914
▁Klein	-11.3915
▁watching	-11.3915
uch	-11.3917
hir	-11.3918
▁mysterious	-11.3921
▁wire	-11.3922
▁Monroe	-11.3923
▁lights	-11.3924
▁Rachel	-11.3926
▁Wagner	-11.3927
▁Basin	-11.3928
oi	-11.393
hat	-11.3931
▁Actor	-11.3936
das	-11.3937
▁1928,	-11.3937
▁1937.	-11.3944
▁Bears	-11.3945
▁semifinals	-11.3946
▁Primera	-11.3949
98	-11.395
▁Full	-11.3952
▁surfaces	-11.3952
▁teenager	-11.3953
▁Orlando	-11.3956
▁Past	-11.3957
č	-11.3957
▁Cy	-11.3957
▁GT	-11.3959
▁Bud	-11.396
▁trails	-11.396
berry	-11.3964
▁historians	-11.3964
▁Claude	-11.3964
▁André	-11.3965
▁reflected	-11.3965
▁trainer	-11.3967
zan	-11.397
▁Kol	-11.3971
▁pipe	-11.3973
gh	-11.3974
▁regulation	-11.3975
▁Bombay	-11.3975
▁presents	-11.3976
mas	-11.3978
64	-11.398
boy	-11.398
▁HD	-11.3981
▁Nathan	-11.3982
▁Az	-11.3984
▁feelings	-11.3985
▁Christians	-11.3988
If	-11.3991
▁concentrated	-11.3991
pet	-11.3992
▁intense	-11.3992
▁pine	-11.3993
▁targets	-11.3995
▁adviser	-11.3995
▁Dynasty	-11.3996
▁Nat	-11.3998
▁varieties	-11.4003
53	-11.4003
▁neighbourhood	-11.4004
36	-11.4004
rio	-11.4004
▁1843	-11.4006
▁delegation	-11.4009
▁tone	-11.4009
ging	-11.4011
▁meter	-11.4011
▁Glenn	-11.4013
dimensional	-11.4013
▁Crawford	-11.4015
▁demands	-11.4016
▁reader	-11.4019
▁magnetic	-11.402
▁repeatedly	-11.4022
ID	-11.4023
▁Frances	-11.4023
card	-11.4024
anga	-11.4025
▁McDonald	-11.4027
pal	-11.403
▁vinyl	-11.403
▁Safety	-11.4031
▁committees	-11.4034
▁Industries	-11.4036
100	-11.4036
gon	-11.4036
▁Deutsche	-11.4039
▁Aboriginal	-11.404
▁Viscount	-11.404
▁Ernst	-11.4041
uda	-11.4045
▁backed	-11.4046
ably	-11.4047
NA	-11.4049
▁Ky	-11.4049
07	-11.405
▁hospitals	-11.4052
▁harbour	-11.4052
▁Exeter	-11.4052
lik	-11.4052
▁finalist	-11.4052
▁endemic	-11.4053
▁€	-11.4058
▁corps	-11.4059
▁agree	-11.4059
▁Albania	-11.4059
week	-11.4059
▁Using	-11.406
itis	-11.4062
▁consistent	-11.4066
▁Fiction	-11.4069
▁Dai	-11.4071
▁asteroid	-11.4076
▁contracted	-11.4078
▁grain	-11.408
▁Movie	-11.4082
▁1916,	-11.4086
▁Iraqi	-11.4087
▁Spin	-11.4087
▁Clara	-11.4089
▁Louisville	-11.4097
▁monks	-11.4098
▁portfolio	-11.4098
▁Bart	-11.4099
▁Located	-11.4099
Car	-11.4105
▁collapsed	-11.4106
▁1–1	-11.4108
▁batting	-11.4109
▁Das	-11.4109
▁lady	-11.4112
▁followers	-11.4113
oon	-11.4117
▁1812	-11.4118
▁160	-11.4119
▁1922,	-11.4121
▁1923,	-11.4121
▁Yellow	-11.4122
▁Sudan	-11.4125
▁Slovakia	-11.4126
▁Germans	-11.4127
▁trunk	-11.4127
▁fighters	-11.4129
▁Former	-11.413
59	-11.413
▁Testament	-11.413
▁Andrea	-11.4131
▁Kur	-11.4132
▁Rain	-11.4133
▁numbered	-11.4136
▁feels	-11.4138
▁pitcher	-11.4139
▁Gospel	-11.414
▁sponsor	-11.4141
▁Headquarters	-11.4143
▁Sat	-11.4145
▁Ave	-11.4145
▁Bed	-11.4146
44	-11.4149
ose	-11.415
▁Prof	-11.4153
▁diversity	-11.4158
▁Kom	-11.4158
▁Ahmad	-11.4159
87	-11.416
▁Capitol	-11.416
▁transit	-11.416
▁Cumberland	-11.4162
▁companion	-11.4164
▁Letters	-11.4164
▁cavalry	-11.4165
▁Poly	-11.4165
▁Heath	-11.4166
▁Twitter	-11.4168
▁1927,	-11.4171
46	-11.4172
▁bull	-11.4173
▁clothes	-11.4173
▁1921,	-11.4173
WA	-11.4174
table	-11.4176
én	-11.4177
▁María	-11.4178
▁preliminary	-11.418
▁wards	-11.4181
▁sixty	-11.4182
▁LLC	-11.4184
▁--	-11.4187
▁editing	-11.4189
▁enforcement	-11.419
▁citizenship	-11.419
▁sa	-11.4192
▁Kenneth	-11.4193
ν	-11.4193
President	-11.4194
▁É	-11.4195
general	-11.4196
▁Net	-11.4197
▁manual	-11.4197
▁purple	-11.4201
▁Ek	-11.4204
▁suspected	-11.4204
▁Crystal	-11.4204
▁oxygen	-11.4204
second	-11.4206
▁efficient	-11.4207
▁Pas	-11.4208
▁1842	-11.4209
▁1917.	-11.4213
CA	-11.4213
▁pseudonym	-11.4215
▁cabin	-11.4216
▁pole	-11.4216
▁Bronze	-11.4219
▁Alexandria	-11.4221
▁conceived	-11.4221
tron	-11.4222
▁sending	-11.4225
beck	-11.4226
▁fluid	-11.4227
IP	-11.4228
Vi	-11.4229
▁enlarged	-11.4232
▁AFL	-11.4233
qu	-11.4233
▁Prison	-11.4235
piece	-11.4236
▁Link	-11.4239
dio	-11.4239
▁invested	-11.4241
▁loved	-11.4241
▁prayer	-11.4241
▁killer	-11.4242
▁judicial	-11.4248
▁plaque	-11.4248
French	-11.4254
▁priests	-11.4256
awa	-11.4256
▁<	-11.426
▁leased	-11.4262
▁preparing	-11.4262
▁entity	-11.4263
SE	-11.4266
▁cloud	-11.4267
▁180	-11.4268
▁protagonist	-11.4274
▁Kun	-11.4274
rey	-11.4275
▁ghost	-11.4275
ota	-11.4275
▁rocky	-11.4276
▁addressed	-11.4276
▁Sox	-11.4277
▁Charleston	-11.4278
▁regard	-11.4282
▁Got	-11.4285
▁pilots	-11.4285
▁trophy	-11.4285
▁handled	-11.4285
▁allocated	-11.4286
▁Linda	-11.4287
ech	-11.429
▁Inspector	-11.4292
ş	-11.4294
▁corn	-11.4295
▁Ghost	-11.4295
▁politicians	-11.4299
▁Previously	-11.4299
▁Hayes	-11.43
▁seized	-11.43
▁torpedo	-11.43
▁Dorothy	-11.4302
▁associations	-11.4303
▁Glacier	-11.4304
▁r	-11.4305
▁Again	-11.4305
▁explain	-11.4307
▁investigated	-11.4307
▁Cologne	-11.4307
▁Barnes	-11.4309
▁centres	-11.4313
▁engage	-11.4315
▁presenting	-11.4315
▁bounded	-11.4315
▁Nevertheless	-11.4317
▁Sc	-11.4321
yang	-11.4321
thy	-11.4321
hall	-11.4322
▁Trump	-11.4322
▁1930,	-11.4323
jar	-11.4323
▁metropolitan	-11.4324
mond	-11.4326
▁odd	-11.4327
▁hub	-11.4329
ned	-11.433
enburg	-11.4336
▁Continental	-11.4337
▁Jar	-11.4339
▁Brun	-11.4341
▁Santo	-11.4343
▁kick	-11.4344
▁sacred	-11.4348
▁shield	-11.4348
▁Suffolk	-11.4349
▁Cavalry	-11.4352
▁Herman	-11.4353
▁Apollo	-11.4358
▁Complex	-11.4358
new	-11.4359
▁Chandra	-11.4359
▁oval	-11.4361
What	-11.4364
▁refuge	-11.4366
▁1912,	-11.4367
hua	-11.4375
▁Pier	-11.4377
▁encountered	-11.4378
▁colleague	-11.4378
▁Bradley	-11.4379
▁lo	-11.4381
▁lab	-11.4382
▁longtime	-11.4382
▁1925,	-11.4382
brown	-11.4383
▁kills	-11.4383
▁Maritime	-11.4386
Ba	-11.439
▁cleared	-11.4392
▁Cre	-11.4393
hop	-11.4393
▁nursing	-11.4393
▁Warriors	-11.4394
▁behaviour	-11.4397
▁Software	-11.4403
▁1932,	-11.4404
▁Lynn	-11.4404
▁Gur	-11.4405
gam	-11.4405
▁identification	-11.4406
▁solve	-11.4407
▁Sugar	-11.4408
FL	-11.4409
▁Access	-11.4409
▁Joy	-11.441
▁accurate	-11.4411
▁Pot	-11.4412
onia	-11.4414
▁enterprise	-11.4414
▁1931,	-11.4417
▁disorder	-11.442
▁provision	-11.442
▁seemed	-11.4424
▁Physical	-11.4425
▁wheels	-11.4427
▁porch	-11.4429
▁Level	-11.443
▁AS	-11.4432
▁Ulster	-11.4432
▁essay	-11.4433
▁landscapes	-11.4437
▁MC	-11.4439
▁chancel	-11.4439
▁tables	-11.444
arch	-11.4441
▁succeeding	-11.4442
▁Learning	-11.4443
So	-11.4446
Lo	-11.4446
kha	-11.4448
97	-11.4448
rod	-11.4448
▁UCLA	-11.4449
▁(25	-11.4452
▁scattered	-11.4452
▁Lam	-11.4454
▁horizontal	-11.4458
▁Webb	-11.4458
▁Janeiro	-11.4458
▁separation	-11.4461
park	-11.4468
▁personally	-11.4469
▁Kat	-11.4473
▁encounter	-11.4473
▁undertaken	-11.4474
▁coordinator	-11.4474
metre	-11.4475
▁treat	-11.4475
▁École	-11.4477
▁Bosnia	-11.448
▁aggregate	-11.4481
▁Vo	-11.4482
▁Half	-11.4483
▁refuses	-11.4483
▁Tru	-11.4485
FC	-11.4488
▁Original	-11.4497
▁parishes	-11.4501
▁Morrison	-11.4501
▁scales	-11.4504
ere	-11.4506
▁loose	-11.4506
▁journalists	-11.4507
▁Northwestern	-11.4509
▁admission	-11.4509
▁shock	-11.4511
▁reads	-11.4511
▁1924,	-11.4513
▁accredited	-11.4514
▁Bergen	-11.4514
▁trademark	-11.4514
BC	-11.4515
▁tackle	-11.4515
▁striking	-11.4515
▁reveal	-11.4519
both	-11.4519
▁Statistics	-11.452
▁Providence	-11.452
/10	-11.452
ui	-11.4524
▁climbing	-11.4524
▁twentieth	-11.4526
▁societies	-11.4526
CP	-11.4527
AT	-11.4527
fl	-11.4527
▁Sul	-11.4528
▁Presidential	-11.4531
ified	-11.4532
▁Tara	-11.4533
ations	-11.4536
SM	-11.4537
▁Chennai	-11.4538
▁entries	-11.4539
rick	-11.4541
▁artifacts	-11.4541
▁Sta	-11.4542
ute	-11.4545
▁Antarctica	-11.4547
▁Marco	-11.4549
▁situations	-11.4554
▁governments	-11.4554
▁Chronicle	-11.4555
▁Mile	-11.4556
▁consulting	-11.4558
via	-11.4559
▁danger	-11.4559
▁Thunder	-11.456
▁centered	-11.4562
▁Actress	-11.4562
works	-11.4565
▁raid	-11.4566
▁strict	-11.457
las	-11.4571
▁rainfall	-11.4572
▁tribal	-11.4575
wy	-11.4578
▁struggled	-11.4578
▁Liberation	-11.4579
▁engineers	-11.4581
kon	-11.4582
▁Housing	-11.4582
tle	-11.4583
.00	-11.4584
-14	-11.4584
▁educator	-11.4585
▁Sing	-11.4586
▁screenplay	-11.4589
▁1910,	-11.459
▁secular	-11.4592
▁Sai	-11.4593
▁convent	-11.4594
put	-11.4599
▁muscle	-11.4599
ES	-11.4603
▁Wen	-11.4604
-11	-11.4613
▁woodland	-11.4613
▁Popular	-11.4615
▁layers	-11.4616
▁quantum	-11.4618
uff	-11.4619
June	-11.4622
▁Taka	-11.4624
dra	-11.4627
name	-11.4628
vik	-11.4629
60	-11.463
▁duration	-11.4635
▁Edwin	-11.4636
▁Sant	-11.4637
▁Inside	-11.4637
bie	-11.4638
▁Talk	-11.4639
▁shrine	-11.4642
▁headquartered	-11.4645
▁True	-11.4646
gram	-11.4647
yer	-11.4648
▁unless	-11.4648
hl	-11.465
:00	-11.4651
▁Row	-11.4651
▁po	-11.4651
anda	-11.4652
▁Mau	-11.4652
▁explosion	-11.4652
▁z	-11.4653
eb	-11.4653
world	-11.4654
tone	-11.4656
▁Loch	-11.4657
▁Criminal	-11.4658
▁backup	-11.4659
uc	-11.4664
▁Helsinki	-11.4664
▁consent	-11.4664
▁variations	-11.4664
cat	-11.4665
▁sword	-11.4666
▁holder	-11.4667
▁unveiled	-11.4667
court	-11.4669
▁unclear	-11.4672
▁AP	-11.4673
▁Hero	-11.4673
▁fruits	-11.4673
▁Pla	-11.4675
fall	-11.4677
▁northeastern	-11.4679
▁Calcutta	-11.4684
▁Moss	-11.4686
▁Mala	-11.4688
▁Worcester	-11.4697
cor	-11.4697
▁Johannes	-11.4699
▁Bee	-11.47
▁axis	-11.4702
▁contracts	-11.4703
▁thrown	-11.4704
▁anthology	-11.4704
person	-11.4705
▁similarly	-11.4705
▁spiral	-11.4705
▁abilities	-11.4706
▁Bavaria	-11.4707
▁Zu	-11.4708
▁assessment	-11.4708
▁CR	-11.471
▁McG	-11.4711
ée	-11.4711
▁donations	-11.4716
▁1926,	-11.4721
▁Kids	-11.4722
quin	-11.4722
fire	-11.4724
▁Jesse	-11.4724
▁remarkable	-11.4725
▁1935.	-11.4725
had	-11.4726
▁advisory	-11.473
ique	-11.4732
▁symptoms	-11.4735
lat	-11.4736
▁OS	-11.4736
▁2.0	-11.4736
▁hopes	-11.4738
▁export	-11.4738
▁embarked	-11.4739
▁inclusion	-11.474
▁metre	-11.4741
▁southeastern	-11.4742
▁competitors	-11.4744
78	-11.4746
▁Indoor	-11.4747
▁badly	-11.4748
▁Syracuse	-11.4753
▁Afterwards	-11.4754
▁taxes	-11.4754
▁Ara	-11.4755
▁habitats	-11.4756
▁CO	-11.4758
uz	-11.4758
▁doctors	-11.4759
▁proximity	-11.476
▁Baroque	-11.476
▁Train	-11.4765
▁Without	-11.4769
▁Lakes	-11.477
▁celebrity	-11.477
sti	-11.4777
▁knockout	-11.4777
▁Marvel	-11.4779
▁centimetres	-11.478
▁prizes	-11.478
▁Edge	-11.4782
▁Lar	-11.4782
▁winds	-11.4782
DS	-11.4782
▁stems	-11.4783
▁Ethiopia	-11.4784
▁Southwest	-11.4784
▁Salem	-11.4784
▁abstract	-11.4787
▁hitting	-11.4789
▁attract	-11.479
ions	-11.479
▁Fat	-11.4794
▁seating	-11.4796
▁Pad	-11.4799
▁Burns	-11.48
▁Uruguay	-11.4801
▁Ard	-11.4805
tie	-11.4807
▁disabled	-11.4807
▁100,000	-11.4809
▁1818	-11.481
▁curator	-11.481
▁valid	-11.4812
▁threats	-11.4814
▁dish	-11.4819
▁accommodation	-11.4821
▁Change	-11.4822
▁larvae	-11.4823
93	-11.4824
▁1929.	-11.4824
▁1824	-11.4825
▁Shiva	-11.4826
▁(26	-11.4827
▁narrowly	-11.483
▁Math	-11.4833
▁Tha	-11.4833
://	-11.4834
▁Fashion	-11.4836
▁Tennis	-11.4836
▁wait	-11.4838
▁constituencies	-11.484
▁skull	-11.484
▁1936.	-11.4843
▁Tyler	-11.4845
▁Tourism	-11.4846
▁populated	-11.4846
▁revolutionary	-11.4847
▁Karen	-11.4849
▁ask	-11.4852
▁curve	-11.4857
▁fossil	-11.4858
▁philosopher	-11.4859
▁colonies	-11.4861
hai	-11.4865
▁Bul	-11.4869
▁#2	-11.487
▁recognize	-11.487
▁ballot	-11.4871
▁empire	-11.4871
▁Arsenal	-11.4871
▁constitute	-11.4873
sie	-11.4874
▁certification	-11.4874
▁grammar	-11.4878
▁Dev	-11.4878
▁Faith	-11.488
▁requirement	-11.4883
▁receiver	-11.4885
ax	-11.4891
▁paying	-11.4892
▁optical	-11.4892
▁wore	-11.4893
tas	-11.4896
▁neo	-11.4903
▁convert	-11.4905
▁pm	-11.4906
▁Theodore	-11.4908
▁binding	-11.4909
▁indeed	-11.491
▁Clare	-11.4911
▁suburban	-11.4912
▁Estonia	-11.4912
94	-11.4913
▁assembled	-11.4913
▁Thursday	-11.4919
Love	-11.4921
▁Lords	-11.4922
▁garage	-11.4925
▁separately	-11.4925
▁AG	-11.4926
▁350	-11.4926
83	-11.4926
▁firms	-11.4929
▁aware	-11.4929
ET	-11.4935
▁Scout	-11.4936
▁Too	-11.4937
▁1934.	-11.4937
▁Any	-11.494
▁Fighter	-11.494
▁bat	-11.4941
▁"...	-11.4942
▁Via	-11.4945
▁compounds	-11.495
▁Flag	-11.4953
▁nest	-11.4953
▁(22	-11.4953
▁Oh	-11.4954
ved	-11.4954
▁Gra	-11.4956
▁migration	-11.4958
There	-11.4959
▁publishes	-11.496
▁oral	-11.496
▁Prussian	-11.4962
▁requiring	-11.4962
▁Greene	-11.4964
▁welfare	-11.4965
▁Kala	-11.4967
sion	-11.4968
Am	-11.497
▁fellowship	-11.4971
▁1914.	-11.4972
▁Fin	-11.4972
▁Hampton	-11.4972
▁universal	-11.4972
▁knows	-11.4975
▁Vic	-11.4975
screen	-11.4977
▁lip	-11.4978
▁Body	-11.498
nor	-11.4983
▁gathering	-11.4983
▁dependent	-11.4984
tech	-11.4984
02	-11.4985
▁shots	-11.4985
▁strange	-11.4986
▁Trinidad	-11.4986
wall	-11.4987
▁inception	-11.4989
▁temples	-11.499
▁Shar	-11.4991
▁Credit	-11.4991
▁efficiency	-11.4993
▁draws	-11.4994
▁Shan	-11.4995
▁fraud	-11.4996
AD	-11.4998
▁Mega	-11.4998
▁Baltic	-11.4999
28	-11.4999
88	-11.5
lim	-11.5
▁tasks	-11.5001
ates	-11.5002
author	-11.5005
▁Classical	-11.5005
▁distant	-11.5005
▁Educational	-11.5008
92	-11.5009
▁creator	-11.5009
▁Johnston	-11.501
▁cooking	-11.501
▁aunt	-11.5011
oy	-11.5018
ija	-11.5022
▁Lithuanian	-11.5023
▁Shri	-11.5025
▁Bis	-11.5025
▁referendum	-11.5027
▁Jennifer	-11.5029
RA	-11.5029
▁pace	-11.5029
▁solely	-11.503
▁stamps	-11.5035
▁Berry	-11.5038
▁promised	-11.5039
▁lord	-11.504
sp	-11.5041
▁Norwich	-11.5044
▁cheese	-11.5044
aux	-11.5046
▁jet	-11.5046
▁universe	-11.5048
bee	-11.5048
▁slope	-11.5051
▁Clear	-11.5057
▁poets	-11.5059
▁Met	-11.5059
▁Estonian	-11.506
▁Ven	-11.506
▁mystery	-11.5063
▁sc	-11.5064
anna	-11.5065
ste	-11.5066
▁Visual	-11.5067
▁Carroll	-11.5067
▁constantly	-11.5067
–10	-11.5068
elo	-11.5069
▁Yard	-11.507
▁conquest	-11.5072
▁talking	-11.5074
▁Appeals	-11.5074
▁concepts	-11.5075
▁prominence	-11.5078
▁Psychology	-11.5078
▁Pod	-11.5079
▁virus	-11.5081
▁Silva	-11.5086
▁generate	-11.5089
▁Cass	-11.5091
▁Rep	-11.5092
▁defender	-11.5092
▁Baldwin	-11.5092
▁radiation	-11.5096
▁1858	-11.5097
▁Kiev	-11.5097
▁Lt	-11.5098
▁Minneapolis	-11.5104
▁warning	-11.5105
▁hotels	-11.5108
▁legacy	-11.511
▁theoretical	-11.5112
▁theories	-11.5114
▁Dundee	-11.5116
▁Summit	-11.5116
▁Ras	-11.5118
its	-11.512
▁Cow	-11.5121
▁opens	-11.5122
▁aerial	-11.5124
gui	-11.5124
▁convoy	-11.5125
▁Lisbon	-11.5127
▁oversaw	-11.513
April	-11.5132
▁Newfoundland	-11.5134
▁Colony	-11.5135
27	-11.5136
49	-11.5138
▁allegations	-11.5138
▁bulk	-11.5139
▁thriller	-11.5143
▁freelance	-11.5144
▁screened	-11.5147
▁Oblast	-11.5148
▁holes	-11.515
cz	-11.515
▁cu	-11.5151
▁rhythm	-11.5151
cap	-11.5152
▁Pont	-11.5153
▁motorcycle	-11.5154
bon	-11.5154
▁signals	-11.5155
▁reunited	-11.5157
ο	-11.516
▁swing	-11.516
▁manga	-11.5164
▁Zimbabwe	-11.5164
▁Armenia	-11.5164
▁HIV	-11.5165
lé	-11.5165
▁Gerald	-11.5165
▁variants	-11.5165
▁Where	-11.5166
▁Elliott	-11.5166
▁Kos	-11.5166
▁Parks	-11.5168
▁Wyoming	-11.5168
▁Biology	-11.5169
vy	-11.5169
▁lecture	-11.5171
62	-11.5173
▁attacking	-11.5174
kawa	-11.5174
cott	-11.5174
▁laser	-11.5176
–0	-11.5178
▁mentor	-11.5178
▁moon	-11.5178
▁upset	-11.518
▁Segunda	-11.5182
▁synthesis	-11.5185
CD	-11.5185
▁accidentally	-11.5189
▁Benedict	-11.5189
▁Santos	-11.519
▁immigrant	-11.5191
▁Tuesday	-11.5191
▁Gandhi	-11.5193
stock	-11.5194
power	-11.5197
▁Eva	-11.5197
▁Duchy	-11.5197
ock	-11.5198
BS	-11.5199
▁slot	-11.52
▁Shop	-11.5201
▁interact	-11.5201
▁Roth	-11.5201
▁Rotten	-11.5201
▁traces	-11.5202
▁Kel	-11.5205
ral	-11.5205
▁Phi	-11.5211
▁dressed	-11.5211
▁Notable	-11.5215
Big	-11.5217
▁feeding	-11.5218
▁listing	-11.5219
September	-11.522
AS	-11.5222
▁infection	-11.5225
▁entrepreneur	-11.5225
▁u	-11.5226
▁forcing	-11.5227
▁endangered	-11.5228
▁Kurt	-11.5228
▁Vietnamese	-11.5229
▁Dubai	-11.5229
SO	-11.523
▁boyfriend	-11.523
▁curved	-11.523
▁phenomenon	-11.5231
ox	-11.5232
▁gather	-11.5232
▁1933.	-11.5233
July	-11.5237
▁witness	-11.5237
▁confusion	-11.5238
▁wickets	-11.5238
▁Arms	-11.5239
▁contestant	-11.524
▁Vision	-11.5241
74	-11.5241
▁Angels	-11.5242
▁intent	-11.5242
▁Make	-11.5244
▁commercials	-11.5244
South	-11.5244
▁wake	-11.5245
▁reforms	-11.5245
jin	-11.5245
▁lit	-11.5248
▁Never	-11.5248
▁fewer	-11.5256
▁reserved	-11.5258
▁ministers	-11.526
▁flagship	-11.526
▁varying	-11.5261
▁0.5	-11.5261
▁Giuseppe	-11.5262
▁Julie	-11.5265
▁airing	-11.5266
▁Eurovision	-11.5266
▁settling	-11.5267
▁advised	-11.5268
▁Betty	-11.527
▁tender	-11.5272
uck	-11.5275
▁Telegraph	-11.5275
▁collegiate	-11.5278
▁push	-11.5279
▁Thames	-11.5283
tail	-11.5283
vey	-11.5284
▁Blair	-11.5286
▁chest	-11.5289
–12	-11.529
▁Burke	-11.5291
▁villagers	-11.5292
▁Norton	-11.5293
▁logic	-11.5294
▁Travel	-11.5294
▁Lamb	-11.5297
▁Ling	-11.5298
▁introduce	-11.53
▁bays	-11.5301
31	-11.5305
rel	-11.5307
▁shed	-11.5307
ule	-11.5311
▁"[	-11.5311
ious	-11.5312
▁enclosed	-11.5313
▁dynamic	-11.5313
▁Wai	-11.5313
cast	-11.5316
bri	-11.5316
▁10-	-11.5317
▁Prussia	-11.5319
▁Antwerp	-11.532
zhou	-11.5321
▁1927.	-11.5321
responsibilities	-11.5322
▁Malcolm	-11.5322
▁Multi	-11.5325
▁merely	-11.5325
USA	-11.5326
▁waves	-11.5327
order	-11.5329
▁electro	-11.5329
▁sustainable	-11.533
▁Kho	-11.5332
▁easier	-11.5333
▁5-	-11.5334
▁Engineer	-11.5336
▁Logan	-11.5338
▁interrupted	-11.5338
▁rescued	-11.5338
▁Shadow	-11.5339
▁freestyle	-11.534
▁Josh	-11.5346
89	-11.5347
▁cluster	-11.5348
4,	-11.5348
▁southwestern	-11.5349
▁Money	-11.5355
▁Ferry	-11.5356
▁Sebastian	-11.5358
tch	-11.5358
▁fights	-11.5359
▁Casa	-11.5362
▁dealt	-11.5363
Greek	-11.5365
ister	-11.5365
▁decommissioned	-11.5366
▁1913,	-11.5368
▁labels	-11.5369
▁1865.	-11.5371
▁Midland	-11.5374
▁Dong	-11.5375
▁Ir	-11.5375
▁Dec	-11.5376
▁talented	-11.5376
▁comedian	-11.5379
October	-11.5379
▁verses	-11.538
site	-11.5381
▁repairs	-11.5383
▁Hood	-11.5385
▁sometime	-11.5385
▁(23	-11.5386
▁Gan	-11.5388
▁migrated	-11.5388
▁spotted	-11.5388
▁105	-11.5391
▁proceeds	-11.5393
▁raw	-11.5394
▁Diana	-11.5394
hari	-11.5394
yam	-11.5396
▁mild	-11.5399
▁grandchildren	-11.5399
▁Coalition	-11.54
▁vi	-11.5404
▁prey	-11.5405
▁operators	-11.5405
▁explored	-11.5407
kes	-11.5411
▁Ladies	-11.5411
▁1831	-11.5412
▁bowl	-11.5415
dell	-11.5417
▁charitable	-11.5418
▁mythology	-11.5418
▁climb	-11.542
▁comprised	-11.5425
▁Winchester	-11.5425
▁beds	-11.5425
sham	-11.5427
▁automobile	-11.5428
▁Choice	-11.5429
▁Transit	-11.5431
▁ITV	-11.5432
▁ceiling	-11.5432
▁classrooms	-11.5435
green	-11.5435
▁Agreement	-11.5436
▁equity	-11.5436
▁Eli	-11.5437
▁tutor	-11.5438
70	-11.5438
link	-11.5438
▁knocked	-11.5439
▁threw	-11.5439
▁Ming	-11.5442
▁columnist	-11.5442
▁Zagreb	-11.5443
▁Qa	-11.5445
▁march	-11.5447
▁Paper	-11.5447
▁Troy	-11.5448
▁speaks	-11.545
▁intervention	-11.545
▁Tasmania	-11.5452
▁Walsh	-11.5453
▁organize	-11.5453
▁specializing	-11.5453
▁Pit	-11.5456
▁survival	-11.5457
▁Reg	-11.5457
▁Archives	-11.5458
▁1931.	-11.5459
▁correspondence	-11.5461
▁hydrogen	-11.5461
▁contestants	-11.5461
▁congressional	-11.5464
▁accompanying	-11.5467
▁server	-11.5469
▁considering	-11.5469
RS	-11.5472
1.	-11.5472
▁quarters	-11.5473
▁Note	-11.5473
amba	-11.5475
▁1852	-11.5477
▁Mol	-11.5479
▁eating	-11.5479
▁banner	-11.548
▁outlets	-11.5481
AF	-11.5482
about	-11.5482
▁reddish	-11.5482
▁Devil	-11.5483
▁Filipino	-11.5483
▁referee	-11.5483
chin	-11.5484
▁Cloud	-11.5486
▁attractive	-11.5486
▁Aircraft	-11.5488
sq	-11.5489
▁Picture	-11.5489
▁Discovery	-11.5491
zel	-11.5494
▁1806	-11.5494
▁Hermann	-11.5495
▁Outside	-11.5496
▁equally	-11.5498
shire	-11.5498
▁prompted	-11.5498
south	-11.5499
storey	-11.5499
▁Against	-11.5503
▁Hyderabad	-11.5504
▁achieving	-11.5504
▁civic	-11.5504
▁Bil	-11.5504
▁cartoon	-11.5505
▁Volunteer	-11.5506
▁Guru	-11.5507
▁Banks	-11.5508
sex	-11.5509
▁Chapman	-11.5512
hem	-11.5516
▁guided	-11.5516
▁Current	-11.5517
▁1923.	-11.5518
▁marathon	-11.5519
▁paved	-11.5519
▁streak	-11.552
68	-11.5522
MO	-11.5525
▁Dresden	-11.5525
▁garrison	-11.5526
▁fault	-11.5526
▁watched	-11.5526
▁happen	-11.5527
SB	-11.5528
▁Maj	-11.5528
▁realizes	-11.5528
▁Sacred	-11.5531
ration	-11.5534
leg	-11.5534
▁Fur	-11.5535
November	-11.5537
▁Rocky	-11.5538
76	-11.5538
▁lock	-11.5538
▁facilitate	-11.5539
AA	-11.554
atus	-11.5542
▁IF	-11.5542
▁trace	-11.5544
▁pull	-11.5545
▁anime	-11.5546
▁noticed	-11.5547
▁nicknamed	-11.555
▁Bologna	-11.5551
▁seal	-11.5552
▁1928.	-11.5554
▁1924.	-11.5555
▁councillor	-11.5557
▁foundations	-11.5557
▁fragments	-11.5558
▁Monument	-11.5559
EL	-11.5559
▁messages	-11.556
CL	-11.5564
▁Polytechnic	-11.5565
▁Easter	-11.5567
▁trend	-11.5567
▁Fifth	-11.5569
▁cum	-11.5569
▁Index	-11.557
▁Stoke	-11.5571
▁Newman	-11.5572
▁Ala	-11.5573
▁Adrian	-11.5574
▁Au	-11.5574
▁Canberra	-11.5576
▁professionally	-11.5576
▁absolute	-11.5577
▁demanded	-11.5578
ologist	-11.5582
▁iTunes	-11.5583
▁volcanic	-11.5583
▁targeted	-11.5584
fest	-11.5586
▁Leadership	-11.5587
▁su	-11.5588
PP	-11.5588
▁Stra	-11.5591
▁Investment	-11.5593
gor	-11.5594
▁Sporting	-11.5594
gie	-11.5595
▁bark	-11.5595
▁Tribune	-11.5597
▁shaft	-11.5598
▁geometry	-11.5598
▁1932.	-11.5598
▁enhance	-11.56
▁1920.	-11.56
▁Generation	-11.5601
▁accordance	-11.5601
▁MIT	-11.5602
igan	-11.5605
tive	-11.5606
▁1900,	-11.5607
▁Applied	-11.5608
▁genes	-11.5609
▁decorative	-11.5612
▁assassination	-11.5613
▁commemorate	-11.5613
hard	-11.5615
▁conversation	-11.5619
▁Rey	-11.5619
▁Griffin	-11.562
▁supervised	-11.5623
▁Come	-11.5626
▁Unfortunately	-11.5628
▁marking	-11.5629
▁feminist	-11.5629
▁photograph	-11.5632
▁2012–13	-11.5632
▁modest	-11.5632
▁Papa	-11.5636
een	-11.564
▁Mini	-11.564
▁continental	-11.5641
▁Rhine	-11.5641
▁barrel	-11.5642
▁20,000	-11.5642
37	-11.5643
▁criticised	-11.5643
▁burning	-11.5643
▁erect	-11.5644
▁palm	-11.5644
▁autobiography	-11.5645
TA	-11.5646
▁si	-11.5646
▁dome	-11.5646
▁circles	-11.5649
▁Hitler	-11.5649
▁absent	-11.565
▁transformation	-11.5652
▁Fork	-11.5654
▁Rica	-11.5656
▁inventor	-11.5657
▁integral	-11.5657
▁Rap	-11.5658
▁Female	-11.5658
▁1823	-11.5658
▁Elder	-11.5659
▁Cecil	-11.5659
▁Agnes	-11.5661
nin	-11.5662
▁keen	-11.5662
▁discipline	-11.5662
ants	-11.5663
▁punishment	-11.5663
▁Fiji	-11.5664
▁item	-11.5664
▁Clo	-11.5665
bass	-11.5665
▁Reverend	-11.5667
▁vicar	-11.5667
▁granddaughter	-11.5667
▁matrix	-11.5671
▁suburbs	-11.5671
▁Morton	-11.5676
eli	-11.5678
▁sanctuary	-11.5678
▁Diploma	-11.5678
▁Jake	-11.568
▁crashed	-11.568
aq	-11.5681
▁dreams	-11.5682
hole	-11.5686
▁Total	-11.5686
▁fat	-11.5689
▁posthumously	-11.569
▁activists	-11.569
▁Mara	-11.5694
▁Sau	-11.5695
▁illustrator	-11.5696
▁Arctic	-11.5697
▁agrees	-11.5698
▁psychological	-11.5699
▁confluence	-11.57
▁Middlesex	-11.57
▁catalog	-11.5701
▁fed	-11.5705
▁pet	-11.5705
▁Bundesliga	-11.5706
▁für	-11.5711
▁lots	-11.5712
▁hoped	-11.5714
▁archives	-11.5716
▁pension	-11.5716
▁suggesting	-11.5717
▁BCE	-11.5717
TS	-11.5719
▁faction	-11.5723
▁1817	-11.5723
▁recreation	-11.5724
▁flooding	-11.5725
▁Moor	-11.5726
ander	-11.5731
▁Roland	-11.5732
▁Clement	-11.5733
▁sail	-11.5734
▁designing	-11.5738
▁Bruno	-11.574
▁raced	-11.574
▁Zen	-11.5742
▁compensation	-11.5747
▁monitoring	-11.5747
▁rubber	-11.5748
2,000	-11.5749
▁Hurricane	-11.575
▁modeling	-11.5751
▁Leone	-11.5751
▁Sy	-11.5754
▁Oriental	-11.5757
▁mo	-11.576
▁barn	-11.5761
take	-11.5761
▁Choir	-11.5764
▁unanimous	-11.5765
▁customs	-11.5765
shin	-11.5765
▁Finn	-11.5766
▁promise	-11.5769
▁Dee	-11.5772
▁melody	-11.5773
▁Kolkata	-11.5773
▁Mack	-11.5778
▁Kh	-11.5779
▁presidency	-11.5781
boat	-11.5782
▁1803	-11.5784
▁Solar	-11.5785
▁Beth	-11.5788
▁1833	-11.5789
tai	-11.579
▁united	-11.5792
▁1922.	-11.5793
▁Cash	-11.5797
▁Tax	-11.5797
▁consequence	-11.5797
show	-11.5797
▁keyboard	-11.5797
tine	-11.5801
As	-11.5801
▁bike	-11.5802
host	-11.5803
ther	-11.5808
oriented	-11.5808
▁confidence	-11.5808
▁narrator	-11.581
▁Jenkins	-11.581
63	-11.5814
▁Theory	-11.5819
▁filmmaker	-11.5819
▁1925.	-11.5819
▁Thomson	-11.582
▁Chad	-11.5821
▁rolling	-11.5821
▁Kenny	-11.5823
▁Kir	-11.5824
core	-11.5827
▁charted	-11.5828
▁Chuck	-11.583
▁commercially	-11.583
llo	-11.5832
▁sponsorship	-11.5833
▁Stuttgart	-11.5834
▁Mt	-11.5834
▁innovation	-11.5835
▁Corp	-11.5835
▁respected	-11.5836
▁Tanzania	-11.5838
ör	-11.584
▁Sandy	-11.584
▁Victory	-11.5841
▁2017–18	-11.5841
▁immigration	-11.5843
▁transmitter	-11.5844
shu	-11.5849
▁1851	-11.5849
▁fees	-11.585
CS	-11.585
▁Critics	-11.5851
▁critically	-11.5851
▁bones	-11.5852
than	-11.5852
▁ta	-11.5852
▁Zoo	-11.5853
▁Chin	-11.5854
▁luxury	-11.5855
▁dancers	-11.5859
▁1790	-11.586
▁parade	-11.5861
▁galleries	-11.5862
82	-11.5863
▁Moreover	-11.5864
▁Lind	-11.5864
▁Arc	-11.5865
▁activated	-11.5866
ø	-11.5866
▁Cardinals	-11.5869
▁1916.	-11.587
▁ports	-11.5872
▁riders	-11.5873
▁Churchill	-11.5878
▁MW	-11.5881
ido	-11.5882
▁museums	-11.5885
▁Ang	-11.5885
act	-11.5887
▁mu	-11.5891
▁2016–17	-11.5892
▁consul	-11.5892
▁FIBA	-11.5892
▁1912.	-11.5894
ı	-11.5895
▁1910.	-11.5896
CE	-11.5897
December	-11.5898
▁petals	-11.5898
▁sudden	-11.5898
▁complement	-11.59
▁Cedar	-11.59
▁Evening	-11.59
н	-11.5903
▁provisions	-11.5906
▁criteria	-11.5907
▁Vernon	-11.591
uta	-11.591
▁salary	-11.5911
▁continuously	-11.5911
▁mills	-11.5912
▁pottery	-11.5912
▁Pay	-11.5913
▁excess	-11.5914
▁repertoire	-11.5914
té	-11.5915
▁Worth	-11.5916
▁Hai	-11.5917
▁ammunition	-11.5918
▁posting	-11.592
▁occurring	-11.5921
▁2013–14	-11.5923
▁WA	-11.5924
▁membrane	-11.5925
▁costume	-11.5927
▁900	-11.5927
mine	-11.5929
rea	-11.5932
fan	-11.5933
ille	-11.5934
real	-11.5935
▁wheat	-11.5937
Jo	-11.5938
zon	-11.5939
ces	-11.5939
▁northwestern	-11.5939
▁minimal	-11.5943
▁Treasury	-11.5944
▁specified	-11.5944
▁interactive	-11.5945
▁Tag	-11.5945
▁Johan	-11.5946
shot	-11.5947
▁Lambert	-11.5947
▁stability	-11.5948
Ireland	-11.5951
TE	-11.5952
handed	-11.5954
▁Journalism	-11.5957
cum	-11.5958
▁doubt	-11.5958
▁examined	-11.5958
▁rejoined	-11.5959
▁Piano	-11.5959
fra	-11.5959
▁Lock	-11.5963
▁decoration	-11.5964
75	-11.5967
▁acknowledged	-11.5969
ters	-11.5973
January	-11.5973
▁rendered	-11.5974
▁understood	-11.5974
▁Whitney	-11.5975
ides	-11.5976
▁cricketer	-11.5977
▁chaplain	-11.5978
cell	-11.5981
ς	-11.5985
▁1853	-11.5986
▁Potter	-11.5986
hood	-11.5986
▁SK	-11.5987
▁Vel	-11.5988
▁NSW	-11.5992
pel	-11.5992
▁environments	-11.5994
▁dimensions	-11.5995
▁2015–16	-11.5996
▁Joel	-11.5996
▁broadcaster	-11.5997
▁Degree	-11.5997
▁counsel	-11.5999
▁counts	-11.6
▁Willie	-11.6
▁bo	-11.6001
▁staying	-11.6001
▁alien	-11.6005
▁sketch	-11.6006
▁Architects	-11.6008
▁Constantinople	-11.6008
▁Kha	-11.601
ê	-11.6012
mani	-11.6013
▁banker	-11.6013
▁procedures	-11.6014
▁Brother	-11.6014
▁Bangalore	-11.6016
▁UC	-11.6016
Li	-11.6016
▁plantation	-11.6017
▁Wine	-11.6017
pat	-11.6017
▁Heaven	-11.6018
▁whorls	-11.6018
▁teamed	-11.6018
26	-11.602
▁embassy	-11.602
▁imported	-11.6021
▁Pond	-11.6022
▁Lim	-11.6026
▁Highland	-11.6027
rak	-11.6027
▁Rag	-11.6028
IL	-11.6029
▁Nobel	-11.6029
▁Coal	-11.6029
▁SE	-11.603
▁1819	-11.603
▁Drake	-11.6031
hart	-11.6032
,”	-11.6033
▁Know	-11.6033
sse	-11.6035
bia	-11.6035
▁triangle	-11.6035
▁Performing	-11.6035
▁scope	-11.6036
IS	-11.6041
▁blocked	-11.6044
▁1902,	-11.6049
▁Border	-11.6051
▁epic	-11.6052
▁seeks	-11.6054
▁memoir	-11.6056
▁Fight	-11.6056
Ga	-11.6057
▁Felix	-11.6058
CI	-11.6058
):	-11.606
rn	-11.606
▁sequences	-11.606
space	-11.6062
▁1921.	-11.6063
▁substance	-11.6067
▁Bolton	-11.6072
▁Lie	-11.6074
▁conflicts	-11.6074
▁Yoshi	-11.6075
lov	-11.6077
▁Lima	-11.608
▁blast	-11.608
▁alignment	-11.6081
▁Map	-11.6082
▁Table	-11.6083
mir	-11.6085
▁botanist	-11.6092
▁Cove	-11.6095
▁Macedonia	-11.6096
▁socialist	-11.6097
▁Sanskrit	-11.6097
▁Charter	-11.6098
03	-11.6102
lecommunications	-11.6102
▁considerably	-11.6103
▁crop	-11.6104
▁sitcom	-11.6104
▁genres	-11.6105
▁sick	-11.6106
▁Lund	-11.6106
▁(28	-11.6106
wn	-11.6106
▁Winston	-11.6109
▁spelling	-11.6109
RI	-11.611
▁detective	-11.611
▁Pole	-11.6111
▁Tsu	-11.6114
▁statistical	-11.6114
▁drainage	-11.6115
▁Brock	-11.6116
▁Claire	-11.6116
RP	-11.6117
▁capabilities	-11.6118
▁Toledo	-11.6118
night	-11.6119
▁3–1	-11.612
ern	-11.612
▁designers	-11.6123
▁3000	-11.6123
▁seventeen	-11.6124
▁1905,	-11.6124
▁Jung	-11.6126
▁expertise	-11.6127
▁Helena	-11.6129
▁humor	-11.613
▁autonomous	-11.613
▁finger	-11.613
Fi	-11.6131
▁tubes	-11.6133
▁strings	-11.6134
▁slight	-11.6139
▁Cliff	-11.6139
▁cultures	-11.6141
▁ritual	-11.6145
▁2020	-11.6147
▁Wings	-11.6147
▁discharge	-11.6147
gle	-11.6148
pic	-11.6148
▁resign	-11.6148
▁condemned	-11.615
▁Freeman	-11.6152
bell	-11.6156
▁casting	-11.6157
▁Georgetown	-11.6158
▁discussions	-11.6158
tsu	-11.6158
▁niece	-11.6159
▁j	-11.616
▁complications	-11.616
51	-11.6162
combe	-11.6162
▁provider	-11.6163
▁den	-11.6164
▁Slovenia	-11.6164
▁Castro	-11.6165
▁geographical	-11.6166
▁voices	-11.6168
▁Depression	-11.6169
▁neutral	-11.6169
▁tips	-11.617
▁tobacco	-11.6172
▁disk	-11.6173
▁busy	-11.6173
▁Josef	-11.6174
▁Beau	-11.6176
▁nominee	-11.6176
▁bicycle	-11.6176
authored	-11.6177
▁Canon	-11.6179
group	-11.6179
▁1930.	-11.6179
▁Speed	-11.6179
NS	-11.618
▁Constitutional	-11.6182
69	-11.6182
PR	-11.6182
fold	-11.6183
▁Population	-11.6184
▁2014–15	-11.6185
▁attained	-11.6187
95	-11.6189
▁Additional	-11.6191
▁dealer	-11.6191
▁horn	-11.6193
ture	-11.6195
▁descended	-11.6197
mun	-11.6198
DA	-11.6198
▁$6	-11.62
best	-11.62
▁preceded	-11.62
rt	-11.62
▁superintendent	-11.62
▁seminary	-11.6201
▁1908,	-11.6202
▁restrictions	-11.6202
▁brass	-11.6202
▁Dunn	-11.6203
▁beside	-11.6203
▁Large	-11.6203
–2	-11.6203
▁monuments	-11.6204
▁Title	-11.6204
eus	-11.6206
▁preceding	-11.6207
▁Sil	-11.6209
▁Lip	-11.621
ρ	-11.6212
▁Av	-11.6213
▁1926.	-11.6213
▁properly	-11.6214
▁mascot	-11.6214
▁copyright	-11.6216
offs	-11.6218
▁gates	-11.6219
mur	-11.622
ao	-11.6224
▁Pirates	-11.6224
▁Llan	-11.6224
ij	-11.6225
▁Maxwell	-11.6228
▁elaborate	-11.6231
▁trustee	-11.6232
sport	-11.6234
bet	-11.6236
▁struggling	-11.6238
woman	-11.6238
▁wound	-11.6241
▁quiet	-11.6242
▁wishes	-11.6242
▁deaths	-11.6242
▁2011–12	-11.6243
▁à	-11.6245
▁navy	-11.6246
▁canon	-11.6246
▁Speedway	-11.6246
▁Laws	-11.6246
▁Hartford	-11.6247
▁Turin	-11.6247
▁Gui	-11.6248
▁ear	-11.625
▁occupies	-11.6253
cock	-11.6253
▁considers	-11.6254
47	-11.6255
▁gross	-11.626
▁Atlético	-11.6265
▁happens	-11.6266
nick	-11.6268
▁Czechoslovakia	-11.6269
▁Latvia	-11.627
▁tickets	-11.6271
▁virtually	-11.6271
▁dining	-11.6272
▁boom	-11.6273
char	-11.6274
▁Bow	-11.6276
▁Gardner	-11.6276
▁Ship	-11.6277
cylinder	-11.6277
leigh	-11.6283
▁celebrities	-11.6284
▁Š	-11.6285
▁Beaver	-11.6288
▁introducing	-11.6288
city	-11.629
▁Augustus	-11.6291
ici	-11.6293
▁spite	-11.6293
▁Rosen	-11.6294
iki	-11.6297
▁Xi	-11.6297
▁Py	-11.6298
AR	-11.6301
▁Quarter	-11.6302
ual	-11.6304
ucci	-11.6306
▁poorly	-11.6308
▁taxi	-11.6309
▁Beer	-11.6309
▁pot	-11.631
EM	-11.631
▁organist	-11.631
nel	-11.6311
▁silk	-11.6311
▁coin	-11.6312
▁Ul	-11.6312
DP	-11.6314
▁sends	-11.6314
▁Albion	-11.6316
▁Fast	-11.6317
▁moments	-11.6318
vet	-11.6319
▁elderly	-11.6319
los	-11.6321
▁Wonder	-11.6322
▁particles	-11.6323
▁(27	-11.6326
Old	-11.6328
▁ا	-11.6331
mit	-11.6331
▁Hop	-11.6334
ske	-11.6336
▁Legend	-11.6337
▁finishes	-11.6338
▁rings	-11.6342
▁Names	-11.6342
▁NATO	-11.6342
▁podcast	-11.6343
▁Mick	-11.6344
any	-11.6345
▁Patricia	-11.6346
▁Ah	-11.6346
▁walks	-11.635
▁sprint	-11.6351
▁Hyde	-11.6352
▁Salon	-11.6353
▁involve	-11.6355
powered	-11.6356
▁vital	-11.6358
▁codes	-11.636
▁potentially	-11.6361
▁Mei	-11.6361
▁Beyond	-11.6363
55	-11.6364
▁reformed	-11.6365
▁Marcel	-11.6365
▁Volume	-11.6366
ault	-11.6366
▁enrollment	-11.6366
▁Dixon	-11.6367
lett	-11.6367
shaw	-11.6368
lio	-11.6368
▁attitude	-11.6369
▁Marshal	-11.6369
rine	-11.6372
▁ko	-11.6381
EP	-11.6381
▁Ei	-11.6383
ald	-11.6386
▁Valencia	-11.6387
Gu	-11.6388
▁sensitive	-11.639
▁Cad	-11.639
▁ISO	-11.6391
▁Fun	-11.6392
▁Jeremy	-11.6393
▁Stories	-11.6394
▁Siege	-11.6395
▁stained	-11.6395
▁territorial	-11.6397
▁olive	-11.6398
▁stronger	-11.6398
▁curves	-11.64
▁Naga	-11.6401
–20	-11.6401
▁tough	-11.6406
▁Linux	-11.6409
▁Certificate	-11.6409
▁Teachers	-11.6412
▁anterior	-11.6412
▁currency	-11.6413
▁subspecies	-11.6413
aceae	-11.6414
..."	-11.6414
▁ranch	-11.6416
▁saving	-11.6417
▁commentator	-11.6417
▁statues	-11.6418
▁flown	-11.6418
▁sued	-11.642
▁Tomatoes	-11.6421
und	-11.6422
▁powder	-11.6422
▁1864.	-11.6423
–0.	-11.6424
▁lung	-11.6425
PL	-11.6426
▁Schedule	-11.6429
▁accounting	-11.643
▁paternal	-11.6433
▁1811	-11.6433
▁Meeting	-11.6434
▁1,500	-11.6435
▁pond	-11.6436
▁midfielder	-11.6438
this	-11.6438
▁Geological	-11.6438
▁Indo	-11.6439
▁Fal	-11.6439
film	-11.644
John	-11.6441
▁Scholarship	-11.6441
41	-11.6445
▁Jorge	-11.6449
NC	-11.6451
▁Finals	-11.6453
rup	-11.6455
▁Hardy	-11.6455
lets	-11.6455
▁zones	-11.6455
▁immigrated	-11.6457
▁diamond	-11.6457
▁Maple	-11.6458
▁fitness	-11.6458
▁rent	-11.6459
ments	-11.6462
mouth	-11.6462
smith	-11.6463
Ca	-11.6463
▁della	-11.6463
pit	-11.6464
▁née	-11.6465
▁Joshua	-11.6465
▁perceived	-11.6465
▁marketed	-11.6467
▁Hale	-11.6468
▁lens	-11.6469
When	-11.647
▁Semi	-11.6471
▁Kit	-11.6471
▁Turn	-11.6472
▁Bog	-11.6474
▁Monica	-11.6479
▁Embassy	-11.648
▁skating	-11.648
▁findings	-11.648
itt	-11.6481
front	-11.6481
▁navigation	-11.6481
▁noting	-11.6481
▁Saxon	-11.6484
▁Kosovo	-11.6484
face	-11.6487
▁Pon	-11.6488
▁Salisbury	-11.6488
▁Built	-11.6488
▁evaluation	-11.6489
52	-11.649
▁spectrum	-11.6492
▁teenage	-11.6492
▁Appeal	-11.6493
▁Plain	-11.6493
▁Twin	-11.6495
▁Conrad	-11.6496
▁gray	-11.6497
▁MBA	-11.6499
-23	-11.65
yon	-11.65
▁factories	-11.6501
▁revolt	-11.6502
▁scholarly	-11.6502
craft	-11.6502
▁ni	-11.6503
▁Hit	-11.6504
▁1849	-11.6505
▁trailer	-11.6506
▁Vatican	-11.6508
▁monk	-11.651
▁maker	-11.6515
▁102	-11.6515
▁Arch	-11.6517
▁comment	-11.6517
▁Algeria	-11.6519
▁ra	-11.652
try	-11.6523
▁kinds	-11.6523
▁Mohammad	-11.6524
uga	-11.6527
mini	-11.653
▁flowing	-11.6533
▁Davidson	-11.6533
asi	-11.6534
▁patch	-11.6537
▁Dragons	-11.6537
▁Adolf	-11.6538
▁Rafael	-11.6544
▁cardinal	-11.6544
▁Jet	-11.6545
▁garnered	-11.6546
▁Ole	-11.6546
3.	-11.6547
good	-11.6547
▁Kazakhstan	-11.6548
▁woods	-11.6549
▁archive	-11.6551
▁uncertain	-11.6551
▁organizing	-11.6552
▁Shield	-11.6553
▁knowing	-11.6554
▁torn	-11.6555
▁Constituency	-11.6556
ult	-11.6557
▁SP	-11.6558
▁statements	-11.6558
▁Pir	-11.6559
▁cameras	-11.656
▁Holdings	-11.656
▁Ranch	-11.656
▁Sherman	-11.6563
–3	-11.6565
▁dissolution	-11.6568
borg	-11.6568
▁promising	-11.6572
▁Bonn	-11.6575
▁Aero	-11.6576
▁Stefan	-11.6577
sal	-11.6578
▁$3	-11.6578
▁Clan	-11.6578
▁Wigan	-11.6579
hor	-11.658
▁Tong	-11.6582
▁Holt	-11.6583
▁tension	-11.6583
▁Confederation	-11.6584
▁affiliation	-11.6584
▁Walt	-11.6585
▁Mak	-11.6585
▁Mae	-11.6585
▁favorable	-11.6586
sberg	-11.6586
▁maiden	-11.6586
▁Jamie	-11.6587
▁Yuan	-11.6587
▁sworn	-11.6588
▁1808	-11.6589
▁casualties	-11.6592
▁Made	-11.6592
▁rape	-11.6593
orum	-11.6594
▁massacre	-11.6595
▁advancing	-11.6596
▁AU	-11.6597
▁Alt	-11.6599
sea	-11.6599
▁Initiative	-11.66
▁Burma	-11.66
–13	-11.6601
▁interpreted	-11.6603
▁Smart	-11.6606
▁Boris	-11.6607
▁Source	-11.6608
▁dropping	-11.6608
▁neuro	-11.6608
▁naturally	-11.6608
▁Animal	-11.661
▁Ecuador	-11.661
▁opposing	-11.6612
▁Hague	-11.6613
▁Jacksonville	-11.6613
▁Innovation	-11.6613
▁$5	-11.6614
idi	-11.6617
▁Ravi	-11.6618
▁Election	-11.6619
ude	-11.6619
▁Nas	-11.6622
▁Bre	-11.6622
▁stamp	-11.6623
▁quartet	-11.6624
▁Galway	-11.6625
World	-11.6626
aries	-11.6628
▁Darwin	-11.6628
▁pursuing	-11.6632
▁Coventry	-11.6632
cker	-11.6632
dai	-11.6634
Un	-11.6636
til	-11.6636
▁Path	-11.6638
▁custody	-11.664
▁democracy	-11.664
IA	-11.6646
р	-11.6647
▁celebrations	-11.6647
▁overcome	-11.6647
▁hide	-11.6648
▁1913.	-11.6648
▁vacated	-11.6648
▁Rou	-11.6649
▁Gustav	-11.6652
▁irregular	-11.6655
▁Eleanor	-11.6656
▁Combat	-11.6656
▁Richards	-11.6657
UN	-11.6657
▁define	-11.666
▁deceased	-11.6661
▁rebel	-11.6664
▁Mozart	-11.6664
late	-11.6667
▁3–0	-11.6667
▁gymnasium	-11.6668
▁Webster	-11.6669
▁4,000	-11.667
rac	-11.6673
▁Task	-11.6673
▁Qui	-11.6674
▁Sacramento	-11.6674
▁violinist	-11.6675
▁desired	-11.6675
▁submarines	-11.6675
▁adventures	-11.6679
aged	-11.6679
SF	-11.6679
rell	-11.6683
▁developments	-11.6684
▁Berkshire	-11.6688
▁Weather	-11.6692
▁cylinder	-11.6693
lau	-11.6694
▁Lagos	-11.6699
ving	-11.67
▁Gloucester	-11.6704
▁Porto	-11.6706
▁Lynch	-11.6708
▁bread	-11.6712
▁Roma	-11.6715
▁everyday	-11.6716
mura	-11.6716
▁Jen	-11.6718
▁deer	-11.672
▁Quartet	-11.6721
spor	-11.6721
▁liver	-11.6722
▁Reich	-11.6722
bot	-11.6722
▁1841	-11.6724
▁loyal	-11.6724
▁toll	-11.6729
▁1915.	-11.6731
ça	-11.6731
▁bigger	-11.6731
▁Basel	-11.6732
Ne	-11.6732
▁veterans	-11.6733
▁investigations	-11.6735
▁cycling	-11.6735
ess	-11.6736
▁Mercury	-11.6739
▁flee	-11.674
▁Omaha	-11.6741
▁masters	-11.6741
▁pursuit	-11.6742
lag	-11.6748
fiction	-11.675
▁develops	-11.6752
▁Qatar	-11.6752
▁annexed	-11.6752
▁cultivated	-11.6752
▁Negro	-11.6753
▁acute	-11.6753
▁Nash	-11.6754
▁1807	-11.6754
▁Europa	-11.6755
▁dedication	-11.6755
▁Rifle	-11.6755
▁Ensemble	-11.6757
▁removing	-11.6758
▁apprentice	-11.6759
▁hunt	-11.6762
▁terrorist	-11.6763
▁textile	-11.6764
▁Recording	-11.6765
▁machinery	-11.6766
▁Civic	-11.6766
▁initiatives	-11.6768
▁drives	-11.6769
▁surveys	-11.677
▁implement	-11.677
writer	-11.6773
▁Moses	-11.6774
oz	-11.6774
▁Bulls	-11.6774
LE	-11.6774
▁commerce	-11.6775
▁UNESCO	-11.6776
pot	-11.6778
–14	-11.6778
▁Geoffrey	-11.6782
▁keeps	-11.6783
▁Online	-11.6785
▁drag	-11.6785
▁Sheikh	-11.6787
▁Caesar	-11.6788
cross	-11.679
▁Cheshire	-11.679
▁Lorenzo	-11.6794
▁rebels	-11.6794
ym	-11.6798
▁Dhaka	-11.6799
▁catalogue	-11.68
▁Dub	-11.6801
▁Gaelic	-11.6802
UK	-11.6806
▁Karnataka	-11.6806
▁hiking	-11.6806
▁Various	-11.6806
▁successive	-11.6807
▁listening	-11.6807
▁knighted	-11.6807
▁Luther	-11.6807
udi	-11.6808
▁García	-11.681
sted	-11.6813
rik	-11.6813
ej	-11.6815
▁countryside	-11.6815
▁JR	-11.6817
▁willing	-11.6817
▁Climate	-11.6818
▁Guitar	-11.6821
zar	-11.6821
beat	-11.6824
▁arcade	-11.6827
▁arose	-11.6828
square	-11.6828
▁Rhodes	-11.683
▁consensus	-11.6831
▁finest	-11.6831
▁Plains	-11.6831
▁Osaka	-11.6832
▁prints	-11.6833
▁Cas	-11.6833
▁(31	-11.6837
▁Associated	-11.6839
▁Bend	-11.6841
▁SM	-11.6843
▁spur	-11.6843
▁email	-11.6848
▁bold	-11.6849
▁Erik	-11.685
▁receptions	-11.685
▁CBC	-11.6851
ching	-11.6851
lor	-11.6854
▁hiding	-11.6854
▁wa	-11.6855
OL	-11.6857
▁watershed	-11.6857
▁hanging	-11.6858
Ja	-11.6862
▁participant	-11.6862
▁beliefs	-11.6862
▁democratic	-11.6863
LC	-11.6867
▁cubic	-11.6867
ario	-11.6867
▁challenging	-11.6868
▁competitor	-11.687
▁Crow	-11.6871
▁Percy	-11.6873
▁rows	-11.6873
▁Scholar	-11.6875
▁Boyd	-11.6875
att	-11.6876
▁buying	-11.6879
▁Ferguson	-11.688
▁Gol	-11.6881
▁Humanities	-11.6881
▁Chilean	-11.6881
▁placement	-11.6881
▁snake	-11.6882
▁Electronic	-11.6886
▁trick	-11.6886
▁sandy	-11.6886
58	-11.6887
nai	-11.6889
▁Arm	-11.6891
▁ST	-11.6891
▁Bri	-11.6897
▁Happy	-11.6898
▁resembles	-11.6898
▁bishops	-11.6898
▁Din	-11.6899
song	-11.69
▁Match	-11.69
▁Zurich	-11.6901
▁Catalan	-11.6901
▁lasting	-11.6901
▁Emergency	-11.6905
▁accessed	-11.6905
▁clinic	-11.6905
ct	-11.6906
▁Gy	-11.6912
▁lesser	-11.6912
▁Boeing	-11.6913
▁Prairie	-11.6917
▁mechanics	-11.6919
▁Drum	-11.6919
East	-11.6919
rama	-11.692
▁Era	-11.692
▁witnessed	-11.6921
▁thermal	-11.6921
▁2010–11	-11.6923
▁interactions	-11.6924
▁concentrate	-11.6924
insky	-11.6924
▁Strait	-11.6925
hon	-11.6926
▁Crime	-11.6926
▁healthy	-11.6927
hm	-11.6927
▁advocated	-11.6928
▁certainly	-11.6929
HC	-11.6929
▁Rudolf	-11.693
▁finite	-11.693
▁healthcare	-11.693
bur	-11.6932
▁rushing	-11.6933
▁Flat	-11.6934
▁Munster	-11.6934
▁Counties	-11.6935
▁dairy	-11.6938
▁MVP	-11.6938
▁Dock	-11.694
▁Sor	-11.6942
▁circa	-11.6945
▁Wide	-11.6945
▁opted	-11.6945
▁ancestry	-11.6946
▁Andre	-11.6947
▁Mali	-11.6948
▁Hawaiian	-11.6949
▁crystal	-11.695
▁Leigh	-11.695
▁inspection	-11.695
▁AT	-11.6954
▁posterior	-11.6954
▁settings	-11.6954
rid	-11.6955
▁reflects	-11.6956
▁Dictionary	-11.6959
hol	-11.6959
▁triangular	-11.6963
▁Gul	-11.6964
▁Strong	-11.6965
TP	-11.6966
▁publishers	-11.6967
▁Fletcher	-11.6967
Da	-11.6968
▁Devi	-11.6968
▁colored	-11.6969
▁Coleman	-11.697
▁horsepower	-11.6971
▁Gibraltar	-11.6971
▁Fil	-11.6971
ison	-11.6972
▁Adventure	-11.6974
▁bowling	-11.6974
ingen	-11.6975
▁documentaries	-11.6975
65	-11.6976
▁prose	-11.6977
▁decreased	-11.6977
▁Things	-11.6978
▁ceremonies	-11.6979
mail	-11.698
graph	-11.6982
▁Eden	-11.6985
▁consideration	-11.6986
▁Beta	-11.6987
Day	-11.6988
09	-11.6988
▁protocol	-11.6988
▁Burn	-11.6989
▁deployment	-11.699
▁Kre	-11.6992
▁hydro	-11.6994
▁Kali	-11.6998
▁couldn	-11.6999
▁Religion	-11.7
▁cultivation	-11.7004
▁inspector	-11.7004
▁ease	-11.7007
rated	-11.7008
▁Roberto	-11.701
ition	-11.701
▁CP	-11.701
▁chef	-11.701
▁Rum	-11.7013
▁Hari	-11.7013
▁Kiss	-11.7014
ère	-11.7016
▁bacteria	-11.7016
▁donation	-11.7017
▁cruise	-11.7018
▁nights	-11.7018
▁inscriptions	-11.7018
▁lumber	-11.7021
▁Sutton	-11.7022
▁motto	-11.7022
▁captained	-11.7023
selling	-11.7024
▁courtyard	-11.7024
▁Lev	-11.7025
▁Uttar	-11.7028
▁soils	-11.7029
▁Monastery	-11.7029
▁viewing	-11.703
tham	-11.7032
▁Islander	-11.7033
▁tract	-11.7033
▁combining	-11.7034
▁Ark	-11.7035
▁Theology	-11.7035
▁sacks	-11.7037
å	-11.7037
▁symbols	-11.7038
▁Style	-11.7038
▁pack	-11.7039
VA	-11.7039
▁livestock	-11.704
qi	-11.7041
▁WS	-11.7041
▁flash	-11.7042
▁1900.	-11.7043
▁Leopold	-11.7043
▁Nordic	-11.7047
▁probability	-11.705
▁shrub	-11.7051
▁Icelandic	-11.7052
▁computing	-11.7054
▁Hun	-11.7054
▁aftermath	-11.7054
▁Dil	-11.7055
▁Parade	-11.7058
▁genera	-11.7058
▁Qing	-11.7062
▁impression	-11.7064
▁Gr	-11.7064
along	-11.7065
▁Kr	-11.7066
▁practicing	-11.7067
▁ver	-11.7067
▁Workshop	-11.7068
▁decrease	-11.7068
zin	-11.707
asa	-11.7074
stage	-11.7074
▁1862.	-11.7075
▁pioneering	-11.7075
▁Hammer	-11.7076
▁averaging	-11.7076
iko	-11.7076
▁gravel	-11.7079
▁115	-11.7079
▁Waterloo	-11.7079
▁cloth	-11.7082
sco	-11.7082
▁intersects	-11.7084
▁linking	-11.7085
IN	-11.7085
▁walked	-11.7086
established	-11.7087
▁Sk	-11.7087
▁pronounced	-11.7089
▁endorsed	-11.709
▁Jesuit	-11.7091
▁underlying	-11.7091
▁reside	-11.7092
umi	-11.7094
▁legally	-11.7094
▁physically	-11.7097
▁proclaimed	-11.71
▁Janet	-11.71
▁Mou	-11.71
▁collaborative	-11.7101
▁apartments	-11.7102
▁Dol	-11.7103
▁smoke	-11.7104
▁Hannah	-11.7105
▁adoption	-11.7106
ening	-11.7107
▁cockpit	-11.7109
▁Drew	-11.7109
▁mapping	-11.711
▁Want	-11.711
tori	-11.7111
-1990	-11.7111
-13	-11.7113
kara	-11.7114
3)	-11.7115
▁kings	-11.7117
▁editors	-11.7117
▁abundant	-11.7118
▁consistently	-11.712
▁tiny	-11.712
35	-11.7121
▁Dawn	-11.7122
pol	-11.7125
▁Maharashtra	-11.7126
February	-11.7126
▁Hour	-11.7127
pon	-11.7128
▁1904,	-11.7128
tta	-11.7129
▁proposals	-11.713
▁launching	-11.713
▁PM	-11.7131
▁searching	-11.7133
range	-11.7134
tten	-11.7134
rian	-11.7134
▁Holocaust	-11.7135
▁Pablo	-11.7135
▁dust	-11.7135
▁Fleming	-11.7138
▁epithet	-11.7139
▁warfare	-11.7139
Can	-11.7141
chu	-11.7143
▁maritime	-11.7143
▁spare	-11.7144
▁Hank	-11.7147
num	-11.7148
84	-11.7149
▁formats	-11.715
▁crucial	-11.7151
▁Kyle	-11.7152
▁Very	-11.7153
▁reactions	-11.7155
▁extraordinary	-11.7155
▁Katherine	-11.7156
▁unopposed	-11.7156
▁Bengali	-11.7159
▁capped	-11.716
▁proceedings	-11.716
▁vault	-11.7161
▁physicist	-11.7162
▁painters	-11.7164
▁Cut	-11.7165
▁1802	-11.7165
series	-11.7169
▁Plate	-11.717
▁Word	-11.717
▁beaches	-11.7171
▁Von	-11.7172
▁Tehran	-11.7173
dha	-11.7173
▁regardless	-11.7174
▁4.5	-11.7177
▁1796	-11.7179
▁Basil	-11.7181
▁exam	-11.7181
▁surrendered	-11.7182
▁distinguish	-11.7184
▁Shire	-11.7185
▁1903,	-11.7185
▁portal	-11.7186
Chief	-11.7186
rot	-11.7187
▁Corn	-11.7188
▁Than	-11.7189
▁Mata	-11.7191
▁Fra	-11.7192
71	-11.7192
stro	-11.7192
▁mac	-11.7193
▁Returning	-11.7193
▁Warwick	-11.7194
▁sponsors	-11.7194
▁Clyde	-11.7194
▁mud	-11.7195
▁Single	-11.7195
▁discrimination	-11.7197
▁Whilst	-11.7198
▁Tales	-11.7199
▁Yugoslav	-11.72
▁Len	-11.72
▁Geo	-11.7201
stadt	-11.7203
▁Cru	-11.7206
▁slogan	-11.7207
▁(40	-11.7207
▁Face	-11.7207
borough	-11.7208
▁2009–10	-11.7209
▁skiing	-11.7209
▁directions	-11.7209
Di	-11.721
mos	-11.7212
▁Ada	-11.7212
enstein	-11.7212
IM	-11.7214
▁1901,	-11.7215
ois	-11.7215
▁rapper	-11.7216
great	-11.7218
▁Mohammed	-11.7219
▁Sergeant	-11.722
▁Wanderers	-11.722
▁gym	-11.722
▁Ng	-11.7221
▁Recreation	-11.7222
▁Baba	-11.7225
▁ne	-11.7225
▁Name	-11.7226
▁hairs	-11.7226
▁−	-11.7226
▁adopt	-11.7227
sub	-11.7228
▁Pala	-11.723
lab	-11.7231
▁mate	-11.7232
escu	-11.7232
▁highlighted	-11.7235
bad	-11.7236
▁Rus	-11.7237
▁darker	-11.7237
▁Sidney	-11.7237
▁expired	-11.7237
▁Andreas	-11.7238
▁1908.	-11.7238
▁Belarus	-11.7239
▁1798	-11.724
▁Lebanese	-11.7242
▁1805	-11.7243
▁Inner	-11.7244
▁percussion	-11.7245
▁Hastings	-11.7245
▁Collegiate	-11.7245
pha	-11.7246
▁Mix	-11.7247
ingham	-11.7247
▁LGBT	-11.7248
HA	-11.7249
▁demolition	-11.7249
▁Bangkok	-11.7249
▁predicted	-11.725
cle	-11.7251
▁Ant	-11.7251
▁invention	-11.7252
▁Papua	-11.7253
playing	-11.7254
▁Apostolic	-11.7255
50,000	-11.7255
▁teammates	-11.7258
nate	-11.7258
▁Masa	-11.7261
▁Ai	-11.7261
▁AB	-11.7262
▁intact	-11.7262
▁Ou	-11.7267
▁Pride	-11.7267
ivity	-11.7269
▁blow	-11.7269
▁Fields	-11.727
▁aggressive	-11.727
▁hiatus	-11.7271
▁nominations	-11.7271
mic	-11.7272
▁Fest	-11.7275
▁Kane	-11.7277
sum	-11.7277
▁Pius	-11.7278
▁Elisabeth	-11.7279
▁Abd	-11.7282
▁Mod	-11.7285
uddin	-11.7285
▁commissions	-11.7286
▁1826	-11.7288
▁uprising	-11.7288
▁rally	-11.7288
▁Acting	-11.7294
▁harbor	-11.7297
▁obvious	-11.7298
base	-11.73
tree	-11.73
▁Churches	-11.7302
▁argues	-11.7305
▁100%	-11.7306
▁liked	-11.7307
▁operas	-11.7307
▁leather	-11.7308
▁delay	-11.7311
uni	-11.7312
gli	-11.7312
▁scrap	-11.7314
▁NASCAR	-11.7314
▁brewery	-11.7315
▁AIDS	-11.7316
action	-11.7318
▁Technologies	-11.7318
▁Comp	-11.7321
▁controlling	-11.7321
DF	-11.7321
▁Newark	-11.7322
▁truly	-11.7322
▁lighter	-11.7323
▁treasurer	-11.7325
▁Bald	-11.7326
▁Beverly	-11.7327
▁schooling	-11.7327
▁zoo	-11.7327
▁Ap	-11.7334
▁Ibrahim	-11.7335
▁Vis	-11.7335
▁Noble	-11.7337
▁allied	-11.734
▁Wong	-11.7341
RT	-11.7342
rim	-11.7344
▁Adventures	-11.7344
▁Greenwich	-11.7344
yar	-11.7345
▁personalities	-11.7346
Pe	-11.7347
▁utility	-11.7348
▁Democracy	-11.7348
▁apex	-11.7348
▁mouse	-11.7349
ges	-11.7352
▁sings	-11.7352
▁1905.	-11.7353
gro	-11.7354
Ch	-11.7355
▁builder	-11.7355
▁rented	-11.7356
▁Oz	-11.7357
▁transferring	-11.7358
▁Sicily	-11.7361
▁1906.	-11.7362
32	-11.7362
▁Tea	-11.7363
▁electorate	-11.7363
▁Flash	-11.7363
▁10%	-11.7364
▁Fen	-11.7366
▁senator	-11.7367
▁Hanover	-11.7369
▁ballad	-11.7369
ering	-11.7369
lund	-11.737
▁Marketing	-11.7371
▁lanes	-11.7372
▁comeback	-11.7374
pid	-11.7374
ffer	-11.7375
▁Joyce	-11.7375
▁villa	-11.7376
▁SO	-11.7377
▁tele	-11.7381
▁Slovak	-11.7384
22	-11.7385
▁Jer	-11.7387
▁Sally	-11.7387
PM	-11.7388
▁yellowish	-11.739
▁transform	-11.739
▁Alexandra	-11.739
▁trucks	-11.7391
▁Politics	-11.7392
▁cooperative	-11.7394
ovsky	-11.7395
▁nobility	-11.7397
▁boxes	-11.7398
ean	-11.7398
▁Reservoir	-11.74
▁balls	-11.74
▁feast	-11.7401
▁goddess	-11.7401
▁plateau	-11.7402
▁Zhu	-11.7402
stead	-11.7407
▁Pel	-11.7407
▁Cast	-11.7409
▁Garcia	-11.7409
▁sank	-11.741
▁rider	-11.7411
▁slender	-11.7413
▁2:	-11.7415
▁Ari	-11.7418
wel	-11.7418
apa	-11.7423
▁judgment	-11.7426
▁Mathematical	-11.7427
arm	-11.7429
▁withdraw	-11.7429
▁photographic	-11.743
▁Tau	-11.7431
cht	-11.7431
▁Panthers	-11.7432
▁Kerry	-11.7435
▁1804	-11.7436
▁FBI	-11.7437
▁106	-11.7438
▁complicated	-11.7438
▁Jets	-11.7439
▁geo	-11.7441
▁1795	-11.7444
ened	-11.7445
▁Corner	-11.7449
pra	-11.745
sche	-11.745
▁progressed	-11.7452
▁2018–19	-11.7453
▁orientation	-11.7453
▁protecting	-11.7456
▁Tell	-11.7457
▁Northeast	-11.7461
▁360	-11.7465
▁1839	-11.7468
ography	-11.7474
▁Belt	-11.7474
▁Patterson	-11.7476
▁amino	-11.7477
▁Lac	-11.7477
▁Hou	-11.7478
,200	-11.7478
▁Universities	-11.7479
▁1902.	-11.7479
▁postgraduate	-11.7479
▁Gujarat	-11.748
–11	-11.7482
▁Derek	-11.7483
▁aside	-11.7485
▁Dorset	-11.7488
▁Teatro	-11.7489
▁Bavarian	-11.7491
▁coordinates	-11.7492
▁cuisine	-11.7492
CH	-11.7492
▁valued	-11.7493
33	-11.7493
▁Bet	-11.7493
six	-11.7494
▁Pierce	-11.7494
▁Guatemala	-11.7494
osis	-11.7498
▁Riley	-11.7499
▁remember	-11.7499
▁mar	-11.7501
nk	-11.7503
▁Counsel	-11.7505
▁harm	-11.7506
▁Om	-11.7508
▁Sue	-11.7508
▁Strategic	-11.7509
▁Electrical	-11.751
▁Pac	-11.7511
▁warrant	-11.7511
sten	-11.7511
▁Barker	-11.7512
▁Nicolas	-11.7512
67	-11.7514
▁generic	-11.7514
▁Christchurch	-11.7514
▁1780	-11.7514
▁Cherry	-11.7516
eight	-11.7517
operative	-11.7518
▁Heidelberg	-11.7518
chel	-11.7518
▁infant	-11.7519
–7	-11.752
▁Sister	-11.7521
PO	-11.7522
▁stick	-11.7522
▁Uni	-11.7524
Ko	-11.7524
▁monitor	-11.7525
▁1836	-11.7525
camp	-11.7528
▁defunct	-11.7529
around	-11.753
▁Augusta	-11.7531
party	-11.7533
Com	-11.7534
▁Dia	-11.7535
▁websites	-11.7536
▁Cool	-11.7536
▁incorporates	-11.7537
▁Egg	-11.7537
▁indie	-11.7537
▁Swift	-11.7538
▁cook	-11.7539
▁upgrade	-11.7542
brother	-11.7543
▁kit	-11.7543
cas	-11.7545
▁nonprofit	-11.7546
▁Lea	-11.7547
▁Cotton	-11.7548
TI	-11.7549
AL	-11.7549
▁Gala	-11.755
▁Tate	-11.7553
▁Recently	-11.7553
▁fusion	-11.7553
▁explanation	-11.7554
▁consumers	-11.7555
▁Raiders	-11.7555
▁(29	-11.7555
▁disputed	-11.7557
▁Poll	-11.7557
▁Tol	-11.7558
▁103	-11.7559
league	-11.756
▁Tucker	-11.756
▁1863.	-11.7563
ER	-11.7563
▁tin	-11.7564
▁synagogue	-11.7566
▁Shirley	-11.7567
▁Isabella	-11.7568
▁laps	-11.7569
▁tenor	-11.7569
▁employs	-11.757
ED	-11.757
▁highlight	-11.7571
vat	-11.7572
▁Carson	-11.7572
▁struggles	-11.7574
▁feeds	-11.7575
▁seasonal	-11.7577
▁conquered	-11.7578
▁spelled	-11.758
▁Dawson	-11.758
▁diving	-11.7581
▁merchants	-11.7581
▁translations	-11.7583
▁guards	-11.7585
▁Stern	-11.7586
▁sketches	-11.7588
▁Montenegro	-11.7589
▁alumni	-11.7589
▁Rand	-11.759
▁lane	-11.7591
br	-11.7591
enne	-11.7591
ath	-11.7592
mid	-11.7592
▁staircase	-11.7593
▁1797	-11.7593
▁op	-11.7595
▁persuaded	-11.7596
▁gameplay	-11.7597
▁detect	-11.7598
▁breakthrough	-11.7598
lier	-11.7603
lac	-11.7603
▁Lal	-11.7604
anta	-11.7604
▁Erie	-11.7605
At	-11.7606
▁Sharp	-11.7607
▁vector	-11.7607
specific	-11.7608
▁tongue	-11.7608
▁holy	-11.7608
▁Flora	-11.7613
▁1911.	-11.7613
▁coined	-11.7614
▁Bucharest	-11.7615
▁excellence	-11.7615
▁Variety	-11.7615
▁delegates	-11.7617
ester	-11.7618
▁deposit	-11.7619
▁excavated	-11.762
▁slate	-11.7621
▁Homer	-11.7622
▁mammals	-11.7623
MI	-11.7626
▁Boss	-11.7627
▁sunk	-11.7627
▁Wade	-11.7627
MT	-11.7629
▁Settlement	-11.7629
▁supplement	-11.7629
▁anthem	-11.7632
media	-11.7632
▁Sophie	-11.7634
garh	-11.7635
▁Pike	-11.7637
▁Jeffrey	-11.7638
▁springs	-11.7641
▁bag	-11.7643
SU	-11.7643
▁murders	-11.7645
▁Bright	-11.7647
▁Countess	-11.7648
▁ancestors	-11.7649
Neill	-11.7652
pping	-11.7652
▁warehouse	-11.7653
production	-11.7659
vir	-11.7659
▁Administrative	-11.766
▁Associates	-11.7664
eth	-11.7664
▁rehabilitation	-11.7664
▁Lem	-11.7665
▁[...]	-11.7669
▁18;	-11.767
▁Canton	-11.7673
ios	-11.7674
▁Buddha	-11.7676
engine	-11.7677
▁ecclesiastical	-11.7679
▁talents	-11.768
NR	-11.768
▁Normal	-11.768
makers	-11.7681
▁MLS	-11.7682
▁Philippe	-11.7682
▁bonds	-11.7683
▁Midlands	-11.7684
▁IP	-11.7684
▁graves	-11.7684
size	-11.7685
▁estimate	-11.7685
▁IX	-11.7686
gia	-11.7688
▁Kerr	-11.7689
tam	-11.769
▁Lil	-11.769
▁Howe	-11.769
▁ingredients	-11.7692
▁analog	-11.7693
▁1903.	-11.7694
▁Nuclear	-11.7695
▁shirt	-11.7696
dog	-11.7696
▁civilians	-11.7696
▁philosophical	-11.7697
▁Malaysian	-11.7698
▁Kro	-11.77
▁offense	-11.7701
▁molecules	-11.7702
Black	-11.7704
▁Barton	-11.7704
▁Elite	-11.7706
▁shipped	-11.7706
▁screening	-11.7707
▁depends	-11.7709
▁filling	-11.771
▁demonstrate	-11.7711
▁Saxony	-11.7711
▁excavations	-11.7711
▁sectors	-11.7712
rit	-11.7712
▁Ultra	-11.7712
▁Singer	-11.7713
▁1832	-11.7715
ô	-11.7715
▁Article	-11.7716
▁shadow	-11.7719
Se	-11.7719
▁prohibited	-11.7719
RC	-11.7719
eu	-11.7722
wei	-11.7723
▁Treasurer	-11.7724
▁Pratt	-11.7725
▁Trustees	-11.7729
▁Frontier	-11.773
▁cameo	-11.7733
▁Phillip	-11.7733
▁reconstructed	-11.7734
▁Af	-11.7735
date	-11.7737
country	-11.7739
▁Screen	-11.7739
▁secretly	-11.7741
▁Murder	-11.7743
▁specially	-11.7743
▁Progress	-11.7746
nine	-11.7747
▁Xavier	-11.7747
▁104	-11.7747
72	-11.775
▁Ceylon	-11.7754
▁enabling	-11.7758
▁proportion	-11.7759
▁Mani	-11.7761
▁canvas	-11.7762
▁108	-11.7762
▁Scots	-11.7762
▁floating	-11.7762
▁Wiltshire	-11.7763
▁Wat	-11.7764
▁smallest	-11.7765
▁enhanced	-11.7765
▁trap	-11.7766
EA	-11.7766
▁graduates	-11.7767
▁finale	-11.7768
▁Organisation	-11.7768
▁exercises	-11.7769
▁suspect	-11.7769
▁CNN	-11.7769
▁retaining	-11.7771
▁6-	-11.7772
▁Eng	-11.7774
▁Bab	-11.7778
▁strategies	-11.7785
gio	-11.7789
▁fl	-11.7789
iu	-11.779
▁titular	-11.779
▁Chand	-11.779
arra	-11.7791
ovo	-11.7792
pers	-11.7794
stown	-11.7794
▁vacation	-11.7794
▁memories	-11.7794
▁Carmen	-11.7802
▁respond	-11.7805
▁demonstration	-11.7808
tens	-11.7808
▁soloist	-11.7809
tern	-11.781
▁unions	-11.7811
▁128	-11.7811
▁fountain	-11.7813
▁Birthday	-11.7813
▁recommendation	-11.7813
phy	-11.7813
▁Internal	-11.7813
IR	-11.7816
▁Merchant	-11.7817
ending	-11.7818
ink	-11.7818
ι	-11.7824
▁afford	-11.7826
ular	-11.7827
▁electronics	-11.7827
56	-11.7828
▁Meta	-11.7831
San	-11.7832
▁presumably	-11.7832
▁flute	-11.7832
▁Rally	-11.7834
▁farmland	-11.7835
▁Congregation	-11.7835
▁broader	-11.7837
▁rental	-11.7839
▁Haiti	-11.784
wear	-11.784
▁fever	-11.784
▁PR	-11.7842
mut	-11.7842
▁Vir	-11.7842
▁Denis	-11.7842
iff	-11.7843
▁Sala	-11.7844
▁lu	-11.7848
▁1907.	-11.785
▁mirror	-11.785
▁humid	-11.7853
GS	-11.7853
eni	-11.7856
▁Kle	-11.7857
▁PlayStation	-11.7858
fen	-11.7858
aca	-11.7859
▁USL	-11.7859
▁Gau	-11.786
▁Lei	-11.7862
▁Marina	-11.7862
▁Terminal	-11.7862
▁Timothy	-11.7862
▁Amendment	-11.7866
▁Steam	-11.7866
▁lined	-11.7867
press	-11.7868
modern	-11.7874
▁sacked	-11.7875
haus	-11.7875
▁Rotterdam	-11.7876
▁harsh	-11.7876
▁politically	-11.7876
▁guy	-11.7877
ough	-11.7877
▁Aid	-11.7878
▁Cur	-11.7878
▁Latvian	-11.788
▁classroom	-11.788
▁lifelong	-11.788
abi	-11.7882
▁Koch	-11.7882
▁Alternative	-11.7882
▁Alberto	-11.7883
▁visitor	-11.7883
▁Fantasy	-11.7888
▁Wave	-11.789
▁feat	-11.789
▁acids	-11.789
nath	-11.7891
▁Veterans	-11.7892
▁financing	-11.7893
▁Similar	-11.7894
▁Wimbledon	-11.7894
Mu	-11.7895
▁Lead	-11.7896
▁regain	-11.7898
▁Kang	-11.7899
OR	-11.7899
▁instructions	-11.79
King	-11.7902
▁fake	-11.7903
▁geography	-11.7903
▁Android	-11.7904
qa	-11.7906
▁Mining	-11.7908
▁Underground	-11.7913
FI	-11.7914
▁(1.6	-11.7915
▁1792	-11.7915
▁Pil	-11.7921
▁Rebecca	-11.7921
building	-11.7922
Ni	-11.7922
▁employer	-11.7924
▁receptor	-11.7927
▁cab	-11.7928
▁keeper	-11.7931
▁contents	-11.7933
CT	-11.7933
▁1898,	-11.7934
bul	-11.7935
▁Tank	-11.7936
▁shoots	-11.7938
get	-11.7939
gus	-11.7939
▁scrapped	-11.794
▁Wakefield	-11.794
hana	-11.794
▁duet	-11.7944
–15	-11.7945
mill	-11.7947
hin	-11.7948
▁Swansea	-11.7949
01	-11.7951
played	-11.7955
▁Gazette	-11.7956
▁Ashley	-11.7956
▁utilized	-11.7957
800	-11.7957
▁Tunnel	-11.7959
▁throwing	-11.796
sam	-11.796
▁chemist	-11.7962
▁extant	-11.7963
▁streaming	-11.7963
▁elimination	-11.7965
rant	-11.7967
▁Irving	-11.7967
▁prospect	-11.7968
▁Pitt	-11.7969
▁Hawk	-11.7969
▁princess	-11.797
▁Hawks	-11.7971
▁newer	-11.7971
▁elect	-11.7974
▁Sang	-11.7975
▁halls	-11.7975
▁chassis	-11.7976
▁AAA	-11.7977
▁brilliant	-11.7977
running	-11.7978
dine	-11.7979
▁Emeritus	-11.7981
TR	-11.7982
▁voluntary	-11.7984
▁Schmidt	-11.7985
▁investigating	-11.7986
▁Leningrad	-11.7986
▁archbishop	-11.7986
▁replica	-11.7987
▁listen	-11.7989
▁pipeline	-11.7989
▁theaters	-11.7991
▁throat	-11.7992
rov	-11.7993
▁Self	-11.7995
▁Trent	-11.7996
▁NA	-11.7997
▁missionaries	-11.8
▁peaks	-11.8002
hoe	-11.8002
bol	-11.8003
45	-11.8004
▁2008–09	-11.8004
▁miners	-11.8004
ked	-11.8005
▁allies	-11.8005
▁investments	-11.8005
▁combine	-11.8007
endra	-11.8007
▁pe	-11.8009
▁1827	-11.8011
quet	-11.8013
▁Practice	-11.8013
▁constituted	-11.8013
rom	-11.8014
▁carriage	-11.8015
▁survives	-11.8016
▁gospel	-11.8018
▁sociology	-11.8018
▁ribbon	-11.8018
▁adds	-11.802
▁paired	-11.8023
▁Hin	-11.8025
▁pretty	-11.8025
▁frames	-11.8026
▁openly	-11.8026
▁reliable	-11.8027
▁Dylan	-11.8028
▁pseudo	-11.8028
▁notion	-11.8031
▁Sud	-11.8032
▁Cra	-11.8034
▁spectators	-11.8034
▁foster	-11.8035
ego	-11.8036
▁advocacy	-11.8036
▁troupe	-11.8036
▁Brain	-11.8039
▁planes	-11.8039
▁merge	-11.8041
▁AA	-11.8043
▁Ple	-11.8044
▁necessarily	-11.8046
RL	-11.8046
▁Et	-11.8046
▁Christine	-11.8047
▁1861,	-11.8049
▁eliminate	-11.8049
▁wartime	-11.8051
▁1901.	-11.8051
otti	-11.8054
▁5000	-11.8055
▁pollution	-11.8055
▁Grass	-11.8056
▁markings	-11.8057
▁downstream	-11.8057
ache	-11.8059
▁eponymous	-11.806
iro	-11.8062
▁Baden	-11.8063
0.0	-11.8066
▁Kla	-11.8066
▁imposed	-11.8067
▁recruit	-11.8067
▁rope	-11.8067
▁1904.	-11.8067
▁possess	-11.8067
▁accuracy	-11.8071
ło	-11.8072
▁Dudley	-11.8074
▁wars	-11.8075
▁Xiao	-11.8075
▁Lor	-11.8076
▁electron	-11.8076
▁SD	-11.8078
▁Lindsay	-11.8078
▁catches	-11.808
▁pleasure	-11.8083
▁Fried	-11.8083
▁Andhra	-11.8083
▁supposedly	-11.8084
▁ba	-11.8084
▁Barrett	-11.8085
▁crest	-11.8085
▁Booth	-11.8086
▁pastoral	-11.8087
▁perennial	-11.8088
bird	-11.8089
isa	-11.809
▁invaded	-11.809
▁Atlas	-11.809
▁surgical	-11.8093
oro	-11.8093
▁Search	-11.8094
▁Karachi	-11.8094
▁wished	-11.8095
▁reelection	-11.8097
▁Photo	-11.8097
songwriter	-11.8097
▁Holiday	-11.81
▁projected	-11.8101
▁#3	-11.8101
▁librarian	-11.8101
▁Cowboys	-11.8102
▁counted	-11.8104
▁outcome	-11.8105
▁routine	-11.8106
000	-11.8106
eda	-11.8108
▁lifted	-11.8108
▁Sou	-11.811
▁Barber	-11.811
▁Touch	-11.8111
▁differs	-11.8111
▁Blind	-11.8111
▁detected	-11.8113
▁Ton	-11.8113
▁gable	-11.8113
▁lectured	-11.8114
▁humorous	-11.8114
▁conspiracy	-11.8115
▁Telugu	-11.8116
wind	-11.8116
Spanish	-11.8116
▁Eton	-11.8116
▁incidents	-11.8118
▁PBS	-11.8119
▁differential	-11.8119
▁Publishers	-11.8121
▁highlights	-11.8124
▁Vera	-11.8124
▁Standing	-11.8125
door	-11.8125
onic	-11.8125
▁paths	-11.8126
vil	-11.8126
▁consolidated	-11.8127
▁1909.	-11.8127
uba	-11.8129
▁precursor	-11.8129
ç	-11.813
▁1799	-11.813
▁Blu	-11.813
rad	-11.8131
lal	-11.8132
▁Hassan	-11.8133
▁1813	-11.8134
▁50,000	-11.8135
▁spreading	-11.8135
▁loses	-11.8135
body	-11.8135
▁premiership	-11.8135
tica	-11.8135
▁Have	-11.8136
▁bottle	-11.8137
▁totally	-11.8139
▁differ	-11.8139
wheel	-11.8139
▁combines	-11.814
▁Harriet	-11.814
▁keel	-11.8141
▁Walton	-11.8142
−	-11.8144
▁sin	-11.8147
▁Dover	-11.8147
▁Rising	-11.8149
▁explores	-11.815
▁Lands	-11.8151
▁Sixth	-11.8151
▁motorway	-11.8151
▁Superintendent	-11.8153
▁Rancho	-11.8153
▁republic	-11.8154
▁Wol	-11.8154
▁Ethiopian	-11.8155
▁Bod	-11.8157
▁appealed	-11.8157
cke	-11.8158
▁Beatles	-11.8158
▁residency	-11.816
▁1865,	-11.8163
OC	-11.8165
▁handful	-11.8166
ML	-11.8166
National	-11.8167
vas	-11.8167
▁questioned	-11.8169
▁450	-11.817
▁Quinn	-11.817
▁Companion	-11.8172
▁proven	-11.8172
Ex	-11.8172
▁analyst	-11.8173
oe	-11.8176
▁MHz	-11.8176
▁screenwriter	-11.8177
▁Mam	-11.8181
▁barrier	-11.8183
▁Pool	-11.8184
▁monarch	-11.8184
▁Isabel	-11.8185
ete	-11.8185
▁anywhere	-11.8186
ür	-11.8186
▁loves	-11.8186
▁attractions	-11.8189
etz	-11.819
▁Madonna	-11.819
hang	-11.8191
▁Bronx	-11.8191
▁displacement	-11.8195
▁Jaya	-11.8195
Su	-11.8196
▁Leg	-11.8197
▁encounters	-11.8197
▁Cara	-11.8198
holm	-11.8199
▁realize	-11.82
sometimes	-11.8201
▁fixture	-11.8201
▁trapped	-11.8204
▁McC	-11.8204
bourne	-11.8204
▁auxiliary	-11.8204
▁chocolate	-11.8204
:30	-11.8205
▁thinks	-11.8205
ann	-11.8206
▁Feature	-11.8206
▁220	-11.8207
▁Carlisle	-11.8209
▁Arlington	-11.8209
▁Beauty	-11.821
▁upstream	-11.8211
▁addresses	-11.8212
▁postal	-11.8212
▁Signal	-11.8212
▁automated	-11.8214
Rock	-11.8216
▁ancestor	-11.8218
Connor	-11.822
Ru	-11.822
AG	-11.822
▁communicate	-11.8222
200	-11.8222
▁Cell	-11.8223
▁1844	-11.8224
ł	-11.8224
▁Sometimes	-11.8225
▁fossils	-11.8226
col	-11.8227
▁Lahore	-11.8228
▁bust	-11.8229
▁Luc	-11.8231
since	-11.8231
▁Basque	-11.8231
▁measurement	-11.8232
sei	-11.8233
▁Fuji	-11.8234
▁publicity	-11.8235
▁£2	-11.8236
▁MacDonald	-11.8237
eti	-11.8238
▁Audio	-11.8238
State	-11.8238
▁Dana	-11.8238
▁Rot	-11.824
▁2.4	-11.824
▁reward	-11.8241
▁caves	-11.8242
▁unofficial	-11.8243
writing	-11.8243
third	-11.8243
▁soprano	-11.8244
▁perception	-11.8247
sko	-11.8248
▁whorl	-11.8248
▁heroes	-11.8249
iga	-11.8251
▁welcome	-11.8251
bha	-11.8252
▁Examples	-11.8256
▁Religious	-11.8256
▁Vil	-11.8257
34	-11.826
lich	-11.826
▁specialty	-11.8261
▁Floyd	-11.8261
▁Brandon	-11.8261
ppa	-11.8261
ige	-11.8262
▁Phase	-11.8262
▁destroying	-11.8262
dem	-11.8263
▁Sham	-11.8263
▁supervisor	-11.8265
North	-11.8266
▁meta	-11.8266
▁Rector	-11.8268
▁dimension	-11.8269
▁Emmanuel	-11.827
▁Auburn	-11.8271
▁Plus	-11.8272
▁enzyme	-11.8273
uca	-11.8274
▁exceptional	-11.8277
▁yearly	-11.8277
▁Kashmir	-11.828
▁Cheng	-11.8281
▁1835	-11.8282
▁Nina	-11.8283
▁doctrine	-11.8283
▁transaction	-11.8283
lev	-11.8283
▁Barn	-11.8284
▁Drug	-11.8284
bil	-11.8285
vid	-11.8285
▁contractor	-11.8286
▁tan	-11.8287
▁Kemp	-11.8288
▁resemble	-11.8292
▁Trek	-11.8293
▁Rapid	-11.8293
iba	-11.8294
▁geology	-11.8294
▁IL	-11.8296
▁resolved	-11.8299
▁ore	-11.8301
▁Afghan	-11.8301
Per	-11.8303
▁recommendations	-11.8304
▁magistrate	-11.8304
▁Hansen	-11.8304
shore	-11.8306
▁Bally	-11.8306
▁Peterson	-11.8307
rai	-11.8308
▁Duchess	-11.8309
▁toxic	-11.831
Si	-11.8311
▁Yankees	-11.8312
ush	-11.8313
▁Edith	-11.8313
▁rivalry	-11.8316
▁homeless	-11.8317
▁Nixon	-11.8318
▁Havana	-11.8319
▁Admiralty	-11.8319
phone	-11.8319
▁geographic	-11.832
▁Paradise	-11.832
▁rebranded	-11.832
▁declaration	-11.8323
▁tributaries	-11.8323
3,000	-11.8323
omo	-11.8325
▁Levi	-11.833
▁fail	-11.8331
roy	-11.8331
▁Jessica	-11.8332
kowski	-11.8334
▁townland	-11.8335
hit	-11.8336
▁spells	-11.8336
▁renovations	-11.8337
▁aperture	-11.8337
▁loaded	-11.8338
▁discharged	-11.8339
ono	-11.8339
▁Shell	-11.8341
shima	-11.8342
LS	-11.8343
▁Savage	-11.8344
▁Baku	-11.8344
▁feud	-11.8345
▁Stand	-11.8347
▁Zürich	-11.8347
▁Dartmouth	-11.8347
▁suffer	-11.835
▁exploring	-11.8351
▁Whit	-11.8352
▁Alta	-11.8353
▁Led	-11.8354
▁Close	-11.8356
▁Battery	-11.8356
▁tag	-11.8358
bes	-11.8358
▁Casey	-11.8358
▁tram	-11.8361
▁besides	-11.8361
▁Mono	-11.8364
▁Willis	-11.8365
▁cottage	-11.8367
▁roller	-11.8368
wang	-11.8368
ía	-11.8369
▁managers	-11.8369
▁Angela	-11.8371
▁30,000	-11.8371
▁jumping	-11.8373
road	-11.8374
▁Welfare	-11.8375
Ver	-11.8377
▁107	-11.8378
▁congress	-11.8379
sic	-11.838
national	-11.838
▁orchestral	-11.838
▁eaten	-11.838
▁Reagan	-11.8381
uru	-11.8382
▁basal	-11.8383
▁1890,	-11.8383
▁equation	-11.8384
lou	-11.8387
▁Blackburn	-11.8388
▁abbreviated	-11.8388
▁enables	-11.8391
PI	-11.8397
▁1898.	-11.8399
FS	-11.8399
▁Mora	-11.84
▁Benson	-11.8404
inter	-11.8405
▁remake	-11.8405
▁Catholics	-11.8406
▁mechanisms	-11.8406
▁tide	-11.8407
▁peaking	-11.8408
ote	-11.841
▁Valentine	-11.8412
▁sheriff	-11.8412
▁Kul	-11.8413
▁Carpenter	-11.8414
▁batteries	-11.8414
81	-11.8414
▁Kei	-11.8416
▁Ned	-11.8417
▁Rapids	-11.842
▁yield	-11.8421
▁wireless	-11.8422
▁securing	-11.8423
▁Goa	-11.8425
▁contacted	-11.8426
▁worse	-11.8428
▁engaging	-11.8428
▁hurt	-11.8428
▁grape	-11.8429
nas	-11.8431
▁vegetables	-11.8431
berger	-11.8431
oko	-11.8433
pla	-11.8433
▁traced	-11.8435
▁announcer	-11.8436
▁Scha	-11.8437
▁swim	-11.8437
▁Genoa	-11.8438
aku	-11.8439
▁Kad	-11.8442
▁Wie	-11.8442
[...]
