<unk>	0
<s>	0
▁the	-3.22687
s	-3.26515
,	-3.34182
.	-3.41907
▁of	-3.81095
▁and	-3.95294
▁in	-3.96307
▁a	-4.2092
▁to	-4.34145
▁	-4.61389
▁was	-4.643
▁The	-4.99787
-	-5.0061
▁for	-5.16658
▁is	-5.16966
▁on	-5.26396
ed	-5.30998
'	-5.31729
▁with	-5.35218
ing	-5.38555
▁as	-5.38771
▁by	-5.44355
▁(	-5.48884
▁at	-5.52718
d	-5.56508
e	-5.63485
▁from	-5.65454
▁his	-5.6562
▁he	-5.66094
▁In	-5.66635
)	-5.76449
▁He	-5.78982
y	-5.81426
▁that	-5.83899
t	-5.90934
er	-5.95431
▁"	-5.95606
n	-5.97287
▁an	-5.97682
a	-6.09906
▁A	-6.11548
ly	-6.13172
i	-6.19503
o	-6.20697
▁were	-6.26201
r	-6.2701
▁which	-6.27576
al	-6.2878
th	-6.31286
▁it	-6.33551
▁are	-6.36412
▁has	-6.37055
▁also	-6.42585
▁be	-6.43714
"	-6.4564
es	-6.48204
▁first	-6.48515
in	-6.52252
▁S	-6.5261
▁had	-6.54789
S	-6.63655
▁her	-6.63892
▁re	-6.64729
▁or	-6.68069
m	-6.69965
▁It	-6.71191
or	-6.7385
re	-6.74846
▁one	-6.79292
:	-6.80131
▁who	-6.80895
k	-6.81807
▁de	-6.82592
l	-6.82839
▁but	-6.83065
▁two	-6.83069
▁its	-6.84369
),	-6.844
▁their	-6.85858
an	-6.86781
▁I	-6.90526
g	-6.915
▁she	-6.91667
on	-6.9187
).	-6.92757
▁not	-6.92951
en	-6.93327
st	-6.97029
▁been	-6.97483
;	-6.9918
▁after	-6.99402
▁this	-6.9947
ar	-7.01333
le	-7.01793
▁have	-7.02587
C	-7.0517
▁E	-7.05897
▁She	-7.07123
▁New	-7.07412
▁C	-7.07988
u	-7.08085
▁18	-7.08731
b	-7.11617
il	-7.12067
p	-7.12202
c	-7.12768
h	-7.13078
P	-7.13945
▁University	-7.14107
ra	-7.1527
ic	-7.16824
▁On	-7.17171
▁where	-7.17631
▁years	-7.17963
▁B	-7.18733
A	-7.19338
▁other	-7.19443
▁time	-7.19896
▁over	-7.21331
ma	-7.22007
▁into	-7.22425
us	-7.22433
%	-7.22807
D	-7.22972
ton	-7.23222
▁1	-7.23362
ation	-7.24038
▁O	-7.24474
▁F	-7.24572
man	-7.24975
ro	-7.25027
▁M	-7.28276
▁when	-7.28554
▁up	-7.28578
ers	-7.29595
B	-7.29716
el	-7.29966
▁P	-7.30841
de	-7.31007
la	-7.31855
▁became	-7.31892
▁all	-7.32311
f	-7.32404
ry	-7.32908
M	-7.3308
▁new	-7.33301
na	-7.34263
▁2	-7.34286
z	-7.34538
▁out	-7.35638
li	-7.35797
ne	-7.35804
▁D	-7.35995
▁under	-7.36657
▁made	-7.37958
▁G	-7.38874
ch	-7.39252
to	-7.39483
at	-7.39783
▁during	-7.40264
ur	-7.4057
ia	-7.40918
▁part	-7.40931
▁K	-7.41213
te	-7.41311
/	-7.41477
ta	-7.41487
▁later	-7.41699
▁they	-7.43318
▁U	-7.43881
it	-7.44096
ck	-7.44569
▁can	-7.45104
is	-7.45269
▁year	-7.45386
▁season	-7.4627
▁three	-7.46279
ri	-7.47307
I	-7.47468
T	-7.47499
E	-7.47833
▁W	-7.47971
▁After	-7.48481
▁17	-7.49688
▁R	-7.50132
N	-7.50277
▁more	-7.50309
▁him	-7.50413
▁team	-7.50424
▁St	-7.50956
▁This	-7.51134
▁T	-7.51578
x	-7.52356
▁3	-7.53228
▁then	-7.53274
▁between	-7.54388
et	-7.55759
▁N	-7.55771
▁only	-7.55887
▁Re	-7.56152
se	-7.56771
ist	-7.5713
▁until	-7.57213
▁school	-7.57264
▁film	-7.57876
▁work	-7.58344
L	-7.58971
F	-7.59272
▁would	-7.5977
▁used	-7.59786
▁name	-7.60341
ke	-7.60431
um	-7.60979
▁De	-7.61222
▁School	-7.61666
ity	-7.61817
▁about	-7.62057
ian	-7.62404
▁including	-7.63765
▁United	-7.63998
▁His	-7.64143
ter	-7.64816
ine	-7.65412
▁well	-7.65447
▁4	-7.6581
▁played	-7.65899
▁co	-7.66401
▁second	-7.66546
ent	-7.66762
G	-7.67106
▁Le	-7.67335
H	-7.67372
▁known	-7.67724
O	-7.68295
▁La	-7.69346
▁before	-7.69384
▁16	-7.69453
ment	-7.69482
▁most	-7.69609
▁such	-7.70114
R	-7.70194
▁As	-7.70287
id	-7.70338
son	-7.7082
ate	-7.70905
▁there	-7.71042
▁being	-7.71146
am	-7.71997
▁Co	-7.72265
w	-7.72784
▁born	-7.72826
ir	-7.73304
▁5	-7.74437
▁area	-7.74708
▁through	-7.74773
▁won	-7.75069
▁against	-7.75108
▁no	-7.7512
ge	-7.76025
ol	-7.76938
▁American	-7.77323
▁War	-7.77343
▁some	-7.77656
▁L	-7.77871
▁May	-7.78041
▁than	-7.78671
lo	-7.78685
age	-7.7954
▁National	-7.79672
▁World	-7.79885
me	-7.80102
▁many	-7.802
’	-7.80363
–	-7.80372
co	-7.81106
ve	-7.81519
ti	-7.81704
".	-7.821
▁served	-7.82306
▁10	-7.82419
▁family	-7.82839
▁age	-7.8321
▁album	-7.83368
va	-7.83438
▁Ha	-7.83678
2	-7.83877
go	-7.8391
as	-7.84628
ce	-7.84793
▁15	-7.84906
▁Pa	-7.84971
▁number	-7.85069
▁con	-7.85133
ha	-7.85358
ni	-7.85612
▁member	-7.85639
▁6	-7.857
ion	-7.85824
ant	-7.86296
▁while	-7.86748
ul	-7.87151
▁so	-7.87167
sh	-7.8721
▁released	-7.87253
land	-7.87364
▁e	-7.87512
▁both	-7.8769
▁Al	-7.87775
no	-7.88028
▁un	-7.88228
▁August	-7.8827
▁John	-7.89756
▁H	-7.90106
▁At	-7.90239
ie	-7.90389
di	-7.90896
ga	-7.90936
ad	-7.91032
é	-7.91067
▁end	-7.9107
▁named	-7.91301
W	-7.9134
▁four	-7.91432
da	-7.9158
▁Ma	-7.91582
ci	-7.91632
be	-7.91681
▁June	-7.91805
▁club	-7.91864
▁died	-7.92054
ba	-7.92194
▁January	-7.92242
▁station	-7.92275
▁began	-7.92458
▁York	-7.92559
▁March	-7.92599
▁called	-7.92732
▁(19	-7.92819
im	-7.93274
▁July	-7.93302
▁September	-7.93401
▁Mar	-7.93598
▁son	-7.93815
mo	-7.93871
."	-7.94008
▁several	-7.9406
ll	-7.94128
K	-7.94731
ka	-7.95714
▁South	-7.95744
▁October	-7.97183
ary	-7.97287
▁people	-7.98317
nd	-7.98336
▁States	-7.98709
ive	-7.9891
do	-7.98913
0	-7.98979
▁7	-7.99394
▁April	-7.99423
▁Ra	-7.99562
able	-7.99693
▁For	-7.99969
▁J	-8.00392
▁company	-8.00395
▁Me	-8.00849
▁early	-8.00948
ley	-8.0096
ca	-8.01045
▁Sa	-8.01173
▁home	-8.01353
der	-8.01402
▁College	-8.01515
▁series	-8.01577
▁music	-8.01631
▁–	-8.02118
▁same	-8.02658
▁12	-8.0302
▁place	-8.03318
ty	-8.03584
▁them	-8.03588
▁received	-8.04144
▁November	-8.04151
▁December	-8.04258
▁8	-8.04458
▁town	-8.04921
▁group	-8.0502
▁c	-8.0515
the	-8.05411
▁Ca	-8.0552
1	-8.05692
▁local	-8.05872
▁m	-8.06088
ated	-8.06139
U	-8.06187
ner	-8.06484
▁Ro	-8.06789
▁moved	-8.06942
▁city	-8.07013
▁will	-8.07182
▁To	-8.07251
▁song	-8.07689
▁City	-8.07691
▁Na	-8.08026
▁They	-8.08154
j	-8.08217
▁band	-8.08279
▁back	-8.08452
V	-8.08604
▁game	-8.08798
▁There	-8.09058
v	-8.09137
▁Bo	-8.09707
▁20	-8.09756
▁located	-8.09819
▁career	-8.10043
,000	-8.10296
▁Li	-8.10314
▁State	-8.1036
ut	-8.11012
tic	-8.11188
▁9	-8.11392
▁km	-8.11621
ies	-8.12012
▁Mo	-8.12101
▁held	-8.12161
▁since	-8.12265
▁pro	-8.12675
ling	-8.12857
",	-8.13496
▁took	-8.13725
ho	-8.13803
▁North	-8.13849
▁pre	-8.1396
▁V	-8.14643
3	-8.14792
▁married	-8.14854
▁built	-8.15191
vi	-8.15215
▁published	-8.15967
▁state	-8.16094
▁February	-8.16164
▁An	-8.16233
▁single	-8.16929
▁No	-8.16932
un	-8.17157
▁Be	-8.1726
▁line	-8.17409
▁side	-8.17567
▁land	-8.17902
▁14	-8.18058
▁high	-8.18717
▁building	-8.18731
▁Ba	-8.18782
▁League	-8.1909
▁found	-8.19224
▁village	-8.19261
▁Ka	-8.19413
hi	-8.19519
ted	-8.19632
▁County	-8.19871
▁joined	-8.20028
▁show	-8.20381
up	-8.20773
▁During	-8.21109
▁worked	-8.21318
▁11	-8.21617
5	-8.21669
▁life	-8.21841
▁13	-8.22329
pe	-8.22333
ous	-8.22376
▁Ta	-8.22423
▁long	-8.22452
▁following	-8.22892
▁Con	-8.23032
▁father	-8.23046
▁per	-8.23685
▁left	-8.23748
▁Car	-8.24012
he	-8.24126
▁each	-8.24212
▁&	-8.24444
▁Vi	-8.24603
▁Her	-8.25023
▁now	-8.25054
mp	-8.25101
▁population	-8.25126
est	-8.25183
4	-8.25462
▁British	-8.26043
wa	-8.26201
▁around	-8.26288
▁former	-8.26453
▁San	-8.26598
▁use	-8.26673
▁head	-8.26764
▁dis	-8.26911
▁London	-8.27037
▁set	-8.27282
▁Ho	-8.27565
▁Se	-8.27702
mi	-8.28116
▁national	-8.28203
00	-8.28323
ance	-8.28353
ow	-8.28439
ang	-8.28459
▁play	-8.28589
▁children	-8.286
▁along	-8.28706
▁death	-8.28822
lu	-8.29008
▁Lo	-8.29388
ak	-8.29551
bi	-8.29704
mb	-8.29754
▁public	-8.29907
▁Po	-8.30135
▁started	-8.30158
way	-8.30322
▁-	-8.30613
ot	-8.31163
▁book	-8.31376
▁final	-8.31649
pa	-8.31675
▁small	-8.32246
min	-8.33369
▁main	-8.33389
▁do	-8.33425
7	-8.33711
▁Bar	-8.33849
▁car	-8.34564
ster	-8.34642
▁own	-8.34802
▁Ar	-8.34887
▁All	-8.35116
▁century	-8.35165
▁last	-8.35332
▁Ga	-8.35375
▁However	-8.35645
ish	-8.35882
▁title	-8.35884
ard	-8.3598
▁West	-8.35988
per	-8.35996
▁water	-8.36473
ver	-8.36837
▁government	-8.37036
▁di	-8.37126
▁five	-8.37341
tro	-8.37377
ber	-8.37517
sa	-8.37564
▁Pi	-8.37848
▁house	-8.37866
▁include	-8.37889
▁b	-8.37974
▁High	-8.38277
gu	-8.38332
▁may	-8.38735
▁la	-8.38792
▁any	-8.39073
▁'	-8.39221
ru	-8.39222
▁Man	-8.39275
▁post	-8.39389
▁went	-8.39703
ism	-8.39785
▁did	-8.39979
▁due	-8.40056
ting	-8.40196
▁included	-8.40232
ud	-8.40605
os	-8.40607
▁ex	-8.41358
den	-8.41374
▁based	-8.4165
▁River	-8.41675
▁Gu	-8.42134
che	-8.42163
▁From	-8.42959
▁like	-8.4297
ig	-8.43067
po	-8.4325
▁day	-8.43296
▁man	-8.43374
▁war	-8.43504
les	-8.43509
▁appointed	-8.43518
que	-8.43767
▁daughter	-8.43787
▁north	-8.43899
▁Ne	-8.4403
▁become	-8.4411
ology	-8.44329
▁large	-8.44356
▁near	-8.4441
▁system	-8.44555
▁signed	-8.44711
▁service	-8.44788
▁these	-8.44921
▁off	-8.45233
ko	-8.4525
▁Park	-8.45307
lin	-8.45393
mer	-8.45454
6	-8.4554
ger	-8.45638
ven	-8.45749
ja	-8.45855
J	-8.45971
od	-8.46015
▁returned	-8.46116
▁established	-8.46429
▁site	-8.46677
▁English	-8.46712
▁debut	-8.46897
▁world	-8.47137
ki	-8.47635
ler	-8.4796
▁late	-8.48019
▁30	-8.48273
▁19	-8.48463
▁members	-8.48583
▁25	-8.48787
nt	-8.48963
The	-8.49022
fi	-8.49163
com	-8.49207
▁ma	-8.49308
ac	-8.49332
▁me	-8.50109
▁third	-8.50241
▁Pro	-8.50302
▁El	-8.50471
op	-8.50497
▁US	-8.50549
▁elected	-8.50684
▁Cup	-8.50731
▁best	-8.50732
▁II	-8.50747
▁Do	-8.50775
▁position	-8.50788
▁again	-8.50857
tt	-8.50873
om	-8.50913
▁founded	-8.50935
▁south	-8.51319
▁Go	-8.51672
▁Su	-8.51685
▁German	-8.51715
▁short	-8.5177
▁original	-8.51813
tal	-8.51822
▁present	-8.51823
▁International	-8.51887
▁art	-8.51888
▁role	-8.52006
con	-8.52308
8	-8.52478
men	-8.52528
ship	-8.52594
and	-8.52799
▁could	-8.52806
▁Da	-8.52884
za	-8.53115
▁very	-8.53175
▁p	-8.53439
▁still	-8.53451
▁French	-8.53694
ward	-8.53822
▁church	-8.53911
▁form	-8.54013
▁came	-8.54365
▁major	-8.54396
▁director	-8.54453
▁House	-8.54487
▁When	-8.54727
gg	-8.54752
ah	-8.54832
time	-8.54878
vo	-8.55004
▁en	-8.55232
▁top	-8.55302
one	-8.55364
▁because	-8.55475
▁down	-8.55577
▁Di	-8.55593
▁total	-8.55795
▁district	-8.56329
ov	-8.5645
by	-8.5651
▁period	-8.56624
▁wife	-8.56975
au	-8.57095
▁Ja	-8.57406
▁Hu	-8.57544
▁degree	-8.57751
▁Ni	-8.57881
▁another	-8.57932
ft	-8.5831
▁different	-8.58352
▁six	-8.58502
tion	-8.58514
▁research	-8.58713
ach	-8.58723
▁$	-8.58801
▁office	-8.58998
▁England	-8.59203
ite	-8.59633
10	-8.59886
▁William	-8.60002
▁million	-8.6005
ence	-8.60136
ial	-8.60139
ator	-8.60168
ng	-8.60199
▁within	-8.60292
▁record	-8.60352
▁led	-8.60631
▁Ko	-8.60659
▁announced	-8.60824
ham	-8.60989
▁East	-8.6122
▁said	-8.61247
▁So	-8.61252
▁Pe	-8.61293
mon	-8.61323
mar	-8.6152
▁version	-8.61541
▁non	-8.61813
ally	-8.61962
▁community	-8.61976
▁design	-8.61987
side	-8.62029
ina	-8.62292
▁games	-8.6249
bo	-8.62497
ts	-8.62603
rd	-8.62821
▁created	-8.63341
qui	-8.63526
tor	-8.63527
ating	-8.6358
ya	-8.63752
▁Council	-8.6394
we	-8.63959
▁history	-8.63964
▁those	-8.63966
em	-8.63995
▁Wa	-8.64084
▁King	-8.64097
▁election	-8.64106
▁Ri	-8.64148
▁opened	-8.64279
▁law	-8.64334
▁level	-8.64351
▁square	-8.64482
▁various	-8.64572
ab	-8.64702
▁Lu	-8.64748
▁just	-8.65066
▁order	-8.65283
▁round	-8.65448
▁sp	-8.65864
▁appeared	-8.65901
ness	-8.66075
▁Church	-8.66116
tra	-8.66189
▁average	-8.66246
ana	-8.66369
▁make	-8.66421
▁Per	-8.66575
▁Ti	-8.66613
▁general	-8.66648
ville	-8.66667
▁Royal	-8.66807
dy	-8.66922
▁video	-8.67081
▁wrote	-8.67086
bu	-8.67286
ten	-8.67428
▁miles	-8.67509
ap	-8.67584
▁species	-8.67656
▁win	-8.67693
▁Award	-8.67705
▁California	-8.67716
▁coach	-8.67743
▁g	-8.67806
line	-8.67896
▁Fa	-8.67901
field	-8.68113
▁George	-8.68382
▁One	-8.68408
▁production	-8.68603
▁support	-8.68643
▁X	-8.68837
han	-8.68893
▁country	-8.69022
▁France	-8.69046
old	-8.69073
pi	-8.69218
▁President	-8.69627
rs	-8.69689
▁international	-8.69734
gi	-8.69758
sion	-8.70056
▁business	-8.7011
▁Mi	-8.70255
▁District	-8.7035
▁football	-8.70438
▁Street	-8.70488
ure	-8.70736
▁playing	-8.70788
ph	-8.70846
▁way	-8.70904
ill	-8.70959
chi	-8.71018
ized	-8.71171
und	-8.71203
▁sub	-8.71277
▁mo	-8.71386
fa	-8.71646
▁Association	-8.71653
▁We	-8.71739
ical	-8.71757
▁player	-8.71879
▁project	-8.72115
▁students	-8.72201
▁working	-8.72204
▁100	-8.7254
▁By	-8.72553
ning	-8.7272
▁development	-8.7275
▁Island	-8.72762
▁Cor	-8.72813
▁next	-8.72956
▁Sch	-8.73152
▁Ru	-8.73423
▁old	-8.73471
▁Ju	-8.73471
▁field	-8.73929
▁Z	-8.74138
▁often	-8.74226
▁works	-8.74509
▁produced	-8.74522
▁2011	-8.74567
▁Dr	-8.74638
▁few	-8.74888
▁together	-8.75122
year	-8.75148
▁contract	-8.75398
▁power	-8.75498
ther	-8.75584
▁women	-8.75605
hu	-8.75789
▁f	-8.75838
▁among	-8.75862
▁run	-8.75908
▁21	-8.75978
▁go	-8.76019
gar	-8.76048
ron	-8.76066
▁having	-8.761
ction	-8.7622
born	-8.76408
á	-8.76542
pp	-8.76692
▁program	-8.76809
▁region	-8.76899
▁Party	-8.76993
▁According	-8.77091
▁2010	-8.77103
▁Bi	-8.77207
out	-8.77218
▁Art	-8.77277
ran	-8.77318
▁Cha	-8.77325
▁With	-8.77329
▁special	-8.77659
sen	-8.78204
▁hand	-8.78391
▁General	-8.78559
▁full	-8.78567
▁live	-8.78575
▁Jo	-8.78619
▁attended	-8.78657
▁living	-8.78798
▁brother	-8.78827
▁what	-8.78852
▁Institute	-8.78897
▁James	-8.78923
▁road	-8.79205
▁much	-8.79289
▁Air	-8.7933
tu	-8.79396
fe	-8.79426
gen	-8.79519
▁bar	-8.79617
▁India	-8.79665
▁continued	-8.7975
lic	-8.79753
ai	-8.79765
▁professional	-8.79844
▁1,	-8.80003
▁given	-8.80005
▁league	-8.80005
▁every	-8.80027
▁22	-8.80367
har	-8.80426
ong	-8.80608
▁Du	-8.80713
▁Australia	-8.80769
▁take	-8.80772
▁recorded	-8.81128
▁Robert	-8.81178
ide	-8.81352
▁even	-8.81354
▁European	-8.81393
ding	-8.81421
ev	-8.81439
ier	-8.81495
▁comp	-8.81621
▁2008	-8.81719
▁ten	-8.81886
val	-8.81896
▁Si	-8.81982
▁men	-8.82001
less	-8.82031
▁Hall	-8.82062
▁1990	-8.82191
50	-8.82579
▁(18	-8.82902
▁studied	-8.82946
▁Society	-8.82965
▁Division	-8.82997
▁mother	-8.83029
ee	-8.83085
9	-8.83723
▁seat	-8.83759
ex	-8.84049
▁sold	-8.84129
▁start	-8.84426
▁formed	-8.8467
▁2009	-8.84777
ik	-8.84792
▁event	-8.84804
▁bi	-8.8483
▁se	-8.8495
▁d	-8.85034
▁point	-8.85074
▁Academy	-8.85157
▁if	-8.85263
▁using	-8.85509
▁awarded	-8.8579
▁Te	-8.85791
▁release	-8.85863
20	-8.85891
ji	-8.85909
ise	-8.85916
▁w	-8.85936
▁2014	-8.85961
▁written	-8.86106
▁east	-8.86164
ving	-8.86291
▁2012	-8.86433
▁pa	-8.86509
▁vi	-8.86547
▁mi	-8.86615
ag	-8.8664
ities	-8.86766
”	-8.86831
▁23	-8.86844
▁match	-8.86909
▁story	-8.86966
▁Bu	-8.87204
▁Am	-8.87248
▁Music	-8.87253
▁Road	-8.87378
tch	-8.87414
▁2013	-8.87487
▁ca	-8.87551
sk	-8.87552
ight	-8.87553
▁however	-8.8774
▁inter	-8.87784
▁television	-8.87931
car	-8.88061
▁Har	-8.88166
▁Paul	-8.88221
red	-8.88326
▁Army	-8.88567
▁free	-8.88581
▁lead	-8.88615
▁language	-8.888
ney	-8.88853
▁Canada	-8.89089
tter	-8.89373
▁2007	-8.89395
gan	-8.89461
▁completed	-8.89462
▁Company	-8.8967
▁1980	-8.8979
▁stage	-8.8986
30	-8.89937
▁2004	-8.90099
▁author	-8.90151
▁28	-8.90177
ring	-8.90324
▁race	-8.90328
io	-8.905
▁lost	-8.90521
▁process	-8.90567
▁west	-8.90677
ell	-8.90963
▁young	-8.91271
▁“	-8.91426
▁finished	-8.91511
▁Hi	-8.91549
▁26	-8.91698
ny	-8.91714
tan	-8.91726
▁Club	-8.9173
kin	-8.91855
▁2000	-8.9193
▁political	-8.91932
▁plant	-8.92236
ung	-8.92378
▁1999	-8.92518
▁And	-8.92721
▁official	-8.92757
▁open	-8.92861
ay	-8.92889
▁performed	-8.92935
▁term	-8.92964
▁24	-8.9299
▁described	-8.93036
▁addition	-8.93095
ium	-8.931
▁America	-8.93195
▁fl	-8.93384
ub	-8.93392
▁2015	-8.93453
▁27	-8.93512
sta	-8.93638
ries	-8.93812
▁Pre	-8.93844
▁track	-8.93849
▁Union	-8.93883
ford	-8.9397
▁Mu	-8.94021
▁similar	-8.94022
X	-8.94109
▁party	-8.94169
▁education	-8.94191
ze	-8.94388
▁sa	-8.9449
▁light	-8.94589
▁president	-8.94605
▁novel	-8.94694
ff	-8.95489
▁popular	-8.9549
ou	-8.95607
shi	-8.95686
▁2006	-8.95778
▁fire	-8.95781
▁graduated	-8.96018
▁half	-8.96062
▁While	-8.96611
▁organization	-8.96718
▁air	-8.96877
▁David	-8.96898
12	-8.97179
▁Court	-8.97307
▁2016	-8.97453
wi	-8.97687
▁competition	-8.97874
ey	-8.97957
▁Thomas	-8.98032
▁bo	-8.98065
▁Hill	-8.98074
our	-8.9809
▁du	-8.98136
-19	-8.98193
ual	-8.98319
▁model	-8.98375
▁making	-8.98453
▁Or	-8.98775
▁Department	-8.98811
▁com	-8.98818
port	-8.98843
▁1970	-8.98926
▁Charles	-8.98927
▁li	-8.99017
▁style	-8.99028
▁seven	-8.99055
▁Ad	-8.99285
▁1998	-8.99348
▁himself	-8.99458
▁Ge	-8.99461
ep	-8.99484
▁These	-8.99819
▁Since	-8.99969
▁control	-9.00072
▁great	-9.00293
▁Roman	-9.00294
▁Indian	-9.00318
▁Center	-9.00472
cu	-9.00564
▁court	-9.00694
▁featured	-9.00768
▁ha	-9.00814
pur	-9.00923
king	-9.00933
▁times	-9.00964
▁board	-9.00983
▁center	-9.01045
jo	-9.01166
▁return	-9.01221
▁days	-9.01612
▁remained	-9.01698
▁tour	-9.01803
▁Wi	-9.01987
▁get	-9.0205
▁without	-9.02143
▁close	-9.02164
–19	-9.02165
▁(1	-9.02253
▁college	-9.02366
▁v	-9.02436
▁sc	-9.02477
▁mid	-9.02478
▁right	-9.02557
cy	-9.02678
▁important	-9.02701
▁good	-9.02792
▁developed	-9.02803
▁help	-9.02832
▁market	-9.02911
▁interest	-9.0295
▁collection	-9.03104
lan	-9.03121
ek	-9.03143
▁Fi	-9.03234
▁2003	-9.0347
▁construction	-9.03535
▁Group	-9.03543
ker	-9.03638
▁Australian	-9.03792
▁29	-9.03881
▁further	-9.03915
▁designed	-9.04044
▁magazine	-9.04049
row	-9.04074
▁Mc	-9.0409
bb	-9.04267
▁First	-9.04272
▁(20	-9.04306
▁originally	-9.04328
▁Mon	-9.04688
▁Germany	-9.04707
day	-9.04998
▁military	-9.0506
cent	-9.05115
▁2001	-9.05177
▁1996	-9.05203
cc	-9.05451
▁1997	-9.05556
▁Fe	-9.05572
▁considered	-9.05579
▁ship	-9.05607
▁Bre	-9.05612
ations	-9.05619
pt	-9.05931
▁training	-9.05939
▁private	-9.05939
▁pe	-9.06001
▁Paris	-9.06076
du	-9.06084
▁turn	-9.06172
▁Championship	-9.06188
▁farm	-9.06194
▁Lake	-9.06246
▁Tri	-9.06358
▁current	-9.06482
▁TV	-9.06545
▁body	-9.06595
ctor	-9.06648
▁section	-9.06746
▁result	-9.06812
uch	-9.07205
ful	-9.07361
end	-9.07471
ct	-9.07514
▁Red	-9.07526
▁rock	-9.07547
▁success	-9.07549
well	-9.07572
▁social	-9.0765
▁Y	-9.07661
▁al	-9.07679
▁teams	-9.0768
▁we	-9.07683
▁Sal	-9.0769
▁gave	-9.07753
▁Green	-9.07767
▁currently	-9.07774
▁active	-9.07789
▁followed	-9.07806
▁Star	-9.07848
▁Ke	-9.08
if	-9.0804
▁Che	-9.08248
▁Museum	-9.08295
▁ground	-9.08362
▁example	-9.08391
▁services	-9.08405
▁travel	-9.08433
▁hit	-9.08475
▁Washington	-9.08505
▁Minister	-9.08553
ica	-9.08613
▁ba	-9.0862
▁Some	-9.08629
▁Saint	-9.08812
°	-9.08843
▁Arts	-9.08963
▁2002	-9.09
▁months	-9.09027
▁k	-9.09198
▁river	-9.09208
▁White	-9.0927
▁Act	-9.09341
▁Ab	-9.09434
▁across	-9.09693
▁park	-9.09715
form	-9.09846
▁Th	-9.09883
▁radio	-9.09917
▁Tu	-9.09984
ration	-9.10022
▁love	-9.10136
▁app	-9.10141
▁Bra	-9.10193
van	-9.10225
▁size	-9.10334
ps	-9.10402
▁points	-9.10405
▁course	-9.10509
11	-9.1052
▁black	-9.10669
▁practice	-9.10682
▁im	-9.10717
hy	-9.1072
▁location	-9.10826
14	-9.10924
▁hu	-9.11008
▁Great	-9.11023
▁2017	-9.11053
▁call	-9.11058
▁fa	-9.11087
▁away	-9.11129
▁Col	-9.11129
▁view	-9.11156
▁1960	-9.11167
▁available	-9.11227
15	-9.11287
▁Bay	-9.11301
nes	-9.11435
▁never	-9.11618
▁Black	-9.11641
Y	-9.11826
▁1995	-9.11845
▁type	-9.11867
▁po	-9.11869
▁deal	-9.11877
gue	-9.11977
▁Ex	-9.12154
▁human	-9.12233
▁Can	-9.12233
▁Gi	-9.12262
▁campaign	-9.12278
▁division	-9.12341
▁Peter	-9.12343
ari	-9.1249
▁Mac	-9.12561
▁officer	-9.12569
tin	-9.12635
▁once	-9.12659
▁structure	-9.12783
▁eventually	-9.12886
▁Law	-9.12974
▁space	-9.13047
▁involved	-9.13097
▁2005	-9.13127
▁UK	-9.13135
▁bank	-9.13206
mor	-9.13265
▁range	-9.13293
▁white	-9.13321
ice	-9.13346
▁Film	-9.13386
nce	-9.13418
▁Ben	-9.13517
▁Central	-9.1354
▁Christian	-9.13598
▁1994	-9.13692
▁host	-9.13716
ological	-9.1377
▁spent	-9.13896
let	-9.13911
tri	-9.14007
tz	-9.14058
wood	-9.1411
]	-9.14179
▁met	-9.14211
off	-9.14426
ath	-9.14451
▁modern	-9.14463
▁find	-9.14503
▁eight	-9.14674
▁scored	-9.14768
▁Europe	-9.14824
lla	-9.14861
▁island	-9.14878
▁Mary	-9.1505
▁study	-9.1513
▁writing	-9.15164
▁leading	-9.15228
▁Je	-9.15267
▁leader	-9.15332
▁does	-9.15355
▁Chi	-9.15373
▁list	-9.15388
ren	-9.15396
▁test	-9.15423
ug	-9.15507
▁features	-9.15643
▁female	-9.15654
▁writer	-9.15674
▁Han	-9.15683
▁Festival	-9.15811
▁1992	-9.15823
ok	-9.15875
▁attack	-9.16014
▁Va	-9.16055
▁Sir	-9.16221
ome	-9.16366
nk	-9.16407
▁ft	-9.16481
▁taken	-9.16497
▁senior	-9.16541
▁Service	-9.1656
▁route	-9.16563
berg	-9.16565
lar	-9.16629
ö	-9.16793
▁class	-9.16798
je	-9.1682
▁reported	-9.1694
▁Bro	-9.17001
▁summer	-9.172
▁31	-9.17587
▁professor	-9.17676
▁Ver	-9.17777
▁Japan	-9.17852
▁character	-9.17931
ore	-9.17932
▁Bas	-9.18002
▁although	-9.18008
▁base	-9.18044
ip	-9.18126
▁fall	-9.18257
▁2018	-9.1828
▁China	-9.184
▁replaced	-9.18404
▁Ki	-9.18427
▁Gra	-9.18478
—	-9.18585
▁Richard	-9.1888
▁sent	-9.18897
▁50	-9.18901
▁Committee	-9.18924
▁front	-9.18955
▁songs	-9.19056
▁Com	-9.19109
▁wide	-9.19129
▁real	-9.19248
▁Director	-9.19271
house	-9.19367
▁date	-9.19524
▁sea	-9.19528
cha	-9.1958
ile	-9.19589
ino	-9.19628
vis	-9.19652
▁Ph	-9.19758
▁2015,	-9.19833
▁2010,	-9.2027
▁Ch	-9.20398
13	-9.20446
▁My	-9.20551
▁pi	-9.20591
▁2014,	-9.20697
▁events	-9.20709
▁Henry	-9.20719
▁Los	-9.20937
▁performance	-9.2097
ors	-9.21065
▁trade	-9.21083
▁2016,	-9.2123
▁throughout	-9.21359
ple	-9.21422
ped	-9.21462
(	-9.21506
▁books	-9.21582
▁2012,	-9.21616
▁sister	-9.21708
her	-9.21735
ku	-9.21794
▁1993	-9.21922
▁includes	-9.21929
of	-9.21934
iv	-9.21971
▁changed	-9.22017
▁store	-9.22161
ius	-9.22202
▁Ya	-9.22269
ec	-9.22293
▁2013,	-9.2232
▁see	-9.22336
▁case	-9.22426
▁husband	-9.22426
60	-9.22432
▁rest	-9.22435
▁Min	-9.22501
pro	-9.22504
▁Western	-9.22534
▁ran	-9.22594
▁Italian	-9.2261
▁strong	-9.22668
▁Grand	-9.22717
▁Russian	-9.22803
▁decided	-9.2298
▁medal	-9.22996
▁2017,	-9.23038
▁common	-9.23147
▁2011,	-9.23217
ett	-9.2346
▁low	-9.23648
▁tra	-9.23747
▁areas	-9.23876
tur	-9.23885
vers	-9.23888
▁African	-9.23897
▁added	-9.23919
▁though	-9.24202
▁1991	-9.24212
▁goal	-9.24241
▁Sha	-9.24319
▁candidate	-9.24327
kh	-9.2446
▁Bur	-9.24478
▁lived	-9.24644
led	-9.2469
▁Born	-9.24708
zi	-9.24715
all	-9.24759
ins	-9.24951
don	-9.25099
▁Board	-9.25156
▁Mor	-9.25314
▁placed	-9.25326
ture	-9.25397
40	-9.25486
▁40	-9.25519
lt	-9.25544
ization	-9.25644
rie	-9.25702
ez	-9.25748
▁you	-9.25821
cla	-9.25843
▁championship	-9.25889
ative	-9.26013
▁winning	-9.26082
▁experience	-9.26132
▁ho	-9.26198
fer	-9.2621
q	-9.26338
▁award	-9.26346
part	-9.26492
▁Pu	-9.26501
▁Canadian	-9.26528
mal	-9.2658
▁material	-9.26626
▁studies	-9.26683
▁Ed	-9.26706
▁my	-9.26722
▁put	-9.2675
▁anti	-9.26788
▁how	-9.26798
▁Force	-9.26806
▁Hol	-9.26843
▁Year	-9.26845
▁Fo	-9.26934
ef	-9.26943
▁should	-9.26959
▁provide	-9.26978
80	-9.27018
▁earned	-9.27156
▁artist	-9.27258
av	-9.27269
tre	-9.2746
tes	-9.27478
▁feet	-9.27722
ue	-9.27818
▁largest	-9.27822
25	-9.27827
des	-9.27835
▁ti	-9.27933
▁less	-9.27948
▁Louis	-9.28099
ral	-9.28115
ick	-9.28224
ea	-9.2823
▁Pri	-9.28496
▁Gar	-9.28523
▁older	-9.28591
gre	-9.28596
")	-9.28622
head	-9.28659
▁movie	-9.28753
▁2019	-9.28762
▁tournament	-9.28873
bel	-9.28896
lay	-9.28951
rate	-9.28991
▁2018,	-9.29044
oc	-9.29049
▁personal	-9.29266
▁Following	-9.29278
wo	-9.29283
▁Smith	-9.29288
▁others	-9.29344
▁successful	-9.29353
▁directed	-9.29511
▁via	-9.29728
ara	-9.29777
▁retired	-9.29817
▁Chicago	-9.29837
ified	-9.29838
▁1950	-9.29858
16	-9.29904
ves	-9.29923
▁Catholic	-9.30061
▁Africa	-9.30088
▁2009,	-9.30117
▁above	-9.30148
▁Michael	-9.30239
▁room	-9.30242
▁recording	-9.30412
▁command	-9.30423
ign	-9.30433
int	-9.30777
act	-9.30777
▁seen	-9.30801
nch	-9.30819
▁broadcast	-9.30883
▁cross	-9.31023
▁report	-9.31135
▁1989	-9.31236
▁le	-9.31253
yl	-9.31256
▁Day	-9.31326
art	-9.31366
▁Ve	-9.31429
▁Although	-9.31433
▁Texas	-9.31433
▁length	-9.31562
lia	-9.31637
ather	-9.31676
can	-9.31837
▁Science	-9.31966
▁mm	-9.32009
▁standard	-9.32115
ü	-9.32166
▁network	-9.32168
▁trans	-9.32345
▁shows	-9.32381
tain	-9.32562
shire	-9.3271
▁ge	-9.32738
–1	-9.32745
▁function	-9.32885
ura	-9.32927
▁manager	-9.3311
▁Japanese	-9.33111
▁Port	-9.33197
▁Rock	-9.33213
▁Best	-9.33237
▁Parliament	-9.33303
▁engine	-9.33387
▁gold	-9.33428
ire	-9.33454
▁ne	-9.33462
▁players	-9.33485
▁Angeles	-9.33575
▁Pan	-9.33615
▁whom	-9.33723
ade	-9.33868
uk	-9.33923
▁teacher	-9.3412
▁ta	-9.34206
▁Tra	-9.34518
qua	-9.34541
▁2008,	-9.34563
▁regular	-9.34571
▁studio	-9.3474
sky	-9.34781
▁couple	-9.34815
▁must	-9.3482
ix	-9.34821
▁Sea	-9.35009
vin	-9.35011
ä	-9.3504
▁promoted	-9.35047
su	-9.35124
21	-9.35129
▁health	-9.35202
qu	-9.35204
▁ra	-9.35215
▁editor	-9.35225
▁student	-9.3527
▁owned	-9.35285
▁selected	-9.35302
▁1988	-9.35372
▁provided	-9.35432
war	-9.35636
▁income	-9.35658
▁o	-9.35802
▁1987	-9.35954
▁entered	-9.35956
▁usually	-9.35996
now	-9.36052
▁closed	-9.3613
▁centre	-9.36154
▁need	-9.36156
ō	-9.36179
▁newspaper	-9.36195
pen	-9.36226
▁reached	-9.36276
▁attempt	-9.36286
▁central	-9.36293
▁Za	-9.36302
▁tri	-9.36305
90	-9.36377
par	-9.36415
▁Spanish	-9.36427
▁railway	-9.36434
▁Don	-9.36492
ani	-9.36521
▁Ireland	-9.36529
▁gra	-9.36534
▁Mal	-9.36538
▁Zealand	-9.36614
▁independent	-9.36635
▁families	-9.36694
▁police	-9.36719
▁subject	-9.36872
▁Chinese	-9.36934
▁friend	-9.36977
▁Mr	-9.37009
▁Bank	-9.37144
▁traditional	-9.37197
▁upon	-9.37282
▁Two	-9.37296
ita	-9.37391
▁soon	-9.37404
▁commercial	-9.37506
serv	-9.37525
▁Other	-9.37588
▁action	-9.37637
ious	-9.37638
▁break	-9.37687
▁killed	-9.37833
▁saw	-9.37855
yn	-9.37979
▁review	-9.37994
▁text	-9.38014
nder	-9.38047
▁child	-9.38117
ize	-9.38118
▁aircraft	-9.38135
for	-9.38204
▁night	-9.38231
lon	-9.38312
▁person	-9.3832
back	-9.38351
▁Railway	-9.38357
ris	-9.38426
town	-9.38484
▁paper	-9.38558
▁industry	-9.38667
▁0	-9.3874
▁metres	-9.3875
▁represented	-9.38778
cre	-9.38807
▁lo	-9.38818
▁serving	-9.3889
▁edition	-9.38907
mit	-9.38908
▁come	-9.38913
▁Under	-9.38929
▁becoming	-9.39018
▁information	-9.39028
▁Government	-9.3907
mark	-9.39087
▁Education	-9.39097
win	-9.39184
bin	-9.39193
▁schools	-9.39194
▁Bal	-9.39244
▁Later	-9.39276
▁Shi	-9.39318
▁Super	-9.39318
▁mission	-9.39359
▁Ter	-9.39391
▁beginning	-9.3947
vel	-9.39491
low	-9.39505
ments	-9.39592
ory	-9.3984
▁2007,	-9.39842
▁cap	-9.39861
ised	-9.39952
▁Town	-9.40108
▁access	-9.40409
▁1986	-9.40533
▁Men	-9.40539
Z	-9.4058
▁whose	-9.40627
▁But	-9.40629
▁media	-9.40886
▁famous	-9.40969
19	-9.40992
▁previous	-9.41019
▁Sam	-9.41038
▁red	-9.41086
▁goals	-9.41086
▁Sun	-9.41102
nn	-9.41129
▁Par	-9.41136
▁Martin	-9.41176
▁raised	-9.41245
▁Lord	-9.41293
▁su	-9.41337
sch	-9.41345
▁fourth	-9.41389
ition	-9.41411
▁introduced	-9.41428
▁science	-9.41446
▁sw	-9.41489
2)	-9.41504
▁move	-9.41507
▁gene	-9.41551
ole	-9.41658
ju	-9.41672
▁contains	-9.41695
▁label	-9.41718
▁Cal	-9.41841
▁Records	-9.41909
▁En	-9.4202
▁numerous	-9.42092
▁honor	-9.421
▁Cla	-9.42154
bar	-9.42179
▁Women	-9.42199
ax	-9.42207
ola	-9.42252
▁able	-9.42295
46	-9.42338
▁week	-9.4242
▁brought	-9.42435
▁65	-9.42447
stra	-9.42477
▁matches	-9.42514
▁Italy	-9.42676
▁rank	-9.42773
▁border	-9.42801
▁arm	-9.42838
▁1984	-9.42857
pri	-9.42859
47	-9.43137
▁scene	-9.4317
ase	-9.43179
▁cast	-9.43186
▁cell	-9.43239
▁movement	-9.43404
▁defeated	-9.43421
lli	-9.43436
ria	-9.43445
▁chart	-9.43474
í	-9.43517
70	-9.43639
▁unit	-9.43687
dra	-9.43724
tle	-9.4377
ox	-9.43841
▁launched	-9.43898
▁Bill	-9.43901
▁Brown	-9.43902
▁musical	-9.43906
▁either	-9.43913
▁FC	-9.43951
▁fi	-9.43965
▁subsequently	-9.44067
▁1985	-9.44078
▁Queen	-9.44423
▁acquired	-9.44424
▁Chief	-9.44463
▁Edward	-9.44495
-20	-9.44568
▁fund	-9.4466
▁behind	-9.44692
▁almost	-9.44787
▁owner	-9.44797
▁Fu	-9.4482
worth	-9.44879
–0	-9.44882
over	-9.44885
ces	-9.44915
cal	-9.44935
▁effect	-9.44995
▁ball	-9.45074
▁median	-9.45077
▁firm	-9.45112
▁previously	-9.45134
▁score	-9.45176
▁Kingdom	-9.45432
▁wall	-9.45501
▁Football	-9.45522
oo	-9.4556
mm	-9.45648
▁master	-9.45652
Ma	-9.45657
▁si	-9.45715
▁parents	-9.45756
rt	-9.45772
▁Wales	-9.45787
▁woman	-9.45804
▁chief	-9.4581
▁fellow	-9.45833
▁episode	-9.45853
▁cost	-9.45894
▁producer	-9.45966
based	-9.46017
▁train	-9.46072
▁listed	-9.461
▁Second	-9.46193
▁Republic	-9.46194
▁staff	-9.46218
ions	-9.46222
▁southern	-9.46312
▁taking	-9.46326
▁winner	-9.46352
▁households	-9.46365
▁significant	-9.46412
▁sha	-9.46496
▁assistant	-9.46506
▁far	-9.46573
▁runs	-9.46587
▁Radio	-9.46605
▁Wal	-9.46656
▁che	-9.46664
▁northern	-9.46681
▁change	-9.46705
so	-9.46713
56	-9.46761
▁focus	-9.46782
▁Ku	-9.46934
▁singer	-9.46953
▁cut	-9.47031
!	-9.47032
▁Theatre	-9.47094
-1	-9.47156
▁Joseph	-9.47237
▁Research	-9.47265
▁1983	-9.4732
▁countries	-9.47366
▁claim	-9.47395
▁bus	-9.47457
▁battle	-9.47488
▁natural	-9.47506
▁past	-9.47531
ken	-9.47557
▁Congress	-9.4759
air	-9.47619
▁feature	-9.47672
▁create	-9.47731
▁appearance	-9.47784
▁youth	-9.48072
light	-9.4813
▁opening	-9.48137
ular	-9.48201
ists	-9.48233
▁Championships	-9.48236
▁act	-9.48254
▁[	-9.48306
use	-9.48325
▁primary	-9.48479
▁Public	-9.4849
▁Greek	-9.48518
▁artists	-9.48553
▁Land	-9.48614
▁hospital	-9.48638
▁surface	-9.48673
▁semi	-9.48705
iz	-9.4873
▁organ	-9.48835
ette	-9.48838
▁Assembly	-9.48845
▁letter	-9.49042
hal	-9.49176
▁lower	-9.49178
▁1982	-9.49205
▁loss	-9.49251
▁property	-9.49376
▁fe	-9.494
▁super	-9.49407
my	-9.49417
burg	-9.49463
▁ever	-9.49481
mun	-9.49566
lum	-9.49588
▁(2	-9.49594
len	-9.49624
18	-9.49629
mann	-9.49644
▁Prince	-9.49688
▁appearances	-9.49721
▁prison	-9.49769
▁stand	-9.49844
▁operation	-9.49849
▁Val	-9.49885
▁Dan	-9.49891
′	-9.49922
lip	-9.50001
▁Mag	-9.50023
99	-9.50155
vent	-9.50175
▁department	-9.5023
▁Most	-9.50244
▁meeting	-9.50259
▁sound	-9.50266
pper	-9.50284
cul	-9.50296
▁fact	-9.50335
lit	-9.50348
58	-9.50422
▁Q	-9.50522
lam	-9.50544
▁Virginia	-9.50545
hen	-9.50586
▁females	-9.5064
▁rate	-9.50843
▁Sp	-9.50971
istic	-9.50992
▁Tre	-9.51024
▁2006,	-9.51114
cker	-9.51132
mu	-9.51173
▁month	-9.51193
▁cor	-9.51271
▁boy	-9.51272
▁1979	-9.51345
▁ob	-9.51359
▁outside	-9.51474
mes	-9.51478
ability	-9.51487
▁Commission	-9.51564
▁nine	-9.51648
ved	-9.51675
▁Pla	-9.51676
▁hard	-9.51706
ugh	-9.51802
bre	-9.52002
ano	-9.52033
▁ended	-9.52101
stone	-9.52211
▁Nor	-9.52264
▁figure	-9.52318
ski	-9.52333
▁bridge	-9.52349
▁least	-9.52369
▁Vo	-9.5243
tern	-9.52461
▁grew	-9.52474
▁na	-9.52506
▁2,	-9.52536
▁helped	-9.52689
▁buildings	-9.52795
98	-9.52834
ini	-9.52865
▁Professor	-9.52871
▁Wood	-9.52981
43	-9.53023
▁1972	-9.53037
▁parish	-9.53079
▁partner	-9.53254
▁Old	-9.53289
▁money	-9.53344
▁films	-9.53346
▁street	-9.53362
long	-9.53436
▁transferred	-9.53442
▁minor	-9.53496
aw	-9.53558
ib	-9.5356
▁running	-9.53613
▁serve	-9.53629
▁shot	-9.53673
35	-9.53757
▁cover	-9.53942
95	-9.53967
▁little	-9.53968
▁Valley	-9.53973
ux	-9.53977
▁actor	-9.54038
▁account	-9.54067
cher	-9.54069
▁Blue	-9.54133
▁Dar	-9.54362
▁units	-9.54409
▁1930	-9.54556
▁annual	-9.54567
▁mountain	-9.54571
graph	-9.54596
uff	-9.54598
tru	-9.54671
▁gun	-9.54783
24	-9.54893
▁camp	-9.54893
▁1981	-9.54921
▁Mark	-9.54928
▁1974	-9.54948
▁1945	-9.54976
▁Em	-9.54999
▁instead	-9.55065
unt	-9.55136
▁Creek	-9.55138
yo	-9.55181
▁groups	-9.55182
▁data	-9.55214
ata	-9.55269
spect	-9.55275
▁Work	-9.55289
▁forest	-9.55303
ible	-9.55308
23	-9.55309
▁itself	-9.55363
▁got	-9.55491
▁Er	-9.55538
▁Un	-9.55621
ets	-9.55643
▁platform	-9.55651
cho	-9.55656
01	-9.55685
▁Carl	-9.55709
▁county	-9.55722
▁print	-9.55741
▁1976	-9.55753
og	-9.55777
▁Ram	-9.55794
▁Florida	-9.55796
▁Foundation	-9.55808
▁1978	-9.55813
▁concert	-9.55831
▁economic	-9.55856
▁estate	-9.55901
ric	-9.55953
▁Mad	-9.56098
▁Tom	-9.56112
tta	-9.56138
▁wing	-9.56162
hr	-9.56173
▁management	-9.56215
▁Cho	-9.56254
45	-9.5643
▁Cre	-9.56443
wan	-9.56456
▁approximately	-9.56481
▁Middle	-9.56581
▁politician	-9.56624
sco	-9.56639
▁color	-9.56672
▁Inter	-9.56702
▁Station	-9.56713
▁method	-9.56732
ates	-9.56825
lie	-9.56833
lock	-9.56873
▁renamed	-9.56873
ane	-9.56875
▁operations	-9.56924
ult	-9.56949
▁below	-9.57034
53	-9.57082
▁Christ	-9.57089
teen	-9.57107
▁job	-9.5712
▁meet	-9.57129
▁Mer	-9.57158
▁1940	-9.57207
▁Irish	-9.57312
xi	-9.57335
rup	-9.57364
▁Master	-9.57383
ram	-9.57415
▁block	-9.57416
▁complex	-9.57642
cur	-9.57845
▁future	-9.57861
▁companies	-9.57889
▁rather	-9.579
ping	-9.57975
▁publication	-9.58071
▁Times	-9.58138
▁join	-9.58229
▁Governor	-9.5823
▁stone	-9.5829
▁Mexico	-9.58296
▁1975	-9.58336
▁mile	-9.5834
▁festival	-9.58361
▁capital	-9.58481
fin	-9.58482
bor	-9.58492
▁operated	-9.58512
▁stated	-9.58568
tric	-9.58594
ó	-9.58602
▁rule	-9.58713
▁1977	-9.58717
ye	-9.58769
▁Northern	-9.58797
bro	-9.58849
ew	-9.59174
▁Their	-9.59177
▁initially	-9.59312
▁double	-9.59323
▁Ber	-9.59364
▁plan	-9.59365
▁Book	-9.59365
▁decision	-9.59389
ala	-9.59407
▁prior	-9.59427
▁pl	-9.59437
▁Hospital	-9.59541
▁charge	-9.59553
▁taught	-9.59658
nu	-9.59668
▁Navy	-9.59718
▁participated	-9.59726
▁Bishop	-9.59731
▁flow	-9.59756
▁forces	-9.59787
▁entire	-9.59808
▁university	-9.5988
▁buried	-9.59921
vision	-9.59934
rk	-9.59968
net	-9.60042
▁towards	-9.6006
▁Fort	-9.60098
▁critic	-9.60099
▁census	-9.60166
kar	-9.60171
zo	-9.6026
▁1968	-9.60279
▁nearby	-9.6031
gra	-9.6045
nie	-9.60497
▁idea	-9.60608
▁leaving	-9.60678
▁museum	-9.6069
▁Sh	-9.60714
▁document	-9.60784
▁loan	-9.60868
sha	-9.60875
▁leg	-9.60882
▁Gold	-9.60928
ese	-9.60943
▁sometimes	-9.60953
▁Van	-9.61044
17	-9.61084
▁screen	-9.61238
bra	-9.61242
▁1920	-9.61345
▁1973	-9.61371
▁especially	-9.61397
▁remains	-9.61426
▁separate	-9.61449
▁activities	-9.61473
▁rights	-9.61481
▁sports	-9.61537
▁cause	-9.61578
85	-9.61615
▁1971	-9.61746
28	-9.61751
22	-9.61764
▁council	-9.6187
illa	-9.61893
yard	-9.61933
55	-9.61965
97	-9.62049
ever	-9.62052
▁("	-9.62116
▁male	-9.62145
▁1969	-9.6219
▁possible	-9.62207
▁Southern	-9.62211
▁highest	-9.62238
lor	-9.62282
▁You	-9.62334
col	-9.62381
▁means	-9.62386
▁Battle	-9.62422
▁read	-9.62453
ich	-9.6252
▁Fer	-9.62551
▁Boy	-9.62662
▁starting	-9.62678
are	-9.62802
▁food	-9.62831
cus	-9.62918
▁fight	-9.62923
▁Cu	-9.62977
▁produce	-9.62986
▁Pacific	-9.631
▁Young	-9.63166
▁historical	-9.63168
cro	-9.63192
▁Love	-9.63251
din	-9.63307
▁Pat	-9.63348
uc	-9.63361
ification	-9.63397
▁clear	-9.63435
96	-9.63548
▁para	-9.63562
fu	-9.63663
▁interview	-9.63664
play	-9.63696
▁relationship	-9.63743
▁wood	-9.63788
▁multi	-9.63816
▁Pra	-9.63935
eg	-9.6395
▁imp	-9.64
▁marriage	-9.64079
▁medical	-9.64124
ington	-9.64154
26	-9.64258
▁Oxford	-9.64364
▁Centre	-9.64373
▁issues	-9.64386
▁allowed	-9.64399
late	-9.64425
75	-9.64444
▁vote	-9.64538
die	-9.64554
▁complete	-9.64608
▁earlier	-9.64715
mis	-9.64767
▁Sta	-9.64864
▁lives	-9.64868
▁settlement	-9.64882
▁Win	-9.64911
▁native	-9.6496
▁Order	-9.65002
7%	-9.65007
▁Georgia	-9.65017
▁floor	-9.65081
▁keep	-9.65106
▁Mountain	-9.65199
▁pen	-9.65233
▁Im	-9.65234
TV	-9.65264
▁Line	-9.65273
▁constructed	-9.65439
▁value	-9.65483
▁That	-9.65485
fo	-9.65503
▁related	-9.65504
tation	-9.65512
▁Ac	-9.65574
▁army	-9.65578
08	-9.65592
▁purchased	-9.65597
▁presented	-9.65613
27	-9.65664
▁going	-9.65667
▁founder	-9.6571
▁Its	-9.65713
amp	-9.65758
▁Soviet	-9.65815
▁fan	-9.65903
▁face	-9.65969
▁individual	-9.65986
▁according	-9.66017
▁care	-9.66022
▁champion	-9.66138
▁God	-9.66144
gon	-9.66177
▁reason	-9.66214
▁today	-9.66232
▁measure	-9.6629
▁financial	-9.66304
▁Summer	-9.66377
▁60	-9.66377
▁mainly	-9.664
▁tu	-9.66417
▁culture	-9.66512
88	-9.66568
▁approach	-9.66569
▁mostly	-9.66571
39	-9.66596
▁Lee	-9.66621
?	-9.66635
▁western	-9.66648
tha	-9.66688
▁Nu	-9.66846
fect	-9.66871
▁Comp	-9.66876
▁tower	-9.66919
▁1967	-9.66954
▁covered	-9.66968
▁self	-9.67088
▁Mil	-9.6711
▁bring	-9.67277
31	-9.67288
rit	-9.67351
89	-9.67363
▁build	-9.67445
▁passed	-9.67556
▁exist	-9.67556
▁Boston	-9.67583
▁channel	-9.67591
▁Sc	-9.67659
▁variety	-9.67708
▁middle	-9.67795
09	-9.67839
36	-9.67854
29	-9.67935
▁educated	-9.68012
pic	-9.68038
vil	-9.6808
▁thought	-9.68095
▁consists	-9.68099
mate	-9.68114
In	-9.68128
oon	-9.68183
▁display	-9.68202
37	-9.68252
38	-9.68363
▁legal	-9.68406
+	-9.68408
ologist	-9.68445
bon	-9.68455
aya	-9.68478
▁image	-9.68481
▁Long	-9.68553
▁associated	-9.68566
▁already	-9.68629
78	-9.68651
▁Scotland	-9.68674
▁noted	-9.6876
▁Frank	-9.68845
03	-9.68869
▁word	-9.68901
▁2005,	-9.68929
▁ru	-9.6905
▁Over	-9.69108
▁star	-9.69164
▁Tour	-9.69173
mic	-9.69189
rum	-9.69228
▁45	-9.69241
▁Sho	-9.69261
▁victory	-9.69309
▁receive	-9.69377
pha	-9.6942
▁Yu	-9.69466
iti	-9.69468
▁solo	-9.69536
▁thus	-9.69549
▁Stra	-9.69556
▁website	-9.69577
▁Berlin	-9.69584
▁Luc	-9.69591
▁horse	-9.69602
▁Pennsylvania	-9.69677
▁1964	-9.69683
rio	-9.69702
▁competed	-9.6971
eng	-9.69724
bri	-9.69805
66	-9.69813
76	-9.69814
cor	-9.69869
▁(3	-9.70063
vol	-9.70138
▁fo	-9.70263
▁supported	-9.70316
▁origin	-9.70369
▁Ser	-9.70406
east	-9.70457
▁additional	-9.705
2).	-9.70546
▁Dun	-9.70634
cer	-9.707
&	-9.70706
▁1965	-9.70725
▁cur	-9.70821
del	-9.70838
▁Life	-9.70856
▁Bel	-9.70859
06	-9.70908
▁Tro	-9.70908
rian	-9.7091
ery	-9.70919
▁murder	-9.71033
86	-9.71046
▁2019,	-9.71068
▁sign	-9.71084
49	-9.71099
▁Many	-9.71111
wing	-9.71127
▁takes	-9.71138
▁Columbia	-9.7119
▁require	-9.71272
▁Sub	-9.71289
ero	-9.71363
▁coast	-9.71427
▁king	-9.71438
▁Carolina	-9.71622
non	-9.71671
med	-9.71709
32	-9.71723
▁composed	-9.71753
94	-9.71768
▁institution	-9.7178
burn	-9.71899
az	-9.71959
▁1966	-9.71969
▁Member	-9.71996
▁Bell	-9.72006
▁density	-9.72027
93	-9.72057
▁Team	-9.72105
▁Water	-9.72191
rist	-9.72257
▁Will	-9.72343
▁Bor	-9.72361
▁auto	-9.72406
33	-9.72406
▁prominent	-9.72425
▁Rome	-9.72437
▁Spain	-9.7245
▁higher	-9.72453
▁direct	-9.72466
▁share	-9.72541
▁judge	-9.72557
▁spot	-9.72643
▁give	-9.727
▁minutes	-9.72717
matic	-9.72748
wn	-9.72785
▁Wil	-9.72812
05	-9.72867
79	-9.72945
▁Ste	-9.72981
fra	-9.73007
▁latter	-9.73025
▁tax	-9.7307
▁gl	-9.73081
ón	-9.73083
▁card	-9.73162
▁voice	-9.7318
▁finally	-9.73181
▁Gre	-9.73192
▁format	-9.73213
▁dance	-9.73218
▁quarter	-9.73254
▁assist	-9.73294
▁lu	-9.7335
▁BBC	-9.734
59	-9.73425
▁promotion	-9.73429
▁offered	-9.73526
▁Games	-9.73555
▁Mill	-9.73559
Q	-9.73585
zz	-9.73667
▁purpose	-9.73766
);	-9.73786
west	-9.73794
▁Francisco	-9.73794
▁£	-9.73896
duc	-9.73962
▁brand	-9.73976
▁Jewish	-9.74018
▁1944	-9.74076
07	-9.74235
▁Secretary	-9.74263
▁visit	-9.74329
▁generally	-9.74387
▁parts	-9.74422
▁dedicated	-9.74463
▁foot	-9.74572
▁McC	-9.74587
′′	-9.74587
▁guest	-9.74624
gent	-9.74657
▁influence	-9.74714
▁managed	-9.74937
▁Ban	-9.74978
▁province	-9.75024
▁application	-9.75111
▁Civil	-9.75113
▁required	-9.75141
▁Cro	-9.75219
▁Ye	-9.75224
var	-9.7531
▁cha	-9.75406
34	-9.75461
▁moving	-9.75485
▁programs	-9.75523
lk	-9.75536
41	-9.75611
▁key	-9.75614
04	-9.75647
▁difficult	-9.75652
92	-9.7566
▁exhibition	-9.7567
▁Reg	-9.75675
91	-9.75731
▁hours	-9.7576
▁Cross	-9.75795
▁look	-9.75851
▁3,	-9.75937
bal	-9.75971
▁Tor	-9.76003
▁200	-9.76025
▁minister	-9.76026
▁i	-9.76116
▁larger	-9.76183
▁concern	-9.76186
yer	-9.76203
54	-9.76209
▁alongside	-9.76254
▁carried	-9.76265
ble	-9.76265
▁Sk	-9.76289
▁civil	-9.76405
dor	-9.76412
▁2011.	-9.76465
▁forced	-9.76476
▁pay	-9.76486
▁issue	-9.76501
bury	-9.76542
▁Far	-9.76597
ulation	-9.76599
▁discovered	-9.7668
▁houses	-9.76712
▁Mont	-9.76712
▁ve	-9.76894
▁Home	-9.76905
work	-9.76906
▁Latin	-9.77084
▁computer	-9.77136
▁executive	-9.77214
▁Both	-9.77216
▁Pen	-9.7722
▁Fre	-9.77231
▁port	-9.77237
▁2012.	-9.77254
▁Sydney	-9.77317
▁Ol	-9.77371
eu	-9.77401
68	-9.77462
▁races	-9.77492
cle	-9.77527
▁Olympics	-9.77576
▁Kan	-9.77601
ada	-9.77641
▁1963	-9.77711
▁Big	-9.77727
lly	-9.77777
▁majority	-9.77802
▁(17	-9.77826
▁captain	-9.77874
77	-9.77912
▁seasons	-9.77964
▁pair	-9.77987
▁boat	-9.78023
▁academic	-9.78049
▁mark	-9.78146
▁peak	-9.78176
izing	-9.7818
▁better	-9.78186
▁1946	-9.78226
▁Ohio	-9.78228
▁comment	-9.78231
▁meaning	-9.78233
▁Gal	-9.78235
▁Spring	-9.78253
▁acting	-9.78257
▁branch	-9.78261
af	-9.78299
▁force	-9.78319
final	-9.78356
▁step	-9.78374
44	-9.78393
▁stop	-9.78442
▁musician	-9.78467
ographic	-9.78473
51	-9.78518
▁provides	-9.78544
ena	-9.78575
▁source	-9.78611
▁Cambridge	-9.78618
▁lack	-9.78674
▁teaching	-9.78716
▁Jean	-9.7874
CA	-9.78749
▁Dutch	-9.78753
▁Kar	-9.78785
▁1962	-9.7882
ose	-9.78868
board	-9.78877
▁remaining	-9.78894
▁turned	-9.78896
▁Development	-9.78906
▁Qu	-9.78926
▁1948	-9.78929
▁obtained	-9.78934
MA	-9.78941
▁certain	-9.78996
place	-9.7903
▁Health	-9.79075
tar	-9.79088
52	-9.79096
▁dark	-9.7918
▁Coast	-9.79191
gy	-9.79222
wal	-9.79236
▁responsible	-9.79241
▁2013.	-9.79251
▁box	-9.79252
▁represent	-9.79268
▁architect	-9.79274
▁Democratic	-9.7929
▁succeeded	-9.79297
–18	-9.79328
57	-9.79347
▁Republican	-9.79393
84	-9.79398
▁particularly	-9.79421
▁2010.	-9.79472
aka	-9.79477
▁People	-9.79579
▁pick	-9.79677
▁cre	-9.79774
aries	-9.798
▁squad	-9.79835
chan	-9.79868
▁failed	-9.79912
▁2014.	-9.79925
▁2000,	-9.79949
▁Ci	-9.79982
▁Au	-9.79989
▁Jones	-9.80031
rew	-9.80044
▁custom	-9.80048
87	-9.80075
▁Bla	-9.80113
km	-9.80129
▁Illinois	-9.80154
▁Show	-9.8016
▁Jan	-9.80169
▁Post	-9.8017
▁window	-9.80244
▁males	-9.80278
▁reserve	-9.80323
▁trial	-9.80323
▁Chan	-9.80391
▁heart	-9.80409
▁Final	-9.80436
▁household	-9.80438
stein	-9.8044
▁beat	-9.80525
▁III	-9.80528
▁overall	-9.80543
▁Conference	-9.80586
è	-9.80605
▁chairman	-9.80608
▁specific	-9.80612
▁housing	-9.80658
▁Santa	-9.80675
▁Mount	-9.80694
ida	-9.80701
▁Inc	-9.80705
arch	-9.80713
▁stories	-9.80768
83	-9.80771
▁eastern	-9.80814
gal	-9.80847
ties	-9.80889
▁mu	-9.80929
▁2009.	-9.81043
▁status	-9.81045
▁Russia	-9.81067
▁Del	-9.81068
69	-9.81069
▁product	-9.81085
lem	-9.81131
▁limited	-9.81156
igh	-9.81209
nal	-9.81216
▁guitar	-9.813
▁Jack	-9.81302
▁Yo	-9.8136
▁caused	-9.81372
like	-9.81374
▁Empire	-9.81383
tti	-9.81408
▁da	-9.81418
▁operate	-9.81477
awa	-9.81486
▁technology	-9.81491
▁Office	-9.81493
▁Tal	-9.81738
▁shown	-9.8185
▁painting	-9.8186
▁green	-9.81982
▁Ty	-9.81983
right	-9.82001
42	-9.82046
▁direction	-9.82059
▁Awards	-9.82079
law	-9.82129
dic	-9.82167
▁extended	-9.82204
▁speed	-9.82219
▁longer	-9.82232
▁Ministry	-9.82233
▁Elizabeth	-9.82264
74	-9.82361
▁—	-9.82371
itz	-9.82418
strict	-9.82428
▁states	-9.82442
▁appears	-9.82514
▁Mel	-9.82538
tive	-9.82546
▁hold	-9.82558
▁individuals	-9.82581
▁Eastern	-9.82593
rel	-9.82605
▁systems	-9.82627
67	-9.82642
Ch	-9.82692
▁particular	-9.82727
▁passenger	-9.82731
class	-9.82745
72	-9.82764
ming	-9.82775
▁committee	-9.82793
▁flight	-9.8283
▁1961	-9.8286
81	-9.82862
▁Free	-9.82873
▁friends	-9.82876
▁vehicle	-9.82887
bla	-9.82908
▁More	-9.82927
▁tracks	-9.82959
▁Alexander	-9.83003
▁Michigan	-9.83111
▁recent	-9.83148
▁walk	-9.83194
▁1947	-9.83215
▁theatre	-9.8322
▁drama	-9.83296
▁sur	-9.83305
▁blue	-9.83374
▁machine	-9.83383
▁deep	-9.83461
▁Ken	-9.83494
▁History	-9.83495
dan	-9.83522
▁Camp	-9.83526
▁Route	-9.83541
▁Gri	-9.83543
▁weeks	-9.8357
ob	-9.83624
▁concept	-9.83713
craft	-9.83768
▁Of	-9.83788
▁nominated	-9.83818
▁2015.	-9.83864
▁Massachusetts	-9.83881
lf	-9.83911
▁leaves	-9.83932
mont	-9.83965
ith	-9.83973
▁gu	-9.83994
▁Wo	-9.84
▁poet	-9.84003
▁ancient	-9.84072
▁1942	-9.84102
more	-9.84118
▁Asian	-9.84127
duct	-9.84175
SA	-9.84244
cip	-9.84327
tel	-9.84398
▁Senate	-9.8441
▁ro	-9.84425
02	-9.84449
rin	-9.84488
▁Mat	-9.84517
▁here	-9.84537
▁Scottish	-9.84553
RA	-9.84602
▁programme	-9.84634
▁elections	-9.84674
▁nation	-9.84773
▁cm	-9.84798
IS	-9.84853
▁Britain	-9.84899
ident	-9.84912
▁2016.	-9.84951
▁Maria	-9.85021
▁Top	-9.85055
71	-9.85193
▁Dis	-9.85195
ock	-9.85209
ban	-9.8522
▁notable	-9.8522
hor	-9.85222
set	-9.85229
bert	-9.85261
▁Bon	-9.85272
▁Lau	-9.85297
▁oil	-9.853
▁35	-9.85301
▁commission	-9.85306
ora	-9.8532
▁Corporation	-9.8537
▁draw	-9.8544
▁agent	-9.85496
63	-9.85535
▁done	-9.85583
▁whole	-9.85642
▁Journal	-9.85664
▁multiple	-9.85682
▁temple	-9.85789
▁CD	-9.8579
▁1956	-9.85828
▁2008.	-9.85897
▁composer	-9.85976
▁municipality	-9.86015
▁hall	-9.8604
▁80	-9.8605
▁Bridge	-9.86081
▁poor	-9.86085
cen	-9.86106
▁del	-9.86133
▁Prize	-9.86133
▁Cle	-9.86206
▁question	-9.86207
eb	-9.86214
▁write	-9.86242
▁defend	-9.86278
▁Hy	-9.86284
shed	-9.86292
▁increase	-9.86347
▁religious	-9.86422
▁Ten	-9.86436
▁Library	-9.86449
▁Cra	-9.86467
hn	-9.86507
nam	-9.86594
▁Ze	-9.86617
▁Prime	-9.86617
AC	-9.86624
▁2004,	-9.86652
▁scoring	-9.86694
▁Cat	-9.86741
ced	-9.86749
▁crew	-9.86789
ille	-9.86791
ography	-9.86856
▁Out	-9.86865
▁conference	-9.86887
▁1957	-9.86888
▁Cy	-9.86891
▁Vol	-9.86903
▁gained	-9.86907
▁decade	-9.86918
▁residents	-9.86968
▁1959	-9.8697
61	-9.86987
▁If	-9.87092
▁Jersey	-9.8712
pot	-9.87151
▁officially	-9.87194
▁finish	-9.87236
cular	-9.87256
▁always	-9.8727
▁leave	-9.87283
▁Little	-9.87296
▁seem	-9.87312
▁assigned	-9.87319
▁products	-9.87458
▁society	-9.87468
▁regional	-9.87499
▁claimed	-9.87509
pan	-9.87553
▁characters	-9.87591
cia	-9.876
▁fr	-9.87629
▁upper	-9.87636
put	-9.87658
yan	-9.87661
▁1943	-9.87683
▁defeat	-9.87693
▁referred	-9.8774
▁System	-9.8779
▁mine	-9.87818
▁1958	-9.8782
▁bought	-9.87849
▁nu	-9.87852
▁fish	-9.87869
▁recently	-9.87877
char	-9.87969
dale	-9.87973
▁plays	-9.87994
▁page	-9.8802
ray	-9.88036
ural	-9.88069
▁1941	-9.88071
▁Scott	-9.88081
▁want	-9.881
▁Castle	-9.88102
▁object	-9.88135
ā	-9.88141
▁Pol	-9.88147
▁pop	-9.88204
▁Not	-9.8823
vert	-9.8824
▁/	-9.88266
š	-9.88317
▁Rose	-9.88334
pu	-9.88404
pon	-9.8843
82	-9.88441
▁Lar	-9.88448
▁Sol	-9.88478
▁lake	-9.88541
▁projects	-9.88565
▁Duke	-9.88626
▁arch	-9.88647
▁volume	-9.88675
▁Business	-9.88702
▁1939	-9.88706
▁Trans	-9.88762
▁spread	-9.88782
▁distance	-9.88802
▁sh	-9.88833
án	-9.88843
▁township	-9.88861
▁$1	-9.88898
▁campus	-9.88941
▁believed	-9.88942
struct	-9.88947
▁Son	-9.88972
▁Lin	-9.88987
ua	-9.89009
62	-9.89045
ough	-9.89045
▁spring	-9.89051
ute	-9.89095
▁Ann	-9.89239
lain	-9.89284
▁Four	-9.89366
▁Premier	-9.89367
▁adult	-9.89404
▁drive	-9.89415
iya	-9.89423
cht	-9.89442
BA	-9.89495
dis	-9.89504
▁titled	-9.89529
73	-9.89531
▁disc	-9.89635
▁Victoria	-9.89656
nny	-9.89689
▁2007.	-9.89787
▁Char	-9.89809
▁know	-9.89872
▁Pakistan	-9.89896
ama	-9.89903
lea	-9.89915
aging	-9.89953
▁refer	-9.89964
▁gr	-9.89999
▁Fri	-9.9007
2),	-9.90084
▁Census	-9.90092
▁Good	-9.90122
▁offers	-9.90129
ame	-9.90204
▁Bri	-9.90263
ati	-9.90316
▁comes	-9.90338
▁library	-9.90338
–20	-9.90355
▁vocal	-9.90418
▁association	-9.90462
▁2017.	-9.90548
▁nearly	-9.9061
▁castle	-9.90625
gni	-9.90666
cell	-9.90713
▁Technology	-9.90737
▁arrived	-9.90763
▁prevent	-9.90786
▁Bureau	-9.90796
▁detail	-9.9082
▁increased	-9.90839
atory	-9.90973
▁reference	-9.90998
▁Johnson	-9.91008
▁Adam	-9.91039
▁Toronto	-9.91042
▁retirement	-9.91063
▁basketball	-9.91087
ency	-9.91094
▁Open	-9.91114
wer	-9.91128
▁connect	-9.91147
▁Tru	-9.91179
rac	-9.91221
ack	-9.91228
▁split	-9.91236
water	-9.91242
room	-9.9125
▁Williams	-9.91258
bul	-9.91328
▁mill	-9.91534
▁Song	-9.91552
▁trip	-9.91625
▁too	-9.91635
▁hill	-9.91656
cial	-9.91665
▁Despite	-9.91717
▁1949	-9.91747
▁1955	-9.91778
▁eye	-9.91818
▁code	-9.91851
▁Ash	-9.91942
▁str	-9.91948
▁metal	-9.91975
spir	-9.92001
nom	-9.92002
▁probably	-9.92064
▁user	-9.92064
▁Highway	-9.92077
▁twice	-9.92087
▁silver	-9.92116
▁graduate	-9.92132
▁Fra	-9.92142
▁Also	-9.92159
▁Avenue	-9.92161
ree	-9.92201
▁Press	-9.92219
ned	-9.92236
▁grade	-9.92277
▁Kong	-9.92282
▁Major	-9.92284
▁Sto	-9.92309
▁principal	-9.92344
▁1954	-9.92358
ella	-9.92415
▁younger	-9.92424
▁cultural	-9.92464
ave	-9.92483
▁primarily	-9.92522
▁Ven	-9.92542
▁Ham	-9.92544
▁attend	-9.9255
sey	-9.92585
▁pass	-9.92591
point	-9.92611
▁conducted	-9.92682
▁allow	-9.92706
▁Sur	-9.9273
pping	-9.92741
▁continues	-9.92747
▁perform	-9.92761
mond	-9.92862
▁USA	-9.92927
▁online	-9.92947
▁Up	-9.93005
а	-9.93022
48	-9.93026
▁appear	-9.93028
▁Junior	-9.93109
▁plans	-9.93143
▁Each	-9.9316
▁amount	-9.93191
rid	-9.93247
▁mentioned	-9.93248
▁Justice	-9.9329
▁transport	-9.93296
▁bra	-9.93327
▁treat	-9.93342
▁journalist	-9.93351
▁1952	-9.93368
gel	-9.93371
ably	-9.93371
thi	-9.93386
oli	-9.93396
▁problems	-9.93405
▁Program	-9.93414
▁terms	-9.93493
▁mass	-9.93514
▁poem	-9.93565
▁Miss	-9.93569
ense	-9.93574
mmer	-9.93606
tom	-9.93626
▁fifth	-9.93641
▁Sand	-9.93708
▁bomb	-9.93717
▁capacity	-9.93727
▁hotel	-9.93734
▁representative	-9.9375
cycl	-9.93751
▁press	-9.93775
▁Hong	-9.93787
▁Mus	-9.9382
▁changes	-9.93844
▁Arab	-9.93854
▁Andrew	-9.9387
ique	-9.94016
▁featuring	-9.94024
▁serves	-9.94183
▁Gro	-9.94245
ect	-9.94257
sol	-9.94312
▁facilities	-9.94327
▁#	-9.9443
▁continue	-9.94442
▁Asia	-9.94529
dar	-9.9455
▁settled	-9.94558
American	-9.94569
▁Max	-9.9459
▁themselves	-9.94602
▁chair	-9.94607
▁1953	-9.9462
▁gas	-9.94628
▁transfer	-9.94722
▁stream	-9.94762
pre	-9.94771
▁foreign	-9.94793
▁occasion	-9.94794
▁priest	-9.94806
▁Polish	-9.94913
La	-9.94969
tte	-9.9499
▁mis	-9.95
▁birth	-9.95049
stan	-9.95093
▁develop	-9.95108
▁44	-9.95249
▁shop	-9.95268
▁proposed	-9.95334
▁organized	-9.95365
▁divided	-9.95367
▁portion	-9.95394
▁joint	-9.95519
▁uses	-9.95564
▁painter	-9.95567
▁Province	-9.95572
▁citizen	-9.9562
gh	-9.95631
cra	-9.95643
▁newly	-9.95728
▁disease	-9.95732
▁Francis	-9.95816
▁federal	-9.95821
▁hosted	-9.95831
ising	-9.95835
▁grow	-9.95898
era	-9.95917
▁1951	-9.95934
▁Br	-9.96032
kov	-9.96161
▁Arm	-9.96239
▁fine	-9.96264
▁Earl	-9.96272
▁destroyed	-9.96309
▁suggest	-9.96327
▁Vice	-9.96408
▁initial	-9.9641
vest	-9.9642
CC	-9.96507
▁theory	-9.96516
▁enough	-9.96546
▁Ger	-9.96566
not	-9.96624
▁Sports	-9.96648
lle	-9.96704
▁Rob	-9.96712
▁64	-9.96888
▁24,	-9.96912
▁situated	-9.96917
ient	-9.96921
▁Another	-9.9696
▁Tan	-9.97005
ify	-9.97047
list	-9.97071
top	-9.9708
tsu	-9.97096
loc	-9.97105
65	-9.97123
▁pilot	-9.97162
▁contribution	-9.97187
▁expanded	-9.97206
ø	-9.9735
▁Ly	-9.9736
▁Tur	-9.97388
▁prize	-9.97431
▁follow	-9.97442
▁Before	-9.97488
zar	-9.97513
och	-9.97518
▁awards	-9.97589
▁Between	-9.97639
▁Wisconsin	-9.97657
▁permanent	-9.97687
ball	-9.97698
▁removed	-9.9773
▁issued	-9.9775
gor	-9.97801
▁content	-9.97837
▁surrounding	-9.97899
rap	-9.97951
▁Three	-9.97979
lot	-9.98053
▁van	-9.98066
▁percent	-9.98114
▁cho	-9.98118
▁1918	-9.98333
▁engineer	-9.98403
▁journal	-9.98404
uck	-9.98406
▁Joe	-9.98438
▁establish	-9.98444
▁records	-9.98447
poli	-9.98501
▁junior	-9.98536
▁acres	-9.98568
▁garden	-9.9858
▁Cri	-9.98583
▁evidence	-9.98634
▁Norwegian	-9.98664
▁alone	-9.9876
▁makes	-9.98784
▁Jackson	-9.98808
press	-9.98813
▁column	-9.98817
▁asked	-9.98879
▁lot	-9.98887
dal	-9.98916
▁opera	-9.98965
▁Light	-9.98985
▁Band	-9.98987
stead	-9.99134
zu	-9.99137
▁Part	-9.99142
▁restaurant	-9.99184
pet	-9.99191
▁commissioned	-9.99211
▁lines	-9.99247
▁consider	-9.99288
rant	-9.99304
▁nature	-9.99331
▁search	-9.99497
▁extra	-9.99502
▁heavy	-9.99506
nel	-9.99558
▁Federal	-9.99602
▁Mari	-9.99655
▁forms	-9.99674
▁results	-9.99716
▁talk	-9.99722
run	-9.99868
gro	-9.99892
▁Among	-9.99946
▁1938	-9.99962
profit	-9.99965
▁Head	-10
▁tradition	-10.0012
▁Swedish	-10.004
▁foundation	-10.0044
ridge	-10.0045
▁scholar	-10.0046
nan	-10.0053
▁reach	-10.0057
▁describe	-10.0066
tress	-10.0068
pal	-10.007
▁escape	-10.0073
kan	-10.0079
meter	-10.008
▁attention	-10.0084
▁Daniel	-10.0084
▁path	-10.0086
▁coming	-10.0087
▁big	-10.009
▁Israel	-10.0091
▁our	-10.0095
▁energy	-10.01
▁policy	-10.0103
▁Ali	-10.0107
▁respect	-10.0111
▁2018.	-10.012
▁edge	-10.0121
▁par	-10.0122
▁Olympic	-10.0133
ost	-10.0137
▁Gen	-10.0139
dia	-10.0139
bit	-10.0142
▁bishop	-10.0147
▁Medical	-10.0149
▁quickly	-10.0151
▁2003,	-10.0152
gam	-10.0155
▁shape	-10.0156
▁holds	-10.0158
▁2006.	-10.0165
dicate	-10.0167
tten	-10.017
▁suffered	-10.0172
▁70	-10.0174
borough	-10.0175
▁Ontario	-10.0175
FC	-10.0179
▁facility	-10.0184
▁aged	-10.0184
▁Corps	-10.0185
▁highly	-10.0189
▁basis	-10.0191
▁despite	-10.0193
▁wanted	-10.0201
▁Philadelphia	-10.0201
▁lies	-10.0202
▁founding	-10.0203
▁granted	-10.0203
zy	-10.0203
▁smaller	-10.0204
ically	-10.0206
▁Count	-10.0208
▁Media	-10.0209
▁bat	-10.0213
avi	-10.0214
chen	-10.0216
▁governor	-10.0221
▁kilometres	-10.0221
▁accident	-10.0226
tty	-10.0228
▁von	-10.023
▁graduating	-10.0235
vic	-10.0236
▁begins	-10.0237
▁entitled	-10.0239
▁1936	-10.0246
anda	-10.0256
ene	-10.0268
▁traffic	-10.0268
▁Fair	-10.0278
▁Field	-10.0278
▁Hor	-10.0282
▁directly	-10.0287
▁response	-10.0288
▁Forest	-10.0289
▁Medal	-10.029
▁90	-10.0291
▁emb	-10.0294
▁effective	-10.0304
▁bass	-10.0306
▁contemporary	-10.0307
▁Cur	-10.0314
▁enter	-10.0328
ncing	-10.033
▁em	-10.0334
▁Girl	-10.0335
▁progress	-10.0336
▁Series	-10.0351
▁dead	-10.0362
▁Class	-10.0362
▁Albert	-10.0363
▁launch	-10.0365
▁technique	-10.0367
▁literature	-10.037
▁Jr	-10.0371
▁fast	-10.0374
▁accepted	-10.0374
▁immediately	-10.0374
cord	-10.0375
▁(4	-10.0376
▁Ball	-10.0376
▁Clark	-10.0381
▁Dor	-10.0386
▁union	-10.039
▁Studies	-10.0395
ash	-10.0395
▁returning	-10.0396
▁doctor	-10.0396
acy	-10.0397
▁depict	-10.0403
▁stay	-10.0405
▁cru	-10.0405
▁32	-10.0413
ky	-10.0414
▁challenge	-10.0417
▁mayor	-10.0419
▁normal	-10.0422
ula	-10.0424
wick	-10.0426
▁highway	-10.0429
▁positive	-10.0435
▁performing	-10.044
▁mini	-10.0443
▁relation	-10.0446
hin	-10.0453
▁physical	-10.0454
▁epi	-10.0458
▁Social	-10.0461
▁think	-10.0462
▁audience	-10.0467
▁‘	-10.0469
▁promote	-10.0473
64	-10.0481
▁Sin	-10.0481
ject	-10.0484
▁Night	-10.0485
▁Philip	-10.0486
vid	-10.0489
▁injury	-10.0498
▁colour	-10.0505
▁map	-10.0508
▁Ag	-10.0519
▁Ran	-10.0524
▁Lady	-10.0528
▁link	-10.0529
▁Main	-10.0534
quar	-10.0544
▁Ren	-10.0548
▁Tar	-10.0552
▁Cam	-10.0556
ér	-10.0558
▁planned	-10.0562
▁chosen	-10.0564
▁operating	-10.0565
▁1937	-10.0566
▁composition	-10.0569
dri	-10.0573
▁log	-10.0577
▁yellow	-10.058
▁Studio	-10.058
▁target	-10.0587
hol	-10.0588
▁intended	-10.0595
▁administration	-10.0596
▁Network	-10.0596
▁1919	-10.0597
▁skill	-10.0602
▁spoke	-10.0602
▁girl	-10.0612
▁treatment	-10.0616
▁Place	-10.0618
ott	-10.0622
▁twenty	-10.0623
▁door	-10.0624
▁request	-10.0625
▁Sciences	-10.063
▁Pop	-10.063
ctic	-10.0633
▁entrance	-10.0633
▁rare	-10.0637
Ro	-10.0645
▁broad	-10.0646
▁hundred	-10.0651
▁prop	-10.0658
▁trail	-10.0659
▁Mir	-10.0675
▁kind	-10.0683
▁inside	-10.0687
aga	-10.069
tribu	-10.0696
▁drug	-10.0697
▁joining	-10.0698
▁constituency	-10.0711
gate	-10.0711
ato	-10.0718
▁Netherlands	-10.0721
itu	-10.0722
▁Mur	-10.0723
▁potential	-10.0724
cast	-10.073
▁device	-10.0732
–2	-10.0734
▁instrument	-10.0736
▁Community	-10.0741
-2	-10.0742
▁500	-10.0746
▁spec	-10.0746
style	-10.0748
▁pitch	-10.0751
▁might	-10.0753
▁creation	-10.0756
hl	-10.0756
▁reflect	-10.0759
▁roof	-10.0759
▁Today	-10.0761
▁Dam	-10.0767
▁widely	-10.0777
▁credit	-10.0779
▁giving	-10.0781
ister	-10.0782
zer	-10.0786
vy	-10.079
▁1929	-10.0794
▁saying	-10.0795
▁roles	-10.0797
▁era	-10.08
eo	-10.0802
hop	-10.0802
▁connection	-10.0803
pression	-10.0812
▁brothers	-10.0815
▁adopted	-10.0823
rough	-10.083
▁Var	-10.0836
и	-10.0837
▁Captain	-10.084
▁cities	-10.0842
▁digital	-10.0846
▁Tha	-10.0847
▁MP	-10.0847
▁narrow	-10.0851
with	-10.0854
maker	-10.0854
▁recover	-10.0856
▁votes	-10.0858
ught	-10.0858
py	-10.0862
▁Trust	-10.0862
▁connected	-10.0862
▁Champion	-10.0863
▁Shar	-10.0868
▁Stephen	-10.0868
▁brown	-10.0874
Re	-10.0875
▁Special	-10.0879
known	-10.088
▁Prior	-10.0883
▁agreement	-10.0884
▁recognized	-10.0884
▁table	-10.0885
▁corner	-10.0885
▁performances	-10.0887
▁Para	-10.0887
▁height	-10.0887
met	-10.0891
▁vo	-10.0894
▁1935	-10.0895
pla	-10.0907
▁designated	-10.0908
▁compete	-10.0909
-18	-10.0912
▁maintain	-10.0912
▁Gene	-10.0916
▁bird	-10.0916
▁winter	-10.0917
▁critical	-10.0919
mid	-10.0919
▁Moscow	-10.0926
▁session	-10.0928
▁vice	-10.0931
▁Power	-10.0937
▁resigned	-10.0938
tical	-10.094
▁troops	-10.094
▁Point	-10.095
▁merged	-10.095
rich	-10.0953
▁Op	-10.0957
▁Sweden	-10.0961
▁airport	-10.0961
▁tree	-10.0963
▁Like	-10.0964
▁Poland	-10.0965
▁demand	-10.0966
▁actress	-10.0967
▁Philippine	-10.0968
▁article	-10.0968
ona	-10.0969
▁ver	-10.0972
▁sand	-10.0986
▁goes	-10.0988
Le	-10.0992
▁collect	-10.0996
▁inspired	-10.0998
▁Sil	-10.1
▁Cemetery	-10.1
▁cancer	-10.1004
▁unique	-10.101
▁software	-10.1013
▁correspond	-10.1014
temp	-10.1017
heim	-10.1018
EC	-10.1026
▁Earth	-10.1027
▁ste	-10.1031
▁fell	-10.1031
▁Hay	-10.1032
▁protect	-10.1038
▁save	-10.1042
▁respectively	-10.1054
▁Liberal	-10.1054
▁equal	-10.1055
udi	-10.1056
▁Spe	-10.1061
▁picture	-10.1078
▁Jim	-10.1081
▁App	-10.1086
▁fiction	-10.1089
▁address	-10.1091
▁politics	-10.1091
▁Officer	-10.1099
mus	-10.1099
ace	-10.1102
▁classes	-10.1103
PA	-10.1108
▁sat	-10.111
sburg	-10.111
star	-10.1113
▁extend	-10.1114
hill	-10.112
Ba	-10.112
▁elements	-10.1121
ulated	-10.1121
▁36	-10.1126
▁chance	-10.1128
▁sport	-10.1133
▁told	-10.1135
▁Sunday	-10.1136
▁BC	-10.1142
▁reviews	-10.1143
member	-10.1144
▁providing	-10.1149
▁secret	-10.1151
▁yards	-10.1154
fri	-10.116
▁2002,	-10.1165
▁broke	-10.1172
▁Week	-10.1187
▁cat	-10.1188
▁industrial	-10.119
▁1917	-10.1191
č	-10.1193
gram	-10.1195
▁conditions	-10.1198
▁yet	-10.1203
▁watch	-10.1204
▁1914	-10.1212
reg	-10.1221
▁gain	-10.1223
▁tele	-10.1225
▁kill	-10.1226
▁Economic	-10.1229
▁articles	-10.1231
▁engineering	-10.1233
tting	-10.124
▁dia	-10.1244
▁documentary	-10.1244
tract	-10.1249
▁cases	-10.125
▁1933	-10.1252
▁Play	-10.1253
election	-10.1253
▁reform	-10.1254
▁Human	-10.1255
▁quality	-10.126
▁secondary	-10.1263
AA	-10.1264
▁secretary	-10.1267
▁rural	-10.1268
▁exchange	-10.1268
▁equipment	-10.1269
cri	-10.127
▁Opera	-10.1275
▁Eng	-10.1275
vor	-10.1277
▁Mid	-10.1279
arm	-10.1279
▁growth	-10.1283
▁Pope	-10.1287
▁patient	-10.1294
AR	-10.1296
▁Revolution	-10.1297
▁flu	-10.1299
fl	-10.1301
rick	-10.1306
mel	-10.1308
▁wind	-10.131
▁protein	-10.1312
ware	-10.1314
▁Time	-10.1314
▁remain	-10.1317
▁Jane	-10.132
▁revealed	-10.1321
hood	-10.1322
▁forward	-10.1322
▁1928	-10.1326
▁environment	-10.1328
▁ski	-10.1331
▁commander	-10.1338
ional	-10.1338
▁1934	-10.1343
▁Edinburgh	-10.1345
▁Fall	-10.1345
nia	-10.135
▁comedy	-10.1353
▁explain	-10.1355
▁Beach	-10.1362
▁micro	-10.1375
▁piece	-10.1377
▁2001,	-10.1379
▁Euro	-10.1383
get	-10.1386
▁(16	-10.1388
cel	-10.1391
200	-10.1393
▁Bob	-10.1396
pin	-10.1399
▁End	-10.14
▁pri	-10.1403
pher	-10.1415
▁Wilson	-10.1421
▁matter	-10.1423
▁finishing	-10.1423
▁covers	-10.1426
▁ju	-10.1433
▁likely	-10.1446
ç	-10.145
ution	-10.145
▁formation	-10.1455
▁contributed	-10.1458
cade	-10.146
▁losing	-10.1461
▁flat	-10.1464
AM	-10.1467
dle	-10.1469
▁security	-10.1476
▁photo	-10.1485
▁fer	-10.1491
▁Arthur	-10.1491
▁license	-10.1491
▁Taylor	-10.1497
▁Kh	-10.1499
▁Affairs	-10.1499
▁Qui	-10.1508
▁enjoy	-10.1512
▁Cape	-10.1514
▁1900	-10.1515
book	-10.1522
▁Melbourne	-10.1522
▁mixed	-10.1523
▁Airport	-10.1523
ttle	-10.153
▁bear	-10.1532
▁photograph	-10.1537
▁growing	-10.1539
▁Bachelor	-10.1546
▁leadership	-10.1546
▁valley	-10.1548
unk	-10.1557
▁1910	-10.1565
mination	-10.1566
▁organisation	-10.1566
▁someone	-10.1567
▁activity	-10.1569
▁1922	-10.157
▁ice	-10.1572
▁1924	-10.1572
▁Iran	-10.1575
une	-10.1577
▁Kra	-10.1581
▁survey	-10.1583
▁efforts	-10.1584
▁captured	-10.1591
▁Davis	-10.1592
▁Down	-10.1592
under	-10.1593
▁Village	-10.1595
▁Supreme	-10.1597
nell	-10.1597
▁increasing	-10.1603
▁Police	-10.1606
dom	-10.1609
▁Bat	-10.1609
▁honour	-10.1616
▁Design	-10.1619
▁contact	-10.1619
fre	-10.1626
▁kept	-10.1629
▁piano	-10.1629
▁Magazine	-10.1629
▁Fellow	-10.1633
▁2005.	-10.1638
century	-10.1642
SC	-10.1642
▁Gla	-10.1645
▁Executive	-10.1645
bur	-10.1646
▁1927	-10.1647
▁limit	-10.1651
IT	-10.1653
▁arrested	-10.1655
▁etc	-10.1656
▁signal	-10.1659
▁Garden	-10.1661
▁confirmed	-10.1668
▁feed	-10.1671
nar	-10.1674
ico	-10.1676
▁incorporated	-10.1678
▁oldest	-10.1679
gger	-10.1683
▁1931	-10.1685
▁Country	-10.1687
▁dr	-10.1692
ova	-10.1692
▁vessel	-10.1699
0.0	-10.1701
▁Engineering	-10.1711
▁Nations	-10.1716
▁Phil	-10.1719
▁strip	-10.1719
ava	-10.1719
print	-10.1721
▁invited	-10.1721
▁pin	-10.1725
ien	-10.1725
▁Representative	-10.1725
▁employee	-10.1726
▁Zo	-10.1727
▁factor	-10.1731
▁Kat	-10.1732
▁Ana	-10.1741
▁historian	-10.1753
read	-10.1755
▁poly	-10.1759
▁bronze	-10.1759
▁sal	-10.1762
▁contest	-10.1762
▁Clo	-10.1767
▁Kal	-10.177
▁Angel	-10.1771
▁headquarters	-10.1771
▁1923	-10.1777
▁sales	-10.1778
▁Management	-10.1783
▁Missouri	-10.1788
▁1932	-10.1788
▁setting	-10.1789
eva	-10.1791
▁declared	-10.1795
▁Tim	-10.1796
▁Mike	-10.1796
▁scientific	-10.1803
▁Anti	-10.181
▁Liber	-10.1815
uri	-10.1817
una	-10.1819
▁stars	-10.1821
dding	-10.1822
▁syn	-10.1822
▁combined	-10.1823
eau	-10.1824
▁Cel	-10.1826
Co	-10.1828
▁Township	-10.1831
▁literary	-10.1831
▁Muslim	-10.1832
▁words	-10.1836
▁daily	-10.1843
▁bad	-10.1844
▁trained	-10.1848
▁fair	-10.1849
▁Atlantic	-10.1849
▁bill	-10.1855
▁soldiers	-10.1855
ller	-10.1857
▁receiving	-10.1858
▁historic	-10.1861
▁EP	-10.1861
▁occur	-10.1861
▁crime	-10.1863
wich	-10.1869
onic	-10.1869
▁driver	-10.1878
▁seek	-10.1879
▁territory	-10.1881
▁grant	-10.1889
▁ships	-10.189
▁simple	-10.1892
sign	-10.1896
▁converted	-10.1898
▁weight	-10.1904
▁shortly	-10.1905
▁Regiment	-10.1907
▁Project	-10.1909
▁Ross	-10.1921
▁Plan	-10.1923
▁Labour	-10.1931
phy	-10.1933
An	-10.1945
▁distribution	-10.1946
▁Game	-10.195
▁generation	-10.195
▁Military	-10.1952
ić	-10.1957
▁typically	-10.1961
▁Federation	-10.1961
ull	-10.1964
▁Orchestra	-10.1967
▁bio	-10.197
pul	-10.1972
▁copies	-10.1973
▁theater	-10.1975
▁Pur	-10.1976
▁et	-10.1979
IA	-10.1981
▁offer	-10.1984
▁problem	-10.1986
bli	-10.1999
▁Sar	-10.2002
▁occurs	-10.2009
▁Cast	-10.2011
▁uncle	-10.2011
ika	-10.2012
▁Anne	-10.2012
▁achieved	-10.2013
▁Simon	-10.2015
▁accept	-10.2016
▁flag	-10.2017
▁Athletic	-10.2024
▁Khan	-10.2025
cient	-10.2026
▁spell	-10.2027
▁rating	-10.2031
▁Chairman	-10.2031
▁Lewis	-10.2034
▁condition	-10.2035
▁orchestra	-10.204
mble	-10.204
▁1921	-10.2052
▁hired	-10.2055
▁Live	-10.2059
▁Ak	-10.206
▁visited	-10.206
▁architecture	-10.2061
▁colon	-10.2063
ault	-10.2064
▁count	-10.2071
▁Due	-10.2071
▁Oak	-10.2074
ature	-10.2075
,500	-10.2078
quo	-10.2081
ré	-10.2082
IC	-10.2087
▁Chris	-10.2096
oph	-10.2099
ST	-10.21
▁poetry	-10.2101
▁Fox	-10.2107
▁slow	-10.211
▁rise	-10.2112
▁Tele	-10.2112
▁stock	-10.2116
▁Korea	-10.2116
▁Memorial	-10.2117
▁Harvard	-10.2127
▁Upon	-10.2128
▁avoid	-10.2132
▁switch	-10.2137
which	-10.2138
▁believe	-10.2143
via	-10.2149
▁Fred	-10.2149
▁singing	-10.2154
▁Ky	-10.2154
▁Marine	-10.2159
ú	-10.2163
▁trains	-10.2163
count	-10.2163
▁1912	-10.2166
▁largely	-10.2167
lies	-10.2173
▁Norway	-10.2174
▁price	-10.2176
▁1925	-10.2181
▁situation	-10.2183
▁neighborhood	-10.2187
▁Sri	-10.2189
circ	-10.2193
▁Roger	-10.2194
▁communities	-10.2196
▁Minnesota	-10.2199
▁serious	-10.2201
cat	-10.2203
▁rival	-10.2215
▁Real	-10.2218
▁Channel	-10.2219
ush	-10.2219
key	-10.2221
▁urban	-10.2235
▁Anna	-10.2235
▁happen	-10.2238
▁partnership	-10.224
▁Wall	-10.2242
▁administrative	-10.2242
▁Dom	-10.2248
bol	-10.2251
▁identified	-10.2252
▁lawyer	-10.2253
writer	-10.2254
FL	-10.2256
▁talent	-10.2259
▁Qua	-10.2263
▁Stone	-10.2265
▁presence	-10.2267
▁Den	-10.227
▁Review	-10.2273
▁Common	-10.2277
▁episodes	-10.2284
▁1926	-10.2284
▁Gallery	-10.2287
hel	-10.2289
LA	-10.229
▁fought	-10.2295
▁agreed	-10.2302
▁holding	-10.2303
▁Bol	-10.2309
▁Hal	-10.2312
▁passes	-10.2313
▁Ji	-10.2318
▁paid	-10.2323
llen	-10.2323
▁diploma	-10.2324
▁comic	-10.2332
▁ring	-10.2335
▁Senior	-10.2335
▁ban	-10.2335
▁inhabitants	-10.234
▁pra	-10.2342
▁Mun	-10.2348
▁actually	-10.235
$	-10.2351
▁whether	-10.2352
eller	-10.2369
▁Fin	-10.237
ado	-10.237
▁convention	-10.237
rig	-10.2372
most	-10.2373
clo	-10.2376
▁ordered	-10.2381
▁sto	-10.2382
mpl	-10.2384
▁learn	-10.2385
▁resulted	-10.2386
▁pursue	-10.2388
▁analysis	-10.2391
▁hair	-10.2393
▁residence	-10.2402
▁peace	-10.2404
lau	-10.2412
radi	-10.2413
▁runner	-10.2422
▁Pin	-10.2431
rise	-10.2432
▁gives	-10.2433
aki	-10.2441
isation	-10.2442
▁temperature	-10.2445
▁Brazil	-10.245
▁sun	-10.2452
▁workers	-10.2453
▁Manchester	-10.2454
▁Because	-10.2455
▁symbol	-10.2456
▁scale	-10.2464
▁Tam	-10.2465
▁Command	-10.2477
▁applied	-10.2478
▁employed	-10.2486
▁Native	-10.2491
table	-10.2495
down	-10.2496
ello	-10.2502
▁creating	-10.2506
▁secure	-10.2509
▁unknown	-10.251
▁ranked	-10.2511
▁Glen	-10.2512
▁Hart	-10.2521
▁seed	-10.2523
▁pun	-10.2524
app	-10.2524
▁slightly	-10.2526
master	-10.2526
▁option	-10.2528
▁Billboard	-10.2533
▁rain	-10.2535
▁damage	-10.2543
BC	-10.2554
He	-10.2555
ffer	-10.2558
▁Walter	-10.2564
AP	-10.2565
▁thousand	-10.257
chu	-10.257
agh	-10.2571
▁op	-10.2574
lim	-10.2575
cut	-10.2579
▁completely	-10.258
chester	-10.2582
▁fun	-10.2583
▁therefore	-10.2586
bot	-10.2594
▁Area	-10.2598
olo	-10.2599
▁fruit	-10.26
▁Knight	-10.2606
▁girls	-10.261
▁contain	-10.2616
nz	-10.2616
weight	-10.2622
▁technical	-10.2622
log	-10.2626
▁33	-10.2627
▁estimated	-10.2627
cio	-10.2627
▁Deputy	-10.263
▁Ray	-10.2632
▁Dra	-10.2632
▁occupied	-10.2632
▁Ocean	-10.2636
▁follows	-10.2641
▁pressure	-10.2645
▁royal	-10.2654
▁impact	-10.2654
▁cricket	-10.2656
▁Stan	-10.2658
ison	-10.2663
▁venue	-10.2664
▁motor	-10.2664
▁paintings	-10.2665
▁Hot	-10.2666
iff	-10.2669
е	-10.267
▁Fire	-10.2672
blo	-10.2674
Li	-10.2678
ception	-10.2695
▁knowledge	-10.2707
▁Just	-10.271
▁lay	-10.271
▁conflict	-10.2712
ID	-10.2712
▁expected	-10.2712
▁meters	-10.2715
▁Doctor	-10.2717
▁Kansas	-10.2718
▁needed	-10.2723
▁guard	-10.2725
▁communication	-10.2727
▁laid	-10.2735
▁trees	-10.2736
mir	-10.2741
II	-10.2745
▁conduct	-10.2745
▁1916	-10.275
о	-10.2751
lov	-10.2751
▁expert	-10.2758
▁Operation	-10.276
▁factory	-10.2773
▁qualified	-10.2775
▁Hotel	-10.2778
▁Jen	-10.2784
astic	-10.2785
▁Dal	-10.2797
▁decide	-10.2799
BS	-10.2799
▁1915	-10.2805
▁survived	-10.2805
▁blood	-10.2808
▁baseball	-10.2812
▁consul	-10.2812
AN	-10.2813
▁buy	-10.2818
▁ride	-10.282
▁spin	-10.2823
▁portray	-10.2825
▁weapon	-10.2826
▁interior	-10.2829
▁Tennessee	-10.2831
▁Player	-10.2834
hand	-10.2837
▁Fame	-10.2838
▁sell	-10.2839
mbo	-10.284
▁frequently	-10.2841
jan	-10.2842
▁starred	-10.2842
▁recommend	-10.2844
▁Beau	-10.2846
▁effort	-10.2851
▁(6	-10.2851
▁producing	-10.2852
▁commonly	-10.2856
TA	-10.2856
▁Kim	-10.2862
ific	-10.2863
▁strength	-10.2865
▁counter	-10.2869
▁sculpture	-10.2874
▁Temple	-10.2885
▁mono	-10.2887
ele	-10.2891
cept	-10.2892
cap	-10.2892
▁affair	-10.291
▁allows	-10.291
▁Dublin	-10.2913
western	-10.2914
pose	-10.2916
▁collaboration	-10.2917
▁don	-10.2922
▁marked	-10.2923
▁rich	-10.2925
▁tall	-10.293
rom	-10.2932
▁Jacob	-10.2933
tag	-10.2934
▁sources	-10.2934
▁resulting	-10.2935
▁Brook	-10.2944
horn	-10.2949
100	-10.2949
▁ability	-10.295
▁consisted	-10.2954
▁monument	-10.2957
▁Golden	-10.2957
▁Sim	-10.2959
▁mode	-10.2963
▁formerly	-10.2964
▁Age	-10.2966
▁Glo	-10.2969
▁regularly	-10.2974
▁dam	-10.2976
▁(5	-10.2977
▁focused	-10.2977
▁lyrics	-10.2977
▁wear	-10.298
AT	-10.2984
US	-10.2986
▁About	-10.299
▁plot	-10.2992
mitt	-10.2992
▁Swa	-10.2998
▁speak	-10.3
▁consist	-10.3001
hara	-10.3001
▁painted	-10.3002
▁except	-10.3007
▁protest	-10.301
▁derived	-10.3011
uld	-10.3012
▁phase	-10.3013
nge	-10.3013
oper	-10.3021
▁suburb	-10.3024
ivity	-10.3028
▁tail	-10.3034
phe	-10.3034
SE	-10.3035
▁occurred	-10.3035
▁iron	-10.3039
▁representing	-10.3042
▁cal	-10.3046
▁Spi	-10.3048
▁encourage	-10.305
position	-10.305
▁Bad	-10.3056
RC	-10.3063
▁Miller	-10.3067
▁Lincoln	-10.3072
▁Vienna	-10.3074
▁classical	-10.3074
▁tells	-10.3076
▁sum	-10.308
α	-10.3083
▁pattern	-10.3086
▁try	-10.3088
▁compared	-10.3088
▁fully	-10.3088
▁category	-10.3089
▁difference	-10.3089
▁true	-10.3099
▁Stadium	-10.31
▁fashion	-10.3106
▁300	-10.3107
▁1913	-10.3108
▁drawing	-10.311
▁Whit	-10.3121
▁extensive	-10.3121
▁establishment	-10.3123
▁Palm	-10.3127
gle	-10.3128
▁Foreign	-10.3132
▁Youth	-10.3132
shaped	-10.3133
boy	-10.3133
▁straight	-10.3133
▁says	-10.3138
▁row	-10.3138
▁makeup	-10.3142
▁discover	-10.3144
▁Baron	-10.3147
▁maximum	-10.3155
▁suit	-10.3156
▁morning	-10.3156
▁pieces	-10.3156
▁Matt	-10.3161
lio	-10.3165
▁background	-10.3171
▁shell	-10.3178
▁$2	-10.318
▁portrait	-10.3183
▁folk	-10.3184
▁things	-10.3185
▁Guard	-10.3188
Mar	-10.3192
Ar	-10.3201
▁Bull	-10.3207
▁Farm	-10.3208
▁global	-10.3211
▁chain	-10.3215
▁deputy	-10.3217
IN	-10.3218
▁tried	-10.3224
▁benefit	-10.3227
ł	-10.3228
▁Merc	-10.3228
▁script	-10.3232
▁rail	-10.3234
▁deliver	-10.3235
▁38	-10.3238
▁repeat	-10.3241
▁climate	-10.3243
▁appointment	-10.3245
▁depend	-10.3247
oma	-10.3249
▁racing	-10.3251
▁Colorado	-10.3254
▁Regional	-10.3259
▁Gor	-10.326
▁studying	-10.3261
power	-10.327
MS	-10.3272
▁guide	-10.3274
▁add	-10.3277
▁abandoned	-10.3277
▁Austria	-10.3279
▁approved	-10.328
▁1911	-10.3283
▁sexual	-10.3284
▁dropped	-10.3286
▁draft	-10.3289
▁Maryland	-10.329
▁Chart	-10.33
▁parties	-10.3302
▁poll	-10.3303
▁Lieutenant	-10.3308
▁Region	-10.3308
▁glass	-10.3313
▁billion	-10.3317
▁faculty	-10.3319
▁Ang	-10.3325
▁strike	-10.3327
▁roll	-10.333
CE	-10.333
▁Sel	-10.3333
qual	-10.3337
▁Samuel	-10.3342
▁Johann	-10.3348
St	-10.3349
▁Steve	-10.3352
▁1908	-10.3356
bru	-10.3359
round	-10.336
▁authorities	-10.3362
▁advanced	-10.3362
▁Kur	-10.3363
▁proceed	-10.3363
▁transform	-10.3365
path	-10.3369
▁Emperor	-10.3369
▁Vietnam	-10.3388
▁Eu	-10.3392
▁Even	-10.3393
Mo	-10.3403
▁existing	-10.3406
*	-10.3407
▁basic	-10.3408
▁Ltd	-10.3409
later	-10.3417
▁CEO	-10.3417
▁jazz	-10.3419
▁debuted	-10.342
▁hope	-10.3421
roll	-10.3422
▁sixth	-10.343
▁volunteer	-10.3432
leg	-10.3434
Al	-10.3435
▁Web	-10.3435
▁Oregon	-10.3441
▁landscape	-10.3446
▁threat	-10.3447
▁Frederick	-10.345
▁34	-10.3451
▁subsequent	-10.3451
▁northeast	-10.3453
▁expansion	-10.3456
▁fresh	-10.3458
1.5	-10.3462
onia	-10.3476
▁Winter	-10.3481
▁educational	-10.3483
lect	-10.3484
mount	-10.3484
▁collected	-10.3484
▁frame	-10.3489
▁Arch	-10.3491
▁pan	-10.3492
▁extension	-10.3494
▁tie	-10.3497
▁funding	-10.3499
▁Thi	-10.3506
ij	-10.3507
OS	-10.3509
▁admitted	-10.3509
▁segment	-10.3512
н	-10.3512
▁detect	-10.3515
▁sit	-10.3517
▁Holy	-10.3518
▁Lind	-10.3519
▁Wild	-10.352
▁legend	-10.3521
▁Well	-10.3522
▁showed	-10.3523
hold	-10.3523
▁panel	-10.353
Con	-10.3533
cin	-10.3535
▁herself	-10.3541
▁begin	-10.3541
kha	-10.3541
range	-10.3546
CO	-10.3547
▁Morris	-10.3549
▁Honor	-10.3552
▁dog	-10.3554
elle	-10.356
▁flood	-10.356
ER	-10.3561
▁sector	-10.3562
▁discuss	-10.3562
▁send	-10.3563
▁suggested	-10.3564
▁reduced	-10.3565
▁racial	-10.3568
morph	-10.357
turn	-10.3573
▁task	-10.3585
▁zone	-10.3586
stream	-10.3587
▁Ker	-10.3587
▁Naval	-10.3588
▁Bru	-10.3591
▁1890	-10.3592
elected	-10.36
▁Margaret	-10.3608
zon	-10.3609
▁incident	-10.361
ule	-10.361
▁Buck	-10.3614
▁engaged	-10.3617
▁McG	-10.3618
▁selection	-10.362
▁substitute	-10.3621
▁Cer	-10.3623
▁installed	-10.3624
▁=	-10.3632
▁throw	-10.3638
▁investment	-10.3639
▁grave	-10.364
▁brick	-10.3647
▁plate	-10.3648
mission	-10.3648
▁rear	-10.3657
▁favor	-10.3659
▁learning	-10.3664
SR	-10.3672
▁...	-10.3674
▁electronic	-10.3675
▁Six	-10.3676
vern	-10.3679
▁recognition	-10.3681
▁Student	-10.3684
▁ending	-10.3687
ogen	-10.3691
▁Several	-10.3692
▁recruit	-10.3695
▁component	-10.3695
▁Shan	-10.3697
urge	-10.3708
▁standing	-10.3709
▁Mexican	-10.3715
▁Switzerland	-10.3716
▁pioneer	-10.3717
▁explore	-10.3718
▁opt	-10.3718
▁Uni	-10.3724
▁Bir	-10.3727
▁registered	-10.3729
▁Rad	-10.3729
▁Danish	-10.3738
gri	-10.3742
▁associate	-10.3742
å	-10.3744
▁DVD	-10.3751
▁Tokyo	-10.377
▁investigation	-10.3771
▁relatively	-10.3772
▁Eli	-10.3778
▁sex	-10.3778
type	-10.3785
▁Conservative	-10.3786
▁Howard	-10.3791
cover	-10.3795
▁acid	-10.3801
▁Kil	-10.3802
▁web	-10.3804
▁successfully	-10.3807
▁designer	-10.3809
source	-10.381
▁briefly	-10.3811
▁Heart	-10.3814
▁Nan	-10.3815
organ	-10.3817
▁root	-10.3817
▁Rev	-10.3817
▁drum	-10.3818
▁cloth	-10.3825
▁Building	-10.3825
▁Hockey	-10.3834
▁37	-10.3838
▁Korean	-10.3842
▁medicine	-10.3843
▁Chu	-10.3844
hard	-10.3844
ologi	-10.3845
▁Indiana	-10.3851
▁statue	-10.3853
▁Hamilton	-10.3854
▁1906	-10.3856
▁Cap	-10.386
▁Pass	-10.3861
rill	-10.3861
TC	-10.3862
▁advance	-10.3863
▁developing	-10.3871
▁Indonesia	-10.3871
▁Kam	-10.3879
night	-10.3885
▁twelve	-10.3887
▁Historic	-10.3888
▁alternative	-10.3889
▁premiered	-10.389
▁your	-10.3891
▁Dean	-10.3896
▁mix	-10.3897
pass	-10.3902
▁animals	-10.3902
▁Lang	-10.3906
▁SR	-10.391
▁tribe	-10.3914
▁publishing	-10.3916
nik	-10.3916
▁unable	-10.392
▁shared	-10.3921
▁severe	-10.3921
▁something	-10.3923
▁400	-10.3925
▁passing	-10.3934
▁supply	-10.3938
▁steam	-10.3939
▁regiment	-10.3941
▁reaching	-10.3943
bach	-10.395
▁tend	-10.3952
▁Singapore	-10.3955
▁Rugby	-10.3956
also	-10.3959
▁municipal	-10.396
▁1905	-10.3963
▁drop	-10.3966
elli	-10.3972
▁Nigeria	-10.3972
▁allowing	-10.398
ancy	-10.3983
where	-10.3989
▁jump	-10.3991
▁Administration	-10.3992
▁starring	-10.3994
▁defense	-10.3998
▁1880	-10.4001
▁memory	-10.4007
▁Mayor	-10.4013
▁Hugh	-10.4018
zh	-10.402
gli	-10.402
▁chapel	-10.4023
▁Fund	-10.4024
dict	-10.4025
DA	-10.4026
acre	-10.4028
▁flowers	-10.4028
▁Kha	-10.4034
▁breed	-10.4034
▁1907	-10.4034
▁participate	-10.4038
▁Transport	-10.4038
come	-10.4039
▁Commander	-10.4042
▁sale	-10.4042
▁fu	-10.4043
tile	-10.4043
▁Wei	-10.4048
view	-10.4051
▁75	-10.4052
▁Bowl	-10.4062
▁struggle	-10.4066
▁Sound	-10.4068
▁1909	-10.407
▁wheel	-10.4073
▁rapid	-10.4082
▁risk	-10.4083
▁classic	-10.4084
fall	-10.4084
▁Tony	-10.4084
▁PhD	-10.409
tend	-10.4096
▁Thor	-10.4097
née	-10.4107
▁Wolf	-10.4108
-3	-10.4112
bridge	-10.4114
▁steel	-10.4118
anga	-10.4126
▁scholarship	-10.4126
▁Mah	-10.4127
▁Harry	-10.4129
▁Chamber	-10.413
hir	-10.4131
▁Front	-10.4131
▁elevation	-10.4139
▁reign	-10.4144
▁opposition	-10.4146
▁merchant	-10.4151
▁opposite	-10.4161
zen	-10.4167
▁Saturday	-10.4167
wide	-10.4168
▁aired	-10.4168
▁Run	-10.4172
season	-10.4173
▁purchase	-10.4176
force	-10.4179
▁stood	-10.4183
▁Allen	-10.4184
▁ill	-10.4188
2.5	-10.4197
▁felt	-10.4199
▁Kin	-10.4199
▁injured	-10.4201
mouth	-10.421
▁signing	-10.4215
▁protection	-10.4224
itch	-10.4225
▁Express	-10.4227
▁Reserve	-10.423
▁Communication	-10.4231
▁Silver	-10.4234
▁genus	-10.4236
▁catch	-10.4241
▁Arizona	-10.4242
▁translation	-10.4242
▁solution	-10.4247
vention	-10.4248
▁containing	-10.4253
▁Independent	-10.4254
▁rot	-10.4258
▁gal	-10.426
▁camera	-10.426
▁Helen	-10.4261
▁Monte	-10.4264
▁entry	-10.4274
▁Television	-10.4279
▁Bha	-10.4281
▁Ford	-10.4286
▁Alex	-10.4286
▁Norman	-10.4289
ffi	-10.4289
▁1902	-10.4289
▁cousin	-10.4293
▁wine	-10.4294
▁Ur	-10.4298
▁Jam	-10.4306
▁unsuccessful	-10.4307
▁repair	-10.4322
tim	-10.4326
▁hydro	-10.4326
▁por	-10.4327
enberg	-10.4328
▁Whi	-10.4328
▁Artist	-10.4331
▁restored	-10.4335
▁die	-10.4347
▁Cru	-10.4347
▁Est	-10.4347
▁northwest	-10.4352
▁Montreal	-10.436
▁Iowa	-10.4361
▁Sara	-10.4362
▁Diego	-10.4364
▁margin	-10.4365
▁locomotive	-10.437
AF	-10.4375
▁doing	-10.4376
▁sym	-10.4376
▁stadium	-10.4383
▁safety	-10.4386
р	-10.4387
▁householder	-10.4389
▁Democrat	-10.4395
atic	-10.4398
▁refused	-10.4398
5,000	-10.4399
▁planning	-10.4401
▁mean	-10.4401
▁(15	-10.4408
▁Motor	-10.4408
[	-10.443
▁Seven	-10.4437
▁Family	-10.4438
rang	-10.4439
▁victim	-10.4443
▁stayed	-10.4443
eastern	-10.4449
▁Lyn	-10.4452
phon	-10.4456
ür	-10.4462
lish	-10.4469
▁amateur	-10.4475
▁Nick	-10.4477
▁cannot	-10.4477
▁philosophy	-10.4479
▁agency	-10.449
▁translated	-10.4491
▁Children	-10.4498
▁1904	-10.4498
▁Sky	-10.4499
▁publisher	-10.45
▁IV	-10.45
▁Zi	-10.4502
▁choice	-10.4511
▁Brand	-10.4512
▁tank	-10.4514
▁hockey	-10.4515
▁Entertainment	-10.4518
▁beach	-10.4518
▁Though	-10.4519
à	-10.4524
We	-10.4532
ín	-10.4532
▁Juan	-10.4538
▁appeal	-10.454
▁1903	-10.4541
▁Sport	-10.4542
ía	-10.4545
▁Iraq	-10.4546
▁Der	-10.4549
▁adjacent	-10.455
▁Judge	-10.4552
▁Steven	-10.4553
▁scientist	-10.4556
throp	-10.4557
ook	-10.4557
▁Queensland	-10.4561
▁Modern	-10.4564
▁brief	-10.4567
▁Square	-10.4574
▁Antonio	-10.4584
wel	-10.4602
▁Raj	-10.4603
–3	-10.461
▁influenced	-10.461
▁visual	-10.462
▁FM	-10.4629
▁railroad	-10.4629
ben	-10.4631
▁programming	-10.4632
▁Space	-10.4632
▁ceremony	-10.4635
▁chapter	-10.4636
tech	-10.4638
▁Christmas	-10.4639
▁Now	-10.4641
▁Dick	-10.4641
▁greater	-10.4642
▁sequence	-10.4644
▁edited	-10.4647
▁tell	-10.4651
oid	-10.4653
▁habitat	-10.4656
▁tries	-10.4657
▁quite	-10.4658
▁150	-10.4659
▁Kentucky	-10.466
▁Auto	-10.4661
▁Gil	-10.4662
quest	-10.4663
▁Hollywood	-10.4665
▁bin	-10.4674
▁beyond	-10.4683
▁Cathedral	-10.4685
▁Record	-10.469
▁Burn	-10.4695
▁(9	-10.4704
▁Houston	-10.4706
uf	-10.4709
scribe	-10.471
▁48	-10.4711
▁sense	-10.472
▁(7	-10.4723
▁manuscript	-10.4735
▁Lev	-10.4737
script	-10.4739
gio	-10.4739
▁Moore	-10.4743
who	-10.4745
▁supporting	-10.4747
▁Douglas	-10.4751
▁contained	-10.4756
▁Fine	-10.4761
▁interested	-10.4766
▁Railroad	-10.4767
▁opposed	-10.4768
▁exclusive	-10.4772
ū	-10.4775
▁Associate	-10.4775
▁shift	-10.4778
▁(8	-10.4779
▁relative	-10.4787
▁faced	-10.4789
▁Pet	-10.4797
vit	-10.4798
▁wave	-10.4803
▁crown	-10.4807
▁Roll	-10.481
▁rugby	-10.4814
▁simply	-10.4817
band	-10.4819
▁centuries	-10.4824
verse	-10.4825
▁southeast	-10.4826
▁residing	-10.4829
▁dry	-10.4832
▁manage	-10.4833
▁childhood	-10.4834
▁cinema	-10.4837
▁enemy	-10.4838
▁Denmark	-10.484
▁Jay	-10.4846
aff	-10.4846
▁39	-10.485
▁nomination	-10.4853
▁grand	-10.4857
▁domestic	-10.4863
▁Wy	-10.4864
gna	-10.4865
▁rescue	-10.4867
grad	-10.4867
mour	-10.4871
▁appearing	-10.4871
▁Brad	-10.4872
▁bit	-10.4876
▁wild	-10.4882
▁lecture	-10.4882
▁Connecticut	-10.4885
▁1901	-10.4885
▁bottom	-10.4893
▁Marie	-10.4894
▁Berg	-10.4898
▁powerful	-10.4903
▁Karl	-10.4903
liber	-10.4903
▁Legislative	-10.4908
duction	-10.4909
▁authority	-10.4921
▁Nazi	-10.4925
itive	-10.4925
▁eleven	-10.4925
▁elder	-10.4931
▁moment	-10.4935
▁Pala	-10.4935
▁agricultural	-10.4937
▁Bern	-10.4945
▁dress	-10.4948
▁environmental	-10.4949
▁soil	-10.4952
▁CDP	-10.4955
▁Cher	-10.4957
▁exhibit	-10.4961
▁Victor	-10.4962
▁electric	-10.4969
▁Bow	-10.4971
▁Turkey	-10.4974
▁Hunt	-10.4978
▁Mol	-10.499
IP	-10.4995
▁improve	-10.4995
▁bachelor	-10.4998
agin	-10.5006
▁feel	-10.5009
▁divorce	-10.5012
▁scheduled	-10.5012
▁Hand	-10.5017
▁say	-10.5021
▁lieutenant	-10.5022
▁ultimately	-10.5022
▁plea	-10.5023
▁fighting	-10.5033
HL	-10.5033
▁failure	-10.5039
▁alter	-10.504
▁Turkish	-10.504
▁Harris	-10.5044
▁opportunity	-10.5044
▁mention	-10.5047
▁animal	-10.5049
▁experiment	-10.5053
▁Rod	-10.5059
▁destroy	-10.5064
▁Patrick	-10.5064
▁Mak	-10.5067
▁Belgium	-10.5074
▁Czech	-10.5081
▁climb	-10.5081
body	-10.5082
▁NFL	-10.5096
▁Grant	-10.5096
▁Rio	-10.5099
▁speech	-10.5106
▁See	-10.5112
▁shoot	-10.512
▁Classic	-10.5121
▁manufacture	-10.5121
▁Register	-10.5121
▁Infantry	-10.5121
▁fill	-10.5125
tell	-10.5125
▁Kent	-10.5126
▁worldwide	-10.513
cz	-10.5136
liga	-10.514
▁defined	-10.5141
▁criminal	-10.5142
▁consisting	-10.5152
▁file	-10.5154
▁Assistant	-10.5159
vari	-10.5164
▁Production	-10.5164
▁Egypt	-10.5165
▁voted	-10.5171
▁combat	-10.5175
▁Communist	-10.5177
▁obtain	-10.518
▁maintained	-10.5181
rating	-10.5184
▁Hard	-10.5186
▁Mission	-10.5186
▁copy	-10.5194
ground	-10.5198
▁replace	-10.5198
▁teach	-10.52
▁°	-10.5201
▁hour	-10.5202
▁Bud	-10.5202
▁Imperial	-10.5203
▁drink	-10.5204
▁Die	-10.5204
▁southwest	-10.5205
▁minute	-10.5205
▁Tel	-10.5205
▁Detroit	-10.5205
▁closely	-10.5206
▁UN	-10.5206
▁Quebec	-10.5207
▁Brian	-10.5212
▁successor	-10.5222
but	-10.5225
▁depth	-10.523
▁parallel	-10.523
▁reading	-10.5236
▁Coll	-10.5238
▁Lan	-10.524
rog	-10.5251
▁42	-10.5252
▁heard	-10.5262
▁expedition	-10.5263
▁Bah	-10.5266
▁pull	-10.5269
FA	-10.527
▁1870	-10.5272
▁Miami	-10.5279
otic	-10.528
▁intersection	-10.5284
▁crash	-10.5287
▁Oklahoma	-10.529
assi	-10.5291
▁Glasgow	-10.5292
▁occupation	-10.5295
▁Eric	-10.5297
▁weekly	-10.5304
▁diameter	-10.5304
▁pool	-10.5311
RI	-10.5314
▁wish	-10.532
▁fit	-10.5326
▁exception	-10.5327
▁poverty	-10.5333
▁Anderson	-10.5336
▁entirely	-10.5338
▁sole	-10.5339
▁Medicine	-10.5345
▁properties	-10.5345
▁resources	-10.5347
▁provincial	-10.5349
▁Cook	-10.5349
▁trying	-10.5354
stall	-10.5355
ddy	-10.5357
dio	-10.536
▁emerge	-10.536
▁tea	-10.537
▁Zu	-10.5371
▁internal	-10.5371
▁getting	-10.5382
▁residential	-10.5383
▁tackle	-10.5386
▁consecutive	-10.539
▁Gun	-10.539
▁sought	-10.5392
▁rose	-10.5394
RT	-10.5396
▁49	-10.5398
▁Way	-10.5398
▁journey	-10.54
▁proved	-10.5401
▁wooden	-10.5402
▁Dance	-10.5416
ı	-10.5417
▁Swiss	-10.5417
▁bull	-10.5419
▁selling	-10.542
▁clinic	-10.5427
uv	-10.5428
▁chose	-10.543
▁Dave	-10.5431
▁Mala	-10.5432
illo	-10.5433
FM	-10.5437
▁Flo	-10.5444
gun	-10.5444
▁implement	-10.5447
▁scheme	-10.5453
▁safe	-10.5455
▁Malaysia	-10.5458
▁NY	-10.5461
ingham	-10.5462
▁How	-10.5464
▁let	-10.5475
▁necessary	-10.5475
MP	-10.5477
▁Jeff	-10.5477
▁span	-10.5478
▁Barn	-10.5482
▁genre	-10.5483
▁Welsh	-10.5484
▁existence	-10.5491
▁expand	-10.5494
▁donated	-10.5496
enburg	-10.5498
▁attempted	-10.5499
wl	-10.55
▁Shu	-10.5508
▁offering	-10.5511
▁arranged	-10.5513
signed	-10.5515
▁heavily	-10.5518
▁permit	-10.5524
▁sustain	-10.5526
▁crossing	-10.5529
▁Argentina	-10.5544
▁Gordon	-10.5544
ibility	-10.5548
▁formal	-10.5554
▁Mississippi	-10.556
▁determined	-10.5562
▁duty	-10.5568
▁notably	-10.5569
▁Market	-10.557
▁bay	-10.5572
▁assumed	-10.5577
▁retail	-10.5578
▁Michel	-10.5591
–17	-10.5594
phan	-10.5597
▁meant	-10.56
▁attached	-10.5602
▁credited	-10.5611
▁alleged	-10.5614
▁eldest	-10.5615
▁Hispanic	-10.5615
▁Greece	-10.5625
▁grandfather	-10.5628
▁Theater	-10.5634
lash	-10.5636
▁Lawrence	-10.5639
▁dispute	-10.5641
▁carry	-10.5641
▁wait	-10.5652
▁typical	-10.5654
▁Nar	-10.5658
▁toured	-10.5659
▁playoff	-10.5665
▁youngest	-10.5667
▁Hawk	-10.5668
▁fur	-10.5675
▁Cole	-10.5677
▁businesses	-10.5677
▁combination	-10.5678
▁Commonwealth	-10.5681
foot	-10.5683
▁clean	-10.5689
▁Singh	-10.569
▁acted	-10.5697
▁earning	-10.5699
▁Local	-10.5702
▁Palace	-10.5702
▁reveal	-10.5709
▁mathematics	-10.5735
000	-10.574
▁1898	-10.5742
▁honorary	-10.5744
▁athlete	-10.5756
▁Anthony	-10.5759
▁distributed	-10.5763
▁squadron	-10.5764
▁fee	-10.5764
ME	-10.5774
employ	-10.5775
▁separated	-10.5775
▁slave	-10.578
▁string	-10.5783
▁Austrian	-10.579
▁Brigade	-10.5794
▁Milan	-10.5799
finite	-10.5801
▁Yorkshire	-10.5801
ander	-10.5809
▁thick	-10.581
hap	-10.5816
▁Bengal	-10.5821
▁Villa	-10.5822
▁domain	-10.5824
▁earliest	-10.5829
▁Capital	-10.5829
▁statement	-10.5836
ET	-10.5838
▁didn	-10.5842
▁churches	-10.5844
▁Chile	-10.5846
▁Trade	-10.5847
▁Shah	-10.5849
▁Security	-10.5851
▁mechanic	-10.5861
▁notice	-10.5861
acle	-10.5869
▁characteristic	-10.5869
▁gate	-10.5869
▁finding	-10.587
▁fuel	-10.5873
▁Cuba	-10.5874
▁Rand	-10.5874
▁message	-10.5876
▁guitarist	-10.5876
prov	-10.5878
▁Beat	-10.5889
▁load	-10.5896
▁Metropolitan	-10.5896
▁Matthew	-10.59
▁hot	-10.5903
▁Once	-10.5905
▁Alfred	-10.5911
▁Tamil	-10.5915
▁accompanied	-10.5923
▁religion	-10.5925
mill	-10.5926
▁artistic	-10.5928
▁Third	-10.593
▁Liverpool	-10.5935
▁parliament	-10.5939
▁Squadron	-10.5939
▁plane	-10.5942
▁memorial	-10.5947
▁Eagle	-10.5952
▁manufacturer	-10.5957
▁push	-10.5977
▁attacked	-10.5979
hall	-10.5981
bian	-10.5985
▁raise	-10.599
▁Constitution	-10.599
▁prince	-10.5999
▁bound	-10.6
integr	-10.6002
▁Atlanta	-10.6003
▁sponsor	-10.6003
▁coal	-10.6005
▁Nova	-10.6007
hur	-10.6008
▁items	-10.601
▁weather	-10.6012
▁independence	-10.6012
person	-10.6014
▁Staff	-10.6015
▁chamber	-10.6016
▁reaction	-10.6022
▁Sav	-10.6026
▁enable	-10.6026
▁knock	-10.6028
gie	-10.603
▁Portuguese	-10.6031
▁driving	-10.6032
ounce	-10.6038
story	-10.6043
▁Early	-10.6043
▁hat	-10.6044
▁Alabama	-10.6047
▁tube	-10.6048
▁really	-10.6053
▁anniversary	-10.6056
▁mining	-10.6059
▁membership	-10.606
▁sample	-10.606
▁specimen	-10.6069
▁economy	-10.607
▁crowd	-10.6071
aire	-10.6074
▁Kir	-10.6077
▁institute	-10.6081
fford	-10.6081
lane	-10.6083
▁Originally	-10.6086
pol	-10.6089
▁kick	-10.6091
▁Senator	-10.6091
▁retained	-10.6092
▁FA	-10.6092
▁attract	-10.61
▁Broadway	-10.6105
▁mind	-10.6113
▁pupil	-10.6114
▁mouth	-10.6121
▁versus	-10.6124
▁duties	-10.6126
▁Males	-10.613
new	-10.6131
▁Tech	-10.6131
▁stem	-10.6132
▁express	-10.6134
▁encounter	-10.6135
▁Trinity	-10.6139
▁learned	-10.6143
▁Lou	-10.6144
▁Petr	-10.6147
▁Israeli	-10.6147
▁broken	-10.615
▁client	-10.6155
▁Environment	-10.6158
▁electro	-10.616
▁speaker	-10.6161
▁41	-10.618
▁Baronet	-10.6182
▁Seattle	-10.6184
▁kg	-10.6184
▁correct	-10.6184
▁graphic	-10.6186
▁killing	-10.6187
▁replacing	-10.6189
▁unusual	-10.6189
▁Race	-10.6193
▁flying	-10.6198
â	-10.6199
▁praised	-10.6201
▁advisor	-10.6202
ović	-10.6212
▁1899	-10.6212
patri	-10.6213
tail	-10.6215
▁Morgan	-10.6217
▁junction	-10.6218
▁grass	-10.6218
▁bodies	-10.6218
▁Bun	-10.6224
▁visiting	-10.6225
▁tourist	-10.6226
▁Hawaii	-10.6227
▁Kon	-10.6232
▁Lane	-10.6233
▁opponent	-10.6239
plane	-10.6239
▁constant	-10.6242
▁Jose	-10.6243
▁Prix	-10.6246
▁Iron	-10.6255
▁transition	-10.6258
▁shore	-10.6258
▁Campbell	-10.6259
▁Every	-10.6262
▁harm	-10.6266
▁List	-10.6268
▁reduce	-10.627
▁proper	-10.627
▁possibly	-10.6271
box	-10.6271
▁dating	-10.6272
jun	-10.6276
▁Latino	-10.6276
▁Through	-10.6278
▁1865	-10.6279
▁Back	-10.6281
titude	-10.6281
▁soft	-10.6286
▁phone	-10.6287
▁Cooper	-10.6287
▁finance	-10.6287
▁supporter	-10.6288
▁looking	-10.6291
face	-10.6292
▁fleet	-10.6295
▁importance	-10.6298
▁helping	-10.6299
lumin	-10.6301
▁ticket	-10.6311
bank	-10.6319
▁Bernard	-10.6319
▁Heritage	-10.632
chel	-10.632
▁branches	-10.6322
▁workshop	-10.6328
park	-10.6328
▁introduction	-10.6332
▁sq	-10.6333
▁Birmingham	-10.6342
▁Training	-10.6345
▁apartment	-10.6348
▁Hungarian	-10.6352
300	-10.6354
▁marine	-10.6355
▁Neu	-10.6356
▁Dia	-10.6358
▁Walker	-10.6363
▁rebuilt	-10.6364
▁cycle	-10.6366
▁contrast	-10.6366
▁activist	-10.6367
▁1897	-10.6368
▁Brooklyn	-10.637
▁celebrated	-10.6372
▁Bear	-10.6373
▁Ron	-10.6377
▁relocated	-10.6378
▁solid	-10.6378
▁dated	-10.6379
▁Commissioner	-10.6379
▁Electric	-10.638
lant	-10.638
▁1864	-10.6392
-17	-10.6404
▁1885	-10.6406
▁dream	-10.6411
azi	-10.6413
pra	-10.6414
▁arrangement	-10.6415
▁widow	-10.6418
▁FIFA	-10.642
families	-10.6427
▁regarded	-10.6428
▁Gall	-10.6431
bound	-10.6433
▁1893	-10.6436
ED	-10.6438
posed	-10.6444
▁gift	-10.6445
▁1895	-10.6448
take	-10.645
▁wounded	-10.6453
▁Jesus	-10.6453
▁initiative	-10.6454
▁Croatia	-10.6456
▁soccer	-10.6458
▁Draft	-10.6458
▁Unit	-10.6461
▁Puerto	-10.6468
rect	-10.6469
▁chemical	-10.647
▁demo	-10.6472
▁specifically	-10.6487
▁budget	-10.6487
▁capture	-10.6488
▁Colonel	-10.6488
▁patron	-10.6489
▁rap	-10.6491
▁qualifying	-10.6491
▁1892	-10.6496
▁Challenge	-10.6497
scope	-10.65
▁1860	-10.6506
▁identity	-10.6509
▁description	-10.651
▁labor	-10.651
ographer	-10.6511
▁touchdown	-10.6512
▁Stock	-10.6515
▁attending	-10.6515
▁biggest	-10.6516
▁affect	-10.6518
▁advocate	-10.6519
▁Bangladesh	-10.652
▁observation	-10.652
▁tenure	-10.652
level	-10.6522
▁XI	-10.6523
ów	-10.6524
▁assembly	-10.6533
▁stretch	-10.6535
▁Ever	-10.6539
▁Your	-10.6541
▁core	-10.6542
▁1889	-10.6544
▁Information	-10.656
load	-10.6563
▁distinct	-10.6564
▁Alan	-10.6565
▁NCAA	-10.6567
▁Peace	-10.6568
▁1896	-10.6571
▁bowl	-10.6571
▁1894	-10.6574
including	-10.6575
▁tape	-10.6575
▁layer	-10.6576
▁medieval	-10.6586
▁twin	-10.6593
▁Global	-10.6593
▁drawn	-10.6593
cock	-10.6594
wen	-10.6595
▁surrounded	-10.6597
▁beautiful	-10.6604
▁Sarah	-10.6611
▁Daily	-10.6614
▁listen	-10.6615
▁fishing	-10.6624
▁principle	-10.6629
▁exact	-10.6632
▁Raja	-10.6632
50,000	-10.6633
▁Dur	-10.6638
▁caught	-10.6639
▁Louisiana	-10.664
feld	-10.6647
▁ruled	-10.6647
▁venture	-10.6647
▁improved	-10.6655
▁refuge	-10.6657
▁Cleveland	-10.6659
▁Labor	-10.6659
▁accused	-10.666
▁elect	-10.6663
rell	-10.6666
comp	-10.6666
▁ensure	-10.6666
vig	-10.6668
▁constitution	-10.6669
ör	-10.6669
▁delivered	-10.6672
direct	-10.6673
mut	-10.6674
▁Upper	-10.6678
▁cook	-10.6685
▁negative	-10.6689
▁replacement	-10.6696
▁Gran	-10.67
▁proposal	-10.67
▁Alexandr	-10.6702
▁Agency	-10.6702
▁circuit	-10.6702
▁grown	-10.6704
▁marry	-10.6708
▁committed	-10.6713
▁whi	-10.6714
▁Circ	-10.6721
▁Dream	-10.6723
▁pack	-10.6728
▁Jon	-10.6741
▁Emil	-10.6744
▁Leon	-10.6744
team	-10.6745
▁Rhode	-10.6746
▁cup	-10.6746
chemistry	-10.6748
▁covering	-10.675
▁Gulf	-10.6751
▁demolished	-10.6753
▁easily	-10.6754
▁graduation	-10.6758
▁friendly	-10.6761
▁Along	-10.6767
▁instrumental	-10.6768
▁distinguished	-10.6774
posing	-10.6775
▁gang	-10.6777
▁curve	-10.6786
▁Thompson	-10.679
▁Nelson	-10.679
▁Leader	-10.6791
media	-10.6792
stock	-10.6792
▁Culture	-10.6803
▁nor	-10.6808
▁withdraw	-10.6809
mini	-10.6817
ا	-10.6819
▁Ottoman	-10.6822
▁damaged	-10.6823
▁weak	-10.6823
▁1863	-10.6828
▁Fight	-10.6831
▁architectural	-10.6841
▁physician	-10.6842
cum	-10.6844
▁Jordan	-10.6845
▁planet	-10.6846
▁Baltimore	-10.6854
▁Munich	-10.6856
▁visitors	-10.6859
3.5	-10.6861
stroke	-10.6863
▁patent	-10.6865
friend	-10.6872
▁José	-10.6874
▁Moon	-10.6874
▁Internet	-10.6878
mili	-10.6878
▁Austin	-10.6878
▁Urban	-10.6879
▁Tournament	-10.6879
▁afterwards	-10.6881
▁Key	-10.6882
▁shut	-10.6882
▁Kara	-10.6887
с	-10.6889
from	-10.6895
▁Ukraine	-10.6896
▁Kid	-10.6897
▁select	-10.6899
▁1862	-10.6909
▁boundary	-10.691
▁tip	-10.6915
OR	-10.6916
▁Delhi	-10.6919
▁Row	-10.6919
▁exhibited	-10.6927
▁ethnic	-10.6931
▁announce	-10.6932
▁motion	-10.6935
▁Alliance	-10.6944
▁Natural	-10.6947
▁Baptist	-10.6949
▁Report	-10.695
▁Convention	-10.6953
▁meta	-10.6954
▁shooting	-10.6955
▁immigrant	-10.6955
▁medium	-10.6961
ffin	-10.6961
▁Liga	-10.6965
▁Portland	-10.6965
▁abroad	-10.6968
▁cemetery	-10.6972
▁Syria	-10.6972
▁ownership	-10.6972
raw	-10.6977
▁athletic	-10.6977
▁observed	-10.6978
dynamic	-10.6982
▁neighbor	-10.6982
▁stating	-10.6984
▁invasion	-10.6988
aku	-10.6997
▁pale	-10.7
▁eat	-10.7009
▁Grade	-10.701
▁filled	-10.7015
▁formally	-10.7029
▁presidential	-10.7033
physi	-10.7034
▁Tower	-10.7035
▁completing	-10.704
▁fear	-10.7042
▁Portugal	-10.7043
▁attorney	-10.7043
▁parliamentary	-10.7045
▁doctorate	-10.7045
▁handle	-10.7045
▁Hindu	-10.7049
▁Metro	-10.7051
▁fighter	-10.7053
LL	-10.7053
▁mph	-10.7053
▁universities	-10.7056
▁seventh	-10.7058
cott	-10.7065
continent	-10.7068
▁participant	-10.7069
▁Gill	-10.7073
ο	-10.7075
▁sang	-10.7081
▁reporter	-10.7085
phone	-10.7089
▁determine	-10.7089
▁advantage	-10.7094
▁kilometers	-10.7096
▁reader	-10.7103
▁circle	-10.7103
▁What	-10.7103
▁1888	-10.7111
▁Rich	-10.7118
▁Crown	-10.712
=	-10.7121
RO	-10.7124
æ	-10.7124
▁ABC	-10.7125
▁revolution	-10.7127
▁orbit	-10.7127
▁submarine	-10.7132
▁operator	-10.7136
▁Anton	-10.7137
mile	-10.7143
▁Who	-10.7146
▁Pont	-10.7146
▁sin	-10.7146
▁favour	-10.715
fur	-10.7157
ensive	-10.716
bble	-10.7166
▁Graham	-10.7168
▁entering	-10.7168
▁completion	-10.7168
0.4	-10.7169
▁Limited	-10.7177
▁skin	-10.7179
Psych	-10.7182
▁Standard	-10.7186
▁popularity	-10.7189
▁plain	-10.7191
▁Single	-10.7199
▁Symphony	-10.72
▁spirit	-10.7204
▁1891	-10.7204
rou	-10.7204
▁Sab	-10.7205
▁expression	-10.7206
▁Vin	-10.7208
▁realize	-10.721
▁Derby	-10.7219
▁reality	-10.7222
abad	-10.7225
▁mobile	-10.7225
▁Construction	-10.7228
▁trace	-10.7238
▁erected	-10.7241
▁Historical	-10.7241
ë	-10.7242
▁hip	-10.7242
▁desire	-10.7245
▁Test	-10.7248
▁Dallas	-10.7249
▁causing	-10.725
▁Russell	-10.7251
▁competing	-10.7255
phil	-10.7259
–6	-10.7264
▁Kelly	-10.7266
▁Range	-10.7268
▁verse	-10.7272
▁regarding	-10.7274
▁Round	-10.7274
▁respond	-10.7275
▁Finland	-10.7284
▁Nord	-10.7288
ô	-10.7293
▁Charlotte	-10.7296
fusion	-10.7303
▁Stewart	-10.7305
plication	-10.7305
▁controlled	-10.7305
▁contested	-10.7306
post	-10.7306
General	-10.7308
▁reputation	-10.7309
▁1861	-10.7309
▁stopped	-10.7314
ON	-10.7315
▁Defense	-10.7315
▁Vancouver	-10.7315
▁justice	-10.7315
▁monastery	-10.7321
▁Taiwan	-10.7329
▁charged	-10.7333
▁survive	-10.7334
▁Henri	-10.7336
▁thin	-10.7336
▁whilst	-10.7337
▁relegated	-10.7338
▁Bristol	-10.7339
▁retain	-10.7345
ophi	-10.7354
▁Cardinal	-10.7356
▁descendant	-10.7364
▁1886	-10.7369
▁advise	-10.7371
▁Archbishop	-10.7372
к	-10.7375
▁essential	-10.7381
▁Faculty	-10.7382
▁expressed	-10.7384
▁Que	-10.7389
boat	-10.7398
▁faith	-10.7401
▁Baker	-10.7407
▁Know	-10.7408
–4	-10.7409
▁flower	-10.7414
▁lift	-10.7414
▁Islamic	-10.7421
▁charter	-10.7421
▁debate	-10.743
▁defeating	-10.7433
▁premiere	-10.7438
▁Abbey	-10.7438
pop	-10.7438
–16	-10.7442
▁highlight	-10.7442
▁arrival	-10.7443
▁Mai	-10.7445
▁Five	-10.7446
▁Steel	-10.7459
▁downtown	-10.7459
▁Low	-10.7464
▁disappear	-10.747
crat	-10.7472
▁Kennedy	-10.7474
▁Madrid	-10.7475
fort	-10.7479
▁annually	-10.748
▁noble	-10.7484
▁Hampshire	-10.7489
▁Princess	-10.7492
▁lose	-10.7494
▁nickname	-10.7499
▁Kenya	-10.7501
▁Energy	-10.7504
▁Pittsburgh	-10.7506
▁Album	-10.7506
▁fixed	-10.7517
▁Reform	-10.753
▁thirty	-10.7534
▁golf	-10.7535
▁1887	-10.7535
▁adaptation	-10.7536
▁witness	-10.7541
▁answer	-10.7549
▁temporary	-10.7549
▁inaugural	-10.7551
dication	-10.7552
▁merger	-10.7552
▁Marshall	-10.7553
active	-10.7554
▁actual	-10.7555
▁Pierre	-10.7556
▁armed	-10.7556
▁Robinson	-10.7557
▁Shortly	-10.7558
▁Shin	-10.7559
▁UEFA	-10.7559
▁gender	-10.7559
called	-10.7565
▁Soccer	-10.7573
▁belonged	-10.7575
▁arrive	-10.758
▁Medi	-10.758
▁satellite	-10.758
▁kW	-10.7588
▁Hil	-10.759
▁Off	-10.7591
▁Wright	-10.7591
▁Evans	-10.7598
▁pastor	-10.76
▁Richmond	-10.7602
▁Syn	-10.7604
▁entertainment	-10.7607
▁Chang	-10.7608
▁parent	-10.7609
ă	-10.7609
▁ordained	-10.762
▁leaf	-10.7633
▁rob	-10.7633
▁missing	-10.7634
▁Penn	-10.7641
▁advertising	-10.7644
▁Gate	-10.765
▁hang	-10.7654
▁tunnel	-10.766
▁protected	-10.7661
▁deposit	-10.7663
▁carrying	-10.7663
▁1850	-10.7664
▁Call	-10.7666
▁succeed	-10.7666
fully	-10.7666
▁Yale	-10.7671
▁Soon	-10.7672
▁Picture	-10.7674
▁Bou	-10.7677
▁bond	-10.7681
▁storm	-10.7691
▁Serie	-10.7692
▁resident	-10.7701
▁inscription	-10.7703
▁opinion	-10.7704
▁Chair	-10.7706
▁electoral	-10.7706
▁acclaim	-10.7717
▁Authority	-10.7727
▁prepared	-10.773
▁remainder	-10.773
▁Jazz	-10.7741
▁greatest	-10.7741
▁Antarctic	-10.7749
▁monk	-10.7751
▁qualification	-10.7752
л	-10.7761
▁VII	-10.7766
▁exercise	-10.7771
▁nuclear	-10.7774
▁linked	-10.7777
▁representation	-10.7782
▁responsibility	-10.7783
▁Orleans	-10.7784
▁Until	-10.7786
▁Rosa	-10.779
▁update	-10.7793
▁enrolled	-10.7794
▁heritage	-10.7807
▁grey	-10.7808
▁collaborated	-10.7814
▁Lower	-10.7816
▁1881	-10.7818
▁till	-10.782
▁restoration	-10.7822
▁1884	-10.7823
▁investigate	-10.7823
▁concrete	-10.7825
▁violin	-10.7829
▁huge	-10.783
▁Flor	-10.7831
▁DJ	-10.7834
▁lecturer	-10.7841
▁Kirk	-10.7842
▁palace	-10.7842
▁1882	-10.7844
▁Bush	-10.7849
▁Ukrainian	-10.7853
▁adapted	-10.7854
▁Rick	-10.7855
▁collapse	-10.7857
▁improvement	-10.7859
metre	-10.786
▁Peru	-10.7863
▁terminal	-10.7864
▁É	-10.7864
▁Hungary	-10.7868
▁franchise	-10.7869
▁essay	-10.7872
▁regulation	-10.7876
▁Additionally	-10.7878
▁Maha	-10.7879
▁instance	-10.788
roid	-10.7881
▁physics	-10.7886
▁Murray	-10.7891
▁VI	-10.7892
▁businessman	-10.7893
plan	-10.7895
▁somewhat	-10.7898
▁surviving	-10.7898
▁Drive	-10.7903
▁drummer	-10.7905
psych	-10.7906
▁Adelaide	-10.791
▁occasionally	-10.791
▁Donald	-10.7913
▁colleague	-10.7916
▁cabinet	-10.7918
▁Together	-10.7927
▁Organization	-10.7929
▁perfect	-10.793
▁attracted	-10.7932
▁recipient	-10.7933
▁retiring	-10.7937
0.6	-10.7946
▁demonstrate	-10.7947
▁influential	-10.7947
▁defensive	-10.7948
▁continuous	-10.795
▁involve	-10.7952
core	-10.7954
▁creative	-10.7955
▁check	-10.7956
▁behavior	-10.7957
▁provision	-10.7964
▁Bruce	-10.797
▁photography	-10.7971
▁Food	-10.7975
ennial	-10.7975
▁roughly	-10.7976
▁lease	-10.7981
▁personnel	-10.7986
▁veteran	-10.7987
1.2	-10.7987
400	-10.7991
▁ceased	-10.7991
▁Brazilian	-10.7995
▁compilation	-10.7996
▁manufacturing	-10.7998
▁agree	-10.8
▁prefer	-10.8002
▁terminus	-10.8003
ß	-10.8006
▁surgery	-10.8009
▁sentenced	-10.801
▁bright	-10.8017
▁Ryan	-10.8017
▁drafted	-10.8025
continu	-10.8025
▁Professional	-10.8031
×	-10.8034
▁underground	-10.8036
▁photographer	-10.8037
▁wedding	-10.8037
▁Trail	-10.8038
▁context	-10.8046
▁nothing	-10.8056
▁Canal	-10.8058
▁achievement	-10.8062
▁Albania	-10.8062
▁Franklin	-10.8063
▁ratio	-10.8064
▁preserved	-10.8064
▁tennis	-10.8069
▁Victorian	-10.8072
onym	-10.8078
▁Wind	-10.808
▁prime	-10.8082
embl	-10.81
▁Thus	-10.8104
▁perhaps	-10.8104
▁YouTube	-10.8108
▁regard	-10.8109
▁classified	-10.8113
▁snow	-10.8113
▁NHL	-10.8114
▁Admiral	-10.8118
▁Defence	-10.8121
▁fly	-10.8121
▁variant	-10.8125
▁Advance	-10.8125
▁Belgian	-10.8126
▁Jimmy	-10.8127
▁why	-10.8132
▁Kun	-10.8137
fish	-10.8148
▁frequent	-10.8152
dorf	-10.8157
▁Honour	-10.816
▁plus	-10.816
▁cave	-10.8161
▁suicide	-10.8163
▁magic	-10.8168
▁arrest	-10.8178
▁Christopher	-10.8178
▁literacy	-10.818
▁1883	-10.8182
ş	-10.8184
▁compound	-10.8191
▁Beck	-10.8196
▁Found	-10.82
▁grandson	-10.8202
▁naval	-10.8204
▁Mann	-10.8205
▁promise	-10.8211
▁storage	-10.8213
▁drain	-10.8219
▁involving	-10.8219
founded	-10.8222
▁soundtrack	-10.8223
▁discussion	-10.8225
▁illness	-10.8233
▁Story	-10.8237
▁Lanka	-10.824
sufficient	-10.8241
ão	-10.8244
▁brain	-10.8248
rose	-10.8249
▁coastal	-10.8251
▁performer	-10.8252
zza	-10.8255
▁rush	-10.8256
▁sentence	-10.826
▁Model	-10.8262
▁sponsored	-10.8268
▁Wol	-10.8269
▁agriculture	-10.827
▁charity	-10.8273
▁Horn	-10.8274
▁illegal	-10.8275
▁truck	-10.8278
cious	-10.8281
▁freedom	-10.8282
1.6	-10.8285
|	-10.8286
▁descent	-10.829
▁Battalion	-10.8294
▁Having	-10.8295
▁anchor	-10.8295
▁publish	-10.8298
т	-10.8299
▁extremely	-10.8302
▁Maine	-10.8304
▁Stanley	-10.8305
▁adopt	-10.8308
!"	-10.8312
▁Shaw	-10.8313
▁adventure	-10.8315
▁equivalent	-10.8315
▁Utah	-10.8315
▁Audi	-10.8318
owned	-10.8329
▁weekend	-10.8333
▁Child	-10.8343
▁mental	-10.8355
▁Branch	-10.8361
▁audio	-10.8362
▁affected	-10.8364
▁duo	-10.8365
▁Disney	-10.8373
▁Movement	-10.838
▁assistance	-10.8381
▁Jerusalem	-10.8389
▁suspect	-10.8389
▁dancer	-10.8392
▁coverage	-10.8394
▁resistance	-10.8395
pm	-10.8404
▁feeling	-10.8409
▁Diocese	-10.842
▁Phillip	-10.8422
▁Fleet	-10.8422
▁developer	-10.8424
▁filed	-10.8426
▁trading	-10.8427
▁Lamb	-10.8432
zzo	-10.8435
▁cold	-10.8442
▁Spec	-10.8445
▁achieve	-10.8447
▁Attorney	-10.8448
▁continuing	-10.8448
Star	-10.845
▁injuries	-10.8451
▁Around	-10.8452
▁equipped	-10.8458
▁Baseball	-10.8458
▁smooth	-10.8461
look	-10.8461
▁export	-10.8463
▁fifteen	-10.8465
smith	-10.8468
▁Political	-10.8474
▁slope	-10.8475
▁Finnish	-10.8488
▁Bird	-10.849
▁conductor	-10.8497
piece	-10.8499
flu	-10.8501
▁criticism	-10.8503
▁cited	-10.8504
▁upgrade	-10.8507
▁possession	-10.8511
▁Bour	-10.8517
▁discovery	-10.8522
▁swimming	-10.8524
New	-10.8528
mobil	-10.8531
▁substantial	-10.8533
▁1876	-10.8533
▁Carter	-10.8535
brand	-10.8545
▁supposed	-10.855
▁violence	-10.8552
▁Kevin	-10.8559
▁Dragon	-10.8562
ün	-10.8579
▁Meanwhile	-10.8581
▁monitor	-10.8588
▁pipe	-10.8593
ledge	-10.8595
▁import	-10.8598
▁manner	-10.8601
Com	-10.8604
▁visible	-10.8606
▁civilian	-10.8607
▁spend	-10.8607
▁spending	-10.8611
high	-10.8612
▁Municipal	-10.8612
▁1871	-10.8613
▁celebration	-10.8613
interpret	-10.8618
▁element	-10.8623
▁Joan	-10.8624
▁travelled	-10.8627
▁Trophy	-10.8629
▁bench	-10.863
▁Berkeley	-10.8632
pell	-10.8635
▁inducted	-10.8638
ι	-10.8641
▁corporate	-10.8641
▁salt	-10.8642
▁Currently	-10.8644
▁Amsterdam	-10.8653
▁120	-10.866
You	-10.866
▁hole	-10.8666
▁sudden	-10.8667
▁1878	-10.8671
▁Leeds	-10.8688
▁Cricket	-10.8692
▁1879	-10.8695
▁Language	-10.8714
osis	-10.8717
▁managing	-10.872
▁instruction	-10.8724
▁predict	-10.8726
▁Benjamin	-10.8729
▁subsidiary	-10.8729
▁suffering	-10.8729
▁nephew	-10.8738
▁inhabit	-10.8743
▁competitive	-10.8744
▁clan	-10.8746
▁rejected	-10.8749
▁amongst	-10.8755
▁organize	-10.8769
▁Broadcasting	-10.8771
▁trouble	-10.8778
▁1872	-10.8779
▁Brun	-10.8786
▁Ivan	-10.8788
▁renovation	-10.8789
▁raid	-10.8794
▁Apple	-10.8803
▁trust	-10.8806
▁passage	-10.8808
▁neuro	-10.8811
▁revenue	-10.8812
▁academy	-10.8814
▁Hope	-10.8816
▁recall	-10.8818
related	-10.8824
▁neighbour	-10.8827
▁Colombia	-10.8832
wise	-10.8832
▁construct	-10.8835
▁earth	-10.8835
▁Drama	-10.8847
▁Racing	-10.8848
▁Islam	-10.8848
▁variation	-10.885
▁Orthodox	-10.8853
▁concluded	-10.8853
▁Technical	-10.8854
▁Mitchell	-10.8857
▁acquisition	-10.8859
▁executed	-10.8862
▁1874	-10.8877
▁possess	-10.8878
▁Mall	-10.8882
▁relief	-10.8892
▁installation	-10.8894
▁riding	-10.8895
brook	-10.8895
▁Alice	-10.8896
▁Orange	-10.8905
▁fame	-10.8906
▁angle	-10.8912
▁Cultural	-10.8916
▁magn	-10.8918
▁Clare	-10.8924
▁Father	-10.8924
▁convince	-10.8927
▁Rico	-10.893
▁Basketball	-10.8938
▁cable	-10.894
▁emotion	-10.8942
ña	-10.8943
▁1868	-10.8944
▁accomplish	-10.8952
▁Initially	-10.8952
▁choose	-10.8954
yama	-10.8958
▁1875	-10.8959
▁colonial	-10.896
lude	-10.8962
▁considerable	-10.8963
▁Barbara	-10.8967
▁congregation	-10.8969
▁extensively	-10.8971
▁controversial	-10.8975
▁gallery	-10.8975
▁devoted	-10.8979
▁1866	-10.898
▁nurse	-10.8981
▁Ship	-10.8983
▁Unlike	-10.8983
▁capable	-10.8988
▁Dark	-10.8989
logy	-10.8989
▁understanding	-10.899
▁vary	-10.8991
▁carbon	-10.8995
▁Susan	-10.8999
▁stable	-10.9002
grave	-10.9002
▁undergraduate	-10.9002
ncies	-10.9004
▁Petersburg	-10.9008
▁Beijing	-10.901
▁Warren	-10.9019
▁alcohol	-10.902
▁Short	-10.9023
cross	-10.9029
▁intelligence	-10.9042
▁defence	-10.9043
▁Bert	-10.9049
▁Manhattan	-10.9049
length	-10.9049
▁gear	-10.9051
>	-10.9054
▁Rub	-10.9055
▁Greg	-10.9058
▁aspects	-10.9068
▁capita	-10.9075
0.8	-10.9077
▁outstanding	-10.9081
▁Catherine	-10.9081
▁suspended	-10.9088
▁eliminated	-10.9088
ž	-10.9089
▁0.1	-10.9092
▁shelter	-10.9102
▁affiliated	-10.9103
▁Secret	-10.9104
▁Florence	-10.9107
▁choir	-10.9107
author	-10.9111
ń	-10.9118
▁march	-10.912
▁Burg	-10.9125
▁1867	-10.9126
▁concentration	-10.9129
▁nearest	-10.9137
▁Ridge	-10.914
▁eighteen	-10.9142
−	-10.9143
rink	-10.9147
▁drew	-10.9149
logical	-10.9151
▁declined	-10.9153
▁mechanism	-10.9154
▁identify	-10.9155
▁Johnny	-10.9158
▁struck	-10.9166
▁otherwise	-10.9168
▁reception	-10.9169
▁Finance	-10.9171
▁Nicholas	-10.9172
▁Coach	-10.9177
▁wire	-10.9179
▁Survey	-10.9186
▁dynasty	-10.9188
activ	-10.9192
▁Horse	-10.9193
▁bone	-10.9195
cene	-10.9199
▁Thailand	-10.9205
▁Plant	-10.9206
▁HMS	-10.9209
▁Organ	-10.9216
▁uniform	-10.9217
▁mall	-10.9221
▁Abdul	-10.9223
▁departure	-10.9227
▁Esp	-10.9229
▁Minor	-10.923
▁cattle	-10.9238
▁homo	-10.9251
▁Friday	-10.9252
▁Leonard	-10.9255
▁1000	-10.9257
▁changing	-10.9261
space	-10.9264
▁Alberta	-10.9267
▁inspiration	-10.9272
▁Mother	-10.9274
▁spiritual	-10.9281
▁Auckland	-10.9283
▁rib	-10.9287
▁preparation	-10.929
▁Parish	-10.9295
ulator	-10.9306
posit	-10.9307
▁modified	-10.9314
▁criticized	-10.9325
▁warm	-10.9325
▁Century	-10.9328
operative	-10.9329
▁Literature	-10.9333
hurst	-10.9333
▁Computer	-10.9336
▁sailed	-10.9336
winning	-10.9339
_	-10.9339
▁Lloyd	-10.9352
▁fitted	-10.9353
▁inherited	-10.9355
▁assault	-10.9364
▁Punjab	-10.9364
speaking	-10.9365
making	-10.9372
▁Barcelona	-10.9393
▁Hamburg	-10.9398
life	-10.9399
▁differ	-10.9399
▁thereafter	-10.9405
▁1873	-10.9406
▁belief	-10.9407
▁serial	-10.9407
▁sort	-10.9413
▁wealthy	-10.9431
▁1877	-10.9434
▁Control	-10.944
▁Grove	-10.9448
▁Athens	-10.9454
▁Serbian	-10.9455
▁maintenance	-10.9456
▁Peninsula	-10.9458
▁lb	-10.9458
▁constitute	-10.9459
▁debt	-10.9463
▁hometown	-10.9466
▁Charlie	-10.9468
▁Hunter	-10.9468
▁Bible	-10.9472
▁Wayne	-10.9479
▁trustee	-10.9479
pple	-10.948
▁patrol	-10.9484
▁unlike	-10.9487
▁mounted	-10.9487
▁Socialist	-10.9491
▁CBS	-10.9492
▁Stanford	-10.9495
▁illustrate	-10.9498
▁#1	-10.9499
▁everything	-10.9514
▁Venice	-10.9517
owski	-10.9518
▁argued	-10.9519
▁Small	-10.952
▁Mason	-10.9521
▁cartoon	-10.9523
▁virtual	-10.9526
▁conservation	-10.9526
▁easy	-10.9536
▁predecessor	-10.9542
▁blog	-10.9547
▁qualify	-10.9551
▁Rou	-10.9552
2.0	-10.9568
▁Newcastle	-10.957
Qu	-10.9575
▁facing	-10.9578
▁holiday	-10.9579
▁vocalist	-10.9581
▁Vermont	-10.9587
▁Gabriel	-10.9591
▁catalog	-10.9592
original	-10.9593
▁opportunities	-10.9599
▁Writer	-10.9599
▁exile	-10.9601
▁Corp	-10.9601
▁Ent	-10.9603
▁ruler	-10.9611
▁administer	-10.9612
▁attributed	-10.9613
▁drag	-10.9624
▁elementary	-10.9625
▁insurance	-10.9626
▁delegate	-10.9626
▁Arkansas	-10.9633
▁Fisher	-10.9635
▁output	-10.9651
▁counties	-10.9651
▁affiliate	-10.9655
▁Collection	-10.9659
▁reaches	-10.966
▁organised	-10.9666
▁NBA	-10.9666
▁summit	-10.967
▁commune	-10.967
▁Chapel	-10.9675
▁Virgin	-10.9675
▁gone	-10.9676
▁participation	-10.9683
▁sight	-10.9689
▁earthquake	-10.9693
▁controversy	-10.9706
▁Maur	-10.9708
▁Scholar	-10.9711
▁Buffalo	-10.9714
▁Junction	-10.9716
four	-10.9716
cylinder	-10.9729
▁sack	-10.9729
▁schedule	-10.9732
▁1840	-10.9733
▁approval	-10.9735
▁Chester	-10.9736
▁Primary	-10.9737
▁Section	-10.9742
▁decorated	-10.9745
▁soldier	-10.9747
▁experimental	-10.9752
ño	-10.9754
▁Broad	-10.9756
▁convert	-10.9758
▁topics	-10.976
develop	-10.9775
▁1869	-10.9775
▁Luis	-10.9778
▁involvement	-10.9779
▁stamp	-10.9787
▁abuse	-10.9788
uku	-10.9793
▁begun	-10.9796
▁consultant	-10.9801
▁Turner	-10.9803
▁Industrial	-10.9804
▁Yar	-10.9806
▁procedure	-10.9821
▁roster	-10.9832
▁recreation	-10.9832
▁Sultan	-10.9834
▁consumer	-10.9838
▁threatened	-10.9839
▁Zone	-10.9842
▁Stockholm	-10.9845
▁sleep	-10.9847
▁1857	-10.9856
▁teammate	-10.9858
▁1848	-10.9866
▁jail	-10.9866
▁penalty	-10.987
▁Borough	-10.9871
▁sixteen	-10.9873
▁surrender	-10.9875
▁Guinea	-10.9877
▁rising	-10.9879
hawk	-10.9881
▁apparently	-10.9893
▁thirteen	-10.9893
▁Shanghai	-10.9893
▁accessible	-10.9894
▁Windows	-10.99
▁Norfolk	-10.9902
shore	-10.9903
▁Iceland	-10.9905
▁vertical	-10.9916
▁altitude	-10.9917
▁Romanian	-10.9918
▁worship	-10.9918
▁Caribbean	-10.992
minute	-10.9923
▁electrical	-10.9923
1.3	-10.9943
ν	-10.995
appa	-10.9961
▁behalf	-10.9962
▁Rabbi	-10.9966
▁investor	-10.9967
founder	-10.9981
▁Isle	-10.9982
▁Mediterranean	-10.9994
▁Guide	-10.9998
1.1	-11.0009
▁decline	-11.0013
▁balance	-11.0019
▁liquid	-11.0021
▁Brit	-11.0027
▁Turk	-11.003
▁resort	-11.0031
▁Jamaica	-11.0037
present	-11.004
▁ambassador	-11.0041
▁Nashville	-11.0042
▁Again	-11.0047
▁remix	-11.0048
▁seminar	-11.0049
bird	-11.0052
▁Kill	-11.0053
▁kingdom	-11.0061
▁enhance	-11.0061
▁alternate	-11.0063
▁Season	-11.0079
▁variable	-11.008
▁Rangers	-11.0083
▁Death	-11.0085
▁settlers	-11.0085
▁Cincinnati	-11.0086
▁Wellington	-11.0089
borg	-11.009
€	-11.0091
▁NBC	-11.0095
▁clerk	-11.0103
▁interact	-11.0105
▁sugar	-11.0115
▁tune	-11.0119
▁commenced	-11.012
▁attraction	-11.0125
▁eighth	-11.0128
▁ministry	-11.0129
▁download	-11.013
▁Costa	-11.0133
▁external	-11.0136
▁stake	-11.0136
▁Editor	-11.0137
▁desert	-11.0138
▁outdoor	-11.0141
German	-11.0147
▁Estonia	-11.0151
▁missed	-11.0152
▁Track	-11.0152
▁ideal	-11.0165
▁fragment	-11.0171
▁outbreak	-11.0179
▁1859	-11.0183
▁Alaska	-11.0191
▁pianist	-11.0197
▁0.2	-11.0202
▁assassin	-11.0211
▁Holland	-11.0212
▁ocean	-11.0218
▁editorial	-11.0219
▁gradually	-11.0219
▁archive	-11.0221
▁Video	-11.0221
▁crisis	-11.0226
▁examine	-11.0228
▁Exchange	-11.023
▁legislation	-11.0233
▁Craig	-11.0234
▁Hebrew	-11.0242
▁Persian	-11.0247
▁servant	-11.0249
▁Egyptian	-11.0262
▁Cinema	-11.0263
▁Commerce	-11.0264
▁classification	-11.0267
▁dramatic	-11.0267
▁assignment	-11.0276
▁giant	-11.0277
▁Friends	-11.0279
▁incumbent	-11.0281
▁Full	-11.0282
▁birthday	-11.0283
▁Pradesh	-11.0292
▁disbanded	-11.0294
▁Prussia	-11.0297
ς	-11.03
▁cult	-11.0301
flow	-11.0301
▁longest	-11.0301
scale	-11.0302
▁clock	-11.0304
▁psycho	-11.0307
ulf	-11.0312
▁Copenhagen	-11.0313
▁artwork	-11.0313
▁Herbert	-11.0315
▁payment	-11.032
▁cash	-11.032
▁Vincent	-11.0323
▁instructor	-11.0324
▁Muhammad	-11.0326
▁massive	-11.033
▁resignation	-11.033
▁integrated	-11.0333
▁Owen	-11.0334
▁Ghana	-11.0339
▁Digital	-11.034
▁airline	-11.035
ensis	-11.0353
▁DNA	-11.0354
▁remote	-11.036
Art	-11.0362
▁hearing	-11.0367
▁neck	-11.0368
▁algorithm	-11.0373
▁Maj	-11.0374
▁keyboard	-11.0375
▁Arena	-11.0375
<	-11.038
▁Lions	-11.0384
▁premier	-11.0389
current	-11.0393
▁fourteen	-11.0396
2.4	-11.0397
▁Dakota	-11.0401
▁characterized	-11.0403
ulous	-11.0404
▁objective	-11.0405
▁useful	-11.0409
▁Brisbane	-11.0412
▁knight	-11.0416
▁Eventually	-11.0417
▁expect	-11.042
▁interaction	-11.0438
zhou	-11.0441
▁descend	-11.0441
7.5	-11.0447
shaw	-11.0455
▁Than	-11.0458
▁Lyon	-11.0463
▁solve	-11.0463
▁infrastructure	-11.0464
▁Oliver	-11.0465
▁Harrison	-11.0466
▁chronic	-11.0468
▁cluster	-11.0472
▁cruise	-11.0472
Š	-11.0473
▁anything	-11.0474
▁Methodist	-11.0482
▁Armenian	-11.0482
▁Eye	-11.0484
▁employment	-11.0484
▁minimum	-11.0489
▁agencies	-11.0494
▁emergency	-11.0494
▁Territory	-11.0496
▁passion	-11.0496
▁offensive	-11.0499
▁mineral	-11.0504
▁package	-11.0504
▁corporation	-11.0505
▁Morning	-11.0506
▁Scout	-11.0506
▁Venezuela	-11.0507
nucle	-11.0511
▁concentrate	-11.0514
▁Prague	-11.0515
▁Spirit	-11.0515
▁contestant	-11.0521
▁retreat	-11.0531
▁funeral	-11.0542
break	-11.0544
▁Industry	-11.0546
▁advice	-11.0549
▁synth	-11.0554
course	-11.0555
▁Secondary	-11.0556
▁genetic	-11.0561
▁counsel	-11.0565
▁assets	-11.0567
▁Devon	-11.0569
▁1854	-11.0578
▁sharp	-11.0579
▁phrase	-11.0581
empt	-11.0583
▁RAF	-11.0586
▁Ottawa	-11.0588
▁Bulgarian	-11.0601
1.4	-11.0607
▁prestigious	-11.0622
▁wrong	-11.0626
▁absence	-11.0633
▁Hudson	-11.0635
shirt	-11.0635
▁Serbia	-11.0636
▁absorb	-11.0638
▁ensemble	-11.0642
West	-11.0644
▁Nepal	-11.0645
▁strategic	-11.0651
▁decrease	-11.0651
▁transportation	-11.0652
after	-11.0652
▁knee	-11.0659
▁Collins	-11.0662
▁Woman	-11.0667
▁initiated	-11.0678
▁Temp	-11.0679
▁reverse	-11.068
▁diocese	-11.0681
▁Principal	-11.0683
▁steep	-11.069
▁aimed	-11.0703
▁Franco	-11.0707
spor	-11.0708
▁extinct	-11.0712
▁originated	-11.0712
▁collective	-11.0712
▁Ambassador	-11.0714
ê	-11.0716
▁examination	-11.0717
▁surprise	-11.0718
▁specialized	-11.0721
▁Throughout	-11.0722
▁entrepreneur	-11.0728
▁prototype	-11.0736
▁regime	-11.0741
▁1855	-11.0743
▁Guardian	-11.0746
hydr	-11.0747
▁Uganda	-11.0754
standing	-11.0756
▁Wilhelm	-11.0759
▁elevated	-11.0765
▁Julie	-11.0766
▁São	-11.0767
▁participating	-11.0777
▁practical	-11.0777
▁promoting	-11.0781
▁accommodate	-11.0784
▁Slovak	-11.0784
▁tribute	-11.0787
front	-11.0789
0.9	-11.079
▁Mumbai	-11.0803
▁error	-11.0803
▁destination	-11.0804
1.8	-11.0806
▁Jonathan	-11.0806
self	-11.0806
▁beauty	-11.0812
▁Phoenix	-11.0823
▁resumed	-11.0823
tender	-11.0834
▁Protestant	-11.0835
τ	-11.0846
▁renowned	-11.0846
▁favorite	-11.0852
▁shopping	-11.0856
▁orange	-11.0858
▁Warsaw	-11.086
ør	-11.0866
▁Guild	-11.0868
ière	-11.0871
▁resolution	-11.0874
▁tropical	-11.0876
▁coordinate	-11.0878
▁icon	-11.0881
▁closure	-11.0889
▁dozen	-11.089
▁partially	-11.0894
▁understand	-11.0906
▁sitting	-11.0909
▁competitor	-11.0914
▁settle	-11.0915
▁Georg	-11.0918
▁belongs	-11.0919
▁Appeal	-11.0922
▁jurisdiction	-11.0925
▁Policy	-11.0926
▁policies	-11.0931
▁Gregory	-11.0934
▁evolution	-11.094
ī	-11.094
▁romantic	-11.094
▁baby	-11.0944
▁moderate	-11.0946
building	-11.0957
▁moral	-11.0961
ulating	-11.0968
▁Next	-11.0981
▁Institution	-11.0986
▁Manager	-11.0989
▁Azerbaijan	-11.099
▁Competition	-11.0994
▁sculptor	-11.0995
▁Provincial	-11.0997
▁interchange	-11.1001
▁Ernest	-11.1006
▁Agriculture	-11.1012
▁closing	-11.1012
▁Vegas	-11.1015
▁Jerry	-11.1017
▁emperor	-11.1018
▁everyone	-11.1019
▁donation	-11.102
▁Support	-11.1022
▁frequency	-11.1025
▁strategy	-11.1033
▁enlisted	-11.1037
▁categories	-11.1038
▁Afghanistan	-11.1042
5.5	-11.1042
▁Ground	-11.1046
▁resemble	-11.105
▁exposed	-11.1051
▁abolished	-11.1051
▁denied	-11.1059
ρ	-11.1059
▁mentor	-11.1062
▁Fellowship	-11.1064
▁Universal	-11.1066
exp	-11.1077
▁Sheffield	-11.108
▁Architect	-11.1087
▁remove	-11.1099
▁timber	-11.1104
▁stress	-11.1108
▁Contemporary	-11.1113
▁Blood	-11.1113
ovich	-11.1114
▁Oslo	-11.1114
▁dialect	-11.1122
▁conclusion	-11.1124
therapy	-11.113
▁Bryan	-11.1132
▁knew	-11.1149
trem	-11.1151
activated	-11.1155
▁legislature	-11.1158
▁Freedom	-11.116
Á	-11.1166
▁apprentice	-11.1168
▁commemorate	-11.1168
▁Bavaria	-11.1169
▁diverse	-11.1169
▁hectares	-11.1173
▁ruling	-11.1175
▁intellectual	-11.1177
▁stint	-11.1178
▁altar	-11.1196
▁gay	-11.1196
credit	-11.1196
1.0	-11.1197
▁fossil	-11.1198
▁suitable	-11.1207
▁conservative	-11.1219
▁valid	-11.1229
▁Campaign	-11.123
в	-11.1232
▁Grace	-11.1233
▁Butler	-11.1235
▁loop	-11.1236
▁Financial	-11.1236
▁signature	-11.1239
itarian	-11.1242
▁Gilbert	-11.1243
▁Nevada	-11.1246
▁Harbor	-11.1246
public	-11.1253
▁dissolved	-11.1253
▁Nature	-11.1266
▁Direct	-11.1266
▁internet	-11.127
▁arc	-11.1274
▁excellent	-11.1278
▁carrier	-11.1283
▁sketch	-11.1291
rrington	-11.1299
▁fabric	-11.1299
▁Cruz	-11.1299
▁missile	-11.1303
▁profession	-11.1304
3.3	-11.1309
•	-11.131
▁Seminary	-11.1318
▁belonging	-11.1318
▁ranging	-11.1325
▁1852	-11.1327
▁Elementary	-11.1335
▁Anglo	-11.1336
▁journalism	-11.1341
▁permission	-11.1345
▁execution	-11.1347
▁theatrical	-11.1349
conscious	-11.1355
▁emigrated	-11.1366
▁Type	-11.1369
▁bout	-11.1372
▁knots	-11.1372
▁indigenous	-11.1374
▁immediate	-11.1381
▁Otto	-11.1382
▁Giovanni	-11.1389
▁throne	-11.1391
▁Estate	-11.1401
▁mistake	-11.1416
▁confront	-11.1417
▁escort	-11.1422
François	-11.1438
released	-11.1444
▁submitted	-11.1449
▁discipline	-11.1453
▁rhythm	-11.1453
▁guilty	-11.1453
▁transmission	-11.1459
▁register	-11.1462
▁burned	-11.1467
6.5	-11.1469
▁unincorporated	-11.1474
▁Golf	-11.1484
▁1851	-11.1488
▁Ethiopia	-11.149
▁petition	-11.1492
▁coalition	-11.1494
▁battalion	-11.1496
▁torpedo	-11.15
▁Distinguished	-11.151
▁hp	-11.1514
flex	-11.1514
writing	-11.1517
▁false	-11.1522
▁alliance	-11.1522
▁wound	-11.1523
▁celebrate	-11.1533
▁helicopter	-11.1535
▁conversion	-11.1537
▁Scotia	-11.1537
▁Pedro	-11.1537
iddle	-11.1538
▁Manuel	-11.1541
▁Denver	-11.1543
▁definition	-11.1553
▁cancelled	-11.1553
▁argument	-11.156
▁Clinton	-11.1566
▁contribute	-11.157
▁Concert	-11.1572
▁Yang	-11.1572
▁oversee	-11.158
▁Philosophy	-11.159
▁hunting	-11.1598
▁stair	-11.1601
▁Slav	-11.1605
2.1	-11.1614
▁Treaty	-11.1622
▁placing	-11.1624
▁shock	-11.1626
grand	-11.163
▁Midland	-11.1635
▁Friedrich	-11.1643
▁Isabel	-11.1644
▁dense	-11.1645
▁pub	-11.1645
Chinese	-11.1646
▁supplies	-11.1653
▁Diamond	-11.1654
▁facade	-11.1654
▁extreme	-11.1655
▁voting	-11.1657
▁database	-11.1659
▁Kumar	-11.166
▁Voice	-11.167
▁dominated	-11.1683
▁Confederate	-11.1685
▁indicated	-11.1695
▁boundaries	-11.1696
▁formula	-11.1699
▁Keith	-11.1704
▁Conservation	-11.1709
▁disorder	-11.1713
▁jury	-11.1714
ienne	-11.1719
▁Milwaukee	-11.1723
▁contributor	-11.1725
▁treasure	-11.1725
▁Crime	-11.1746
▁illustration	-11.1747
trans	-11.1747
▁implementation	-11.1748
▁Further	-11.1748
▁classroom	-11.1749
▁Microsoft	-11.1753
▁Westminster	-11.1757
group	-11.1765
▁Travel	-11.1768
▁Murphy	-11.1776
▁Essex	-11.1777
chrom	-11.1777
▁Aviation	-11.1783
▁legislative	-11.1789
▁liberal	-11.1796
▁weigh	-11.1799
▁Ralph	-11.1805
▁rifle	-11.1811
2.2	-11.1814
League	-11.1818
▁Nathan	-11.1819
▁loyal	-11.1822
▁Nebraska	-11.1825
▁overseas	-11.1826
▁Bloom	-11.1831
▁vast	-11.1837
▁flew	-11.1838
▁aviation	-11.1842
▁auction	-11.1865
▁truth	-11.1866
▁prohibit	-11.1874
▁Consul	-11.1875
▁milk	-11.1876
▁Lancashire	-11.1884
▁narrative	-11.1884
▁Madison	-11.1886
sexual	-11.19
▁distinctive	-11.1902
▁Canterbury	-11.1906
▁proportion	-11.1906
▁perspective	-11.1916
▁stick	-11.192
9.5	-11.192
3.2	-11.1922
▁Byzantine	-11.1926
▁arriving	-11.1932
This	-11.1935
▁bonus	-11.1936
▁withdrew	-11.1939
▁Step	-11.194
▁colonel	-11.1953
▁Stuart	-11.1957
▁distinction	-11.1957
▁siblings	-11.1959
▁ninth	-11.1961
▁blow	-11.1965
▁convicted	-11.1965
▁discontinued	-11.1967
▁dancing	-11.1973
▁cooperation	-11.1973
▁relegation	-11.1973
chief	-11.1974
▁blind	-11.1974
▁wrestling	-11.1975
▁municipalities	-11.1981
▁sweet	-11.1988
▁index	-11.199
▁Independence	-11.1994
▁Monday	-11.1994
▁Enterprise	-11.2006
▁dimension	-11.2006
▁Flower	-11.201
▁Micro	-11.2015
▁burial	-11.2019
3.1	-11.2023
▁lyric	-11.2024
▁Circuit	-11.2025
▁banned	-11.2026
▁enterprise	-11.2035
1.9	-11.2037
Elect	-11.2043
▁Planet	-11.2046
▁tissue	-11.2048
▁dismissed	-11.2049
national	-11.2061
▁Quarter	-11.2066
▁Physics	-11.207
▁Laboratory	-11.2073
▁hamlet	-11.2076
▁Origin	-11.2089
▁imprisoned	-11.2093
▁accompany	-11.2093
▁Dennis	-11.2094
▁Buenos	-11.2095
▁gym	-11.2102
▁Archive	-11.2103
figur	-11.2105
▁Durham	-11.2111
▁superior	-11.2114
▁hyper	-11.2116
▁survivor	-11.2118
▁electricity	-11.2124
▁Arnold	-11.2128
▁flank	-11.2131
▁describing	-11.2134
2.8	-11.2135
▁saint	-11.2135
▁Abraham	-11.2136
▁widespread	-11.2147
▁loose	-11.2154
▁councillor	-11.2157
▁deployed	-11.2157
▁freight	-11.2157
▁Sabha	-11.2164
▁raising	-11.2165
▁Watson	-11.2168
▁División	-11.217
▁Multi	-11.217
▁Future	-11.2171
▁destruction	-11.2182
issue	-11.2183
▁Sym	-11.2187
witch	-11.2189
▁lord	-11.2191
▁rebounds	-11.2191
▁Latvia	-11.2203
▁wealth	-11.2203
▁Anglican	-11.2207
▁Lebanon	-11.2211
▁administrator	-11.2214
▁underwent	-11.2222
▁laboratory	-11.2225
▁Joint	-11.2226
▁kilo	-11.2228
▁trend	-11.2231
▁crystal	-11.2231
▁whorl	-11.2232
dependent	-11.2234
▁identical	-11.2235
▁ongoing	-11.2235
▁basin	-11.224
▁Brunswick	-11.2241
▁labour	-11.2241
▁emphasis	-11.2243
▁industries	-11.2245
▁Wheel	-11.2249
▁certified	-11.2253
▁interpretation	-11.2256
▁boot	-11.2259
▁cathedral	-11.2268
▁yield	-11.2268
▁observe	-11.2269
▁consequence	-11.227
▁supplement	-11.227
south	-11.2272
▁kidnap	-11.2277
▁Oscar	-11.2277
▁preserve	-11.2286
▁pump	-11.2288
▁Brussels	-11.2291
▁wicket	-11.2296
▁Adventure	-11.2319
▁Leicester	-11.2319
▁Municipality	-11.2328
▁finger	-11.2331
▁discharge	-11.2346
▁Blanc	-11.2349
▁Prefecture	-11.2351
▁renovated	-11.2353
▁Nottingham	-11.2355
▁Folk	-11.2359
▁excess	-11.2364
▁Jefferson	-11.2366
▁annex	-11.238
▁Kerala	-11.2381
▁disaster	-11.2387
▁Shakespeare	-11.2393
▁tributary	-11.2393
▁corps	-11.2394
▁compiled	-11.2398
keeper	-11.2406
▁departed	-11.2406
▁lessons	-11.2407
▁animated	-11.2417
▁fortune	-11.2418
child	-11.2421
▁eligible	-11.2425
▁else	-11.2428
▁Storm	-11.243
▁engagement	-11.2431
▁Private	-11.2438
▁Yugoslavia	-11.2444
▁costume	-11.2454
scape	-11.2464
Russian	-11.2467
▁interface	-11.2475
▁jewel	-11.2476
▁prepare	-11.2481
court	-11.2484
▁Krishna	-11.249
▁Harvey	-11.249
▁odd	-11.2493
▁fifty	-11.2498
▁radical	-11.2501
▁Sierra	-11.2503
2.3	-11.2508
▁gauge	-11.2511
titled	-11.2521
▁Ellis	-11.2524
▁Sheriff	-11.2537
▁Bulgaria	-11.2539
▁Beginning	-11.2539
▁elsewhere	-11.2544
▁extent	-11.2546
oriented	-11.2554
▁Benedict	-11.2557
▁Macedonia	-11.2559
▁plastic	-11.2565
▁Bosnia	-11.2565
0.7	-11.2567
▁Photo	-11.2581
▁ruins	-11.2582
▁Ahmed	-11.2589
▁Artillery	-11.2594
graduate	-11.2594
▁framework	-11.2595
formerly	-11.2597
▁analog	-11.2598
▁Montgomery	-11.2611
▁Bradford	-11.2621
▁Grammar	-11.2622
▁strange	-11.2623
▁exploit	-11.2633
▁artillery	-11.2653
▁Adult	-11.2653
▁mosque	-11.2656
▁Argentine	-11.2657
▁McKe	-11.2666
▁random	-11.2667
▁Pearl	-11.2672
▁Besides	-11.2674
▁Google	-11.2679
▁exceed	-11.2682
▁Bobby	-11.2683
▁cloud	-11.2683
▁Isaac	-11.269
▁prayer	-11.2692
▁dorsal	-11.2693
▁embark	-11.2695
▁recognize	-11.2703
▁0.5	-11.2703
▁Columbus	-11.2703
▁Somerset	-11.271
▁dangerous	-11.2714
▁Franz	-11.2727
▁Napoleon	-11.2727
▁usual	-11.2733
▁releasing	-11.2745
▁Panama	-11.2752
▁Relations	-11.2762
▁utilize	-11.2769
▁Surrey	-11.2783
▁stab	-11.2802
▁horror	-11.2803
▁Eddie	-11.2808
▁Partners	-11.2808
▁Cornwall	-11.2809
▁chorus	-11.281
▁asteroid	-11.2814
2.6	-11.2816
▁reservoir	-11.2829
▁wore	-11.2836
▁breast	-11.2839
▁tight	-11.2841
▁Sussex	-11.2845
▁contributing	-11.2858
▁define	-11.2858
▁psychology	-11.2859
▁Raymond	-11.286
▁commitment	-11.2863
school	-11.2871
▁awareness	-11.2874
▁rice	-11.2876
▁adjust	-11.2876
▁abstract	-11.2879
▁0.3	-11.288
▁Delaware	-11.2881
▁taste	-11.2884
▁surgeon	-11.2888
▁configuration	-11.2901
▁refuse	-11.2908
▁archaeological	-11.2928
▁certificate	-11.2928
▁preferred	-11.2928
▁Sparta	-11.293
▁brigade	-11.293
▁voyage	-11.293
▁Formula	-11.2938
▁Writing	-11.2944
▁introduce	-11.2944
language	-11.2945
▁gross	-11.2945
▁diesel	-11.2947
▁robot	-11.2954
▁particle	-11.2957
▁Arabia	-11.2959
▁companion	-11.296
▁supplied	-11.2969
▁violent	-11.2969
▁Reading	-11.2974
▁Visit	-11.2975
▁Kingston	-11.2976
▁decoration	-11.2978
▁circumstances	-11.2984
▁pounds	-11.2985
▁Gloucester	-11.2989
▁accurate	-11.2998
▁consecrated	-11.2998
▁Architecture	-11.3
▁Machine	-11.3001
▁Boulevard	-11.3009
▁Frankfurt	-11.3009
▁favourite	-11.302
▁Gothic	-11.3023
▁alien	-11.3029
▁Mathematics	-11.303
▁biography	-11.3033
▁Conservatory	-11.3041
▁Protection	-11.3057
▁isolated	-11.3062
▁Edmund	-11.3078
▁Interstate	-11.308
▁quick	-11.3082
▁Presbyterian	-11.3084
▁Jacques	-11.3087
▁ancestor	-11.3087
▁facilitate	-11.3089
▁valuable	-11.3091
▁bottle	-11.3096
▁coffee	-11.3096
▁Teacher	-11.3117
▁artificial	-11.3121
▁Buddhist	-11.3123
▁shoe	-11.3133
▁inventor	-11.3136
8.5	-11.314
▁animation	-11.314
▁reinforce	-11.3142
▁adapt	-11.3143
▁Bennett	-11.3149
▁flash	-11.3149
▁Maurice	-11.316
▁imperial	-11.316
world	-11.3164
▁hidden	-11.3172
▁sequel	-11.3176
▁girlfriend	-11.3186
▁queen	-11.3187
▁happy	-11.3188
▁Davies	-11.3188
▁Stakes	-11.32
▁audition	-11.32
▁combine	-11.3202
▁comprehensive	-11.3206
▁Palestine	-11.3211
▁fasci	-11.3219
ław	-11.3221
▁acoustic	-11.323
4.3	-11.3234
▁muscle	-11.3234
▁evolved	-11.3237
▁Spencer	-11.3246
▁Wallace	-11.3254
production	-11.3266
▁exterior	-11.3278
ñ	-11.3292
▁Movie	-11.3293
▁Legend	-11.3298
▁rabbi	-11.3299
▁acknowledge	-11.3304
▁skate	-11.3311
▁Herald	-11.3311
▁Amazon	-11.3314
▁Outstanding	-11.3316
▁Electronic	-11.3318
▁comfort	-11.3326
written	-11.3328
▁Similar	-11.333
▁Graduate	-11.3332
▁interrupt	-11.3342
▁atmosphere	-11.3353
▁incorporate	-11.3363
▁intersect	-11.3382
▁Flying	-11.3383
▁Legion	-11.3391
▁Worcester	-11.3396
▁Diploma	-11.3398
second	-11.3402
▁Naples	-11.3404
▁regain	-11.3411
▁possibility	-11.3417
▁temporarily	-11.3417
▁Allied	-11.3419
▁Intelligence	-11.3422
▁Tommy	-11.3438
▁Manitoba	-11.3441
▁Olympia	-11.3448
▁entertain	-11.3453
▁jet	-11.3454
▁inaugurated	-11.3455
▁surname	-11.346
▁teeth	-11.3462
▁distinguish	-11.3462
▁referee	-11.3467
▁quit	-11.3467
▁mixture	-11.3469
▁Lutheran	-11.3474
▁Renaissance	-11.3486
▁Rapid	-11.3503
▁Publishing	-11.3505
▁battery	-11.351
▁comparison	-11.3514
▁impressive	-11.3519
▁Aberdeen	-11.3524
▁furniture	-11.3529
▁waived	-11.3533
▁Bedford	-11.3534
▁André	-11.3538
▁Performance	-11.3543
▁memoir	-11.3543
▁Thunder	-11.3547
1⁄2	-11.3549
▁Uruguay	-11.355
▁significance	-11.355
▁neither	-11.3553
▁unanimous	-11.3557
▁structural	-11.356
▁empty	-11.356
▁exposure	-11.3567
▁shallow	-11.3567
▁confused	-11.3579
▁Nacional	-11.3581
▁expensive	-11.3589
▁Gustav	-11.3593
▁creek	-11.3602
▁Scientific	-11.3615
▁lawsuit	-11.3615
▁radar	-11.3622
▁welcome	-11.3625
▁dialogue	-11.3627
▁Election	-11.3632
▁Volunteer	-11.3637
▁confess	-11.3637
▁territories	-11.3644
▁Nikola	-11.3644
ordination	-11.3649
▁Slovenia	-11.3654
▁shrub	-11.3656
▁mutual	-11.3659
▁worn	-11.3659
▁Lithuania	-11.3666
▁dominant	-11.3668
▁predominantly	-11.3671
3.9	-11.3675
▁Legislature	-11.3683
▁marble	-11.3685
▁Lodge	-11.3696
▁Stefan	-11.3699
▁Simpson	-11.3702
produced	-11.3703
hausen	-11.3708
▁Manila	-11.3715
▁doubt	-11.3717
▁revival	-11.3719
titution	-11.3723
▁Number	-11.3727
▁estimate	-11.3733
▁referring	-11.3733
general	-11.3736
▁telephone	-11.3742
▁Explo	-11.3747
▁Cliff	-11.3752
▁Cameron	-11.3754
▁curriculum	-11.3763
▁Academic	-11.3763
▁width	-11.3763
▁circulation	-11.378
▁Ferdinand	-11.3785
▁Cabinet	-11.3788
▁autumn	-11.3795
▁Cardiff	-11.3803
▁Chronicle	-11.381
▁Hopkins	-11.381
▁usage	-11.382
▁zoo	-11.3834
▁Therefore	-11.3849
▁Double	-11.3859
▁suppress	-11.3861
4.6	-11.3862
▁algebra	-11.3869
▁guidance	-11.3869
▁afternoon	-11.3869
▁Study	-11.3869
▁encompass	-11.3874
▁Pleas	-11.3885
▁argue	-11.389
▁naming	-11.3903
▁Halifax	-11.3909
▁Cecil	-11.3924
▁Course	-11.3924
▁Tasmania	-11.3931
2.9	-11.3934
▁cotton	-11.3935
▁Saskatchewan	-11.3936
▁apparent	-11.3954
▁Dominican	-11.3961
▁ritual	-11.3961
▁fundamental	-11.3966
▁citing	-11.3973
▁educator	-11.3976
▁Edmonton	-11.3978
▁communist	-11.3983
4.8	-11.3993
▁equation	-11.3999
▁Expedition	-11.4005
▁goalkeeper	-11.401
▁technologies	-11.4014
president	-11.4016
▁efficient	-11.4016
▁relating	-11.4027
▁resolve	-11.4027
▁hide	-11.4035
▁poison	-11.406
▁enemies	-11.4064
▁excavation	-11.4069
3.6	-11.4071
published	-11.4074
▁Belfast	-11.4076
▁Episcopal	-11.4081
▁Speaker	-11.4082
▁Solomon	-11.4082
▁Gospel	-11.4082
▁relevant	-11.4089
▁renewed	-11.4094
▁Giants	-11.4111
▁scandal	-11.4112
▁Revival	-11.4114
white	-11.4118
bourne	-11.4119
4.1	-11.4122
▁circular	-11.4125
▁engage	-11.4134
cultural	-11.4139
▁condemn	-11.414
▁admission	-11.4141
▁protagonist	-11.4142
▁revised	-11.4143
▁showcase	-11.4149
▁persuade	-11.4158
▁Algeria	-11.4167
▁measuring	-11.4173
▁confirm	-11.4175
▁horizontal	-11.4175
▁Wildlife	-11.4178
▁Ludwig	-11.418
▁sensor	-11.4194
▁Santiago	-11.4196
▁expense	-11.4204
▁Henderson	-11.4206
▁Curtis	-11.4212
▁conjunction	-11.4214
▁Vladimir	-11.4216
▁shrine	-11.4227
▁Calgary	-11.4234
▁motorcycle	-11.4242
▁Wonder	-11.4256
▁ghost	-11.4268
▁kitchen	-11.427
4.0	-11.4272
▁reconstruction	-11.4275
▁Facebook	-11.4278
▁substance	-11.4281
▁Valentin	-11.4281
▁complement	-11.4283
▁neighbourhood	-11.4297
▁Sweet	-11.4301
▁innovation	-11.4314
5.6	-11.4324
▁limestone	-11.4327
▁Salvador	-11.4343
▁danger	-11.4348
3.4	-11.4348
▁Belgrade	-11.435
▁Comedy	-11.4362
▁Leipzig	-11.4368
▁suspension	-11.4368
▁fuselage	-11.4371
▁Furthermore	-11.4377
3.8	-11.4382
▁vegetation	-11.4384
▁creature	-11.4391
▁calendar	-11.4408
▁molecule	-11.4408
▁ornament	-11.4421
▁uncertain	-11.4426
▁siege	-11.4431
▁hind	-11.4432
▁Citizen	-11.4442
▁drove	-11.4444
▁Constant	-11.4458
▁Wrestling	-11.4468
▁occupy	-11.4468
▁shield	-11.4473
▁ordinary	-11.4473
▁(0.2	-11.448
▁mathematical	-11.4484
▁nominee	-11.4484
▁Albany	-11.4489
▁transaction	-11.4497
⁄	-11.4506
▁absolute	-11.451
▁fantasy	-11.4523
▁Agricultural	-11.4526
▁Sullivan	-11.4526
▁Official	-11.4526
▁assert	-11.4534
▁Miguel	-11.4539
▁demonstration	-11.4542
▁Poetry	-11.4542
▁snake	-11.455
▁cliff	-11.4553
▁(0.1	-11.4557
▁grandmother	-11.4557
▁plaque	-11.4558
▁fulfill	-11.456
▁indicating	-11.456
▁deemed	-11.4561
▁Marathon	-11.4565
▁Gerald	-11.4572
▁Apollo	-11.4576
▁invitation	-11.4577
▁Armstrong	-11.4584
▁decree	-11.4585
▁Gibson	-11.4587
▁inhibit	-11.4595
▁portfolio	-11.4597
▁irregular	-11.4597
▁carriage	-11.4603
▁nautical	-11.4605
▁philosopher	-11.4616
▁familiar	-11.4624
dimensional	-11.4629
▁Female	-11.463
▁blend	-11.463
▁wake	-11.4634
▁Animal	-11.4646
▁reopened	-11.4651
▁impressed	-11.4656
▁virus	-11.4668
▁intermediate	-11.4677
▁convoy	-11.4683
▁Cyprus	-11.4685
4.9	-11.4688
▁Brighton	-11.4704
▁automobile	-11.4707
▁volleyball	-11.4712
▁Airlines	-11.4713
▁NASA	-11.4715
▁Mobile	-11.4715
É	-11.4719
▁Hurricane	-11.4723
▁Universe	-11.473
▁Portsmouth	-11.4734
▁mysterious	-11.4737
▁conversation	-11.4737
▁Belarus	-11.4737
▁removal	-11.4737
▁Tradition	-11.4739
▁Ronald	-11.4751
▁victories	-11.4766
▁Plymouth	-11.4766
▁Congregation	-11.4774
▁Treasure	-11.478
▁Desert	-11.478
▁statistics	-11.4783
▁employer	-11.4785
built	-11.4786
▁Memphis	-11.4788
6.1	-11.4789
▁Progressive	-11.4793
▁comprising	-11.4815
▁advertisement	-11.4818
▁Czechoslovak	-11.4829
wrote	-11.4829
▁Evangeli	-11.4831
▁Vijay	-11.4833
▁clergy	-11.4837
▁Yellow	-11.4837
▁translator	-11.4842
▁acquire	-11.4854
▁Where	-11.487
▁millimetres	-11.4881
South	-11.4885
▁silent	-11.4886
▁Grammy	-11.4892
▁Patriot	-11.4901
▁zero	-11.4905
▁Windsor	-11.4923
▁hybrid	-11.493
▁wildlife	-11.493
▁Paralympic	-11.4941
▁Istanbul	-11.4944
▁molecular	-11.4946
▁Indianapolis	-11.4955
▁module	-11.4955
▁Fernando	-11.4957
▁IBM	-11.4959
▁Shield	-11.4966
▁dissertation	-11.4968
▁exploration	-11.4982
▁explosion	-11.4985
▁universal	-11.4988
▁Investment	-11.4988
▁Exhibition	-11.4991
▁senator	-11.4991
▁kids	-11.5001
▁coincide	-11.5002
▁rectangular	-11.501
6.3	-11.5013
7.6	-11.5017
▁comedian	-11.5019
▁retire	-11.5024
Institut	-11.5031
▁pursuit	-11.5035
▁Carnegie	-11.5041
5.9	-11.5045
▁Zhang	-11.5066
5.1	-11.5069
▁enthusiast	-11.5074
▁Chemistry	-11.508
▁bicycle	-11.508
▁innovative	-11.5082
ов	-11.5094
▁regulate	-11.5103
▁diagnosed	-11.5105
▁Philharmonic	-11.511
▁granite	-11.5113
▁Amateur	-11.5119
▁wreck	-11.513
▁Rhine	-11.513
▁peninsula	-11.5136
▁disturb	-11.5141
4.4	-11.5149
▁libraries	-11.515
▁Ahmad	-11.515
▁rookie	-11.5161
6.4	-11.5163
▁terrorist	-11.5169
▁beneath	-11.5175
▁Winnipeg	-11.5178
▁licence	-11.5178
▁magnitude	-11.5181
▁Monument	-11.5181
▁fixture	-11.52
▁governed	-11.52
▁Lancaster	-11.5209
▁Harbour	-11.5213
▁Jesuit	-11.5214
▁enzyme	-11.5217
4.2	-11.5231
▁Morocco	-11.5246
▁Chapter	-11.5251
▁array	-11.5256
▁accommodation	-11.5257
▁mirror	-11.5268
▁ceiling	-11.528
▁Julius	-11.5283
▁bacteria	-11.5294
▁fiscal	-11.5295
▁resided	-11.5295
▁receptor	-11.5305
▁registration	-11.532
▁militia	-11.5334
▁vicinity	-11.534
▁divide	-11.5341
▁vegetable	-11.5343
▁Luxembourg	-11.5348
▁rebellion	-11.5348
▁Budapest	-11.536
7.9	-11.5362
▁elite	-11.537
Brien	-11.5373
▁playwright	-11.5377
▁routine	-11.5377
▁Excellence	-11.538
▁emerging	-11.538
5.0	-11.538
▁Dodge	-11.5405
▁Interior	-11.5412
▁submerged	-11.5414
▁precise	-11.542
▁Counsel	-11.5438
▁ibn	-11.5441
▁Somali	-11.5447
▁borrow	-11.5449
▁Observatory	-11.5455
▁mandate	-11.5456
5.3	-11.5456
#	-11.5461
▁Superior	-11.5467
▁nineteenth	-11.5469
▁guarantee	-11.5472
▁governing	-11.5487
▁Rifle	-11.549
▁preservation	-11.5493
▁terrain	-11.5501
▁Wednesday	-11.5504
▁elaborate	-11.551
▁improving	-11.551
▁Insurance	-11.5519
▁syndrome	-11.5525
▁protocol	-11.5525
▁mammal	-11.5528
▁undertook	-11.5531
▁pregnant	-11.5536
▁reducing	-11.5537
▁quiet	-11.5537
▁Canyon	-11.5543
▁sediment	-11.5557
▁maternal	-11.5566
▁expelled	-11.5569
▁recurring	-11.5572
English	-11.5585
▁Chemical	-11.5586
▁Idaho	-11.5586
▁Heavy	-11.5587
▁Chelsea	-11.5595
▁sophomore	-11.5598
▁monarch	-11.5598
▁Heinrich	-11.5598
▁abbey	-11.5598
▁nitr	-11.56
▁Twenty	-11.5607
▁Zimbabwe	-11.5613
first	-11.5616
▁calculate	-11.5616
▁Gujarat	-11.5627
▁romance	-11.5628
▁Inspector	-11.5628
▁Colonial	-11.5648
▁Eugene	-11.5657
▁imprisonment	-11.566
▁Factory	-11.5663
▁Clinic	-11.5678
▁vacant	-11.5684
▁filter	-11.5693
▁Ultimate	-11.5695
▁assume	-11.5696
▁worst	-11.5699
▁behaviour	-11.5701
▁barrier	-11.5708
▁terminated	-11.571
▁dinner	-11.5711
5.8	-11.5728
▁ESPN	-11.5737
▁Literary	-11.5737
▁Reynolds	-11.574
▁Commercial	-11.5743
▁Roosevelt	-11.5752
connect	-11.5762
▁Palestinian	-11.577
▁ultra	-11.5784
▁palm	-11.5785
August	-11.5786
aceae	-11.5805
▁abandon	-11.5805
▁neutral	-11.5818
▁derives	-11.5821
9.8	-11.5827
▁dubbed	-11.583
▁mathematician	-11.5833
▁integration	-11.5842
▁theoretical	-11.5845
▁consumption	-11.5851
▁revived	-11.5872
▁Achievement	-11.589
▁obvious	-11.5896
▁twist	-11.5902
▁Siege	-11.5903
▁cottage	-11.5915
▁Cairo	-11.5916
electric	-11.5932
▁membrane	-11.5933
▁impossible	-11.5939
▁literally	-11.5945
▁revenge	-11.5948
▁streak	-11.5951
▁Aviv	-11.5961
▁Hindi	-11.5962
▁Klein	-11.5962
▁unexpected	-11.5966
▁Southampton	-11.5994
“	-11.86
ć	-11.9821
ã	-12.3344
‘	-12.4239
£	-13.2088
